/**
  ******************************************************************************
  * @file    combination_data_params.c
  * @author  AST Embedded Analytics Research Platform
  * @date    Tue Aug 22 21:45:12 2023
  * @brief   AI Tool Automatic Code Generator for Embedded NN computing
  ******************************************************************************
  * Copyright (c) 2023 STMicroelectronics.
  * All rights reserved.
  *
  * This software is licensed under terms that can be found in the LICENSE file
  * in the root directory of this software component.
  * If no LICENSE file comes with this software, it is provided AS-IS.
  ******************************************************************************
  */

#include "combination_data_params.h"


/**  Activations Section  ****************************************************/
ai_handle g_combination_activations_table[1 + 2] = {
  AI_HANDLE_PTR(AI_MAGIC_MARKER),
  AI_HANDLE_PTR(NULL),
  AI_HANDLE_PTR(AI_MAGIC_MARKER),
};




/**  Weights Section  ********************************************************/
AI_ALIGNED(32)
const ai_u64 s_combination_input_4_bias_array_u64[32] = {
  0x3eb6c14ec00a871aU, 0x3f92dadabf8770d8U, 0xbe774018bfaba636U, 0xc00568fd3fe228f6U,
  0xbffcdec73ea01f4bU, 0x3e92758ebf9b281aU, 0xbf8332e8be87d190U, 0xbf90ce8c3f9cd539U,
  0xbfc489e33ed691a0U, 0xbf6f7eca3fa92b20U, 0xbfe51ed43e9f5ad6U, 0x3f554af13fb415d4U,
  0xc019ef1a3ebcc7c2U, 0xbf148acf3e6e6527U, 0x3ed52fc040277aafU, 0xbf93da193fa25757U,
  0xbe218df63efaff0cU, 0x402aee8740811454U, 0x3ec69f68be75601dU, 0x3d08e4f0bff9574cU,
  0xbff405f2be82a7c2U, 0x3deb4a9c40102e11U, 0xbfec133e3eacc6bdU, 0x3dbd5445c0458930U,
  0xbf90ef0f3f956dc1U, 0xbdbc58eb3e3eb856U, 0x3fe8b6bb3f97ee58U, 0x3e922f9dbfef283cU,
  0x3fc69830bf80e691U, 0xbf858d3cbf9f6e31U, 0xc000fec53f1b32c1U, 0x3faca128400835d2U,
};

AI_ALIGNED(32)
const ai_u64 s_combination_input_12_weights_array_u64[6144] = {
  0xbd7f03dabd39b752U, 0xbb435832bc8ad558U, 0xbcbaec4abbb1c51aU, 0x3c8ada7e3c7a8692U,
  0xbccce06ebd522205U, 0xbe264d853ce58b45U, 0x3ba8d8ad3d3105daU, 0xbd154d2e3a8af298U,
  0x3c3f14663db623f0U, 0x3d70f09e3c833dacU, 0x3ccbb99cbc3cdc53U, 0x3d506778bda81ba9U,
  0xbe26b7d1bdeb6335U, 0xbd8587fe3b20b4ffU, 0xbd7917d53d5e7dc8U, 0x3d6176433c8f5748U,
  0x3d117e90bde8c917U, 0xbcb4860d3db0782fU, 0xbd40727dbd161e7fU, 0x3cbce432bd8eb99eU,
  0x3c4acbe6bd0abd97U, 0xbbfdbee63ba7ceacU, 0x3d4a7582bba42281U, 0xbdb888d0be076210U,
  0xbd15aaf5bbdb7252U, 0xbbb5afb83d3b18f5U, 0x3c978ef83cf92dc1U, 0x3bfa4370bdfd3ba5U,
  0xbca2ea1abdb6b3f1U, 0xbd18f7d0bd77c26dU, 0xbdc16e133de6c118U, 0x3d2169023bd83d2fU,
  0xbda20df7bdfdbf77U, 0xbd259016bc3bc76aU, 0x3a894f11bc132f16U, 0x3cc372dcbd41acc0U,
  0xbd521487bd47a478U, 0xbdd67a03bc8569b9U, 0x3cad65843cd5fe76U, 0xbb7ea8743b618c64U,
  0x3ca69bffbc8c88f0U, 0x3cb22e85bd239185U, 0xbd301e50bce0e234U, 0xb95117703c86c6f5U,
  0xbdc4c4b9bdd14689U, 0x3d4c879fbd81f3b7U, 0xbdca21973e05b5f8U, 0x3da20eee3d0df2bdU,
  0x3d85be5bbd889ec5U, 0x3b9b56da3e034ac5U, 0xbd800b763d5c8fe4U, 0x3cb4d98ebd5466faU,
  0xbd0951bebbf7131cU, 0x3d0bf139bd8202d9U, 0x3c81f2263d58dd10U, 0xbe04499bbddf5845U,
  0xbc87280cbd03926cU, 0x3d4687d63d104351U, 0x3bc601e23d76e5cbU, 0x3c9cf182bbd08112U,
  0x3de8655ebd0c0fd9U, 0xbc511489bd09316fU, 0xbb0aa3a03d493756U, 0xbb91e6d03cf128faU,
  0xbd2c237bbde4603eU, 0x3b771fc2bc30a153U, 0xbd44bc10bd33cc4dU, 0x3dda5b70bd33586eU,
  0x3d496830bceeba61U, 0x3d095d293cfa62cdU, 0x3bec6809bc36ec25U, 0x3e0160ecbdc2823fU,
  0x3c0ea4d03c948bbfU, 0x3bdf979fbb50ccb1U, 0x3d53bcbbbc921c4aU, 0x3ddcfa9e3bbe4ba9U,
  0xbcd1fc64bd9de3faU, 0x3d062398bdc32aa3U, 0x3da5d0473e232db6U, 0x3db629c83d0d2cb4U,
  0x3da11a39bcb5d7f2U, 0xbcf9fc8c3d90cb0fU, 0xbca16a243d230366U, 0x3cdcbc27bd6eeb80U,
  0xbc3fdabb3cb9e0f4U, 0x3d943536bd8f2d82U, 0x3d6721163d80e9ceU, 0xbd19e882be270a0bU,
  0x3d7ba6093c40b72fU, 0x3d9a59a73dba3d34U, 0x3c1d8b593da29926U, 0x3c2328793caa6c3dU,
  0x3de8517d3d7a9542U, 0xbda6b60dbdadd81fU, 0xbd851ec7bd2e0edaU, 0xbd782c9e3dbbe559U,
  0xbceae33f3c3aaa85U, 0xbda69eef3d0dbc0dU, 0xbdd80a543dc974a2U, 0xbcf8ce0a3d4439f6U,
  0xbd4e576f3d1ae476U, 0xbe10dfb9bd09a613U, 0xbb952109bcf181ceU, 0xbd37ce713d027815U,
  0x3a8832bfbd706338U, 0xbd600dc53ce13eb6U, 0xbc72e7633d23378dU, 0x3db38127bc3b21abU,
  0xbe289ababd41ad76U, 0xbd4387a23d6a44a1U, 0x3dabd1bcbda12a1cU, 0xbc6947243cbde214U,
  0xbd1835053db2f6ebU, 0xbc76bc5ebc50a16eU, 0xbd66ac9ebd0740b6U, 0xbd8cea3ebd47cab9U,
  0xbcdd8576bafacbe7U, 0x3dae20053dc76fadU, 0xbc8092fabd8a4188U, 0xbc63c355bda65e29U,
  0x3c81ac95bd84afa2U, 0xbc78f4163c1f2a82U, 0xbd7eee4e3da9f9a8U, 0xbce764c1bd831428U,
  0xbd70b790bd1f6621U, 0x3c7886163cad0d18U, 0x3d14ab7f3d1d9ef3U, 0x3d5acb643d461cd7U,
  0x3d1f5dba3d11e4a2U, 0xbc94df84bc4ead06U, 0xbddaa8243e0414b9U, 0x3da938b23d942ff0U,
  0x3cf385973d64916dU, 0xbd83fd3c3d96c026U, 0x3cdf9b923c5741acU, 0x3c565439bd6782fdU,
  0xbc8b3a0ebe05c95eU, 0xbdd6c5c73d1fe990U, 0x3da9403c3d970f47U, 0x3d3fd94ebcac856fU,
  0xbda7d3b13c0cdb2bU, 0xbd5d9c3c3be9acb3U, 0xbd41ac4e3ba31570U, 0x3d29f8d5bd2ee97bU,
  0x3d0014113d59f40eU, 0x3d028f233d52f53eU, 0xbc8929adbd3ae1a5U, 0xbd0268e43d063e8eU,
  0xbce2ebd1bd034bbfU, 0x3de369853d6b4936U, 0xbca4024fbd83b2a9U, 0xbcbbce91bd0d8797U,
  0x3c232fb73d4944b5U, 0x3dae339ebcf78bd6U, 0xbd89ac8dbcacac90U, 0xbcdbacddbc459119U,
  0x3cfea0f33ccac673U, 0x3caa157d3dc8e87aU, 0x3d53a4a33d2a5fc6U, 0xbcd6e864bd696c54U,
  0xbd6232d63dd99f23U, 0xbd5fda653d8f4147U, 0xbd3572103df1e30cU, 0x3da7bd8a3ddf1a79U,
  0x3d19fc52bd1d0390U, 0xbd8161c93c693029U, 0x3d8a9e253d657ed4U, 0x3d8a5c71bd3a619cU,
  0x3da1a9d7be04069fU, 0xbd097d03bdc0a769U, 0xbcff1e163c7ba0fbU, 0x3d2a157ebdb7ed6fU,
  0xbce46a21bbaef1eeU, 0xbcbf2c10bc5035cfU, 0xbdb5bb79bd8b69afU, 0xbd82dc5a3cec26d4U,
  0x3cd07e9c3d62de47U, 0x3c4c79403d082fa8U, 0xbdbf7a953d815de6U, 0x3cbf6131bc77d038U,
  0x3d0478b8bc0350bbU, 0x3d935d863cb84520U, 0x3c0e6a91bc0090d0U, 0x3d0a9161bd3c01a4U,
  0xbd76c0e23d91b53fU, 0x3d81a2f13b01aa5cU, 0xbd608be33c4f15a5U, 0x3d2fa7ce3d018c48U,
  0xbd14e9ebbd02ee1cU, 0x3cd42b7e3e21f8b9U, 0x3d8036213cb3a19cU, 0x3d10f56b3d035b8bU,
  0x3d7858a53dd52563U, 0xbdc216be3d822508U, 0xbe10dcbc3ccf3196U, 0x3d3d10813cd1d6a8U,
  0xbd7d717c3d0466b0U, 0xbdafa4453beead8cU, 0x3d43f3c3bda2df95U, 0xbc5e9990bdcb4223U,
  0xbcb4573e3da97696U, 0xbe0671643ca2a2d1U, 0xbd0d277b3cd9f229U, 0x3d958d57bc0c5a5eU,
  0xbdc2dbe0be07d72eU, 0xbe174c0bbda30fadU, 0xbdbcaa66bcd7b469U, 0xbcaec7033decf349U,
  0xbda775223d1a46e3U, 0xb9372484bcf5ae5eU, 0xbe036df33b482456U, 0xbd386f02bd4381dcU,
  0xbaf5a76dbcea3f40U, 0x3da96750bb9b76f0U, 0x3c5958f53da57cdaU, 0xbd98b9d6bd4d4e21U,
  0xbda663c93cf3c9a4U, 0xbbec0f0bbc20ea59U, 0xbd889d6d3d1c3305U, 0xbd4512a53d028382U,
  0xbd181408bd6b9a07U, 0x3d56c7dd3d05c392U, 0xbddf78713cf417e6U, 0xbd04e4023d887947U,
  0x3ca4b45cbc965442U, 0xbdb92d453d3f9f4dU, 0xbde8cbb1bd411ffdU, 0x3d8b91e0bd63afa0U,
  0x3c849b703ca0ffbaU, 0xbc82ff8c3c3bca80U, 0xbda1d48bbd7df031U, 0x3de381debdf7065fU,
  0xbcd65ca9bce9281eU, 0xbdfb51ff3cda35bcU, 0xbc19b0afbd7fba7fU, 0x3d48d6c63c5d974aU,
  0xbe0bc419bd2b3539U, 0xbdb06538bc9131cbU, 0xbdf4dedd3dfb3c33U, 0x3d017f6e3dcb768fU,
  0x3d1bd475bdd33abaU, 0xbd327b60bd917c95U, 0xbe39959e3d7003f9U, 0xbd358feabcd9bb0bU,
  0xbcb2eb9fbca73298U, 0xbd1cab213d26fe25U, 0x3d985b923d474a41U, 0xbdb6a08cbd587253U,
  0xbd16f5c53d48d85cU, 0x3c05a12b3cfa91e3U, 0xbd97ea1d3d80161eU, 0xbe0d8731ba5ad854U,
  0xbbb99c83bdee03baU, 0x3dccb7903cbdb44eU, 0xbd37179dbde2e3faU, 0xbdae109a3cc56dffU,
  0x3d99c8033d8860d5U, 0x3ce0a3383c8ff359U, 0xbd8994823bcf5a84U, 0x3d4c6ee3bb6a117bU,
  0x3baf2ce6bd0eab8cU, 0xbcdf1525bda9336bU, 0xbd0374ae3d857e98U, 0x3d85f34ebdac518fU,
  0x3cf05ff23d4994f7U, 0xbe110ea53cdcca1aU, 0x3e1268cf3da69302U, 0xbd463b84bb5fbb95U,
  0x3c885036bcb0be93U, 0xbc7a856f3da8120fU, 0x3d4077273e5b08f7U, 0x3d77d1dfbb9eda99U,
  0x3d1f1b6abd072b4aU, 0x3d1a09e9bd8b828dU, 0xbd83d2fd3d872c25U, 0xbbacdf9f3da93570U,
  0x3d86b6e83d6ae6a9U, 0x3d33e752bd3f5945U, 0x3d727c13bd7b9cedU, 0xbd8c388cbd4cb000U,
  0xbbadbe203d724206U, 0xbccf7ba93e1f48c8U, 0x3da8affb3d9c5bfcU, 0xbdf335e7bc742762U,
  0xbda849a0bce8d995U, 0x3d3fcb2bbc6ebafeU, 0x3d936ab2bdf69abeU, 0xbda559d73d9fc272U,
  0xbde138c8bde791b2U, 0x3c87417dbce32fe7U, 0xbe179d10bb5040edU, 0xbe228f3cbb456ba2U,
  0x3da0a046bcd63360U, 0x3d6435e5bd5381deU, 0xbc157c823db7c6a7U, 0xbcae760a3d6b1890U,
  0xbdb02832bd1fe89bU, 0xbd3ff2203d38e9ceU, 0x3d39e7273cb76af9U, 0xbde5ee2a3ccfbb93U,
  0xbcd0df1b3dba5ebeU, 0xbcb973e73dd85804U, 0x3dba52ed3cab770dU, 0x3d806e03be2aa3e4U,
  0x3dd805c03d3b31a6U, 0xbd904d53bcf58ef7U, 0x3c90d27cbdac3259U, 0xbdc7fe603d03f033U,
  0xbc44eab2bcd016baU, 0xbd5a4dbe3c7ad0feU, 0xbd5834c5bc2c3f06U, 0xbad830e9bb5cc32fU,
  0x3dae3b6c3de2e8d7U, 0xbdba9bed3d9257feU, 0xbdb29f4abd3a178eU, 0x3d6d5f02bc9f0c9eU,
  0xbd5083f53cc3f619U, 0xbbfecc21be0227ecU, 0xbb6bcf4e3d06ae60U, 0xbdb9b48d3dc27005U,
  0x3cfc1089bd91c86cU, 0x3cafea673d0d9173U, 0xbd300d4c3d9a223aU, 0xbde8ac4dbc54e7baU,
  0x3d16251abd8ca2ecU, 0xbcd7a900bdfefa30U, 0x3b9eff783d9178a3U, 0xbd7806a73d2b272bU,
  0xbe032b86bdd3954fU, 0x3c5f302fbcb3ef61U, 0xbbe31b313d93798cU, 0xbd835c36bdda108cU,
  0xbcd110593c4f5a9bU, 0xbd9b22443d0271e2U, 0x3d6ee46bbd75c53eU, 0x3d570bc5be022af9U,
  0x3d14defd3de0d03eU, 0xbdd47dd43d98cdfaU, 0x3dd48d46bc5062feU, 0xbcae2098bd0332f3U,
  0xbdfccdb2bd32e239U, 0xbd2732e5bbafaa52U, 0xbdd97695bd321272U, 0x3d7ed6343cf24a86U,
  0x3d6b2a913e15c287U, 0xbd6ab0cabcc91b6fU, 0xbd1828b8ba81bb66U, 0x3d69aac03d5d3eabU,
  0x3b0ce8ecbddc4246U, 0x3af2b8ce3d614a26U, 0xbd7606823c82b28eU, 0x3c8cb6fa3d616f9fU,
  0xbce4a80bbd15557aU, 0xbd06b5af3d5febf7U, 0x3c4a9a753c634482U, 0xbd3799623c4ae576U,
  0xbad382f0bc8bb071U, 0xbd9571fa3d502dc0U, 0xbd088e0c3c93e381U, 0xbe03f4d8bd20ee72U,
  0x3c9a9c67bd31ca18U, 0x3cdaa4ebbd0afd20U, 0x3d3734803c6b4377U, 0x3d54a523bdf3b320U,
  0x3c366f103d939171U, 0x3c7a5e5cbd2d3205U, 0x3cb31b7fbd0cb99fU, 0xbdb5eba2bdb760f7U,
  0x3dbc29c63cb06d01U, 0x3d129f5fbcef7444U, 0x3dbb7cb53d972896U, 0xbcbd5fec3bec71c7U,
  0x3c563552be0f264eU, 0x3d828289bc2ef80dU, 0xbd6d3ca7bdca575eU, 0xbd800f2abc3384aaU,
  0x3c119a363d9068deU, 0xbc9ab3a9bcafbc2aU, 0xbe15ce5c3dfbb650U, 0xbd8923a53d35a053U,
  0xbe109344be14733cU, 0x3d5db2f83b0b8173U, 0xbce943e3be04ddf9U, 0xbb2058e73d8d5b94U,
  0xbcfb4cf5bd9820c2U, 0xb8910205bd24ceaeU, 0x3dae4cbe3dc071e3U, 0x3da175dd3da42d86U,
  0xbdf32e3a3cbdfb62U, 0xbe10849abd617e5fU, 0x3cff094b3bf47b9cU, 0x3d316484be14db4dU,
  0x3c906ee8bd693531U, 0xbdc23822bd377389U, 0xbdbc8e693ddc50f7U, 0x3e1eb9473c13c29aU,
  0xbdb6b4efbddfd36cU, 0x3cc5899b3db611e6U, 0xbd22b16e3e33b9b1U, 0x3bdb672d3e008bf3U,
  0x3d808f543caf797bU, 0x3dfca0b13e30145eU, 0xbcba684cbd1c977eU, 0xbd2ce06c3d992b30U,
  0x3e0310b8bddf1797U, 0xbd0b25583b84ba20U, 0x3d250aa7be337a3fU, 0x3cfbc1bfbdad3efeU,
  0xbb4fd2f83c2cc338U, 0x3d0aebc5bd47aa55U, 0x3db6db6ebd2b3fb1U, 0xbd3772663d391ba1U,
  0x3ce0129ebd2ab23dU, 0xbdc949f63b8e067eU, 0x3ac017703d1f0211U, 0x3d2bafb2bd26f95eU,
  0x3dbbba483d09e470U, 0x3d034017bcbf9e1eU, 0xbb3137853d7472aeU, 0x3d0f07ea3db19204U,
  0xbd1601083dd11fdeU, 0xbd9ee1d6bd03aef2U, 0x3da234b33d6fd5feU, 0x3dfb774abda9cb3dU,
  0xbd6810ccbc88307eU, 0x3c6c3d59bdee0ee0U, 0xbd4db0febd65ff30U, 0x3e3f4e06bbde2cc6U,
  0xbcb0da29bdb6f601U, 0x3de9c0243db34967U, 0xbd5ffdb13e644821U, 0x3bd9cff53d07f37fU,
  0x3c2584d7bc0a4feaU, 0x3d9bb4ce3d9b470cU, 0xbd65d21dbbbed4bdU, 0x3ca7670cbd862561U,
  0x3d50a91ebcb35eceU, 0xbd6477753d95eac3U, 0x3d681a64be0605f9U, 0x3d8fcf4c3d070588U,
  0xbdb997763d52789dU, 0x3d6fdf993da8ba90U, 0x3b28079dbd3e7ffdU, 0xbdcd32b63ae1f91dU,
  0x3d46badf3e2bb98cU, 0x3cbff6f53d630b94U, 0xbd99cc253d833382U, 0x3c69e44b3d51e87cU,
  0x3cc647c83d916fdeU, 0xbd947f353cc39c7fU, 0x3dd4b039bd6ffc0bU, 0x3de651073d32f633U,
  0x3da139d1bd97f52dU, 0x3d8821833ce21163U, 0x3cef3e333b38a4ebU, 0x3e0945ab3d819c46U,
  0x3c357b82bdc23b33U, 0x3d55b2ebbdf746e8U, 0x3c1c06e9bd011aa5U, 0x3dcb5aafbe0c2e13U,
  0x3c732bbcbdcd864fU, 0xbb8c06d0bddf0b7aU, 0x3e1282c43e080edfU, 0xbdedace93d37f547U,
  0x3ceaec893ceb9657U, 0xbd6392333e1de3afU, 0xbd96c4b23c26a872U, 0x3e19a4633c904830U,
  0x3c5531213d1ef8adU, 0xbcd72c7f3e0d2a7dU, 0x3d20952bbe4c0045U, 0xbd870031bcaee7b0U,
  0xbcca85ff3cfd0d0dU, 0x3d00f2e03cff898bU, 0x3aa6fb34bcff3523U, 0x3d2846a73a37d277U,
  0x3d8d4fe43d00fc55U, 0x3ad1c8e33d2cefb5U, 0x3c5385ed3cbf5412U, 0xbdc7ec393ddb1ec8U,
  0xbdcf1fe43d1e306dU, 0x3c04b9c73d89d7d0U, 0xbda3eebc3cbfb35bU, 0xbd77ded3bd2ce7e3U,
  0x3cf626babdbc0dfeU, 0x3d856e05bd1d3cb1U, 0xbd39ba43bdbf57c4U, 0xbd1fbc423b4059b2U,
  0xbd957356bb935e84U, 0x3dc548b93da5ca86U, 0xbdf143d0bd815fc9U, 0x3de1cb173d51aae9U,
  0x3d86828abcb4dffdU, 0xbd602e5b3da63c59U, 0x3d19c2b3bdf01a09U, 0xbd91bbafbe2af8baU,
  0xbc7e00693d9f5de7U, 0xbda3e7b7bdf08f01U, 0xbdcfe8bc3e0a64f0U, 0x3d95a7033b56e3cfU,
  0xbd924cba3c44a927U, 0xbc23b25bbceae1d4U, 0xbca39a903d48b318U, 0x3dfde805bcbed4a3U,
  0x3c93b66cbd8de0dbU, 0xbd28a5fabdcd0c72U, 0x3d33fe973d37d509U, 0xbd12ea3d3c05c846U,
  0xbdc142e33d6ebef4U, 0x3d8603513afb029dU, 0xbbda4df3bc98ad2aU, 0x3975b356bdf0db88U,
  0xbdc64f98bbf8f2c7U, 0xbd4d78da3b368d7eU, 0x3c873d1f3d7af4d2U, 0xbe21625abd0feff1U,
  0x3dbedcacbd6118b2U, 0xbc9bbe893cd1f969U, 0x3d9a4dcd3cebc636U, 0xbd897f353cb3ac6eU,
  0xbd4460f9bd88a687U, 0xbd2d00f8bd2e94f8U, 0xbd8fb65d3d4f2096U, 0x3abfc6373a67d7c1U,
  0x3c18e8aabd3fdaf5U, 0x3bc420d0bdc3577bU, 0xbb500020bdbd257cU, 0xbb80361bbe045304U,
  0x3d8426283d9da7c1U, 0x3b9d7c8bbd664b3fU, 0xbd3ce2ad3e090440U, 0x3d5db2e6bd32f80dU,
  0xbd46fc40be0d8be1U, 0xbb5be4f83c5a32c0U, 0x3d70a8fa3de2e543U, 0x3e2f300fbbdd2cacU,
  0xbc8d8c3ebde1a83dU, 0xbcd819a7bd753772U, 0xbd45c6323dc736a5U, 0x3ce4b5d93d3afbfcU,
  0xbd4ce7a43ac8407bU, 0x3d21b6f83d766be6U, 0x3ab766e43ccb1a24U, 0xbd2694debd4eb594U,
  0xbcafe8cbbced0e36U, 0xbd0e1251be0197daU, 0xbd0a8b123ce5b2ecU, 0xbd0db9bc3ca90564U,
  0x3d3613ed3ce958c5U, 0xbd83f65c3dc85abaU, 0xbd0932c6baa9809bU, 0xbde657833b94a1e4U,
  0xbd28441eb9bf4590U, 0xbd82b4fb3de8eb36U, 0x3d2a7c18bd49289fU, 0xbd2fdb0dbc82d6fdU,
  0x3df9b984be1bccc6U, 0x3d90cf29bdf07bb2U, 0x3d2e5f7dbdc95d04U, 0x3db96ad5be131dcaU,
  0xbc792afe3ccba018U, 0x3d8056a5bc821066U, 0xbd48a1f03daf9d59U, 0xbc3f0a083cbe5208U,
  0x3c107ed2bd7932d1U, 0xbdc297003d283158U, 0x3d8689a23da815f2U, 0xbc2b15d53bf33c48U,
  0x3cc2777bbd885a85U, 0x3d34769cbdccb30bU, 0xbd4f05323d86d1fdU, 0xbd8ca7f0bda606a5U,
  0xbd8bfd1ebcd7faebU, 0xbd8fe402bcd34b3bU, 0x3cfdb764bdd6b25fU, 0xbc88923bbddebda0U,
  0xbd589647bd4c672aU, 0xbe07ed5f3d5f38aaU, 0xbdf4f48ebdcfc4feU, 0xbd25facf3b3993c4U,
  0x3d7ce8f33a8c1965U, 0x3d89eb1cbd8d1a1aU, 0x3c05cbc3bdab6676U, 0x3cd629e93d33fb25U,
  0xbde238153d940675U, 0x3d989b05bd980bfeU, 0xbdc968513b16a437U, 0xbcfa36813d3acc3dU,
  0xbd8bc014bcbe7f70U, 0x3c2caa993e21ce07U, 0x3c3c273abc774759U, 0xbdb57f69be06886bU,
  0x3cbb306a3d805072U, 0xbdb33a91bcc86f70U, 0xbd118ce63daa6c78U, 0x3da4a8843d878657U,
  0xbd851c763d1b5777U, 0xb9a142e8bdaa3db5U, 0x3bb4e6e73ced4f10U, 0x3d7278683d8e0418U,
  0x3e03a5753b86ee4fU, 0x3d4207b8be3982bdU, 0xbc98e418bd66fddeU, 0x3db5f3aebd3377e6U,
  0x3c199c313ab9689aU, 0xbb6bc124bb41499fU, 0x3e406f033c2c13bcU, 0x3cb8ad4fbd442c1aU,
  0xbc822764bd97af83U, 0xbce0f8c63d17c075U, 0x3c0b73e8bda5a89bU, 0xbdbfd3ac3d455b6dU,
  0xbcd032d4bd916db1U, 0x3b7869cebdc9c5c3U, 0x3db845d3bd12ff99U, 0x3c4f9f403e2d15f2U,
  0xbdd818583d863fa1U, 0x3c50b4aabc08b673U, 0xbcc2d2c93c78da44U, 0x3d8cc70d3c085044U,
  0xbdb7138f3d25aabdU, 0x3db03b0d3c4e62d6U, 0x3c330172bd37e39cU, 0xbd05204cbc8c585aU,
  0x3dbbf4623cd4bf5eU, 0xbdb05946bd8ec4deU, 0x3d9d3839bd201327U, 0x3d7070a23dc519edU,
  0xbdac7a05be4568d1U, 0x3a85149fbcc428ffU, 0xbd8b64113d99b79aU, 0x3e07623abd05eaaeU,
  0x3dbeea36bcfe594fU, 0xbd53d0b2bce61c8fU, 0x3cd347b2bd2914dcU, 0x3d375c7cbe2dac91U,
  0x3cab3dbabba4ab93U, 0xbcee75b7bc32f193U, 0x3d9c5c4e3d999f82U, 0x3cea306ebd150597U,
  0x3cd36d4cbd470b94U, 0xbdf551b1bd4cfcc8U, 0xbaad9bb0bd1a80adU, 0xbda459e83bb7241aU,
  0xbdd078c9bdd6af95U, 0xbc6be930be03a074U, 0x3c3e50b73cc2ecf8U, 0xbdc971253d85ef7cU,
  0xbcc5e76bbd17d6e6U, 0x3d438f1cbdf2571dU, 0xbdcd9127be14fc95U, 0x3cacca9cbdddfb57U,
  0xbdac2d353dd18767U, 0xbbb7d50cbd49b979U, 0xbd21e174bd9e5970U, 0x3d3a9ffa3db392b7U,
  0x3df877fe3cfca7faU, 0x3bfd920bbd49d7c6U, 0x3df3518fbdf5ccffU, 0xbdb04df8bda826acU,
  0xbe4d58e4be4b1f17U, 0x3dedafbbbdb773c4U, 0xbcec4c483e2013d3U, 0x3d75650dbcf3958dU,
  0xbd9171f83d241784U, 0x3d509fec3d046cecU, 0xbdf87e5e3cd36b2cU, 0xbc46e77dbdd5cb6eU,
  0xbc5d371abe0e0271U, 0x3cf0d3febd545216U, 0xbd6468d3bc1ee253U, 0x3d63b49cbd2e3c27U,
  0x3d6118bbbc587a07U, 0x3ce239603cb0dd3cU, 0x3cb6437fbc239c48U, 0x3b6762393c47cbeaU,
  0x3ca23c07bd8459e8U, 0x3d968bbdbda49e7aU, 0xbccaf0b53d3a3303U, 0x3dc3de703d6a001cU,
  0x3cb3e06b3d9e609cU, 0x3dc8e1acbccc367fU, 0x3d9331583d4ffc85U, 0xbd4b8a183b857d36U,
  0xbcc45c0f3db5d7a5U, 0xbdabb2433da3800dU, 0xbc81f0803d83596cU, 0x3bbcef16bc16a2b6U,
  0x3d1171c5bd9168e2U, 0x3ce7d3ba3cc664c4U, 0x3d1af0333cb3a644U, 0x3c537faabd08a123U,
  0x3c4c6116bb116c4aU, 0xbd5881ae3d96f820U, 0xbd8e23edbd61a91fU, 0xbbe3bdf23d4a4484U,
  0x3d044b813c7f4b5dU, 0xbd38bdc03d53841fU, 0x3d8237853cbd0252U, 0x3d480cd8bb446d4dU,
  0xbccd4cabbca61b01U, 0xbc6638d23ddb3483U, 0xbd1f00563d8177b6U, 0xbc528db93d491ed3U,
  0x3dc77d9dba4cc1f7U, 0x3d5a37a5bde661a6U, 0x3d49ed733ce68c20U, 0xbcc3050c3d93da93U,
  0x3d892b653c0564e6U, 0x3db41caabb3f2d6cU, 0xbd50e5c63dd2fc09U, 0x3d41f7943d487b25U,
  0x3d1873763db0f45cU, 0x3d4cd1ccbd850953U, 0x3d9be45c3d2d3f8cU, 0x3d22cca53b2a4de6U,
  0x3c82e60dbb6d7610U, 0xbc42f3843d29d3eeU, 0xbceffb6d3c2cb1dbU, 0x3baaf5b13d96524fU,
  0x3bbd2aadbd023d27U, 0x3c60d9b3bcf8038dU, 0xbd22a7e83bc74b45U, 0x3d4d828cbcaf37a4U,
  0x3c9a26583cf421a2U, 0xbd77ec243d5717caU, 0xbc2d0620bd1cc7dfU, 0x3cd428723c7e7dd1U,
  0x3d56b49e3d9e1e41U, 0xbc82a3a6bcb8df38U, 0x3cc490163da72378U, 0x3d8f2caabbd2fe5aU,
  0x3d2f565a3bbda9a2U, 0x3bba09e63dd6e376U, 0x3cfb9d323dbb9351U, 0x3c3272d23cad4c5aU,
  0x3d80c45bbd7621d4U, 0xbcd3bad6be05b7f2U, 0x3dd1759d3d45973cU, 0xbc7fef693d791f9eU,
  0x3d7f4799bd15cbffU, 0xbd4a3275bd03df82U, 0x3d5b315b3c5535bcU, 0x3d38f2773d7aa4c1U,
  0xbbd344e53dc2f91dU, 0xb9f57d66bd20f8a4U, 0x3ce053ef3ddf7758U, 0xbb38433c3d2f481aU,
  0x3b12c04b3a812bedU, 0xbd9569eb3d9bd3acU, 0xbd81f6a13d6042beU, 0xbdb7c3a83d4126e6U,
  0xbd6d613fbd907516U, 0x3d726956bc72333dU, 0x3c1be6553c5c88cbU, 0x3d4c92003af70056U,
  0x3cd388fa3c8fdb8eU, 0xbce9e7673d218662U, 0x3d24dcbf3c3121f2U, 0xbcfe98c43dc3a6c0U,
  0xbd168ff5bb7080a8U, 0x3d1626353ce1555cU, 0xbd4ac1323d676f1bU, 0x3d0e75b5bd0c47a5U,
  0x3c750b80bd1482e1U, 0xbd235fea3d507bebU, 0xbd7a79d13d1db445U, 0x3d260c4d3c6814a7U,
  0x3dfed979bb629306U, 0x3cf348babe595537U, 0xbd9561b33d156473U, 0xbd6244753ac5e68aU,
  0xbd2fb6c7bdce0b42U, 0xbd8f4be4bd0f9884U, 0x3c679e8a3c878173U, 0x3d729c8cbd90ce2bU,
  0x3cb3eec73de479e8U, 0xbe0168eabd3e0a98U, 0xb9cfcdfd3cec67a5U, 0x3d8d83443c94ab27U,
  0xbd22f47bbd964a9eU, 0xbd6647f43d867291U, 0xbd60f3c13ce62048U, 0x3d706cb83d93e06bU,
  0xbd5e9a3bbc39e3bcU, 0xbcadd0f83d854ed8U, 0xbd9ee5cc3ca399a3U, 0x3b6e97143d2a08d8U,
  0x3ce8e73dbcadb8dcU, 0xbd1fc0113af31a39U, 0x3d72824cbd8122e3U, 0x3b3d6db23d2fb68cU,
  0x3c8f13b93dc6b43eU, 0xbd7bd636bcc2c1d3U, 0xbd5e56fbbd80faf4U, 0xbd9c195ebd4bb6e1U,
  0x3c127a73be07bb57U, 0xbbc5d03b3dab2962U, 0x3c93f29a3d36eddeU, 0x3da864b43d5b8077U,
  0x3da783c8bdcc31d3U, 0x3cbb06cfbe5ead0bU, 0xbd7c0353bdb53756U, 0xbcf3787ebda02b02U,
  0xbbb32184bd57a3ddU, 0xbd9389b1bdbc507dU, 0x3d4677f5bbaf8559U, 0x3d9f2d7cbd737344U,
  0x3d9a30ebbcf218a2U, 0xbddfaf9abde3ee8eU, 0x3d0c0ce13d823743U, 0x3de34c05bd5d913eU,
  0x3d2e5610bdd3ebebU, 0xbdd3c1bf3dbd27ebU, 0xbd9e35abba5f7609U, 0x3d3922d83d76ff58U,
  0xbc365607bdc4c1d1U, 0xbce2f0783d2b2701U, 0xbd013d0e3d085065U, 0x3c6904c53c3c4295U,
  0x3dc6553cbde70c99U, 0x3bac0c843d1e2313U, 0xbd0ac661bd9df21aU, 0x3d2e32e43c5c3c59U,
  0x3cb420e6bd68a7fbU, 0xbd9d33473d3d5b92U, 0xbd572d1cbd53a9cfU, 0x3d12cfce3d7f7d26U,
  0xbc84e4a7bcaee59dU, 0xbd2be801bcc24f01U, 0x3b07e45ebd4192f8U, 0x3d020e8b3a307659U,
  0x3d67f4233c7151bfU, 0x3ca3f462be2d2035U, 0x3c7a74193cb31d04U, 0x3d2b84eabd05680fU,
  0x3d770853bce9c913U, 0xbcd873bfbd1510a5U, 0xbc4fec88bc02f24bU, 0x3d5aaa923d6cc835U,
  0x3d712e83bb724121U, 0xbdab4869bd934c3aU, 0xbcdd07103c9ed226U, 0x3cf1504a3d6bdda4U,
  0xbd07abafbc40d1bdU, 0xbdbb315d3d986ab0U, 0xbdab42ea3c534dabU, 0x3bb9dd723be5a78dU,
  0xbd58bb5abd4cc255U, 0xbcc989a83dcf5f04U, 0xbd0a19f93cb1dbc3U, 0xbbab48e23cf177f8U,
  0x3e1e13edbd11efe9U, 0x3cdb5c4b3b6f70e6U, 0xbd4cd184bd92e45bU, 0x3b04b323bd660c08U,
  0xbcde1ec3bb79032bU, 0xbd30cdf53d51852aU, 0x3dba70503bd9aedbU, 0x3bc13e3fbc88f8b2U,
  0x3d33e8cd3c28147eU, 0x3cf08fcc3c87c83cU, 0xbd91b5113dfde2ddU, 0x3d7136b03cfeb8e2U,
  0xbda7817a3c7a3aa9U, 0xbdc7008d3c0e380dU, 0xbd4edd23bd51a73cU, 0x3cfd90cb3d9011f6U,
  0x3c75ca993e08630fU, 0x3c69616e3d3f5635U, 0x3de401efbde277efU, 0x3cf2f1f33d76044dU,
  0xbcdb534e3dc2a4a9U, 0xbca9ba8ebccf3d4cU, 0xbda57fbfbd57e7e7U, 0x3dc5a6103df6ea87U,
  0xbb3201a9bd58b9f0U, 0x3d5fb9a53d817869U, 0xbda11bfd3d37ab5eU, 0x3d933684bdcdd0ecU,
  0xbca8f5073ddccc5cU, 0xbd864c9c3cbadf76U, 0xbda66d1f3cda4562U, 0x3dfb3d583c2cecadU,
  0xb99790d93d7bfdb6U, 0x3d4cbff0bdcc9657U, 0xbda109c3bd612df2U, 0x3da699373d66fa42U,
  0xbe2c463c3de0cb1bU, 0x3d289b70bd9300acU, 0x3b401a89bcfeb53cU, 0xbde908b4bcf45434U,
  0x3d7b52e53e368a1bU, 0x3ddc8ff9bd96dc97U, 0xbe0bb6563da0f015U, 0x3d0492103d5b2b13U,
  0x3cb4d517bd7408efU, 0xbc7029853d1d259eU, 0xbc858c46be10f86eU, 0xbd932b14bc8d20b0U,
  0x3e06162fbd6789beU, 0x3c224033bcaa1129U, 0x3dc8be4dbd9eb71cU, 0x3cb70ee83db4cc2eU,
  0xbda464993dadfb9fU, 0x3da0986fbb027aa8U, 0x3c31866fbd30918eU, 0x3df201393c80c9c2U,
  0xbc0d6bc4bd308eefU, 0x3dc05c52bd1811ffU, 0xbcca1d07bdf5a823U, 0xbd49ee193ae10fb2U,
  0xbda0f0103ca6321cU, 0xbbb125a2bd7357e1U, 0xbd8481ebbdc0c212U, 0xbd8ab4f2bd3eb334U,
  0xbe64233fbd48b285U, 0xbdb694bebdb46028U, 0x3d6fdbb0bd511abaU, 0xbd4e50bbbbc9f80aU,
  0xbd9ebc053d2af630U, 0xbd8f69ecbc833f04U, 0xbd68450b3d10741bU, 0xbc57f40ebdf2612fU,
  0x3a8c3c0c3d8db8f6U, 0xbda38c5ebdbb5245U, 0x3c99b4a03dcd5f2cU, 0x3d528ed33ca936e0U,
  0x3d541378be158387U, 0xbdf39f203d7233e4U, 0xbbbe4f7f3c6672dfU, 0xbdc8f1afbcfaf633U,
  0x3c9f37e6bdc38e90U, 0xbdd9dc6bbdbdab7cU, 0x3bc0a613bdce6076U, 0x3c407b723c9ea49dU,
  0xbe046578bdd87c86U, 0x3de90c9fbdaee19dU, 0xbbd36aa2bdf4b766U, 0x3dead5343ca36a1cU,
  0xbdfff2503da51498U, 0x3db9d9663bc8036eU, 0x3b257e12bd2cc205U, 0x3d50f342bbec1172U,
  0x3d23bacd3d00608cU, 0xbd9aeff9bcf7c208U, 0x3d617762bd560da5U, 0xbd74a1b0bd346944U,
  0xbe019208be0b4660U, 0x3cdd818fbd4d3e9dU, 0x3da75613bd002160U, 0xbd2895a3bdf36782U,
  0x3dd26b14bd83e2fcU, 0x3d9031513dc19149U, 0xbde0c0b1bdd87bbbU, 0xbd423344be1d82f8U,
  0x3cc974f3bd0314ceU, 0xbda9b501bbfb14bfU, 0xbe07bdec3d40632dU, 0x3dde27dcbe1a504eU,
  0xbcdf51ba3d19ceadU, 0x3cbd0fcd3cedb281U, 0xbca68172bd807bc4U, 0x3c5adf5abd3e64f6U,
  0xbd4f29e9bc86883dU, 0xbd0d76493c253316U, 0x3dbf4479bc31f4faU, 0xbdfc0f7b3c2abcc0U,
  0x3d0a1cbe3c4f5a02U, 0xbe3878653d19cb7aU, 0xbce6bf90bcf1cf03U, 0x3d0efd223cbec0eaU,
  0x3d09725a3ce86768U, 0xbd0f34e3bc95d6b6U, 0x3cf2a3eabc825466U, 0x3cd96c83bc8e11b7U,
  0xbd435dcbbd54872cU, 0xbc0604a3ba6c6c1fU, 0x3b2440493e0653a2U, 0xbdb7d2c03d9ba364U,
  0xbb271027bcf00f6cU, 0xbcca4421bdcbde41U, 0x3c1f482c3d70b058U, 0x3dd7a43cbc4c48beU,
  0xbe261aadbc2ed11fU, 0xbc34ac8dbd6b744cU, 0xbd6660823d83efa8U, 0xbdb936f8bda2c156U,
  0xbd5f7203bce66c85U, 0x3da75648bcaa2e18U, 0xbd17c8903bd17aa8U, 0x3d9efd77bc40a043U,
  0xbd56a8763c32d730U, 0x3cbbb6683d0b2f30U, 0x3ca35692bd173aa1U, 0xbd7de67abca170f4U,
  0xbbd0872bbd10e200U, 0xbd88d1303c93b052U, 0x3d9095f0bc5fc44eU, 0xbd30917e3d95609fU,
  0x3d8365d13cc44254U, 0xbdfb88283d13127eU, 0xbd05dd0f3dacfbc1U, 0x3d450614bd0e37b6U,
  0xbc49919bbd261eeaU, 0xbdb13535bd6a2501U, 0xbd38e314bd51883fU, 0xbc41072cba393485U,
  0xbda77850bd95c0cbU, 0xbaedd813bcd887eaU, 0xbd14d9fb3d835188U, 0xbd99e17c3ce01c8eU,
  0x3cf1bbc6bc5b8a5bU, 0x3db175c0bdb59aafU, 0xbd137ce53d886522U, 0x3d7eb2e339ce3642U,
  0xbe306b043ca8b656U, 0x3d0c9adbbd9aea91U, 0xbc33a5e93bd80a0aU, 0xbdcb4d163cebddd7U,
  0xbd07e14d3d59eb09U, 0xbc7d36ed3c303977U, 0x3cc96b153c91e075U, 0x3dcd5067bd04f2e2U,
  0xbc84a6bcbcedcec4U, 0x3d2172b83b83e4e5U, 0x3c46f8653c2048e0U, 0xbdaadb6b3d4720deU,
  0x3cacd11ebd951201U, 0xbdb208f6bb9eb600U, 0xbc37d3f4bdbd9587U, 0xbd8be00abc8d6bfaU,
  0x3d88f68e3d891c48U, 0xbe1cbf073b3cc048U, 0x3d698f7cbc7d07efU, 0x3c212eaabcf7e3b9U,
  0x3d9090debc50e836U, 0xbd04e0973d9ad333U, 0xbd97c9a7bd12a150U, 0xbd5262763ddfda44U,
  0xbd33bafbbd6a3af7U, 0x3d199d853a1ee52eU, 0xbdb475743d31d7eeU, 0xbd73cecf3de5c93bU,
  0x3d21d6fd3cd48934U, 0x3d3332fcbd9c723aU, 0xbd0aed4e3da439acU, 0x3d20c5ca3d64535aU,
  0xbdbb0b94bd8a4b30U, 0x3d04ce0fbdbd24afU, 0x3aa277773dcdcf0eU, 0xbd974b82bd47384bU,
  0xbd8cf0253d5bdb08U, 0x3c9810d13c2761c0U, 0x3cf05b3a3d3aa989U, 0x3d59258bba220ef9U,
  0x3d0a2a813d121763U, 0xbb6ce9febde1789aU, 0xbbe31bcc3d91fd22U, 0x3db19edbbe15a029U,
  0x3d873ad6bd49dcebU, 0x3d214374bdb83809U, 0xbd34adff3e389db7U, 0x3e1875f6bdb36423U,
  0x3dc2ddc43e212965U, 0x3e4e52eabd603e09U, 0xbd207537bd65d339U, 0xbd7f2ed9bca8164fU,
  0x3e3c7d153d7a3411U, 0xbe45a76f3d050dedU, 0xbd755a503db28ae8U, 0xbdb9233f3cb51fccU,
  0xbd9e8187bc03010eU, 0xbd87c1dabd92969dU, 0x3c07a3113c3c8048U, 0xbd239135bc6313d9U,
  0x3daf30c83e1bc706U, 0xbb32d8eebdf7b090U, 0xbdea16923d0f2ea0U, 0x3dd27bad3d689e33U,
  0xbd0ad6c13af4f41fU, 0xbd82f9693d9184c1U, 0x3dc4eeed3d0a4db5U, 0x3dc5fa4f3dbeee01U,
  0xbbeb93c83e070b1dU, 0xbd70d6cb3dcb4cfdU, 0xbda6c4ee3e10acbaU, 0xbe37b3a2bb2ed1c7U,
  0x3d9d53dc3c9f7a4dU, 0xbd4d9ee53c9f0a55U, 0x3cbed982bdacf020U, 0xba4be5aabd25f3e8U,
  0x3d85a12d3da1214cU, 0xbd5ca5243b0b7e62U, 0x3cc799873d674f7dU, 0x3c0bb3623c461635U,
  0xbb1629be3d1404fcU, 0xbcfe3d033cc2ed33U, 0xbcbe1c343c273926U, 0xbe255a32bcc8cdf9U,
  0x3d2eaa7cbcab60b2U, 0xbd0680fb3d9a2998U, 0xbd947cc43bf1d86aU, 0xbe398bf9bd0b7967U,
  0xbd98626fbcaf66a1U, 0xbdd46079bdb98d26U, 0x3c5f5acabcddfdddU, 0x3d8b3f09bde82730U,
  0x3d850b963d938d13U, 0x3c795e57bd306a42U, 0xbd4f203fbd22722cU, 0x3b80eb923d9395c3U,
  0x3c9d1589bd3819a2U, 0xbdf9d580bd2abca8U, 0x3cc5e366bc0df064U, 0x3bf1f3a13d489565U,
  0x3d9226db3e1f1a8cU, 0x3b44ff473b3dd1cfU, 0x3dd147043e1529feU, 0xbc7f48aebdd18cd0U,
  0xbaf061333dabf088U, 0xbcc6ce013d43b707U, 0xbc70dda2bd1a5998U, 0xbdcead56bdb9dad0U,
  0xbe14507f3dc8a7f0U, 0xbd21560fbbfe8f3bU, 0x3ca533e1bd497d13U, 0x3c8fcbdfbd039aa6U,
  0x3d8379f83d915327U, 0x3ce2411abd587c18U, 0x3e0f74543db81addU, 0xbd82de92bc2e8e04U,
  0xbd60160dbdd7fee7U, 0x3e57ef69bda11e56U, 0xbdb8de5dbd0eb1aeU, 0xbdf7aa8abd78c9a4U,
  0xbd3483573ae07118U, 0xbd0f4a5c3d71bd42U, 0x3cb183c1bd5b032cU, 0x3a65f3b03cdc8447U,
  0xbced73ecbd01bd60U, 0x3dd182d83d483f2fU, 0xbc038d60bd8bd6a0U, 0xbe61a0533ca26c6eU,
  0xbc4d5739bd7ec2baU, 0xbe0fd15ebdac907fU, 0xbdccadd1bdfa839cU, 0xbce2af923b102d2eU,
  0x3db8f8113d4ba113U, 0x3ddd8c74bdecc8ccU, 0x3e0a9c343ba1ea80U, 0x3c8c65eebc33e003U,
  0x3cabe3903dbc9b1fU, 0xbc2743863d4a3d71U, 0x3d1059bdbd9934d3U, 0x3d4b558e3d1d8033U,
  0xbdbbea21bd105ccbU, 0x3d5c16d6bd546987U, 0x3cfca9b33dcd8abeU, 0xbd1567123d099efbU,
  0x3ce9eea63d2861cdU, 0x3d0be16cbd9e8538U, 0xbcf438bcbb030e08U, 0x3ce566ff3dcf5af2U,
  0xbd2aa5d73dc2f9afU, 0xbd26da713cdcc3f8U, 0xbd9831313d977d01U, 0xbccedc8d3d2e2effU,
  0xbb9e4fa93ba94c0bU, 0xbd52f4f63d2f13a4U, 0x3b1cb8753b9c90adU, 0x3c079543bc0e6a36U,
  0xbbdf7a57bc8b2bddU, 0x3c3f7a233da0a990U, 0x3d237530bda1f8e5U, 0xbcfdb724bd8da391U,
  0x3d7b1f9ebc3e02fbU, 0xbcc188893d5ccecdU, 0x3db11b343d9c93f1U, 0xbccb44d8bda5ebadU,
  0x3d518e37bc1b659cU, 0xbd751a55bcc6d491U, 0xbc331828bb0898bbU, 0xbd0180783d842599U,
  0x3d074f5b3d658a8aU, 0x3d4f19a2bd26ddd9U, 0xbd0ef1663bf0faffU, 0xbc9815c23dda240dU,
  0xbdcac3c7bd041173U, 0x3d8eb4a8bd0ddb39U, 0x3dd2bbd13ac8cb9eU, 0x3c8c08953ce681b6U,
  0xbd3154c43d9e1f30U, 0x3d453412bd381b52U, 0xbcc4e2603d77c93cU, 0x3cd731b53d18c9c5U,
  0xbd41987f3d5c76f1U, 0xbda373fa3d00f7c9U, 0x3c9e3edb3c852509U, 0xbdc019723b9b7f3bU,
  0xbd4bdd3ebcd4438cU, 0x3d075f9b3bf333b0U, 0xbd1d1cc73d07aac1U, 0x3dcbb513bc5dfb3aU,
  0x3cfab3743d9bb661U, 0x389dc96c3d4e2219U, 0xbd22d033bd305b27U, 0xbd9fa19e3beab958U,
  0xbbfc0b763d6f8dc2U, 0xbb30d8a33d9c43a3U, 0x3cc5d536bcfa400cU, 0x3d8c51de3d1da35cU,
  0x3d85af7bbd4bf3b3U, 0xbdb500003d8e8e7eU, 0xbc2d6f103d4d5e7fU, 0x3d60e1b03da8407fU,
  0x3ccd7bce3d7018d1U, 0x3d543c6d3b073b16U, 0x3d23b118bc7a59b7U, 0x3c2be0f33d4f37f6U,
  0xbb40743a3ca1ed10U, 0xbc07ec11bd451ffcU, 0x3d065004b9fd50e6U, 0x3d5d3d323d937e23U,
  0xbcab51be3da6c6abU, 0xbcd78697bd4a686fU, 0x3c091f6e3ccb648aU, 0x3d6b5baf3d3f3962U,
  0xbcc716cabb9ef634U, 0xbda70cbcbd16b6e0U, 0x3c87054a3d709e56U, 0xbd091cb03de1dd9fU,
  0xbd97fccbbc801685U, 0x3d8b5a9dbca471f1U, 0xbdb48d9d3cef3600U, 0x3db832f1bd0fb919U,
  0x3d1af9733df34717U, 0xbda826983dcdce49U, 0x3d0c7f65bdac0bcfU, 0xbd4de10a3c8c68d5U,
  0xbd8333e33dbeb5d2U, 0xbd0ac129bd407077U, 0xbcf96b103d52d550U, 0x3d5143a4bdce6c90U,
  0x3b696c7dbd653bc5U, 0xbd2578ae3d4d5d1eU, 0xbcfa5ef73d0fb006U, 0x3b1141083cb8a207U,
  0x3cfae3febdc90522U, 0xbd939e71bdfd56d9U, 0xbd6380e3bcc582a3U, 0xbc8c2ac33d94e47dU,
  0xbc31421bbb8e1968U, 0xbe224324bd513497U, 0xbd9c50cebce043dcU, 0x3db62460bce9b1c4U,
  0xbc8ebebb3cdf191eU, 0xbd9a712f3c64d5a2U, 0x3d1762a33dfe4ed8U, 0xbccde84d3c8e731eU,
  0xbdc60238bd86e783U, 0x3d029e743d99252fU, 0xbdc44055bd266dbdU, 0x3d5ae1f3bd85f3cdU,
  0xbdaebe463e14b08aU, 0xbda1ba513c8bdf48U, 0xbd4ba1d3bd935899U, 0x3d43b7b2bd9e8522U,
  0x3d37d25bbcb2e889U, 0xbd32876ebb2d632cU, 0xbdd40eb5bdafde4cU, 0x3cb5596b3d93195eU,
  0xbd55a1e6bd453c21U, 0xbd639a12be13747fU, 0x3d3c86a3bc5f89bdU, 0xbc753621bdd1b659U,
  0xbd2f77903d645b1cU, 0xbd17e7c63dce3c98U, 0xbd02dbac3dca97b5U, 0x38ce1e0bbd882cf2U,
  0x3ba97382bdac5544U, 0xbde56aa5bd9779fbU, 0xbab9cb50bc13a55dU, 0xbd7b6ead3d77994fU,
  0xbacf82b0bccfd463U, 0xbdac3944bd4d5e4cU, 0x3d6e7f9fbdde354cU, 0x3dc07b733d41c272U,
  0x3db6a78dbd574137U, 0xbdd7c26abc885959U, 0x3da5cd2f3d8d13c1U, 0x3d6d69193d8f6fcdU,
  0x3cc7875a3d8fbea8U, 0x3d0b3fd43d3b5285U, 0xbd11074b3cbafc4fU, 0xbd7050b3bdb41972U,
  0x3daec5553dd56a03U, 0xbd3705643dfc9d4bU, 0x3d851601be06fa8eU, 0xbbf940a9bdc25f45U,
  0xbc13e837bde49b77U, 0x3c76088b3d6a1eb6U, 0xbd710a633c88ffcfU, 0x3d020fca3d8e8e6fU,
  0xbd5ea8babd336e83U, 0xbda5b02cba8a0e5eU, 0xbda28c48bd8f4604U, 0xbd8eb694bd0ab51dU,
  0x3d45a063bd914474U, 0xbd612b273da10b02U, 0xbd9316583e22acbbU, 0xbd0e2a8cbd5df504U,
  0xbab89a5dbc5b9573U, 0xbd78339fbe703e6fU, 0xbe09e01abd3d6b9dU, 0x3dc9f39fbd3dac26U,
  0xbc443c5bbdd4dfd6U, 0x3db45889bdba5820U, 0xbbf75322bda5da88U, 0x3ddb26a93dae1d29U,
  0xbcb89091bc835eb7U, 0x3d3aec14bdc80b48U, 0x3c5a75d3bcbd09ddU, 0x3b17eceebdaeade9U,
  0xbc8bdea73dc5132bU, 0xbe001f963bb4302eU, 0xbdd491783ce6ff2aU, 0xbe1089c73cf72976U,
  0x3bf37b983dcf838eU, 0xbe1f40843e14b712U, 0x3c87798dbdbaea7eU, 0xbdab784b3d588b66U,
  0xbc76d49ebbf94b3aU, 0x3ccaee58bd45d46bU, 0x3bc911a53d4356b5U, 0x3c0ec086bd434d8dU,
  0xbd79c55bbda19e46U, 0x3c6b6f0abd860f71U, 0xbda95cd1bcfded9aU, 0x3d377d48bdc135e0U,
  0xbd367528bdf5744cU, 0xbca289af3c9980f5U, 0xbe07f2943d4e3071U, 0x3d0fe8d73d806443U,
  0xbcff017f3b984674U, 0xbd50558dbce23a90U, 0xbda85c0c3d3a0f90U, 0xbc98e3063d1a1c0aU,
  0x3dc601e23d20d776U, 0xbd99aaf6bdc57971U, 0xbdb4768fbe0804eeU, 0x3d8bc3b43d586ef7U,
  0xbb67017e3ccac821U, 0xbd5d07a93d08bc9aU, 0x3d9057013d15064fU, 0x3d31da8abddf859bU,
  0x3de3f2ffbcbae3f5U, 0x3d9b841e3e08dab0U, 0x3e012858bdfd9aecU, 0x3ce9ca9abdc10fdaU,
  0x3d8980913d266db2U, 0xbd91b81abd6a1737U, 0xbd32a96e3c5b71dcU, 0xbd4278963ca65d0fU,
  0x3d9a66a73c89f8c4U, 0xbdd66a7dbd618f85U, 0x3cab23e93cb6f19bU, 0x3dc7071b3d4a4babU,
  0xbd579aea3cbf0cbaU, 0xbbad8befbd885806U, 0xbc42592b3ca0300bU, 0xbc1bdf2dbdeb9dc2U,
  0xbdabc16a3d98e1c1U, 0xbc2a0b2abd9e59e5U, 0x3d1a86653b32c214U, 0xbce01219bd415c26U,
  0xbcda91f63cddb1d0U, 0x3be6796fbd722b09U, 0xbc89455ebbf8e94cU, 0x3d1f47053d19ffc5U,
  0x3ade3edbbdad3566U, 0xbdff828bbe10aa1dU, 0xbdd371eebca8eb02U, 0xbd8c4680bcee2786U,
  0xbcf3858dbbd8f730U, 0xbd5e6ba8bda11f47U, 0x3d15cb8cbc26e051U, 0xbce2fd9ebd9bb056U,
  0x3da17b7e3d877c48U, 0xbdc0b2003bf2e69bU, 0xbccf8ef6bde86a77U, 0xbd465f98bc694789U,
  0x3dc12f10bd22fe01U, 0x3a4109dfbd72138aU, 0xbc8eb732bd8e4519U, 0xbdd03340bcd0cc18U,
  0x3db3726bbd841d65U, 0xbbe6e398bd2d1c41U, 0x3cb550a63d2dc082U, 0x3d95be463d3e64c2U,
  0xbd456af0bccf8eb4U, 0xbd67b546bb667c84U, 0xbd6d63f13d8ac540U, 0xbd87774fbdd81746U,
  0xbcdc15193d0069acU, 0xbd9414e03d0460bfU, 0xbc7a0e873d7f3c0aU, 0x3da21f55bd99ecf2U,
  0x3cbdc89f3d0fa80cU, 0x3de8545abd5d8274U, 0xbd8b892c3c205dcbU, 0xbd0d878a3cb99a9bU,
  0x3c5cff11bdae6230U, 0xbe0c16b0bdf353f8U, 0x3b0a4edebd7ba11dU, 0xbd85d131bcd14a5fU,
  0xbcda031ebc98a2b9U, 0xbd3cd3e33c05abb3U, 0x3d8151703c2822fcU, 0x3bc34942be091cbbU,
  0xbcc220a13cf7b798U, 0xbdc1bafcbcadf242U, 0x3b983c7f3d4bede7U, 0xbd37e0543d2e42dbU,
  0x3d0c463b3d601c33U, 0xbd1342b43dc3fbe3U, 0x3cef85ed3d1c2650U, 0xbd6711863d2261e0U,
  0x3c825123bba81856U, 0xbd27120fbd499e8eU, 0xbc50406ebcbc3567U, 0x3d9cbdda3d4c7737U,
  0xbe0bfc7cbb9a8459U, 0x3cf954a83c41707eU, 0xbd54197c3cc06c24U, 0xbe101099bd3f3ab1U,
  0x3d1d76e03c1350efU, 0xbd36511d3d9643e8U, 0x3d33a3853d95d9bbU, 0x3d8d50eabdfba0f0U,
  0x3d48287cbd526ee7U, 0x3cf845b2bdf614b7U, 0x3b372b46bd3e0ed6U, 0xbd999daabb9ba786U,
  0x3ccce0503d37287dU, 0xbe08980ebc3cee24U, 0xbd8efb13bdd23175U, 0xbd2195483d295825U,
  0xbd419d30bdce4a81U, 0xbdaf678fbd009ccbU, 0x3d4be71ebd8d13ecU, 0xbde596a3be0c4937U,
  0xbae85eddbd646738U, 0x3c8ca547bbc647ddU, 0xbc15beee3e008f9bU, 0xbd9c549d3d859d7fU,
  0xbd1f59a0bda015d1U, 0x3c1e8ef2bc57fbacU, 0x3d1f6cd6be05d33aU, 0xbd6c9160bdf8c932U,
  0x3db764e0bdfda4feU, 0xbde6080f3c85a533U, 0x3d77d53a3d514f05U, 0xbcdeaea83de66cbbU,
  0xbe0604803bec9505U, 0xbcdc274dbc6de281U, 0xbe39c2fa3dacb21cU, 0xbd2e6beabd272e25U,
  0x3ca8909ebd9648d7U, 0x3c478accbdccb912U, 0x3d66591abd8bfe50U, 0xbd911cddbc15f038U,
  0xbd294d433d9db34eU, 0xbd94d25bbd5e340eU, 0xbc4fd5063d4aca6eU, 0x3c8ec2aabd159107U,
  0xbd8ebb913c14d450U, 0xbdbeb6293b2ff07aU, 0x3d6390c5bca3ba54U, 0x3b8abcbfbd8dbaa7U,
  0x3c8648013c8871b3U, 0xbd6ef9a5bd95f132U, 0xbccd12273cd19192U, 0xbc83a4b23c865d3aU,
  0x3d7968c8bc31c8aeU, 0x3dd7b1283d5a1dd4U, 0x3bd280513ce54b5dU, 0xbd8af9613d3362bbU,
  0x3da0f483bd91641cU, 0x3c92764d3d02ce1eU, 0x3d879580be241c48U, 0xbd804235bdd656a3U,
  0x3bdbd40ebdeec88bU, 0xbc066e7fba9f0069U, 0x3dc0163f3dbf95acU, 0xbd2f7a0d3d47520cU,
  0xbd9e33ebbc4ec8e3U, 0x3d88eea33d073abfU, 0xbda668513c03adc0U, 0xbd8e3e2c3d138a8dU,
  0xbd50b3c13d380d63U, 0x3c539e6cbdc83737U, 0x3d0d5f31bd88e7c7U, 0xbe28320ebd838af2U,
  0xbd4ee45e3dc2d67eU, 0xbd89343f3d020b0cU, 0x3d61b36ebcc078a8U, 0x3c5d3cbcbd9d9f8cU,
  0xbcce4845bc729f24U, 0x3dc75971bda31557U, 0x3dcc1e793c79bd76U, 0x3d94887cbd46875bU,
  0xbc813859bd9a6c51U, 0x3d874c8cbc13c8adU, 0xbc4ca0b3bd63b657U, 0xbcd295f63d969f2dU,
  0x3bcabf723e19a583U, 0x3d36d4df3d7d1972U, 0xba4774a139abbf4bU, 0xbd8f15af3c9fb5c3U,
  0x3cd6d53cbdcaaaafU, 0xbd3c8c62baf82b56U, 0xbc876920bd764ebdU, 0xbd6f6d71bb7219acU,
  0xbca8c0cdbd409731U, 0xbd6a8530bc68b8afU, 0x3e043a32b9cb1632U, 0x3c5c23623d379dd7U,
  0x3c3abc3b3c893612U, 0xbd013c0a3c28d286U, 0x3d2f5adb3cd2fe3bU, 0xbd02d8363d103852U,
  0xbd18c9613d5000a0U, 0xbd5478e13c59b0c0U, 0xbcc407f3bd8a2305U, 0xbdc4527dbd64ee72U,
  0x3da05db7be2b7207U, 0xbbcf6f3abd6142daU, 0xbd90393abe09c94eU, 0x3cf125943bb24b33U,
  0xbe1ad2f3bd9e533aU, 0x3e25ee4fbd9fe0d1U, 0x3d68703a3ddebe8eU, 0xbbaff14ebd977e4cU,
  0x3bcaf56abdb385dbU, 0x3db7663abc91eb08U, 0xbd836df63d920051U, 0x3d7ff7033d775eeaU,
  0xbd4f83063c6ed05fU, 0xbd9d28b0bdf8e8ceU, 0xbd9049023cb4d21bU, 0x3e01c063bd5d993dU,
  0xbc1447d6bcb2d88cU, 0x3d18874a3c74d3b0U, 0xbc0fc67f3dd7b02dU, 0xb9a230a2bdca25dfU,
  0xbd627d7ebcec8206U, 0x3e453c70bc5f9256U, 0x3d3011973b1a3814U, 0x3cdf6aefbe0cc8c0U,
  0x3c4e9bf33d04a4d8U, 0x3d0fd9673e546114U, 0x3c82be5ebd91fd9dU, 0x3d459d773da0f394U,
  0x3c4d5629bcc82924U, 0xbcfc24af3cd7d36aU, 0x3cb5a0fb3d5e6863U, 0x3c13ed9abc9ed9fbU,
  0x3d500c93bd78c348U, 0x3d6e8c913c4e1f89U, 0xbd0e6755be0f8172U, 0xbd2efc5bbdf54bd4U,
  0xbda53a3ebcdded3cU, 0x3d62317cbcd0d0e4U, 0x3c852bba3dc389b9U, 0x3ba14d94bb77b096U,
  0x3cdac2cebc7a5f26U, 0xbdb9f7c23d58270cU, 0x3d4bcfacbcf11ebcU, 0xbd0d67cb3dd4a21aU,
  0xbdedb82bbceb76beU, 0x3a8c6043bd5602f6U, 0xbd51c0a73c93dd0dU, 0x3bd8111bbd273588U,
  0xbc294aa6bd1b1007U, 0xbd2d5eb4bd9a7424U, 0xbdb0a38d3c8d4c3cU, 0x3d1310b43bea8136U,
  0x3d1994d23d86c333U, 0x3d598d36bcdeec4cU, 0xbd5a2da43c30fd6cU, 0x3d9152eabe31f6c2U,
  0x3dc3ff573dc96802U, 0x3d366c7d3e1f1262U, 0x3d3647fcbc236777U, 0xbcccd8ebbcdaafc0U,
  0x3c5546e3bd8e3273U, 0xbd1f450cbd9f1a47U, 0x3c41a8d33d213485U, 0x3c36c39cbdae1d9eU,
  0x3e4516683c61a005U, 0x3d80a6babd7cad2cU, 0xbe0cdabebe2be24dU, 0x3d26f19cbe1290ddU,
  0xbbfd43663d0c8e08U, 0xbcaab618bd89f1b7U, 0xbce24864bcd1c61eU, 0x3cded86cbb556efaU,
  0xbcd19a153ccd04efU, 0xbd9eab4dbd750fceU, 0x3e01a6983e1054a2U, 0xbb67952abd37f887U,
  0x3cf9c3a1bd41b5f9U, 0xbd2aa2a43a9b4fe7U, 0xbc095d8c3dde56d9U, 0x3d3a16533cfb7436U,
  0xbcb886bc3d806be9U, 0xbe087d6abcc43d17U, 0xbd87db923d7263e0U, 0xbc9ed1abbdbbaacbU,
  0xbd1b5e143d13ba57U, 0xba06b0bf3d242fd0U, 0x39a3adffbdd2e3fcU, 0x3d5e307ebda5e418U,
  0x3d7a39c9bde39272U, 0x3d12f8493d7ffa0cU, 0xbcaa6d99bda62b13U, 0xbba99fedbabcdb10U,
  0x3c0bd39fbd403209U, 0x3d701b5dbd88db28U, 0x3cbdda2bbca2691eU, 0xbd2242fa3c04cf93U,
  0xbae4691a3ce3255cU, 0xbc3de2ddbc82e15cU, 0xbd0a43d73d198888U, 0xbcc826343caeb7fcU,
  0xbd2ae72cbd972dc4U, 0x3d87e73bbd1ea4acU, 0x3d17fa4f3d7232f2U, 0xbdb3a5cebc25a2fbU,
  0x3c6398e4bc0e69ddU, 0x3d17331c3da2f9f7U, 0xbcaa0ab03dec1759U, 0x3da1005f3cfee640U,
  0x3d6e1d043ca1b0f3U, 0xbdf7b416bd2d89eaU, 0x3d722720bd9db22bU, 0x3d3058883d89e354U,
  0x3a8dccc13d450f86U, 0x3cdbb409bd9d8cd8U, 0xbdb7aa993d4fa013U, 0x3c9595103c2b858dU,
  0xbbd0187bbc6f71b0U, 0x3e123256bce5d637U, 0x3d452f54bd8eb8e3U, 0x3d49bfbdbdd96762U,
  0x3decec6fbd4a3b82U, 0xbda8b6293d9cda9eU, 0xbd3b038c3cd717bfU, 0xbd7b3c633e03834dU,
  0xbd3030fb3d85a368U, 0xbd53799a3e1dfeefU, 0x3c4db76dbd87384bU, 0x3da9cab3bb731e0aU,
  0xbcd50b983d3b2cefU, 0x3d4d1f1d3d508778U, 0x3d1fbc8b3d0a81ffU, 0x3d308a10bd0aede2U,
  0xbd19c4b53de910aaU, 0x3cb260113e3829cfU, 0x3d97983a3d70c8b4U, 0xbd46e9f43d356583U,
  0x3e216117bc9fc642U, 0xbd0b4f0d3d0d78cdU, 0x3a76b0e63cf13c06U, 0x3a9aec1d3d99da9aU,
  0x3d8c8370bd220f66U, 0xbd1ac41cbdd92ad1U, 0xbd6c5e14bdb10685U, 0x3ca923b7bb70c53eU,
  0xbddf76e13ca0bd02U, 0xbd99a7a1bded679aU, 0xbde395393e0ec05fU, 0xbdca34a4bd3b65bcU,
  0xbd962d2cbd81bba0U, 0x3e0275883d4ab7cfU, 0x3d399b793d444434U, 0xbc04009abbdb3b09U,
  0x3d0c7c7a3d58f7faU, 0x3d6fbb183c347599U, 0xbc879b873cff67d1U, 0xbca385893d7c4282U,
  0xbd6571633c2b242bU, 0x3d870dfb3d357caaU, 0xbcb533c7bd9bedc7U, 0xbcd415cd3da348c0U,
  0xbc7c7ce83cb2cda1U, 0x3dfe511f3cd70cbeU, 0xbdc429cf3ce49769U, 0x3d368c4f3d347f4bU,
  0xbcf5fe713e0817c3U, 0x3cb845af3e07af2aU, 0x3d2eb5d4bc1fc076U, 0xbd9a336c3d06f85eU,
  0x3dc722633ce30c05U, 0xbd94886f3db228aeU, 0xbd5c377dbd7cd2aaU, 0xbd140d5e3ca590e2U,
  0x3e074d9ebdad7109U, 0x3ddc9a753b385017U, 0xbb81fa01bcc3ee07U, 0xbd9b573b3c3391d4U,
  0xbdb68fe73d950f60U, 0xbc29e88fbded2ca0U, 0xbdf7cf303de99dc7U, 0xbd8170d83c842631U,
  0x3c90274b3cc81059U, 0x3ce803a33d51bec2U, 0x3cb8bf9cbcc55957U, 0x3da2227e3d831374U,
  0xbdf01dc8bca8507eU, 0xbcf2d8513dc266d7U, 0x3cc498fd3bfbd810U, 0xbd059f41bbde7407U,
  0xbdbfe592bd3908feU, 0x3d18c30ebb9473d6U, 0xbdf3222e3cc03a0cU, 0xbc97418e3dd32ed5U,
  0x38518bdfbc6341aeU, 0x3d4a3eed3c9b9a6fU, 0x3da3d6093e09020aU, 0x3d3e9e143d8f6d4cU,
  0x3e206ab9bc6e899aU, 0xbc96ab82bdc5bf89U, 0x3cc51304be099366U, 0x3df627dc3e1ef29fU,
  0xbc492c90bce46fffU, 0x3d8e41d23d72ada8U, 0xbcb7159a3de98579U, 0xbe0e12b339d5e87fU,
  0xbc03fcbfbd99f690U, 0xbdb82977bd382a56U, 0x3d8aa3acbcbc2b4cU, 0x3c585e5a3c6db448U,
  0xbd1cfb5bbddfdfabU, 0x3b44c6aabdcd8528U, 0xbdd7c2453d85e512U, 0x3d56cc72bda62188U,
  0x3df0ba32bc70ffe4U, 0xbdcb41263d3bd4d0U, 0xbd5d00663d8e0edbU, 0xbe0d6067be05a645U,
  0x3e3193243d8f3739U, 0xbd857ddb3cde62bcU, 0x3d2a978ebab19d29U, 0x3dbebf033e00956fU,
  0xbc95235fbcede863U, 0xbcec15a1bbb7f172U, 0x3df390dd3c34abf4U, 0x3cd61ff1be19ac98U,
  0xbda647263d483068U, 0xbd75436bbd8cc094U, 0x3d93de943d8936b9U, 0xbcdc9e85bdda1f30U,
  0xbc951d9e3df836b1U, 0x3cf696d1be14f936U, 0x3d84d826bd927294U, 0x3d2f2f983c7fb023U,
  0x3d3838f8bcc17309U, 0xbe1e3d723db3a897U, 0x3debb8e93dc06544U, 0x3d501e6a3d6342b0U,
  0x3d68e979bdffcad6U, 0xbdf8d2e23d6db675U, 0xbbee01d9bc246545U, 0xbcf341a2bca6f399U,
  0x3d7a47463dd2b60aU, 0x3d9a1fd93df3a99bU, 0x3b8dedacbd5515dcU, 0x3c1d5a6a3d27906dU,
  0x3e232213bdd4e041U, 0x3c145e503c86dcc6U, 0x3e005d47bd865f57U, 0xbd2202643d68983eU,
  0x3de862e8bbdc5720U, 0xbd561e29bde5699aU, 0x3da564f3bd6d51daU, 0xbc05b57f3d80665dU,
  0x3df7ce5dbd970746U, 0xbe11a1f23ce84468U, 0x3d506ae7bda4280eU, 0x3ca5d74ebe033674U,
  0x3cd46e77bd2b3b21U, 0xbd9b17233dde0709U, 0xbc2ad9d03dcf3799U, 0xbc383fd3be22f3dcU,
  0xbd8e13023e22fbadU, 0x3e68789abd1224eaU, 0x3c98213cbdf5d5eeU, 0xbdc285fe3cdedc14U,
  0xbd0d04b03d84091eU, 0x3d8a38d03df76815U, 0xbce03fa4ba4abf9eU, 0x3dc6c08b3dad6051U,
  0xbd1f07743d35ecc9U, 0x3e4235d13d8a0b27U, 0x3cf493403caf9da0U, 0x3d244961bce1203eU,
  0xbcaad9273d912278U, 0x3d733ac93e031891U, 0xbd14017abe338d96U, 0x3c5f69de3d1362efU,
  0x3d52727bbd96bc3fU, 0xbafcfe743e2db3cdU, 0xbd31ae163d141da0U, 0xbe2452b93c9a9d65U,
  0x3c64e3ebbcfc5853U, 0x3d444676bc9ada8fU, 0xbc583d5bbdba2ee6U, 0xbe1f3c673cc52d60U,
  0x3db67d5abcd04dfeU, 0xbc975f9abd21fcd3U, 0xbd5225e0bdb833b7U, 0x3c20ac24bdbcc607U,
  0x3ca60e4bbceea047U, 0x3ca768343c77cd12U, 0x3e0e01003c35fb8fU, 0x3d243b303ca580efU,
  0x3dfd7ce53c972b14U, 0x3d0b1c5b3c4c7a48U, 0xbdc2f8eebbdf8c55U, 0x3e13835fbd53cbc8U,
  0x3d7e9a003dff93a9U, 0x3d64b54f3e2abf98U, 0x3c9de6e1bc330985U, 0xbe12187abd69938cU,
  0x3def0486bd5c6efdU, 0xbd10ff853d19d8d3U, 0x3d29dceabdf9f4faU, 0xbdd752eb3db25ea2U,
  0x3de7f2193cda5150U, 0x3db5d6abbc99b6c4U, 0xbdba2216bd02e29dU, 0x3d2b4f2a3d9450f1U,
  0x3e2c1c003e1a9cb4U, 0xbd8269f43dacc74dU, 0xbd8c48633c34a792U, 0xbdaeb1de3ddb7be5U,
  0x3d076a89bdc9a883U, 0xbd193fabbd4368d0U, 0x3e038669bd14e934U, 0xbca19283bd3d2fefU,
  0x3d21a0a4bbbb7db2U, 0xbd2cbed53dba4684U, 0xbced78d93c611d4aU, 0x3d807b5c3de82af5U,
  0x3cc8143fbca3cf6aU, 0xbda00a863d93a386U, 0x3e212118bddf05e8U, 0x3d376c47bddb575eU,
  0xbd33a5a23dd166dbU, 0x3d81f204bb2551c7U, 0xbd4d9c19bdb099a7U, 0x3d9eb44f3d8bef60U,
  0x3d0323923d3ce464U, 0xbd07033d3ddd2f88U, 0xbd3b05c03d375c9eU, 0xbd8382603d82b39dU,
  0x3df8beaabd17457dU, 0x3da6a1efbe126dd8U, 0x3e332a4b3a8b055eU, 0xbaaf5790bd187923U,
  0x3bb082c33d9ac4a2U, 0x3dc2b164bd1820b2U, 0x3d59232abe17d843U, 0xbd12b5fa3d75e1efU,
  0x3d96d6d83d69f584U, 0xbc87afbf3d3f4490U, 0xbd1368883d654a02U, 0xbcf19ee03de00724U,
  0x3d426defbe3f419fU, 0xbc795765be29415cU, 0x3ccb1802b8130f96U, 0xbe6683c0bdbd5796U,
  0x3da496263cd23b1eU, 0x3d9d7a91bd21a821U, 0xbd261a07bd64bc0cU, 0x3c679d933dbe8ca8U,
  0x3da255d03dced097U, 0x3d954ffb3d8b9db7U, 0xbda1590fbdd18976U, 0xbd78acc7bd2c9d2eU,
  0xbdde2b453e1980d1U, 0x3d95eac5bb6396bfU, 0x3d7de74e3ce9b9d1U, 0xbd66403f3d169d0aU,
  0x3d6e86fabd45f5abU, 0x3dbfebc83d90b1a4U, 0x3c91f873be2992b2U, 0x3cc241b63a32af41U,
  0xbc6af2383d4dd516U, 0x3e43e57cbda625b2U, 0x3d604e963d793ffaU, 0xbc8d2d86bdf84d48U,
  0x3de6f6563e05ac79U, 0x3d7ab1e23d600d97U, 0x3d166160bd07aba0U, 0xbc2ccb063d061d59U,
  0xbda3946cbe3ff12cU, 0xbd350ad0bbc1f598U, 0xbbc034783d05c639U, 0xbcc6e995bc9e734fU,
  0x3c306056be1d51fbU, 0x3d5a66d0bd9af56cU, 0x3e17cfdbbe1b1587U, 0x3d1afe753c12c90cU,
  0x3d74bce3bd78af1cU, 0x3dc5921abd572464U, 0xbcb1f25c3c9ca3aaU, 0x3d7ad283bcc4c372U,
  0xbd64bd763dad3ac8U, 0x3dc54d04bdf8c68dU, 0xbda02665bd58753fU, 0x3cf4bf03bb34ba05U,
  0xbe1cf3823db67266U, 0xbd832c94bdddf8feU, 0x3d8342663df7b898U, 0x3d81f643bcc30ce3U,
  0x3d2e0930bd5d9a9aU, 0x3d63939a3d166c40U, 0x3dc2fa1fbaa9b70bU, 0x3bc2cce5ba3989cfU,
  0x3e3485303c52eaa8U, 0xbd32150c3c2e359dU, 0xbc9d2d8ebdad4ed8U, 0x3d5a14f83c190afbU,
  0x3d85e451bdc4cd57U, 0xbe0906cfbe22b0beU, 0x3cdf5f853c8dc9daU, 0x3d78fe473d629a82U,
  0xbb49c2453d09449eU, 0xbd07f0183d86847bU, 0x3d1651e43d07693bU, 0xbd13dc67bd4dad31U,
  0xba57e262bdf8c424U, 0x3c4a047638dfb065U, 0x3ddc54b53e08e992U, 0x3d03e7423d0f1e48U,
  0xbcb1c970bd864943U, 0x3ccec705bc5a9434U, 0xbc663a7d3c62a303U, 0x3dad146a3db32404U,
  0x3d5f0e23bd8d42a0U, 0x3c91eec9be020802U, 0xbdec1a76be3d6587U, 0xbd2fe532bd7c3eecU,
  0x3d42c1a73de85c7eU, 0xbd0fe3e1bddfcbf7U, 0x3cfb81cc3d66cdffU, 0x3d90043e3d694ecaU,
  0x3dc126ac3cd15338U, 0xbb1ab8fd3db11479U, 0x3dcd79163cc91976U, 0x3c0ae3d7bc19ac2eU,
  0x3d32cb4abd6c40f4U, 0xbe0ecd8dbd23748eU, 0x3e3de064bc9b7793U, 0xbde4a743bbe87bfaU,
  0xbcd1542abbe0d62fU, 0x3d964ec0bdebdddaU, 0xbdc0fb913d9ad7aaU, 0x3c78f313bc643455U,
  0x3dd1d9533e25fbc9U, 0xbd233c41bc109271U, 0x3cb963c6bd17a050U, 0x3c2aeb5cbc93214eU,
  0xbabdde0abdb90825U, 0x3d4092523d017ed0U, 0x3bad71293d8dd620U, 0x3de61700bcf4589fU,
  0x3b0a0523bdaa5deeU, 0x3d91dba8bcf45665U, 0x3c87f39b3d756c1fU, 0x3d7ed54f3d5b7833U,
  0x3aa49be43ca3c05dU, 0x3d3ac9c9bdbbc0bbU, 0xbdd5d94cbe6a77d2U, 0xbe325db6bd8c0d74U,
  0x3d01a5123b599722U, 0xbd917b90be1e2cb6U, 0xbdcf53c4bd8c0766U, 0xbd39f5b23e1abbecU,
  0xbd8fbd413e6a0792U, 0x3d00be953dc72f71U, 0xbde799db3de3a499U, 0xbc8b06913bea3605U,
  0xbda98aa23ca074bfU, 0x3c1cf7623d38d73fU, 0x3e0112ad3e2089a9U, 0xbe7b026fbd44e844U,
  0x3dc191e93dbc7ed1U, 0x3d7359fe3cd158e0U, 0xbe38d9a4bd5ab418U, 0xbc96330b3c8ad567U,
  0x3c3e55bf3cfacd33U, 0xbdf91ab3bc0287f1U, 0xbdad7f38bd045bc3U, 0xbbbbe05abb4c1e37U,
  0xbd6ca75d3d009868U, 0xbdcafc06bd50d69fU, 0x3dda5fbb3d75b8ccU, 0xbcc08eaebd347568U,
  0xb9c509a83dbcc5eaU, 0xbd6faff1bc95c7ecU, 0xbd637a113daa93f5U, 0x3c4e85243d5ea8fdU,
  0x3c7adb60bd72388cU, 0x3d0afd343d1d7c91U, 0x3a583273bdbe41a3U, 0xbc8cc884bccc5e9aU,
  0xbc88b18cbcdd4d87U, 0xbe25f0b13de3f7e9U, 0xbcb479fabbe0ef82U, 0xbdecd4933d54912dU,
  0xbbbdcc62bd8e2876U, 0x3e0f03843c8e5000U, 0xbdef31b1bbd07b81U, 0x3b8f96f2bdbfb7c0U,
  0x3dc6f4623e024bd5U, 0xbb859b1f3d67d67cU, 0xbcc572d3be16e631U, 0xbcc2bca3be13add8U,
  0xbd1215943d361415U, 0x3d945a5bbc5f1320U, 0x3ba80cfdbdca0f7aU, 0xbd728710bd366fa9U,
  0xbdf623efbdb169dbU, 0xbd21831cbdcb010dU, 0x3cb5fc96bdeec9b8U, 0x3d9a918cbd74c112U,
  0xbd2aa3b63c23d149U, 0xbc841adf3bb0e004U, 0xbdda6cf7bcd2dc85U, 0xbaa8986f3c986a8bU,
  0x3d0b5bb2bde557aeU, 0xbcb99545bcbd9569U, 0xbd39f817bd7ef02eU, 0x3d683bcbbdabd466U,
  0x3d33ebe0bd954c56U, 0x3de68cd9bd19da7bU, 0x3c41bea43cb0e6f3U, 0xbde22dc3bd1400bfU,
  0x3bfedfc93ab0311fU, 0xbe92e5b93cabce79U, 0xbd686c9bbd4e074cU, 0xbe015b44bde3a494U,
  0xbd50a9acbdaefed1U, 0xbd19c0023b060d83U, 0x3cc5cf29bd62f97cU, 0x3dc136093d9292deU,
  0x3d5e0339bddceebcU, 0x3d8e1422bc86a7bdU, 0xbc71bf69bcac577aU, 0xbc88ec24bc035ec8U,
  0x3d57650f3d226991U, 0x3dc2a23fbd7e598fU, 0xbda1a62fbbaf7e6eU, 0xbda9a0ca3d2e3c91U,
  0xbd6d992cbc523a0cU, 0xbdefccf7bd3bb3beU, 0xbcb490283b2f88feU, 0x3ccf5e6e3da8c2caU,
  0x3c9c1adcbc29aff9U, 0xbd8ec31c3bb1c838U, 0x3d6497a33dced910U, 0xbd8fcd7d3c0dbcb1U,
  0xbcb2869fbd35169eU, 0x3d274831be1c554eU, 0xbd1de1d1bc7e027bU, 0xbd39d7dc3bebb750U,
  0xbd647ec73d7cca84U, 0xbd687f58bcee2569U, 0x3ca049bfbd2dce71U, 0xbdd0386e3d754c48U,
  0xbd84b09dbd39073bU, 0xbe3556663d4d38bbU, 0x3d74eb9fbd91ec7cU, 0xbd9eac22bdb9ad4fU,
  0xbcf3e1f0bdd555bfU, 0xbdcaf272bcd7e861U, 0xbcce2462bd106829U, 0x3d6d81a03d62efa2U,
  0x3d6f1ae8be13d7b9U, 0x3ba42185bd8c5015U, 0x3d30522fbde810adU, 0x3bb8f12cbe1ce067U,
  0x3a3591913de28fceU, 0xbcf37cd63bcf5258U, 0xbd1b5668be0f0675U, 0xbcea7759bd60018eU,
  0x3c2910c2bddd8b8bU, 0xbd5c3ef5bca9ce19U, 0x3af5e2babda9fa69U, 0x3cf6c7e23d2e1666U,
  0xbc51cbd53da30408U, 0xbdd6d8e9bd428b5aU, 0xbd96b9953b3efe67U, 0xbe0ddbcdbd91c31cU,
  0x3d19dafabd495674U, 0x3d6ce54cbe142e23U, 0xba83431fbd66a697U, 0x3d86f292bc1fd755U,
  0xbe0528473d4c4a8dU, 0xbd89e8303db8af36U, 0x3c99f4733ca1f039U, 0x3db9024ebcd082f3U,
  0xbd8c5d473d714122U, 0xbd7a5d78bcba310cU, 0x3c8a1b103cda9c94U, 0xbd3986dbbd868c76U,
  0x3dbe8f423d71c190U, 0x3d151d0abc9fa54eU, 0xbd5b66b3bd0ecd79U, 0x3d95d0bb3ab4cbaaU,
  0x3d99e07e3be335d7U, 0x3d7a87cd3ce35acbU, 0xbced30c4bbea8513U, 0xbde9b0debd1b0aa1U,
  0xbc969274bc83766cU, 0xbd13276fbd71674eU, 0x3e19bedebd8a1773U, 0xbd9c9bb63d5a0e95U,
  0x3cf37f4b3d200c38U, 0xbcb75933bdb4fb18U, 0x3d0ba7c7bd9eb681U, 0x3dc16c7e3cf4d54fU,
  0x3c533873be095162U, 0xbcb3d9efbdbd6b2dU, 0x3dd0247ebdd0ea2fU, 0xbc75fd463db3d668U,
  0xbd83f81b3e11b807U, 0x3c1284c93cab4da6U, 0xbd847f123d8ae92cU, 0xbc13123dbc71194bU,
  0xbcb75673bc8f36cbU, 0xbda6b88d3d78f46aU, 0x3cde3c183ba31c0bU, 0x3cfff6dcbcceacaaU,
  0xbd2490773dc99fbdU, 0x3e097537bd916498U, 0x3d4dea933debb4d8U, 0x3d555c203d3ccf00U,
  0xbd613f6c3d8bf607U, 0x3ddb5737bd5cda2dU, 0xbdc1f84e3d141fbaU, 0x3dd73f3a3d9f4ceeU,
  0xbd3cba923cbf2101U, 0xbd2a85dabc84cbcaU, 0xbd8fdafb3d93e478U, 0xbcd688ac3c64ce5cU,
  0xbc809e533d647d66U, 0x3cc06df23c40c72aU, 0x3dbf05f6bd13bceeU, 0xbb1c0fc4bcd44799U,
  0xbd408f933d02b080U, 0x3c8c74e6bc565c49U, 0xbd91aed53d4a16b0U, 0x3cbdb424bcd67a99U,
  0x3d2f4351bd66b375U, 0x3cae54bbbd4b2b7aU, 0x3d2bbf25bd9914fdU, 0x3b920b87bd11dd7eU,
  0x3cfbe9843b739ae6U, 0xbd8c2c863db27738U, 0xbe1854353ddff295U, 0xbd87f3b8bd4515ffU,
  0xbc8fa5513d54052aU, 0xbde9700b3cf4a026U, 0x3cc94b36bd052874U, 0x3c63429cbd478e8fU,
  0x3bc74731bd0efcd0U, 0x3dd82edcbdc03e50U, 0xbd19ae503e0029d7U, 0xbd0219cf3c373f0eU,
  0xbe160c16ba96219dU, 0x3e02ec59bc8854a2U, 0x3cc04409bdb2e366U, 0xbb1fe13abd89f1e3U,
  0xbe48d32d3d51badaU, 0xbbedf6a13ae7b3d3U, 0x3cd982f73c6f3affU, 0x3cb827743d8954b8U,
  0xbddc5608ba55faa3U, 0x3c9673b6bcb699ebU, 0x3df7462e3dd13fdbU, 0xbc5c5493bdb64b25U,
  0xbad813cabd6aaba0U, 0xbc0445aebd388957U, 0xbd26f8b3bd07f502U, 0xbdb466dfbc8648baU,
  0x3d338d723d7ecd29U, 0xbc33b9303dca4f9fU, 0x3d06af133c49782eU, 0x3d21c3e33d24b27fU,
  0x3dcab78bbcfc850dU, 0xbcb83274bd4f032bU, 0xbddaea33bd162864U, 0x3c5ddb80bd6d1a4bU,
  0x3de3f3ecbb278b29U, 0xbd40d2e3be1b5838U, 0xbda3a806bde8a233U, 0x3cb6bdf3bc100059U,
  0x3cc132a03ab0ef9aU, 0x3d519bbd3abf1380U, 0x3cfe1a72bcc0353aU, 0x3da25ff8bd43a8c3U,
  0xbc36745e3a8e2b56U, 0xbcd50641bbf7618dU, 0x3e26c23c3cd5de56U, 0xbd42b0cdbda93f81U,
  0x3d42a668bd3ec02fU, 0xbb32e989bcd51a97U, 0xbda420e0be0a1260U, 0xbd5a39da3d8b2ca8U,
  0x3bda7fc13d290061U, 0xbcd41ff33d2c29ddU, 0x3dd30bb2bd81ce64U, 0xbd5df2eb3d7e749bU,
  0x3ded4654bcfda46bU, 0xbbca4b243d20797bU, 0x3e00a53b3da19962U, 0xbd841cec3c1300bcU,
  0xbb8ab12cbd03ecdaU, 0x3d992be53d829797U, 0xbdebf8963d8ad538U, 0xbd95dc0a3cc7e95aU,
  0x3b785d20bd9df660U, 0xbd146e4f3d0ab91eU, 0x3cda2a19bd812f05U, 0x3cd854a5bdea2b57U,
  0xbcc76bdfbd90616cU, 0x3d558443bdf72158U, 0xbdeedf45bd56a704U, 0xbd1c1b17bd8d1417U,
  0xbc2830883da7be30U, 0x3c3c99ecbd890b6cU, 0xbca7cbcb3d1d9adfU, 0x3c542a653d885f51U,
  0x3b29b83e3d376acdU, 0x3d9018ba3ca6ceb5U, 0x3e11fca4bbaef606U, 0x3b00c09fbd22da28U,
  0x3dcf6b2f3dc7db16U, 0xbcaf24483dabb179U, 0x3d00ad1cbd6d5e3cU, 0xbd968231ba9decceU,
  0xbb0dda7fbdda6e96U, 0xbd84fe83bd3f33eeU, 0x3e1f7216bd9f18b2U, 0xbd2709b4bd649712U,
  0x3dc6de11bcaff9d4U, 0xbdc3f4b63a6c01c3U, 0x3de88d223cb01d18U, 0xbc6201253d2975edU,
  0xbd899a163ca70106U, 0xbc6a42253d895104U, 0xbbcb0fa53cae1c47U, 0xbd27ea18bd991492U,
  0xbdbe4fb13cc881b2U, 0xbd23c5353b9f60d9U, 0xbceb8c2abca03ee2U, 0xbc972a79bd7a93a2U,
  0x3b538121bdc6f2d9U, 0x3cf8b77abdcaaa25U, 0xbd0f9bfabc0d7c5cU, 0xbd2d1170bd295993U,
  0x3da1f32fbcfe4d2bU, 0xbd07eacc3d87b37aU, 0xbd89f07fbcd282e1U, 0x3bcdc42e3d6bf1f2U,
  0xbc20f4773d01fa82U, 0x3d19d97fbaaa6e8dU, 0xbd914dab3cf1e31dU, 0xbdb54dea3d8a6754U,
  0x3bbbe8813dc2c70aU, 0x3d83f0a0b9c61715U, 0xbdb12fd6bb2fa099U, 0xbd07849abdc77971U,
  0xbc9c67e9bd9ea276U, 0xbce7107b3c778bb0U, 0xbc4943303c1a09e4U, 0xbda307e5bce7b2c8U,
  0xbdbd0e2dbd27f1fbU, 0xbd8e71793c24d4baU, 0x3d3df4d6bd23f7ebU, 0x3c513e76bc66d530U,
  0xbd48ef88bdebaf35U, 0xbc97b54cbd9b27d5U, 0xbcfe1dcb3b3c98feU, 0xbd130c5cbd5e7492U,
  0xbd03943abb1de5cbU, 0xbb4dd22f3d9aedfdU, 0xbd41d779bd820c4eU, 0xbd09eb3dbdcf5066U,
  0xbcdc18183dca0a26U, 0xbbb367443bb9d539U, 0xbc051918bd0f879dU, 0xbc6584ef3dcf92dfU,
  0xbc3429183ce48465U, 0xbe01c1723d09ea12U, 0x3dfb9be0bc6ee473U, 0xbd8440f8bc00eb13U,
  0x3da897d23d7df421U, 0xbc331f033cf5327eU, 0xbd45a2823c6feecbU, 0xbd057b68bc788f1aU,
  0xbd5b9995bdbb29d0U, 0xbd62f913be081b5aU, 0xbd1a3ea23d6abfb5U, 0xba1704e33dba50ecU,
  0xbd5bf232bcca945cU, 0x3d0cb1413d1c7c88U, 0xbdb7a9453da47413U, 0x3d679d383dca9670U,
  0x3b4cbb783d7cf5b9U, 0x3c6166f13d3f2732U, 0x3cd953d23d076d9bU, 0xbdfbc4883c8fdd88U,
  0x3c6239163d144e88U, 0xbc3351023c408735U, 0x3d65c8ec3dd83ebcU, 0xbc0dc73e3d926fe2U,
  0x3c0e3dc2bbaa1eacU, 0x3c66dad13dbd836dU, 0x3ca804a63d1aa420U, 0x3daa26fc3dd3ab4eU,
  0xbcfe7d733d8c66d9U, 0x3b2357b43d8cc166U, 0x3d680c10bc94b17bU, 0xbd43d5733d847213U,
  0xbcb35196bc876fa3U, 0xbd9e372a3cdf4cb7U, 0xbd28588dbcd58ac9U, 0xbd93687fbd122b0cU,
  0x3d8f0a883d9235b3U, 0xbd4df29f3d7b21dfU, 0xbc701758bc6d5105U, 0xbca48204bd25ed0cU,
  0xbc879b66bdc0bbb0U, 0xbca09f5bbe11cbe2U, 0xbd5b65283dc02829U, 0xbd4adaea3d723cb1U,
  0xbd1b9ff9ba888171U, 0xbc953e12bbdcf6feU, 0xbd465c2f3d9dfbe3U, 0xbd4de2e23ca5567eU,
  0x3d7f0077bcca7f53U, 0xbc4bd6ac3d64458dU, 0x3d3603513cd00de2U, 0xbd90ab923d8da678U,
  0xbc677edfbdec928dU, 0xbca1f137ba44547eU, 0x3d2679d53dc7ae19U, 0x3c1daff9bc9c211dU,
  0x3d7a9cdc3dbe5e0aU, 0x3d2ea01e3d4e6f5dU, 0xbda6ba0b3daf5d17U, 0x3d9cb8f93e045ff0U,
  0xbc9480123d76c6e2U, 0x3da22f8d3d347bcaU, 0x3c4d9c9bbddb6e10U, 0xbd81e0053c498c2eU,
  0xbd5906cc3d49b222U, 0x3cfe12f1bd189617U, 0x3d245a86bcb0618fU, 0xbdeca52e3c42ad75U,
  0x3d5136e33dab70f4U, 0xbd2f8fb6bad9062bU, 0xbca836943c661a6bU, 0xbb6e78743d603f21U,
  0x3d812e0cbc85803bU, 0x3d716953bcea172cU, 0xbbcc2bf03d5c4654U, 0x3d0da7e53dd90ec6U,
  0x3da34796bdbdf1d6U, 0x3b809738bbff11d0U, 0xbe03db0cb9e43a33U, 0x3d6762fb3d4256c9U,
  0xbd1c3f82bb729bcfU, 0x3ce2b16e3d74d886U, 0xbd714f9aba26997dU, 0xbe003313bd3c10dcU,
  0xbd3159cbbdb49710U, 0xbd3d3e263e0df2f0U, 0x3dbfea563d736d58U, 0x3d20c4773cf33a3fU,
  0x3ded9b223ce7ff2bU, 0x3da01f12bd322deeU, 0xbe14799dbd6a6628U, 0x3db312093d44e94eU,
  0x3cb7a1e0bc760180U, 0x3ddbe08bbdb444a1U, 0x3c4bf5f3bdbf6accU, 0xba62257dbd89d5ccU,
  0xbd72d0dd3dbb4f24U, 0x3de13dca3d199777U, 0x3d85f889bddba129U, 0xbd05ced63d9c4952U,
  0x3d7cdb313e09faaaU, 0xbd6d16213ded7c2cU, 0xbd164636bd85103aU, 0xbcb28dc93c213a79U,
  0x3da712f03c17f08fU, 0xbd7c51ff3d51925bU, 0xbca137983cbcd986U, 0xbbcfcae73db68dccU,
  0xbc96d5b2bda14c9aU, 0x3bd5fc613ca25c13U, 0xbe01436d3d815982U, 0xbd468ddabd5186c1U,
  0x3e0ff7813db21c80U, 0x3d478334ba719897U, 0x3d02c8553db2fa76U, 0xbcbe98143d8c6935U,
  0xbd2d490ebe0e2d02U, 0xbd7dcd6cbce9b566U, 0x3db65b643d6cda87U, 0xbd97eb8abc9a9c18U,
  0xbd2becee3d5bdb04U, 0x3ca454113d1aa557U, 0x3db7fd533c1e8843U, 0x3aedc7c0bd483816U,
  0xbd8f85573dc3444cU, 0x3d52fcf23b9be97fU, 0x3dd9180dbc84f69eU, 0xbd413721bcae032fU,
  0xbda796403d15e9f4U, 0x3c777e963b6352f4U, 0xbdb96fe6be06c7efU, 0xbde7f7babc76489eU,
  0x3e1bf3fb3d5711a0U, 0xbdc0ba153e05e978U, 0xbbe6a77b3dbc4c5fU, 0xbd621a763db27f08U,
  0xbd6df52cbc5fead4U, 0x3c62ce8a3db82e1aU, 0xbbb1732b3cef1dcbU, 0xbe0368873d8a1e92U,
  0x3d2735ba3dc76bccU, 0x3db088343d9e1691U, 0xbe14f0e43daecbb8U, 0x3da61c99bbaea104U,
  0x3e37d8c73da38544U, 0xbc9f64c73c81ab60U, 0xbdb8b73d3c8f4d9fU, 0xbcf6c3ed3cffb939U,
  0x3bc2dc82bd2e9e9fU, 0xbd83d5403b7bbd5aU, 0x3e0ad359bcdff6deU, 0xbc1e26e8bc3f7329U,
  0xbd49fb9c3c20630aU, 0x3db80ee53ccfcf2cU, 0x3c57b0083dcb58d8U, 0x3bf265ff3c31ee0aU,
  0x3d82b762bc9203dfU, 0x3c8372103ce6254bU, 0xbd4f44d9bde2f26eU, 0x3ca708803d5ee83cU,
  0xbb595a173b1a8b59U, 0x3d166036bd9b9029U, 0xbe08054dbe07474cU, 0xbcef80663d36ab11U,
  0xbd6500dbbd655ac3U, 0xbd26c521bcfabff5U, 0x3d3f77e4bdaada89U, 0xbe0525eb3cbcf845U,
  0xbc30b5d13c00a35bU, 0x3dc0359fbc1c998fU, 0x3dc2a63d3e49e395U, 0xbbfc41d7bd4e1b68U,
  0x3dd6a7d13c5714d0U, 0x3cccd3193d140523U, 0xbd878ca3bc4d57c0U, 0x3b103002be1207b0U,
  0xbd6f9fe3bb64328bU, 0x3d22eeb53d1fbd7eU, 0xbd111c003d97f406U, 0xbd9fefd83d9d5cd3U,
  0xbdde87f6be1061fdU, 0xbe0751b0bd70a4b4U, 0x3dbc9738be259f6fU, 0x3d22d4a7be03f521U,
  0x3e15b6a93ceb0509U, 0x3d3f711e3c9533b1U, 0xbd8a846b3c567ddeU, 0xbc4665103d003e55U,
  0x3da878903ceebd50U, 0x3d82d31fbd11a668U, 0xbc53decebd10346fU, 0xbd38e3f2bdb409afU,
  0xbd0b73e13d9a82e6U, 0x3d948b51bd0be6b8U, 0xbc06c30dbdc1ab97U, 0xbcb5c6bf3d883ffcU,
  0x3dc0953abdbbf69bU, 0xbcc3047d3bff674aU, 0x3d4f0feabd912da0U, 0x3cc7f18c3d203395U,
  0x3da5e206bd91f5fdU, 0x3d6d022b3d2c6e84U, 0x3d93f720bd77891bU, 0x3c5a29ec3d9fd304U,
  0x3c0499653c64132cU, 0x3d48c6b4bdca6a8eU, 0x3ce5734fbd3aa291U, 0xbdb4137abbb232a9U,
  0xbb626186bbb35880U, 0xbd1120b2bd037d09U, 0x3d7798a83d186a26U, 0x3d0f31a93dd485c1U,
  0xbcd57f883c87e5d7U, 0x3c7d6890bc73854eU, 0xbdac9e63bd6b7746U, 0xbd1b038ebd85baa4U,
  0xbdc200bbbd900fe8U, 0x399257dfbce81162U, 0xb9f7713bbdf13d5dU, 0xbd07c7dfbd773139U,
  0x3ca80c123c5788dcU, 0x3b8041f43d08402aU, 0xbd9b11ed3bb6083fU, 0xbd8182d5bcfd02a6U,
  0x3d0d2367bc0ae965U, 0x3c3287d4bc9b2f85U, 0xbcccb61cbd8f74aaU, 0xbd0c50c73d85e4acU,
  0x3c541650bd37cc72U, 0xbda5591a3b88b37dU, 0x3c340aa7bbc0a923U, 0x3d30ce9dbcc24481U,
  0x3d3f65bb3b46bdc9U, 0x3c2e08f03ccec8c3U, 0x3ca4b987bd496a49U, 0xbc410dd83d22d7faU,
  0xbd268c51bc8d0456U, 0xbc47596ebdad397aU, 0x3d3e23f9bdb078c6U, 0xbddf0f97bb5b4d1eU,
  0xbd32719bbd9ea132U, 0xbcb220b2bd8e4019U, 0xbbd6209bbc3dc16cU, 0xbcb5de293d4cb1a7U,
  0xbd598a57bb9de5f6U, 0x3ccd7a09bcc5b1b3U, 0xbdf9e27abc6a0f0eU, 0xbd1eab09bc365b90U,
  0xbd856ec93c4dde37U, 0xbd9554953ae28e86U, 0xbccac08cbd561f33U, 0xbd41416bbddb3006U,
  0xbad3e58dbcb47a6dU, 0x3cf3a9b9bd2aa7a2U, 0x3b7f5c8abd6f1ac8U, 0xbd51431abb93ee19U,
  0x3d8cd3773d54de26U, 0xbc0d7fdbbbc4f238U, 0x3d2aa06bbd1535ceU, 0xbd8cb3be3d04df7eU,
  0x3931cbe5bd5c5c49U, 0x3d09968b3d093584U, 0x3d1e7cfebd631449U, 0x3d8c68b73d8887f4U,
  0x3ba01aa43cc9a615U, 0x3dc34a363d52fce7U, 0x3ca1b2ffbdcccdc1U, 0x3d311c52bd2c32eeU,
  0xbd87039ebce0e947U, 0x3d3f258ebc4ef56fU, 0x3d4d8521bd9f0fbcU, 0xbda9a399bc276b07U,
  0xbc3c12b5bdb15e5fU, 0xbdb210dcbc65e7ccU, 0x3d4598db3beb8cb0U, 0x3c95646f3d9d5b1dU,
  0xbe003b35bd97b1edU, 0xbc0096ffbd9de4b0U, 0xbd3c559dbc55b927U, 0xbcb117333be6e190U,
  0xbd96b18c3c45c75aU, 0xbd405c6dbb3a7c52U, 0xbca64f78bdae680fU, 0xbd14f61dbde4a6a6U,
  0xbd40e37dbcaf20baU, 0xbd7888093c8213bdU, 0x3dddeb503ccf5893U, 0xbcef17a63bd461d9U,
  0xbd33144cbe2def27U, 0xbca8f6603de12ca3U, 0x3db09be5bc45a387U, 0x3d5f97d4bccef238U,
  0xbca5872ebcc75a50U, 0xbcc987713d607155U, 0xbc9e6cf5bcc6922bU, 0xbcae120f3d96f2c4U,
  0xbde13685bd1cbeadU, 0x3cffd7a1be0907ebU, 0x3d16fb1a3d46f57eU, 0x3d5cd31fbb0c5003U,
  0xbbc70d373c6af7fcU, 0x3d03ee2ebd1e90d5U, 0x3d532a77bce50554U, 0x3dc2e499bd82e4d6U,
  0xbd748ee1bcbedddbU, 0x3d3e4e163d34701aU, 0x3d36df623c8eebc3U, 0xbe33a837bd0459c5U,
  0x3d057084bd6a92e5U, 0xbbc2ce563c631eabU, 0xbc2a31823d4ce570U, 0x3dab5107bc6b78e6U,
  0x3d806818bd8ef20fU, 0x3cf9ce08bdc0666cU, 0xbcd159013d1c3c7fU, 0xbbfde8fcbb36891eU,
  0xbc3511b8bd96891dU, 0xbd89a28a3d0876d2U, 0x3d732c763d8fc0f9U, 0x3cb3d11d3cc49b82U,
  0x3c7192bbbde67d83U, 0xbdf566f33c09c232U, 0x3de065f2bd688e95U, 0x3db634b5bd598fddU,
  0xbca9b1af3c2f6edaU, 0xbc2856e73d90f192U, 0x3d8c5da33c3fb081U, 0x3dda174cbd0577d8U,
  0xbd3b6a5abd5966aeU, 0xbd8d8441bcb4188cU, 0x3c8fe1a5bd30730fU, 0x3d4630013d6784d2U,
  0x3dd35a40bc29e37fU, 0x3da5b84f3cb00103U, 0x3daeb0f83d606666U, 0x3c49f218bdddd7c0U,
  0x3d0877fcbd886038U, 0x3cb28922bd4e77fdU, 0xbbe3cbf4bd0635b9U, 0xbe218ad3bd476b75U,
  0xba87477bbd95bcc2U, 0x3da62e10bd633cc1U, 0x3db561e03d1421eaU, 0x3d8fbd4b3c7fd1c4U,
  0xbc3c280abd7e9196U, 0xbc8acd2fbd4f1975U, 0xbd4b03983d304bd0U, 0x3c4ffc7a3c4929c8U,
  0xbd55f54abbd1aae7U, 0xbcc86d6ebd812498U, 0x3d98c0833dd89f21U, 0x3dd4ac003d5f6174U,
  0xbdba66a4bd7c0a54U, 0xbbd856a73dca8ed1U, 0x3d8827a1bc317362U, 0x3d7aa546bcdcf5deU,
  0x3ab07fbe3d459a72U, 0xbd50b1efbd41dac8U, 0x3d9623babd7e2d7eU, 0x3da7957b3c23853aU,
  0xbde03192bb8f201bU, 0xbcfe78a2bde12b33U, 0x3c28b6413d7b0062U, 0x3cd4e8803d5486b4U,
  0x3df829623d282d9cU, 0x3c99514c3e0e2d5cU, 0xbc001bc23b7b50dfU, 0xbd879a6fbd0709b5U,
  0x3cb236aebd49eaceU, 0x3de371b63d2587a5U, 0x3d70cedb3cac3535U, 0xbe1eb23dbc5e08c6U,
  0xbce15482bca48800U, 0x3db076c53dbb7af2U, 0x3d5397353da0d2c2U, 0xbb9a715c3dabff4bU,
  0x3d8b73e2bda31be3U, 0xbd9f0d15be1b9017U, 0xbd8454033d128943U, 0xbd3138a8bcf0810aU,
  0x3e086455bd3e9926U, 0x3d8123acbd5db140U, 0xbdd987debb83aa92U, 0xbe204beebde21aaaU,
  0x3c6458e73de656faU, 0xbe0cee663db32de5U, 0xbd26b70dbe22066aU, 0xbe3996183dce448aU,
  0xbdfe87133d107550U, 0x3db8cfe0bcabb6bfU, 0x3df00896bdc540ffU, 0xbd2bb2713d904d00U,
  0xbc86ab00bda01a54U, 0x3cbc5dc93e29d7e7U, 0x3dd2fc14bd2ceb74U, 0xbd18011bbda5dd59U,
  0x3dbc75403c2f7762U, 0xbe268f7fbd78edd6U, 0xbe2af2e5be2d074eU, 0x3e1868a33cc74d59U,
  0xbc4af630be3bee98U, 0x3d62614e3cfaa86fU, 0xbe0131fdbdee10bfU, 0xbdc44c3cbcf9d5a3U,
  0xbe0db13abcf9ab65U, 0xbbb35dffbdd9c6ecU, 0xbdeb7f873d80c677U, 0xbd225b40be31a106U,
  0x3e1565e3bdcf6b3cU, 0x3d4242dbbd09181cU, 0x3e16b87b3d91ed1fU, 0x3e48d006bdc06831U,
  0x3dba43943d844dfaU, 0xbdb4f7413e4770b8U, 0xbd00fd893d4458b4U, 0xbe2e2cb5bd064638U,
  0xbde97b603d1f9741U, 0xbd20af30bd12d6e8U, 0xbddd46febbfdecb7U, 0xbe274b5c3dd06144U,
  0xbd7f4eec3ce81272U, 0xbe26720abdc2920fU, 0x3da37c773c0ebef9U, 0x3d24d5313d31f30eU,
  0xbaa4bcd53c92d075U, 0x3e2a87fabdf1f98bU, 0x3cce54e93d9e5ac0U, 0xbda003f1bb49f823U,
  0x3d8cc8b63d4f8f55U, 0xbe2b9854bc9c6823U, 0xbde1a4e2bdfb3799U, 0x3d4a2415bd267f58U,
  0xbc97d8a2bda58c2dU, 0xbde192dabda89373U, 0xbe1caa4bbcd85828U, 0xbc51c5d3bda3bff4U,
  0x3d0e7fe0bc752dcfU, 0x3d8451cfbc92e7c6U, 0xbd4597d73e1ba7a6U, 0x3d792585be0db515U,
  0x3ddfdadebbbbdcbaU, 0x3e07688d3dc362f2U, 0x3d8c74033d255ab5U, 0x3dd5f98f3d4aa262U,
  0x3b024dc43dade6caU, 0x3d7eda703de382a3U, 0xbd994274bc03911aU, 0x3cae8a62bcbcc08dU,
  0x3d8ba6453d2d1407U, 0x3dc271133c2ca664U, 0xbd1ef32a3dee15b7U, 0x3dbce6383cd55e2cU,
  0xbdb9d2f53bf11955U, 0x3c842a7cbde676e6U, 0xbd62f0fc3d2f2af6U, 0x3cee47c7bd8346e8U,
  0x35c823423da06f68U, 0xbd849a93bcbd0c8bU, 0x3d5c1892be0c4165U, 0x3d08fba4bd827cd3U,
  0x3c482d813d05a96cU, 0xbe6bf763bd1f278eU, 0xbd5810f4bc90d013U, 0xbdde83533da65cfcU,
  0xbde1d1f8bde0f4adU, 0xbc719a48bd09ba37U, 0x3d50e3b63da5f590U, 0x3d4910eabcbd963dU,
  0x3d6fb93b3d447299U, 0x3db5a1bb3cc4b98eU, 0x3d710d633cad6929U, 0xbd8fb4fdbd8ac271U,
  0xbdb2733f3d4c42e7U, 0x3e0eeb293e808700U, 0x3e3eb99f3dda3250U, 0xbd8556f43d1202e1U,
  0x3d14f1173d67f1e1U, 0x3d9102633c68793bU, 0x3ca06c83bd957fd7U, 0x3dd5ed00bcb9ac99U,
  0xbd91c0873daa0e3fU, 0x3c60facabd776af0U, 0xbdce467d3dc74bc0U, 0xbd40ad45bd943fc4U,
  0xbc4af33cbccdbde5U, 0x3d18cf973d5bab0dU, 0xbd136394bcd81fe5U, 0xbdcba4a03c9af6dfU,
  0x3cccc3da3d7ceb32U, 0x3c55a220bcf3109dU, 0x3d2530473a9249a6U, 0x3d351d583d42d390U,
  0xbcdee931bc0196cfU, 0x3c37bd34bd4f96e0U, 0x3dfaecde3bdf24f2U, 0xbd1bcac93db2e487U,
  0xbd3f3d5c3de14bedU, 0x3d3b91d8bab8bbc9U, 0xbc7bd6ec3c77b7c9U, 0x3deb86143d1ccce7U,
  0xbd71b5713c831e42U, 0x3d9262963ade0f4dU, 0x3da7cb0ebd2e74f4U, 0x3c52090f3d6a7f69U,
  0xbd31a2733e2060f6U, 0x3c0f3701bc9cce74U, 0x3b91864cbc57293aU, 0xbc98700e3d37dff6U,
  0x3da68098bb9b17b3U, 0x3cb83bcfbb2457adU, 0x3c729189bde499e7U, 0x3d70ae41bd4bdf6aU,
  0x3c33bf773c29287dU, 0x3da55af9bd53dcbcU, 0xbd9e69363de058afU, 0xbc58d8cbbd8080e1U,
  0xbcbd85a83cd6d29bU, 0x3d1e2f083d711dc8U, 0xbe009dc6bc52999eU, 0xbdfa04ba3dced27dU,
  0xbcafc7403d46ed74U, 0xbc4da1713d84b620U, 0x3c587da0bc0795b2U, 0x3b96cde8bccabb36U,
  0x3caad211bb9d201dU, 0xbcd5878fbd18af73U, 0xbc869b5c3d8a09a0U, 0xbb3a1e213c9e7c03U,
  0xbdb0599a3def4820U, 0xbb00d2af3d204008U, 0xbd4c2db5bd5eca6eU, 0xbbbf3094bc7145fcU,
  0x3c1c3d283d3fe57bU, 0x3c9e5c4dbc881479U, 0x3db2a0fd3d19a41fU, 0x3cb6198abd72badfU,
  0xbd0b23e93d0ddbb7U, 0x3b1b608dbcb1cf59U, 0xbc5fd8d63bca8d2eU, 0xbd3c7b713d3aa781U,
  0x3d5d404f3d32aa95U, 0xbd95040d3bbb0205U, 0x3cbaa6a5bdf63586U, 0xbd2065eabd887d94U,
  0xbd6b227b3bbd29ceU, 0x3d750c4abdc683d0U, 0xbd2924143d88185fU, 0xbcd3f4a93d421aecU,
  0xbd4040deba74cd13U, 0x3ce9912b3d3874feU, 0xbdca8694bd126ff3U, 0xbdc85b523e0ee63aU,
  0xbd48189d3d26e9b9U, 0x3d04059fbd8d100aU, 0x3b99d6a0bcbe4261U, 0xbbccd6e7bd37154bU,
  0x3d4b0e5fbc0b5efdU, 0xbd42c7983d687f1eU, 0xbd62f1503d10e0e4U, 0x3c841e53bce82a88U,
  0xbb22d2fdbdaf9c58U, 0x3c8db34bbc8a2984U, 0x3cca03b43cb25e10U, 0xbd10ed3fbce53e76U,
  0x3d5b66c7bd0a8a59U, 0xbd8e3051bce8acbcU, 0x3d1bdef7bd8feefeU, 0xbd68cbf3bdbbe749U,
  0xbbcbbbeebb5239e1U, 0xbc60b1e8bd57d1b2U, 0xbd8a104bbc0fef8bU, 0x3c3d9927bcb7e558U,
  0x3d5047a6bc88b0e7U, 0xbbb6c5eb3cdfa4c1U, 0xbc3b1bc7bd808dfeU, 0xbcf52eccbd406ee3U,
  0xbcac1b563e176a86U, 0x3c295aa2bcdf10f5U, 0xbd2d0bb73c4fbae1U, 0x3dddcdd53d813b95U,
  0x3c2ae022bc9001aaU, 0xbcbb548dbd68b3a6U, 0x3c718237394132eeU, 0xbda62d5a3d332f20U,
  0x3bebcef7bcbfe6cdU, 0x3c148e2b3dabc920U, 0xbc39b627bd249d0fU, 0x3dde3c96bd4698d9U,
  0x3d3b97f0be09562cU, 0xbd6297a9bdf733c4U, 0x3aa2fb603d49497cU, 0x3b2faded3d557051U,
  0xbdd04e1e3e2b8735U, 0x3d04fe18bceddd6cU, 0x3d5c7f77bcb3d889U, 0xbac271403d9321c5U,
  0x3da4c7093e0283c3U, 0x3d5edc223ca79f38U, 0x3c9342e3bd43418fU, 0x3cb3acc6bcf2557cU,
  0xbd26b3c7be4e19bbU, 0x3c6e71c9bd80b67bU, 0xbd84fa8abdb3d1b7U, 0x3c3fd8673dd0aa56U,
  0xbc80aff4bb0bd6b0U, 0x3c7516e0bdaa36e0U, 0xbc54242c3c121843U, 0xbb6b6a80bd39bf40U,
  0xbcd502b03d6f42bcU, 0xbcc23f40bc2ae9f9U, 0xbb245ee7be1100c2U, 0x3d2a96c93c5ce847U,
  0xbd369db43c68405cU, 0xbcd8ccfcbe26f9e2U, 0x3d3a865c3d75e2daU, 0x3d125c72bdaf5924U,
  0xbcd27503bd5b6a1dU, 0xbd6b046c3e2d2d26U, 0x3dc9e1bdbccc6fc4U, 0xbce32eb1bca5dad0U,
  0x3d57f09bbdaf3f1aU, 0xbdc969a1bdbc1858U, 0x3b6f1dbbbcfcad18U, 0xbe2306203d3c2a56U,
  0xbc9fb36d3ddaaba4U, 0xbd6a341abdca3814U, 0x3dcd5bdcbd332a3dU, 0xbc8b51f93d3fefbeU,
  0x3dc9c8c43cdf886dU, 0xbd158d3ebdadc2c8U, 0xbc9422053c51eb1eU, 0x3d3cb465bbe98ab2U,
  0xbd3f5129bda09461U, 0x3d0b40bebc942813U, 0x3d9fbc31bd157c27U, 0x3bb4a8533d363155U,
  0x3d24869cbdcfd376U, 0xbd3f95413bbc1fa5U, 0x3d4c09acbd8b1ffcU, 0x3b9c7320bd9d75f5U,
  0x3cdf615e3d5bce10U, 0xbe07acaabd0f3dddU, 0x3a84f60abe2b2da6U, 0x3ce335563d8d4ab9U,
  0xbd8706ddbdac1d95U, 0x3dcac288bd013ee4U, 0xbc1b08f6bcd61c96U, 0x3ba1b016bd084500U,
  0x3c3d3ed23dc83057U, 0xbdbfb2103e26fa98U, 0xbd92b4e7bd759d78U, 0xbd6b17b1bce79f00U,
  0x3d8558bebdad9ac8U, 0xbcb99fbebcb00de8U, 0xbd97077dbded50baU, 0xbdb5e705bbc745eeU,
  0xbc1e5da1bdb78d43U, 0xbd8c24623c6b3325U, 0x3c4153febddaf24aU, 0x3d906f583d09d10aU,
  0xbd5f7de5bbd6de0fU, 0xbca66f72bdaba4b1U, 0xbd9a7cccbccbb3b4U, 0xbd8b6a5cbe262406U,
  0xbd1e37a93d3e596eU, 0xbcdc1cdb3d633919U, 0x3ac841bfbd9eabb0U, 0xbc8e4daabcf7f0e4U,
  0xbd67c2363ce83206U, 0xbd9b35603d61f3daU, 0xbd5507b13d79ac48U, 0x3d6da7cabc9c2f78U,
  0xbdf22ce93d2838b8U, 0x3c0904d73bc63b8aU, 0x3c284198bc7441a0U, 0xbd666e6c3d253fa4U,
  0x3d6e51ffbd48f968U, 0xbc1377afbdc07c01U, 0x3d7fcc593d427110U, 0xbc660082bc715272U,
  0x3e12b3863daa196bU, 0x3cbc929ebc481840U, 0xbdf55e13bc34eb53U, 0x3d1892e1bd34a410U,
  0x3cb6325b3e0a8865U, 0xbd21759bbdf5b157U, 0x3d95b4df3b744c65U, 0x3d0dbf283cc7eb2bU,
  0x3d465127be24f239U, 0x3d6d52763d3ad5f3U, 0x3d39dd0c3dd85adeU, 0xbcc57c583d5e626fU,
  0x3d95d4fe3c7e63e0U, 0x3deace88bcd22220U, 0xbd522f953b203846U, 0xbd6d19b93d183a87U,
  0xbd25be11bcc87f1eU, 0xbc08b1893d6f773cU, 0xbdbb3a443d18d0f6U, 0xbce721d23d87e4d4U,
  0xbd39753ebda5c9ebU, 0xbc868bb6bdeffd28U, 0xbd307826bce20126U, 0xbc9e4bc9bc8a272fU,
  0x388fd7313d22136aU, 0x3c7cc27c3db564b8U, 0xbd8c51343e04aecaU, 0x3b813c013d903c7fU,
  0x3d34196cbddc86f9U, 0xbcff6f71bd23f3d6U, 0x3d90cc8dbdaaab66U, 0xbdb17ef7bd856875U,
  0x3dae1b533d11f928U, 0x3d94dc90bd837098U, 0xbd9cfe4c3d360436U, 0x3e1653553c9ba1aaU,
  0xbd17677dbddf6b06U, 0xbd8718c2be3fc0a4U, 0x3d4373283d1fe6a9U, 0xbd2901c73d0e2b09U,
  0xbcfdfa7fbdf143bfU, 0x3d1f38a6bd93670dU, 0x3b9e18713cc9d19aU, 0x3dbeb0ffbd1638b3U,
  0xbcf5ca05bdfaf8bcU, 0x3d8057e7bcb276baU, 0xbe06626abdddaf6dU, 0xbb2066d6bc3c041aU,
  0xbcdbc3f1be06bcedU, 0xbd8c4bb0bc48e44eU, 0xbe1d71b7bdd71d84U, 0xbcf6c5e8bbeb63b6U,
  0xbd0dd37bbac522e6U, 0xbc918c45bdf04f39U, 0x3d883c90bdd4f0eaU, 0xbc59641cbcaaf66fU,
  0x3d38452ebc9ad2d5U, 0x3b9969393de67278U, 0xbd2da24d3e05d8a9U, 0x3d8014983d0ba4e9U,
  0xbc24204ebd972c7eU, 0x3c52cc43bd968552U, 0xbd3ecd51bdd6721dU, 0xbdcae94ebaf629aaU,
  0x3d973db6bb1265fdU, 0x3e014c833ce8d3dfU, 0xbb63742b3dc41933U, 0x3dc7e5a03d016549U,
  0xbd7596c2bd29aabaU, 0x3d6398f0bd2806a3U, 0xbc88e61fbd86361aU, 0xbd979aa13ccfa9e0U,
  0xbdb18829bcaaa405U, 0x3cfce9853cd71d64U, 0x3b6f7d783c70dab4U, 0x3e012f473ca10febU,
  0xbc2acf81bc474c7bU, 0xbd5780fd3b90d9a7U, 0xbd8a2348bd23ab36U, 0x3ce8ab813cda3019U,
  0xbdaefff9bdbfcd59U, 0xbdbbd497bda9d1bfU, 0xbd3f19a5bcba13d4U, 0xbd2f4620bce280e7U,
  0x3d31cf8ebc8ac629U, 0x3dc396f23d1aa1f5U, 0x3b7a55483e0b7b90U, 0xbdaa25b8bd57e450U,
  0x3c962cea3d99af33U, 0xbdfcca6e3d4d628dU, 0x3cee58afbc6d40bfU, 0xbc66a62fbd88a48cU,
  0x3d0b02083bc44151U, 0xbe108f6a3d6e04b9U, 0x3d9453213e009fb0U, 0x3b05eaf0bd2185c1U,
  0x3d8ea2adbe11caedU, 0x3d3ad0a53d55353fU, 0x3d9f289b3ccaf92cU, 0xbd8f57b73d8be0f3U,
  0xbc948dc33dafa52bU, 0x3d392924bc349298U, 0x3b563009bddd6210U, 0x3ca2a3d3bcdb1d44U,
  0x3d8a1d1ebb1baea9U, 0xbe044dbf3dab147cU, 0x3dd69eba3bb7826cU, 0xbc16d4e63d5eaef1U,
  0x3d9d46c7bda4f7bbU, 0xbc311f3bbda317e2U, 0xbda8c060bdcd7a70U, 0xbd63f6e7ba55c0dbU,
  0xbd9a55d23c641c8bU, 0x3dceaa1ebda9f4adU, 0x3ccfe0fbbccb8e5dU, 0xbd587b56bdce7aa4U,
  0xbcc64bffbc33ec93U, 0x3d21c4d639b4cc52U, 0xbd36311b3d9e5a8dU, 0x3cea66cfbcaf4ea5U,
  0x3c5cfef73d9e6c73U, 0x3d194c8a3c8cf286U, 0xbd0d5bffbdbca318U, 0xbd9b18a53bfc334bU,
  0x3cf6bb13bc81e1b3U, 0xbabe43563dbba736U, 0x3d965c6ebb338418U, 0x3d910c773cd66604U,
  0x3d485e313c811a7cU, 0xbd865c8cbc599358U, 0x3bf6dc983dbb6de2U, 0x3caead993d1ed8a5U,
  0x3a45a4603c600522U, 0x3da1afc2bd09786dU, 0x3d6904e33d15f318U, 0x3ba62536bc1edfb5U,
  0x3d2c03b03d6886e6U, 0xbe20802b3c20f41cU, 0x3b63000bbdbcf94bU, 0x3dc28ae7bdbc29ccU,
  0x3c118817bd914a0fU, 0xbd95f2c7be06133fU, 0x3da70036bd1f8c49U, 0xbd5d04a5bd18f1f2U,
  0x3c877f663e066a38U, 0xbd024ba23d063013U, 0xbd84520cbc7c9e4aU, 0x3d1039aa3c09ea23U,
  0xbccf70273cf7dc85U, 0xbd85f7e73c352a91U, 0xbc73add23da5ea09U, 0x3d2ade223cddcab2U,
  0xbd4d9201bb15245dU, 0x3ddb3b6fba811de6U, 0xbb91f6e33c3f6766U, 0xbd8c3952bb37bdf0U,
  0xbd27e08c3d7757cfU, 0x3dd111003d9d2c22U, 0xbbfe2c2e3d1032feU, 0x3db88fd63df2a203U,
  0xbdda2af03df41cc5U, 0xbca0f0203d3c9b05U, 0xbb5cecffbd34b959U, 0xbd747f2fbd969ee6U,
  0x3d4e23753e026023U, 0x3d4ba760bb84bd3eU, 0xbd41d7c53c80493bU, 0x3ced7c2abd86cc44U,
  0xbd5d7b383c1d68d0U, 0xbddf244c3db2c8a9U, 0xbcdbd0cabd8f8be0U, 0x3c156f8ebda27084U,
  0x3d2600eb3d0ddfb6U, 0xbd4a2b1abbbb11fcU, 0x3da8e3c13c736499U, 0xbd74b6c3bd1c08a3U,
  0x3c53017d3dca420dU, 0xbd4a4bd5bdc39c7fU, 0xbe07c50a3d599cfbU, 0xbd49ab10bd18017aU,
  0x3c88864ebdeb17edU, 0x3c6dd90dbd177ba0U, 0x3cf0ecd6bd796c84U, 0x3c8898d0bcd7ce95U,
  0x3dea69c93bfa9808U, 0x3dac7f14bd979f65U, 0xbdff0b7b3d683a37U, 0x3d4863213c396f8eU,
  0xbdb70dcc3a86b833U, 0x3e0b66fdbc38ff41U, 0xbe338a83bd219a05U, 0xb8c5c9f53ca2eebcU,
  0x3ca3232ebd201ea2U, 0x3cc9103c3cfcecdfU, 0x3bb709ed3d963853U, 0xbca8a6adbdc93538U,
  0xbc2b398bbd621a94U, 0xbd736efb3d2d52c2U, 0xbdefdb793e05dca8U, 0x3e090337bd357725U,
  0xbd3dd1ecbae8bcd8U, 0xbca05e9fbd231a11U, 0xbde3a06b3cd0e91fU, 0xbd25fadabd89559cU,
  0x3ccb86da3d035aa8U, 0xbca48cd23d6fa922U, 0x3d4caac7bd793592U, 0x3d51b4523ac91274U,
  0xbcf106083c91365dU, 0x3c226da2bd8d9bc3U, 0x3d76f1e5bcd27874U, 0x3cc4c282bc515f73U,
  0xbd003892bce3e9e2U, 0x3d70f4993dd2ba9aU, 0x3d2cfe923d0eee44U, 0xbd972605bcc959dbU,
  0x3d9477c3bd497156U, 0x3d282ffabd0e1b16U, 0xbd6f21ff3d463041U, 0x3b934931bcfbfb0dU,
  0xbcacfe57bdadd146U, 0xbd9135023cd1db31U, 0xbd5521df3c520fddU, 0xbd2214d43d643015U,
  0x3d1e421ebdb07ca7U, 0x3a3f6422bd4687eaU, 0x3d0cb726bdc9f965U, 0x3dd6a647bd972a40U,
  0xbd15bca5bddb7fe7U, 0xbdd4e747bd5ebcc7U, 0xbdb3f4b13e1ae441U, 0x3cf637543c329fd5U,
  0xbd19b8e13e030a9cU, 0xbbebf0cbbddabc13U, 0xbc5403403d8559eeU, 0xbcc8bb2bbc697fbdU,
  0x3d861660bcf49666U, 0x3c03646f3d80f4a1U, 0x3c8cbc5bbd96f438U, 0x3d11e19f3ddcacc7U,
  0xbdcd53003dbda367U, 0xbcab851dbd369a1fU, 0x3db2e2cbbdc3fcb6U, 0xbd78aa763d3595e9U,
  0xbdd18abf3d348966U, 0x3ce388e23e00d2f9U, 0x3d29defa3a31beecU, 0xbdb3302f3d5225cfU,
  0x3ccee7f83dbc0450U, 0xbcb835dbbc1e1a22U, 0xbd10026c3cc7ad05U, 0x3d849981be084d6eU,
  0x3da14cffbd236a23U, 0xbc822c103d8dd166U, 0x3cb267dcbd5b5507U, 0xbdfd1ea2bcacbd41U,
  0x3d4ae2d03c1b399bU, 0x3d610659bc4f43f8U, 0x3cfa08273d15e495U, 0x3d0acaa5bca83065U,
  0xbb39c1cc3a2dbc11U, 0x3cbac262bc697606U, 0xbd5da91e3db3147fU, 0xbdb7c31b3bc3e070U,
  0x3de1a3f33d2d9861U, 0xbd71135dbc99ca89U, 0xbc85b08c3d32e59cU, 0xbd5ff28d3d9b5f9bU,
  0xbcd691f6bc7722b7U, 0xbd4e7dc9bd78a3adU, 0x3d10ea93bd805c18U, 0xbce7e29f3d1cadd6U,
  0xbde2c7f33d9f8e30U, 0x3d4c0594bd8ea76eU, 0x3c2a3d39bdac504fU, 0xbe23a4b23dbf3ea1U,
  0xbd54152bbcaa9da3U, 0x3e00035dbd11a6a7U, 0x3dd09f563c64bdacU, 0xbaf1150f3cc83ccbU,
  0xbdff62ba3c86f75aU, 0xbde564873c879b9bU, 0x3dd2831cbcea059bU, 0x3c5e638d3cf6714fU,
  0x3e11198dbbf01547U, 0xbdc0f99abb62c6d1U, 0xbd52efdc3d9f579cU, 0x3c05cefbbccf6a93U,
  0x3d9f367e3b26d2d2U, 0x399439aa3d36e5c3U, 0xbd82e8363dca1b5fU, 0x3d59bb813c6d21edU,
  0xbc141354bd8ff0e0U, 0x3d9ea71d3d55e656U, 0xbc91d78abd37f229U, 0x3d9670d9bd307b49U,
  0x3df51328be17c183U, 0x3d1810d13c41fef6U, 0x3dbf7f63bd51a95dU, 0x3e184595bb81e33eU,
  0xbd4207d2bc91a8c3U, 0xbe41520b3d192c23U, 0x3de37f74bc4d9546U, 0xbdfbcefabce5d8efU,
  0xbd5ad253bd3fa5cbU, 0x3d5cc644bc079561U, 0xbe0e465638b7288bU, 0x3cd041a43d12c596U,
  0xbd8d649ebc4603faU, 0x3cb71979bc81b234U, 0x3d3dbacc3d1d1b12U, 0xbd6a01833d775f31U,
  0xbda2ae7c3db8fc55U, 0x3d645dd9bd81fc03U, 0xbbba3615bbcf8a81U, 0xbdebb9123ce2a20aU,
  0x3d2face03cba369eU, 0x3bf75df83d1e9998U, 0x3d84e73bbcf21a5bU, 0x3e063dfb3d705c75U,
  0xba9c0bdabd17ce08U, 0xbc4cddd93e01fb45U, 0x3c2cca1b3d9cf8e5U, 0xbd53c748bc233bb1U,
  0x3d4d682e3d02543cU, 0xbd471ca93e1a357dU, 0xbbdc5a62bd2461a0U, 0xbc48ffd5bcdeab6eU,
  0x3d2d9286bda09142U, 0x3d9450633d8202daU, 0x3d9b9eadbdb1e507U, 0x3d4d82833cf820dbU,
  0xbd9b16243cdda4e1U, 0xbde31f42bcb8cd7aU, 0x3d570de8bd6228f7U, 0xbd3ce5753d140376U,
  0xbd02c632bd1f04a9U, 0xbd531eaf3cc8d8bbU, 0xbe04d4babd070acdU, 0x3ddb8b093c9ca7d6U,
  0x3c160968bdec86fcU, 0x3dcd9688bb9a3fb8U, 0x3d849d7cbbcb90e6U, 0xbe2b74e5bdc05c48U,
  0x3a432fd9bb322f5fU, 0x3df5dd6dbdb8fea0U, 0x3d6e45923d12d106U, 0xbd87e7b03d9d7000U,
  0xbd887da4bcce29b6U, 0x3def5d1e3ccb514fU, 0x3b977fb93c865cb2U, 0x3d99da253ddc3dceU,
  0xbd3ee26dbd5109b4U, 0xbd0885123d080243U, 0x3d93b32abddeabdaU, 0xbdd950fa3b8b5fa3U,
  0x3d4400fdbc10c20eU, 0xbc4706373dc0bf08U, 0x3d889a47bc338472U, 0x3ce93e7bbce9fa94U,
  0x3e1848babda6ee90U, 0xbdac9d5fbc4c4c1fU, 0xbc4cc6cabd97a107U, 0x3c4e608cbd8ff209U,
  0xbd3d7ff23d798a7fU, 0xbe2adffc3d6089d1U, 0xbdb48836be024bb0U, 0x3da73df3bd9e5b84U,
  0xbd6eb5c03d6be49aU, 0xbda89b74bcee8ec9U, 0xbcda9eecbd2f7e05U, 0x3dc7058a3db8ebbbU,
  0xbd5bd7db3d535277U, 0x3cf9f0923d01fef9U, 0xbd2485a23d053446U, 0x3cf520cebc438943U,
  0xbd9924a13ccbae21U, 0xbdf2dcb43d9af11eU, 0x3da10e75bd969221U, 0xbd9400e3bd0765a9U,
  0x3db744463c9b1700U, 0xbcf023a63dceea04U, 0xbd30cf903c617d7cU, 0x3d00960abc60a052U,
  0x3d912b77bdc239dcU, 0xbc6e2e7cbd698ca5U, 0x3cc8f491bd1771a6U, 0x3cf8cc7e3dc91225U,
  0xbc8899b63d22aa7dU, 0x3d8c98433d10134dU, 0xbcd1576a3b0d02d5U, 0xbd30db693d81d525U,
  0x3d8ec708bc8d5957U, 0xbb1897dc3c9074d9U, 0x3defc0a33de6bdd6U, 0x3d1228283cd2c101U,
  0x3ce97a7dbcd756a7U, 0x3d1f02f2bc69583dU, 0x3da03ea83d6e5329U, 0xbe0295a03be4de05U,
  0xbd03a8673d50efd7U, 0x3d4c93a6bdb2bb41U, 0x3d8ecd2fbdafc68aU, 0x3d91ec8dbdb958d6U,
  0xbdb4abea3cfd31dfU, 0xbd3860d8bc947cd3U, 0x3c9508bd3d8474a6U, 0xbdf3c5f23c4f7e85U,
  0xbd0db1dabd838bb2U, 0xbc98812e3b44721fU, 0x3d9deb21bd9f61daU, 0xbd512d0ebd65777cU,
  0xbc904467bd45e941U, 0xbccf2f6e3e06137aU, 0xbd6d79743cb01c31U, 0x3d14320dbc77786cU,
  0x3e156d9bbdf8c524U, 0x3dac31ffbd858befU, 0xbdca900c3cb4bedcU, 0x3c943db73d80a5b2U,
  0x3bd315e13d56a5edU, 0x3dc0c25d3d60fe42U, 0xbcdefdb23c9e2097U, 0x3c9457d5bd2497a0U,
  0xbd183568bdd08b8eU, 0xbc0e3715bd0841a1U, 0x3df01e683dcc7198U, 0x3d57ca9b3d13a2bbU,
  0xbc61c1f6bd497274U, 0x3d96c6a9bda2bb75U, 0xbac87fba3c1d3d12U, 0xbd9b65ad3d0b8501U,
  0x3bc143e63d1357afU, 0xbc592d78be1a449bU, 0xbd62cb9fbd21cf06U, 0x3d4de560bda51496U,
  0xbd9daeac3d5ec6eeU, 0xbcd5e0e13bc34b87U, 0x3c58b47f3d201af3U, 0xbdd36774bc953e43U,
  0x3d430d84bd05133eU, 0xbd8203833d066b94U, 0x3c7a6f9fbbc20c2aU, 0xbbbf7a1c3c47db00U,
  0x3cd57b4e3c342981U, 0xbd5b1c503d891685U, 0xbd315f5abdb87978U, 0x3d8899f63cb13a32U,
  0x3d955995bd91e210U, 0x3d614b23bc60403eU, 0xbd015b993da84526U, 0xbda2a3633d5c6f69U,
  0xbdaa17393dae1c33U, 0x3d4721493b9f19d2U, 0xbdca1da03d1ce412U, 0x3ce5fe7bbd25f513U,
  0xbb2554edbd8f6690U, 0x3a5baa3abc504c77U, 0x3d5d4477bbd0a181U, 0xbc20c701bcce3aebU,
  0x3c549f8bbd267824U, 0xbd5fa59fbde36e42U, 0xbd051bfdbd9773ddU, 0xbd6f4e7cbd14c633U,
  0x3d542f70bd911413U, 0x3d281b06be104e70U, 0xbdb5a24dbe24505cU, 0xbd883418bd027050U,
  0x3bb63f14bcd7bb67U, 0x3c8bdb603d53ba1cU, 0x3e13a7183d7eaf3aU, 0xbd474f6cbd18504dU,
  0xbd838e7a3d40f0b2U, 0x3d1e987cbbdeb732U, 0x3c19cdc63c807a9dU, 0x3c2dcea03df9d5c0U,
  0xbcef4d663ca461bbU, 0x3c89c2b93d1cfd85U, 0xbd4132c43d18aa22U, 0x3c9cb5083d882819U,
  0xbd77f7953d304c19U, 0x3d515780bd5f954aU, 0x3c3716053de5183bU, 0xbd7068163dd655f8U,
  0x3e0e4a593d0d65f7U, 0x3da6d2423d11d53cU, 0x3e0a7f8cbb08430fU, 0x3d0ec549bcbb7cd9U,
  0x3d2751f43cd79d48U, 0xbc839a313e19dce8U, 0xbcd5cd9c3d9a616eU, 0xbdb5d315bcd3505fU,
  0xbdaef0d3bd3a9537U, 0xbdd479163d086e69U, 0xbcbe88ffbd2915ddU, 0x3d98dbc5bd86a308U,
  0x3d5be1783d5f51adU, 0x3a24dd323d4b0297U, 0xbd2bf2863cca8df4U, 0x3b6b0d433d94282cU,
  0x3d1df945bcb03103U, 0x3db75b433be29e1cU, 0x3ddfa0963da469c4U, 0xbcb875d6bd6a646dU,
  0xbd5a7fcb3d8cd35dU, 0x3d68fc6cbda4ec81U, 0xbbb0fb643d832bceU, 0xbc0b198d3dff0c4cU,
  0xbd250f3cbcd823b4U, 0x3c5030bd3d62f2e4U, 0xbce66f2abd897046U, 0xbd179abc3da9deb6U,
  0x3d397bb33d85ba77U, 0x3cc0cb3db7d03007U, 0x3d871bbe3d82119dU, 0xbdb858c93c3a6f61U,
  0x3ca7c6cdbcb348adU, 0x3d86c6e1bc971bdbU, 0x3dd8dd50bc382ad5U, 0xbaa5c82b3d0e255fU,
  0x3c4d4126bd115255U, 0x3d1debb33df82eb6U, 0x3d20170b3cd1de2fU, 0xbd89e5ed3c8e05c0U,
  0x3c92649a3c6cc113U, 0xbd825c3e3cd8d453U, 0xbd061fefbd487eabU, 0x3d1dc00ebd683d95U,
  0x3cef624cbd137f51U, 0xbcbf217a3c615790U, 0x3d92a14e3be9b7feU, 0x3ac3fac13dadc855U,
  0x3d5fa0ac3c9e8ed3U, 0x3aa1a98dbb76afe9U, 0x3e12a7493d669ae6U, 0x3dc11e233bbe3951U,
  0x3d28df54bcd7f3b4U, 0x3d36acc2bc8712fbU, 0xbc78bb913d7f58bfU, 0x3d64e0683cc849c3U,
  0x3d0937c2bc651d37U, 0x3d8f24553c0fc5d5U, 0x3c99c1cebba42958U, 0xbb7a911b3b620709U,
  0x3d7089cd3ccc6305U, 0xbd4d890bbcee3975U, 0x3d4855a4bbe223a6U, 0xbc2eeb003bca4ffdU,
  0xbd55e662bca186dcU, 0x3c363a1d3d7c510fU, 0x3db260423b769716U, 0x3cc2ba18bc20dee3U,
  0x3d049a9e3d7c36d3U, 0x3d51739b3cf314b8U, 0x3d8bdbad3daaf426U, 0x3b3a8d5f3de7141eU,
  0x3c41ab6bbd3aa10cU, 0xbd7eefdb3afbd69cU, 0xbcab9f9abe080708U, 0x3cc7ba45bce841b6U,
  0x3cb8d8fa3a89fea7U, 0xbd68150d3d92d86fU, 0xbdb3e9563cee8afbU, 0x3d645b103c5eb4ffU,
  0xbdb3922d3d22ee38U, 0xbdb348383d3b3f77U, 0x3d90b4d13d23591eU, 0x3cf0aa86bcac358fU,
  0xbc300f84bc251e9bU, 0x3d92c042bde5c675U, 0x3db7176dbdb58926U, 0xbdafa765bc990e8fU,
  0x3dd8cc74bcd84228U, 0x3d66c8613c4375bbU, 0xbd7653dbbd7c6120U, 0x3d9939bdbd1f7955U,
  0x3d1a39b43d049180U, 0xbd8130d23d6cbc6fU, 0xbcd9c94e3dc26020U, 0xbdef3205bd2b93fcU,
  0xbde1364ebc8dbcfdU, 0x3bf9cd473e36dc2eU, 0xbd90cfd7bd647817U, 0xb9abf2a03decb700U,
  0xbc5d903bbd56ab61U, 0xbba15c07bc9a102eU, 0xbdd1e871bdb25d63U, 0xbdca07483d6d0d6eU,
  0x3ccb4aeabd522c7cU, 0xbd3faad9bc55a160U, 0xbc6db0d5bda1ad02U, 0xbd1191103dd4a4e4U,
  0x3ddec9d73e0acc06U, 0xbcf6cf4dbd10d5f9U, 0xbdcc1cf4bc853158U, 0xbdc8b726be1eaabbU,
  0xbe171c6b3cc3574bU, 0xbd8244173ce65f1bU, 0x3d2a6962bd2fc80cU, 0xbd11e362bd0e6050U,
  0x3dfde0bdbcb00854U, 0x3cc62bfebd34ece1U, 0xbc77a1e9be55a7ffU, 0x3d9637953cb499b3U,
  0xbd2ed8c33c86d2f1U, 0x3d988a4ebdabb257U, 0xbe1460ba3d525399U, 0xbd8a7b7cbd97b754U,
  0x3d89538a39d123a6U, 0xbb81592bbd524b1cU, 0x3db4892e3e43d808U, 0xbdf3dcbfbd3c5f7aU,
  0xbd8ae756bdf21b6bU, 0x3b9505a23d8ba972U, 0xbe19cace3d13dc6eU, 0x3dab16fbbc9dfb0fU,
  0x3add8a363d2c09e2U, 0xbdaf8b3bbd87f002U, 0xbdff0f72bca31f24U, 0xbdb79ade3d8c5cf5U,
  0x3d3dc94a3c472c97U, 0xbd9512c0be0bcfd4U, 0xbdafefa13a4b574cU, 0x3d8713e93e0b503cU,
  0xbbbb162fbc08a688U, 0xbda3b27fbd19c574U, 0xbd300a65bc9d6cc4U, 0xbd49cd04bddfa52eU,
  0xbe794717bc9a0bf3U, 0xbe1ce5713d863913U, 0x3dcbabd0bd932becU, 0xbd952af6bc7f95e9U,
  0x3d31b153bd1b302bU, 0xbd46fd20be0540ccU, 0xbd87f993bdc65e90U, 0x3d3b5717bd9992f4U,
  0x3d7353c83d6c4c79U, 0x3d776e14bdc7edebU, 0xbca8377b3dbdb471U, 0x3be0908f3d9e1affU,
  0x3d2fc16c39ae766fU, 0x3d5666efbd00f796U, 0x3d5f6153bdb44eddU, 0xbd0f81e3bdba8010U,
  0xbd83f3cdbe0f5069U, 0xbdb9fc6ebceb18c7U, 0xbd1c9ad0bd661b4aU, 0x3c5523fb3db8a336U,
  0x3d0008dcbd9da1f5U, 0xbcec8848bddc833fU, 0xbe19aa083d2c8201U, 0xbdf6ceb63d569fceU,
  0x3d8449a1bdd09345U, 0xbdf5c418bd46150cU, 0xbc83cbb1bde5de6fU, 0x3d9b19f43ce5b5b3U,
  0xbcf493acbbfae284U, 0xbd4b93aabd1547c8U, 0xbdd55ea1bdfcf7ecU, 0xbd4b7a91bd99c1d9U,
  0xbc36ac713d5dd178U, 0xbd1343eb3c869fcaU, 0xbdebd3a9bcddf807U, 0x3d13bc0d3b8a3178U,
  0xbd9fe2ed3d1d53ebU, 0xbcdfa2bdbcae1e7dU, 0xbd64022bbd3cf3c2U, 0xbc969e98be0b39c7U,
  0x3dcfd0393d3fe3c8U, 0xbdcd898e3b99674bU, 0xbbcb8c7e3d8f56c9U, 0xbd667529bdb63b11U,
  0x3ddff1ebbc6e5f13U, 0x3df570bc3cd98373U, 0x3babc646bc4760b4U, 0x3c84be53bd433a1dU,
  0xbd5eb30fbd68192aU, 0xbda03f77bdfc5c3cU, 0x3dd8e933bdb379c4U, 0xbcf9c4103c3bbc1bU,
  0x3d7ffdd53c54e08aU, 0xbd94be2dbc042b05U, 0x3da0686b3da11a9aU, 0x3d09a4523d8139efU,
  0x3cc550a7bd87fed5U, 0x3deb366f3be34d43U, 0xbba33dabbc8e1108U, 0xbd9c0fd73d19e95bU,
  0xbd09b0063d2d44d8U, 0xbc0ffe36bd8f0345U, 0x3ca19a523d35bb4cU, 0xbda5dbda3c0acf98U,
  0xbc97a319bd3e8c35U, 0xbd166bf73d2ab218U, 0xbd2f393ebd829c73U, 0x3d44f9a9bd370fc0U,
  0xbe05cd623cbbe342U, 0x3d912e75ba0d61adU, 0xbdad75e03d1b5fbfU, 0xbcb0434cbdeb855bU,
  0x3d907eb53d778aeeU, 0xbb0d51373d7540cdU, 0xbd2603fb3c3f972eU, 0x3bc0628abb5ad4b4U,
  0x3c5524133d70a794U, 0xbc50ad6dbc88e5ecU, 0xbd953105bc18fa80U, 0x3ba1c884bdbcb733U,
  0x3ceded5d3d50b49eU, 0xbcf8e93bbc271948U, 0x3d978f0bbc917457U, 0x3cd8e2853dc884dbU,
  0xbd13688d3ccc24abU, 0xbd0ae651bd87f455U, 0x3bbca1cf3cf48568U, 0x3d8f87f5bd27dd47U,
  0x3db637efbc38f8c6U, 0x3d2652f23aff94daU, 0x3d930eb43c264bdfU, 0xbd45195c3d85511dU,
  0x3c8a780cbc1ebad4U, 0xbd6efc9cbcc9bb3bU, 0x3887bc44bc30d64dU, 0xbcf5ac12bda36ce6U,
  0x3d31d3493d81f7b9U, 0x3c90b679bcbc8439U, 0xbd2598b1bdb9aff0U, 0xbd59574f3d83fde4U,
  0xbe359f1abd6e618cU, 0x3de619cdbcb098c6U, 0xbe0f6e0c3ca5dc38U, 0xbd550f2f3c23647cU,
  0xbd809c473d52631eU, 0x3d0577ba3d83b857U, 0xbd90163b3d326ae3U, 0xbc0543453dea95b2U,
  0xbe10b3a03db09502U, 0xbd6e28adbd25dd30U, 0xbd2ce9b73da3bf46U, 0x3dc32ccebc8d9254U,
  0x3d7d69863d0d0c3aU, 0x3d9b5890bc88469fU, 0xbcea90c73d8a4f7dU, 0x3c9c977dbb059a2fU,
  0xbda62ee13cd8d98dU, 0x3c750695bd0dcd42U, 0xbdbd3710bcdb951cU, 0xbd3a830fbd9b80b0U,
  0x3d5b54023de79ebcU, 0xbe08270f3cd75ecfU, 0x3dcb13fe3d8d7da0U, 0xbd5c5fa8bd3c16f7U,
  0x3d602975bb9cc476U, 0xbd12cadd3bfe40c7U, 0xbdcc9bcebbd8d6afU, 0x3d5ef0793d23dce0U,
  0xbc107c5d3dada96fU, 0x3d5eba983db892a9U, 0x3c2f770c3d9f68a2U, 0x3c14c81cbd31e312U,
  0xbd0bd3ffbd4922b9U, 0xbd24987c3dd1cc92U, 0x3dd04022bb4d098cU, 0xbe09e9cf3d9facc2U,
  0x3de321a3bd25aa6bU, 0xbd84df823d809942U, 0x3cac26863d7976bdU, 0x3cb830423c5cca3eU,
  0x3d7bd302bbf5f0b9U, 0x3d90a2d93ca21d4eU, 0x3d898bb0bd9b97fbU, 0xbd449565bc213114U,
  0xbdf2563c3d09b43bU, 0x3ce1ddcdbd802ac5U, 0x3dccb19ebdb73e78U, 0xbd52ba7e3de6a3b9U,
  0x3d5f2376bd575949U, 0xbc03bf793d86f7e9U, 0x3bb35cb1bd23915eU, 0x3c759b79bc98d511U,
  0xbd805e99bdef462fU, 0x3b21a9453c9fa319U, 0xbd51d168bdd1b5a4U, 0xbe07a3e2bd079d5bU,
  0xbdf0301e3cc58170U, 0x3dcf9070bdc02eb2U, 0x3d5934d4be29d536U, 0x3cffbfa3bdd43f65U,
  0xbcaf5b11bcbcc284U, 0xbd43943e3c31872dU, 0xbd3a88953d3e5095U, 0x3d247e123d278b9aU,
  0xbda86cfc3c824177U, 0x3d9eb985bd07ad80U, 0xbd1b4b403c8e447dU, 0xbdfa15ec3cbbc374U,
  0x3d41d3563d078bd0U, 0xbbf837f53cf2256bU, 0xbdd7224ebd14f462U, 0x3db768c53d9342e8U,
  0x3da59c1a3c2e98c2U, 0xbd99cbfabcabf192U, 0x3a73c6e3be1c0183U, 0x3d6372f53d816e12U,
  0xbdfac83e3cd25edeU, 0x3df027ccbd811575U, 0x3a0773a03cbd5dacU, 0xbdab3fa13c451aa1U,
  0x3d4b205ebd96b009U, 0xbd2de75b3dc74518U, 0xbd45663c3d086172U, 0x3da4ea04bd1fc385U,
  0xbd144312bd3c5c9eU, 0x3cd86e8d3ccd32a6U, 0x3bbfee4f3bf02f4dU, 0xbc9faa2fbc85c61cU,
  0xbd731b903db27d4eU, 0xbd717848bdc70b25U, 0xbe3eae74bd6c3aebU, 0x3d6f3c2abdbfe210U,
  0x3cdc8082bc5d5d9fU, 0xbda4a0863b3a57c2U, 0xbd4e260a3dd47980U, 0xbda8b2c4bcbb8f4eU,
  0x3d94c4303db0f418U, 0x3dadee47bc974334U, 0xbde73a36bd1aaed8U, 0xbd53840e3dffe7c8U,
  0x3d5ff93abd1414caU, 0xbc63a28e3dcc0734U, 0xbd89c7d93db14018U, 0x3dcb424f3d9d47d2U,
  0xbc525b1abc89db2eU, 0xbca8559b3dae3c8eU, 0xbd08eca8bdd5e41dU, 0x3d27c7ddbd332fadU,
  0xbdada15f3ca6fed4U, 0x3dc4da893bae4df6U, 0xbda4fe9abb7c3f13U, 0xbc119e3bbda94c0fU,
  0xbdf70549bc1146c5U, 0xbc4297973da8ddd0U, 0xbd29bb7bbc7a7d8eU, 0xbd41a4b7be0223e3U,
  0x3c80ac4c3cbf64a6U, 0xbdc97ed1bdb2f2fdU, 0xbc9c9613bd5492d0U, 0xbcabcc00bdf3ceb4U,
  0x3c62f437bd905ca0U, 0xbe171030bc1cafa3U, 0xbe10066eb9986d7fU, 0x3cbd731a3d54e6ebU,
  0x3ccc6089bc7dc857U, 0xbd903c97bd8dc351U, 0x3d3415ab3ded2342U, 0x3d18956abc455402U,
  0x3c404a80bb8d9b72U, 0xbd6c2e35bc4847e7U, 0x3dd4d6513d7c6c08U, 0xbc88208f3c85126cU,
  0x3d3d40c53d0c0a1bU, 0x3ce4bbf1bc85a154U, 0x3dc9a266bd33a028U, 0x3bfd3467bdd977daU,
  0xbce87de8bd8a0ae9U, 0x3d3f41f3bc8b7be6U, 0xbe0e27e1bd159240U, 0xbd9053f93dad9755U,
  0x3dc14283bd288475U, 0xbcedbff0bce74edaU, 0x3ce38addbded56e9U, 0xbda7e1163c6f31d6U,
  0xbd26c6ecbc9ee956U, 0xb9bd97b3bc870014U, 0x3d0776b93da89d89U, 0x3d03bfac3dcf06f1U,
  0xbd954e54bd332eb3U, 0x3d4f0b8d3d1da265U, 0xbd981c6f3d3bf920U, 0x3dbd8bdfbd932fa0U,
  0xbd2d4bd3bd290527U, 0xbdc2d1583ce9551eU, 0xbe08cb02bd479063U, 0xbd7ad4f1be04690dU,
  0x3bfee89e3cfc6fa2U, 0xbda6390db9d30d89U, 0x3df9abb43db9b9aaU, 0x3a6028cbbd9d1b7dU,
  0x3d906942bdbbb276U, 0xbc9b147e3c0c638aU, 0xbcab40ca3da0dc85U, 0x3c37b906bc12fee3U,
  0x3c609f7dbc815b11U, 0x3a70131fbe036958U, 0x3d095ab2bd2a1742U, 0xbdb59885bddb5538U,
  0x3b2b19b03d668751U, 0x3d1ce1923c874537U, 0xbc5e8daa3d9fb0bcU, 0x3d322d0a3dda1db6U,
  0x3d5c0a5abcbcbb40U, 0x3d8560b43c89e70cU, 0x3da1062ebdb02949U, 0xbdac81ae3c5c7badU,
  0xbd170bac3d0fec0dU, 0x3d4cc3a7bc78824bU, 0xbd1f92b63dc90649U, 0x3d7a1f2cbc96aa9aU,
  0xbd366cae3bc66c34U, 0x3d8a1ed93d372434U, 0xbd5f471c3caf4ff5U, 0x3d03b5c9bc1d8442U,
  0xbc34d31c3dbe0867U, 0xbba4f71cbd0a903cU, 0xbc856a443cab76a7U, 0x3cfc483fbd40a303U,
  0xbda90900bc9354deU, 0x3c458e233b4f3805U, 0x3db5e7003d06d470U, 0x3ca683c3bbcc524cU,
  0xb92fd172bda122e5U, 0xbcb8d224bd04fe0cU, 0x3d13ab863de238bfU, 0xbc2be09fbcf89889U,
  0x3d4c95d53d1461f3U, 0xbd90afe8be165a9dU, 0x3dae66abbdaae54bU, 0x3c0f950ebc5a5433U,
  0x3d55d9203d20c6d4U, 0x3dc95bbb3ad1e583U, 0xbd6ef0443d392d55U, 0x3cdb48073d1f02a2U,
  0x3dff085bbdd3e298U, 0x3d190a923d7d72b6U, 0x3d141a01bc91a069U, 0xbd8a21ddb9f3ba6aU,
  0x3ac625853cc642ebU, 0xbb293778bd1891d7U, 0xbd40af083c1a51ceU, 0xbc453bff3da44cc2U,
  0x3d1310073bedd2ffU, 0xbc067cd23ddf3b2cU, 0x3ce24abcbe0c26bbU, 0xbdd609b83cb93be6U,
  0xbd0f05713d8a3c0cU, 0xbd873f0d3c7db962U, 0xbd42e487bdcbdf61U, 0xbdae49183d0c8f01U,
  0xbc101127be00016dU, 0xbbfc3108bd3753f8U, 0x3d1c07e8bd875016U, 0xbafd50d13d2f52f7U,
  0x3df5b6103cb82bebU, 0x3cc1ab583d2fe651U, 0xbda9e4e7bc233801U, 0x3d2c7e453db22f26U,
  0xbde887e7bdd8656bU, 0x3da75614bc3ca874U, 0x3d1edcb8bd0290b6U, 0xbdfae247bd9e0977U,
  0xbe001f0e3d00f506U, 0xbcee8cf73dc97e70U, 0x3d9a0b5cbaad5770U, 0xbd96d0f33d5772a5U,
  0x3e11510cbe09918dU, 0xbc7305c8bc6dc6acU, 0xbca8471b3c7d3d8bU, 0x3ba8228fbd5c9d91U,
  0xbd5e7e6c3c8a81f2U, 0xbdb0a3b23dd51198U, 0xbaf35543bbca08feU, 0xbca404c2bce0bb6dU,
  0xbd32d9a1bd4d6dd3U, 0xbe0e8f8f3d26118cU, 0xbc695e763d4acf23U, 0x3d892155bdfbacc9U,
  0xba5d243dbe2cae83U, 0x3d79e875bc222aa2U, 0xbda94db8bd923fecU, 0xbd678f3b3d819f0bU,
  0x3e05c3a2bdbc6095U, 0x3d667cdfbc457bf2U, 0x3d3192c5bda6b553U, 0xbd1ff224bd8c61a6U,
  0xbd9b8eafbcba343eU, 0xbd3a6cb93dbeb056U, 0x3ca68b73bdf2ba7eU, 0xbdec23b4bd63131aU,
  0xbd3ed2773c9d31feU, 0x3d84a8e6bd32a46cU, 0x3d3438813b5d6c30U, 0xbddd1dd9bd3eda0fU,
  0xbdfbdf803d99c24bU, 0xbd81bbf03cd215daU, 0x3be06deb3d7e9033U, 0x3c8513d1bcc8d652U,
  0xbd794fc8bc8727e7U, 0xbbe043373ca4ec74U, 0x3c82d5ffbcdfe9acU, 0x3d107f2fbd77c141U,
  0x3dbdba0e3c66a0feU, 0x3da7d7183c53e4caU, 0x3cf4d560bd03ce7bU, 0x3c6c5fa23d6aa461U,
  0x3bb4aa21bdd4940cU, 0xbccb1f513dde88a1U, 0xba68c805bd3114f5U, 0xbd9909453cf09aeaU,
  0xbd7957a5bdf51bebU, 0x3cd9a158bda927c1U, 0x3d72ea8ebdf4255bU, 0x3d60f8d9bd1d8b17U,
  0x3bca07423cd22038U, 0xbd93dd423e2e6596U, 0xbdaa9dce3d5bbe1aU, 0xbdac931ebdd313b7U,
  0xbcc5b1133d2aafa8U, 0xbc63c7de3de468c8U, 0x3de96b7c3d244584U, 0xbe0fa86abd06972aU,
  0x3b6aab3ebd45673fU, 0xbd7cf07ebd522026U, 0xbdb908a4bcebbeb2U, 0x3ca61a133da4b25fU,
  0x3d12cdc0bd7d762fU, 0x3d82d440bd9d6375U, 0x3d8499b8bd9760eeU, 0xbd72997c3d2d8216U,
  0xbdc05346be017611U, 0x3cf9734ebcc3b6edU, 0x3d1bd1f03cad116cU, 0xbd4bc010bc28b27cU,
  0x3d68bd8dbdbe843dU, 0x3d3be699bd9ee86eU, 0x3d136d4bbd16dac8U, 0x3c84e1b33c6eaec7U,
  0x3aff365fbe0405e9U, 0xbceaa4e53b4e7482U, 0x3c9426b93c81d5b2U, 0xbd2477cb3d46f787U,
  0xbd3a6cca3d897a7fU, 0x3d3ebc54bd08c6eeU, 0x3e01c7dbbdec50f3U, 0xbd6b9caebe376d50U,
  0xbd6d0df73d05b63eU, 0xbe0b1f89bb5eb664U, 0xbd9f11c03d42a442U, 0xbd5c6341be12dcadU,
  0x3cc8d5fdbc5d051eU, 0xbcd3d27dbd8516ecU, 0xbd55a5f6bd83f1d6U, 0x3d52133f3d0d9731U,
  0xbd8f9af2bd0f0269U, 0x3d80474dbd41b1b0U, 0xbda331043d66ff93U, 0x3db31c3d3d8417d5U,
  0x3d0baf81bc164f7bU, 0x3d819aa73e203cdeU, 0x3d691582bdc88784U, 0x3df97fd0be1f8f4fU,
  0x3dc20c07bd2ba2b0U, 0xbdfecdfdbe143d2cU, 0xbd32aa0e3da9fd94U, 0xbd9111983d8f5a52U,
  0xbb1c10c13e014094U, 0xbdb87ababc4ab91bU, 0x3c149ecc3c7571f3U, 0x3d2b079f3d4936f3U,
  0xbd7510f63dfaf773U, 0xbd9d5d293d262df9U, 0x3d5129fd3c756447U, 0x3d3e387d3cb23088U,
  0x3c08a9a5bd599b97U, 0xbd124523bcaaac1fU, 0xbc1835b83c3f2383U, 0xbc5510c73dddf492U,
  0x3d79b9bfbe3e5ebaU, 0xbe15daf5bd54b3afU, 0x3d865fec3a487b90U, 0xbbfa30a3bdee95fbU,
  0xbcdd2182bd3f4175U, 0xbd94bffabd8675cdU, 0xbc5c3036be0a6106U, 0x3d431d553ded7b7aU,
  0xbd5248edbd275215U, 0x3d73a411bbe94b63U, 0xbd8a55023ce6cd88U, 0xbc30274abd0545bcU,
  0xbd45aed43daf87bdU, 0xbd9b8fdf3d805350U, 0x3dad85babd3ef14fU, 0xbd1fdaa2bd64792fU,
  0x3d31c1afbcbe374dU, 0x3b42df10bdcdd3b4U, 0x3c1f797ebd8afbb9U, 0xbbb45456bce2887fU,
  0x3da7fde0bc5c2bceU, 0xbcc2f9e2be04032aU, 0xbc400629bdcec3c6U, 0x3c9ced3bbd81bbc2U,
  0xbdccf2c03ada40feU, 0xbd88653cbb01bd18U, 0x3d557d033e065906U, 0x3dca96d4bdf780d9U,
  0x3d6d81ecbd6690c0U, 0x3ce456a93d132119U, 0x3c95f12bbd000225U, 0xbcf79dfcbce2e363U,
  0x3cbf3cc9bdaf7d4bU, 0xbd4789ddbcbfb9c6U, 0xbc3951003d1fe638U, 0xbe4494aebdf4445eU,
  0xbd52df84bdcf2189U, 0xbe12062bbcf2a4c5U, 0xbcf45074bdf52bdcU, 0xbdb06591bbbeed75U,
  0x3b7e618f3cfcd333U, 0x3d89d27bbd117488U, 0x3c142e67bd852fb7U, 0xbd027708bda95882U,
  0xbdc2807f3d733d6cU, 0xbdc249743d557e43U, 0xbc6ebde3bd57d8f8U, 0xbd1ae664bd44de80U,
  0xbda24743bdc8f2dbU, 0x3d586c4b3d1b5eefU, 0x3cf41bdd3cddff21U, 0xbda05806bd0e1ddaU,
  0xbcc82944bdf7a1ccU, 0xbd2b7dfebdbe6481U, 0xbd040244bd85d7a7U, 0x3ceed9f8bcb630b2U,
  0xbe6d86edbd8f5581U, 0xbd96a4f73bfee965U, 0x3c89b62b3be5ddb7U, 0x3c44d280bdde406eU,
  0xbca51897bce0209dU, 0x3b21eec9bd608808U, 0xbda7b716bd99bd8fU, 0x3d663fabbe0985a5U,
  0xbd8b8c1cbd95e881U, 0xbd2cea44bd725c54U, 0xbba71bcabdcbe32cU, 0x3c202f07bdfc2b6fU,
  0x3d3b79713df1555fU, 0x3c8db437bd03f654U, 0x3d8611383ddfd6b8U, 0x3d677b0a3d9966f2U,
  0xbd46117fbe174610U, 0x3e0218f8be075890U, 0xbd8a6021bdbaa8feU, 0x3c0222e83c2bac47U,
  0x3dad19713dd6f2f4U, 0x3c2917b7bc822308U, 0x3d42dbf4bd4de9c1U, 0x3d4ee2bbbcf19f25U,
  0x3cef317dbe0610d0U, 0x3b54b168bd75cdd0U, 0x3dd92fd6bdbe8b47U, 0x3cac1602bd3eb39eU,
  0xbc06d8f83dea9dd2U, 0x3ccb64cabd6b3520U, 0xbc3b3108bd04ee1bU, 0x3e0028503d9341afU,
  0x3e01bdea3db61849U, 0xbd58d033bd88e606U, 0xbe14ba92bd42f7d3U, 0x3c4ffdf43c9302a6U,
  0xbcc5f737be4db3f0U, 0xbcde07ad3bc631feU, 0x3b904b4abe1974e7U, 0x3d8f35403cde2349U,
  0x3b069f73bdb1f253U, 0x3bf915263b544577U, 0x3cfafff5bdae3edaU, 0xbd709fd4bd99c555U,
  0x3a01441f3dd773f0U, 0x3c62effbbd8c2ae9U, 0x3dbb8bf3bc895e6bU, 0x3d5f4a803e24148aU,
  0x3cc3a911bd69d175U, 0x3d69a6a0bd030b06U, 0xbd988f76bd5024d7U, 0x3c99c171bd5900abU,
  0x3d3998733c236422U, 0x3d50cb3dbc449d6eU, 0x3d8ae8303cf2b98bU, 0xbc18c276bdfc18e7U,
  0xbd8641f2bdbbc814U, 0x3c8bd31fbc2540b8U, 0xbd4e4caebdef51d9U, 0xbcb35eb43b585124U,
  0xbdeefd5bbdf6b5a6U, 0xbc944c173d66d718U, 0xbc369286bca58c33U, 0x3e037b6e3dbb950dU,
  0x3cdfe0bf3ce8945aU, 0x3c64e5693d936fc5U, 0xbda5d55f3cf15b42U, 0x3ddb9cf43cd77994U,
  0x3dc2c868bdf774a7U, 0xbc32872f3d7b9dc9U, 0xbdbbffb3be229a03U, 0x3c5b2e9c3b9c4c48U,
  0x3d958bd4bd18f5ddU, 0xbd544710bd410f37U, 0xbd01a9703c8c655fU, 0xbb47290dbd8d3608U,
  0x3d4f81083dd41e7dU, 0x3d0fc41ebdd398acU, 0x3e0944183d23a2adU, 0x3cd273b93e1a958fU,
  0xbc215158bd799ee2U, 0x3d048cbc3ccc0213U, 0x3ce0434abe36c8e6U, 0xbb6b619dbc6d842fU,
  0x3d0deb9a3a712dc5U, 0x396a62743cd1a478U, 0xbb8e5391bd91f7feU, 0xbd0736153c1f2bc5U,
  0x3d1f4f703c296598U, 0x3ba9fbadbd86af87U, 0x3c69bd06bd99ef72U, 0xbd389832bc98e30cU,
  0xbc8e4e7d3a6ddd51U, 0x3cf3340b3d8111c6U, 0xbd0859783d7dfbb6U, 0x3db4a867bc9eeea0U,
  0xbcafc25bbd57c4deU, 0x3b0d2fa1bc003e14U, 0xbdef4b5abc040b35U, 0xbbcb82f33d9b17cbU,
  0x3dc4bf04be13bb6cU, 0xbd014d6c3dba84dcU, 0xbd8ca002bdb96eb3U, 0x3dec35e3bd99a87dU,
  0xbd709836bce53561U, 0x3e15c693bc6bcc2bU, 0x3e0013d9be057f17U, 0xbd3448d63e3c28a9U,
  0x3cea8b3bbce8f63fU, 0xbbfc1aa8bdb75755U, 0xbd588001be11a556U, 0xbd33ad363d4968eeU,
  0xbda8fbd03cb4b2d9U, 0x3cded26d3d1f4b27U, 0xbdee08a43d8d06fbU, 0xbda81c9dbbee32cfU,
  0xbd5fb4d8bb8ea4c7U, 0xbd18374e3d485230U, 0x3c8dd6c8be239838U, 0xbd294d3b3cbeb81eU,
  0x3bba8fb03de83729U, 0xbcec6cbd3d39e8e2U, 0xbcc2d29b3ceb1d0eU, 0xbb4420553cb1db8cU,
  0xbdad49d23d8d11caU, 0xbc56f652bd147bbeU, 0x3c4137c93d3a9724U, 0x3d4133d13cbabddbU,
  0xbcc5f4033d15afc0U, 0xbc9f0881bd81d93bU, 0xbd35dde73d2b66a0U, 0x3ab66f753d183c40U,
  0x3cf0a936bd3417f7U, 0x3a352cf43d9fe49cU, 0x3daa46b5bc970106U, 0x3df20354bd434a8aU,
  0x3c33b9433c786f37U, 0x3e01afa63d2a78c4U, 0x3de440d1bddc9238U, 0xbd817c5d3e03ef16U,
  0xbcba5b1bbde3b88cU, 0x3b992ad0bd5360c7U, 0x3d89ffbbbd7ed581U, 0xbda12da8bd0c4aa3U,
  0xbc732d00bcd1bd3cU, 0xbdd281ba3d9c1260U, 0x3cae20df3dba2f88U, 0xbda8288c3cad23d4U,
  0x3c94e7183d803486U, 0xbc4596313c8a4f53U, 0xbd8ecc0c3bb8edacU, 0xbd8a7da63b92a75aU,
  0x3d7232813d2879aeU, 0x3ca1caef3d19e573U, 0xbd4dff72bd991fe3U, 0x3d202df23dbb3ba1U,
  0xbdc921e43c9075daU, 0x3d9d47873cebd993U, 0x3dbe651c3d9da693U, 0x3dc801fe3d9ef692U,
  0xbdd1b5fe3dd7b62cU, 0x3d028f583b434d5cU, 0xbcac595f3d6d72d1U, 0xbcd5a5693bf47e35U,
  0xbd8521f23d417e5fU, 0xbd4be508bc46b743U, 0xbceb409ab90e5228U, 0x3e2dbc9b3df70dd8U,
  0xbd4ce5a1bcd97399U, 0x3df72130bd18f2b3U, 0x3d3a557cbdc41c75U, 0xbc16d7b33db1104fU,
  0x3d92e9a2bd3c3919U, 0xbda390fcbb93e679U, 0x3d0a3a26bd7981c1U, 0xbd1aab78bd062f3bU,
  0x3d334c623c6af53aU, 0xbd042f04bd71be00U, 0xbd749a44bcc82e49U, 0xbdbf37d5bd4ae00bU,
  0x3ce80e7fbd4b75f4U, 0x3987ea2c3b8b20f6U, 0xbd8db1d63d3eab4eU, 0xbbe2108c3bc5df42U,
  0x3d04470a3dc7387aU, 0x3dcaf9723df11314U, 0xbc27a44dbc2c102bU, 0xbd07d1073da0e23cU,
  0x3d1b8f22bcd8360dU, 0xbc84bc2d3d9128d0U, 0x3d749ea03d3166a6U, 0x3d97e8593c9ef594U,
  0xbe12bc123e0c2ebeU, 0x3d9ae4223c92f51eU, 0xbd7c8083bb35fdb5U, 0xbd45f8e63ca984d1U,
  0xbdbf51103d1aad60U, 0xbd5444af3d620f68U, 0x3d7a22c738adbb30U, 0x3d4ab1153d5decd1U,
  0xbdba2b38bc32b00aU, 0xbd8f0add3da19175U, 0xbb9c5b10bd3c5c7eU, 0xbd4c184e3d2349ecU,
  0xbc7186ab3d849e28U, 0xbd8ec66abddeb45eU, 0x3dc53acebd5b087aU, 0x3d6455ff3d770b27U,
  0xbadfddc9bd48ccc9U, 0x3b38b391bdd83ab8U, 0xbb922a11bd1bc3cbU, 0x3d879155bc6090d7U,
  0x3bfafb72bcce204eU, 0x3cb9a9d2bd43aa56U, 0x3d8323993d4dd5b2U, 0x3cea6779bdb973b1U,
  0x3c61ee87bdb2cbefU, 0xbcd7fe6fbd387097U, 0xbdb77bc43d038a4aU, 0xbcfe9a843c8d207aU,
  0xbd3111103cc5651aU, 0xbb4158bbbe14867aU, 0xbd0e32f9bd14cb8cU, 0x3d61240cbce0a0b5U,
  0x3d4740a73d81baeeU, 0x3cd47005bbca117aU, 0x3cde96d1bcbca67eU, 0x3d13b304bc10f486U,
  0xbdf6921fbcc1addbU, 0x3d3f41ab3d2eef43U, 0x3d7ce096bc8700c9U, 0xbddbc107ba1221faU,
  0xbdb23a11bb945317U, 0xbcf10dd0bd6c3badU, 0x3c44e7a3bc9869f3U, 0x3c81d9f03d852eeeU,
  0xbc7372d83c2adbf1U, 0xbd08c77bbdcf5c22U, 0x3da0360dbad40823U, 0x3c9654b03c1ace66U,
  0x3d02c4cbbd7c7ee5U, 0xbc3a6a63be48e6efU, 0x3d351688bd2a2ca7U, 0x3db02513bd135404U,
  0x3d0bb01ebe0223beU, 0xbd1e8c50bcf7616dU, 0x3bfbf891bd268c2aU, 0x3c87bc65bd16dadaU,
  0xbc7583c0bd5dd46fU, 0xbd77d3f5bdadfcaaU, 0xbd1144eabcafda7cU, 0xbdc53bbd3d9acf0bU,
  0x3d41030abde1123bU, 0xbcf4c117bdd560b0U, 0xbb826681bcf425deU, 0xbd7291d1bd5b3172U,
  0x3c93e0803baad84dU, 0xbd991cc1bd49f240U, 0xbda731a0bd4eb2e9U, 0xbd32a2b4bd2f0f6fU,
  0xbdce0158bd1a2b55U, 0x3d0d7c2a3d0e9a7fU, 0x3cf21c3abcb6a8efU, 0x3bd66d66bd7d3558U,
  0xbde6e58fbb48010eU, 0xbc4362e03d3efdceU, 0x3d003744bb177d7aU, 0xbd7ea542bd2243feU,
  0xbb4874883de15336U, 0xbd9d0eddbcf1a1bdU, 0x3d53c1813b9974edU, 0x3d72ab633ddebc56U,
  0x3d0bd900bd9cafb1U, 0x3cca59a5bdedd44eU, 0x3c8af9e0bd0daf7bU, 0xbcae7b67bcd9e1aaU,
  0x3c19ffadbd744452U, 0x3d1a20afbd37560cU, 0x3d171b3cbc8f27e2U, 0x3cef3214bd7ec886U,
  0xbca297bdbb1b6646U, 0xbdc24fe9bdc43626U, 0xbdfcaa2dbd8ab98dU, 0xbd69e7343da43683U,
  0x3c4bf3983c94ba35U, 0x3c0f536abdaa09a1U, 0xbdeca3903d544f08U, 0xbc181b233d78be55U,
  0x39a003473cf0eeefU, 0x3cda70c8bd2a3610U, 0xbdecfc81bd42a26dU, 0xbcea37fcbc8417c6U,
  0x3c990fc63d046f8eU, 0xbb29493a3de37ac8U, 0x3bc77261bd9e502aU, 0xbc415fb5bdd57d84U,
  0xbd1cb52c3e2f8402U, 0x3d1d726f3e06fe53U, 0xbd5a5cb13dbc8d88U, 0x3d80b222bcff44f2U,
  0x3cee6831bda3eebeU, 0x3d11ff5abc9a558aU, 0x3c9599823d99bb81U, 0x3db790583cd87a8aU,
  0xba18609c3d5538aaU, 0xbd9ecd8e3db2214bU, 0x3d9d409abca2edd1U, 0x3dec23083dcea976U,
  0x3d5965f03cc8d2d0U, 0xbd567674bd27885fU, 0xbd9dd852bd376be5U, 0x3d4ac0e8bca9dc5fU,
  0x3dcc67cfbc51ee3dU, 0xbcdbdc0fbd847b8dU, 0x3e35c0b7bc9b3522U, 0xbe043a7dbc59d114U,
  0xbcf57c6f3e0de5a7U, 0x3d3f8e2abcbb5275U, 0x3da1a9363cfb3499U, 0x3dfa2b813e19b613U,
  0x3d5281d13d1cbabaU, 0x3d6191b03de94679U, 0x3e0471713dbbe031U, 0xbdd0082d3dd20f19U,
  0x3c59daf73e1bb753U, 0xbe136c113e3329acU, 0xbdafadd43b6310e5U, 0xbe366e183ca0406aU,
  0x3c9173063d249791U, 0xbd2a883d3d47277bU, 0xbd3180823c93dfe6U, 0x3d690b65ba844e1bU,
  0xbd129d9b3d4c0097U, 0x3d2131a5bd0aa461U, 0x3dcdbdf13cfbad17U, 0x3d98a6d33d00aa63U,
  0xbc9b69f63d78c7b6U, 0xbd353cdd3caa09f4U, 0x3ce37a833d5674bfU, 0xbc6317ad3def2dafU,
  0x3d034ebf3d1f8201U, 0x3d551dfabd3239bbU, 0xbde6b210bd10dd43U, 0xbc101d3e3dcae860U,
  0x3d5468123ce4badbU, 0x3d3a5d02bd63c395U, 0x3e157abebd547796U, 0xbd3acfc93def3bf2U,
  0x3d191a3c3e0a7738U, 0x3d35687a3dc41d2dU, 0xbcf70deb3d387094U, 0x3d50df513d2d5006U,
  0x3cecfec73d9894eaU, 0x3c2bb5523c716d1bU, 0x3da6f5c93dc268c7U, 0xbdb132923ba783f0U,
  0x3cb7e3543d8903d6U, 0xbd893b613d3e92e7U, 0xbbe896d5bbaf5401U, 0xbd749bca3d881b20U,
  0xbcc356ea3e061d1eU, 0x3d506383bcc052f5U, 0xbda4ec473d03b281U, 0x3d553ca23d2e6a0aU,
  0x3d02c4a7ba84c912U, 0x3ba9465a3cf0d445U, 0xbdc0fac73d854b47U, 0xbd009e833dc14253U,
  0x3cf2c4bd3d85f27fU, 0xbd438146bd4cc016U, 0x3c8248183cdfd414U, 0xbcf65cad3d2905b9U,
  0xbd434a07bd974f65U, 0xbc1ed6de3da5bf2fU, 0xbe436a393dc56e33U, 0xbd1ed7273d9d84f9U,
  0xbdedfae03d036c99U, 0x3d43a52a3b6071a0U, 0x3d2bbc3ebd16f9a4U, 0xbd020d453d4df332U,
  0xbd51b83d3c105340U, 0xbcff11203bb3a35aU, 0xbd83087f3d505a9fU, 0x3ced5a433d5ed329U,
  0x3d984553bd776633U, 0xbd9b980dbc4619bbU, 0xbcd6b260bca6696aU, 0xbe2958f9bc3f2bbbU,
  0x3d124e1fbbff265cU, 0x3bd9efdd3e08798bU, 0x3ce0aab53d2bc60fU, 0x3bf90c613d8754bfU,
  0x3ce4f4b13d4641c7U, 0x3b6e9798be1f35b4U, 0x3dd4dafa3d60f95dU, 0x3db787fbbe1f0e3dU,
  0xbdd204773d137103U, 0xbb6adb223c4d7b72U, 0xbd53fe62bb700840U, 0x3ce8f7b43d8ec2acU,
  0xbc95060e3a4481eaU, 0xbdc614693c75c8b1U, 0x3b8819cc3cd51fbcU, 0x3c2bec70bd764cb1U,
  0x3a022c47bce166cfU, 0xbddc914dbd6745c4U, 0x3cec49a4bce692cbU, 0xbd140a533e04745eU,
  0x3d25ea40bac78997U, 0x3e1ac2273cd8dbadU, 0xbdbcd282bd9bb9c4U, 0xbd8f05563d7368d8U,
  0x3dac5d40bdc99bc2U, 0xbc2239d13d66f86bU, 0x3d77a0443c25cf8eU, 0xbc9409f2bd86e4b7U,
  0xbda195babe0799f8U, 0x3d863d923cb6ba9fU, 0xbd14f6713d2b74f8U, 0xbe00ca96bc1e28ceU,
  0xbde4f56bbd5600daU, 0xbb2114623ddaf06fU, 0x3d60a943bd80d6e3U, 0x3cb63cb9be31f619U,
  0x3dcd7d173cd8b5e7U, 0xbc01f089bdb4c78aU, 0x3c9bcd613c7bdbedU, 0x3d2b0904be13e0b4U,
  0x3d67902dbcce24c7U, 0x3c7eb78c3ca2971aU, 0xbc982d1fbbecbc6aU, 0x3cc0228e3dd0fa56U,
  0x3dd28be23ddb3d38U, 0xbde85bf03dc6619fU, 0x3c41929f3d01c084U, 0x3a31b23cbd93022eU,
  0x3df6e3aebd593040U, 0xbc563977bd276e4aU, 0xbad38c553dfb64ddU, 0xbddd49e33c8443dbU,
