/**
  ******************************************************************************
  * @file    combination_data_params.c
  * @author  AST Embedded Analytics Research Platform
  * @date    Mon Jan 15 19:49:36 2024
  * @brief   AI Tool Automatic Code Generator for Embedded NN computing
  ******************************************************************************
  * Copyright (c) 2024 STMicroelectronics.
  * All rights reserved.
  *
  * This software is licensed under terms that can be found in the LICENSE file
  * in the root directory of this software component.
  * If no LICENSE file comes with this software, it is provided AS-IS.
  ******************************************************************************
  */

#include "combination_data_params.h"


/**  Activations Section  ****************************************************/
ai_handle g_combination_activations_table[1 + 2] = {
  AI_HANDLE_PTR(AI_MAGIC_MARKER),
  AI_HANDLE_PTR(NULL),
  AI_HANDLE_PTR(AI_MAGIC_MARKER),
};




/**  Weights Section  ********************************************************/
AI_ALIGNED(32)
const ai_u64 s_combination_input_36_bias_array_u64[16] = {
  0xbed5e1333f16b88fU, 0x3f3efa923f13cf80U, 0x3f16584cbf8aac65U, 0x3f819b6e3e9be709U,
  0x3ed0c7debf753c5fU, 0xbe80b2583f28bb3fU, 0xbf0bceb73f097f5cU, 0x3ec87c20bd6b79a2U,
  0x3f56859d3e9432aeU, 0xbf81e27b3de9810fU, 0x3f52fdae3f3e9e3dU, 0xbea5a14e3ee74b8dU,
  0x3d8f2fb2be70ffd3U, 0x3f18ddf4bf934a7eU, 0x3e95a5013d7c8d7aU, 0xbd963f0b3e23e2adU,
};

AI_ALIGNED(32)
const ai_u64 s_combination_input_44_weights_array_u64[1536] = {
  0xbe34249abe11d596U, 0xbd86598d3d0972f5U, 0xbe091a50bd8b3e6cU, 0xbe01916cbcdf3d9eU,
  0x3dc108eb3d29f1a0U, 0xbe4ea3fcbdb28395U, 0xbd8a0b98bcc7b052U, 0xbdd2065a3d328a67U,
  0xbe3f2f67bd256a28U, 0xbd85e2f4bd327c14U, 0xbd96f3f8bd5503e8U, 0x3d56a2f4be0d8075U,
  0xbd396e3e3db0c7b1U, 0xbd547262be0bf2e1U, 0xbbc608093de27936U, 0xbb0c76a6bc3a2a83U,
  0xbd554dbbbc21dc3cU, 0xbd828963bd0d1b6dU, 0xbc197618bdbce4d5U, 0xbdd3df1e3dd9f610U,
  0x3e293d053d3fd0d4U, 0xbc9829c2bd0a1b3cU, 0x3b94108fbba16a40U, 0xbc4de909bda32236U,
  0xbdaf00223d75bfe2U, 0xbd89854cbd6998f7U, 0x3dee56d9bd40608bU, 0x3dce55d5be1a51a3U,
  0x3c85536abcde2ce8U, 0x3db4c6d1be5c5f40U, 0xbe015a193ded82fbU, 0x3d6aa5b3bd7f2a98U,
  0xbe39eeac3d21ab06U, 0xbdaff8913dfb4b90U, 0xbd2114153d175cb3U, 0xbd0d88b6be1c21f3U,
  0x3c4c2504bd67f6c2U, 0xbd702d92be05d2d0U, 0xbd9a64d0bdfd0988U, 0xbcb17ad73ba1c9afU,
  0xbe3e401ebdd7ec3dU, 0xbd3d572cbdc205c6U, 0xbc3cdac8bde5b355U, 0x3dacb235be0727deU,
  0xbcb0b9b13d246b60U, 0xbde2f822be1a2ca3U, 0xbd821be73d93d779U, 0x3d8d10a43df05720U,
  0xbe2c2328bdb5a937U, 0x3d8163393dc6fd46U, 0xbe37a281bd9ae7beU, 0x3dd8c9083da5c14eU,
  0xbe3c0a4dbe8c6484U, 0xbc79471b3db864a2U, 0x3de4142dbe8af0ccU, 0xbe50a245bdcaab4dU,
  0x3e1e6b88bd7693b9U, 0xbdaca565bc579936U, 0x3d6b0aafbcf26b04U, 0xbd8ef19c3d9e7ce0U,
  0x3e1deb0dbe271b18U, 0x392332abbd9bc471U, 0xbcffd880bbffc2f3U, 0xbdf2f32cbe0dcbc6U,
  0xbdfee2713dc793fdU, 0x3e103eee3de85252U, 0xbc72e18f3e0b244aU, 0xbe0bc69bbd938bcfU,
  0xbda947abbdd3511fU, 0x3d8dcd49be0352c1U, 0x3c830b2abe75f96fU, 0xbe2bfb9fbbb379f5U,
  0x3d34a3723d8c92bcU, 0xbe1e35f63d8a4009U, 0xbd867f9a3e117246U, 0xbdcb309c3db160e8U,
  0xbdbdf1613e0e0986U, 0xbc850c763d064339U, 0x3df60343bb52862dU, 0x3b647a183bc86a11U,
  0xbd4cada13dd2c319U, 0x3d1a559c3e08e895U, 0xbe2aba593df95da5U, 0xbe3017943dc8b422U,
  0xbe85cd233c68e502U, 0x3cac0d883d0d6710U, 0xbcc605733d0511b4U, 0xbde1ff3f3cb2aa11U,
  0xbaad95433e491273U, 0xbd765eafbe03d00bU, 0x3dd33b643bd0bb8bU, 0x3d8494b53d3b0853U,
  0x3d4433533e28386bU, 0xbdb67e77bddaffccU, 0x3c44bd963e5cb0bbU, 0x3c129db23e004122U,
  0xbdd3aa9a3ba23cd4U, 0x3cd5a494bd32fd05U, 0xbddcde92be43293bU, 0xbe881765be2290e7U,
  0x3e43ff44bc8408faU, 0xbdaa2a013e02b1b1U, 0xbd1152873d91b97fU, 0x3da318a3bd42fa94U,
  0xbe630fb6bd4525c8U, 0xbcba6cbc3c150babU, 0xbe28ea8ebd9dcaa1U, 0xbd40c293be39efe1U,
  0xbccf484ebdcefafeU, 0xbd53bb533e16bf53U, 0xbe559da43e3f7b25U, 0x3df9809cbbf6a629U,
  0x3d2804fb3d93f0b4U, 0xbd59d51a3e2b7adaU, 0xbe4e2cfcbe1704d4U, 0xbd55c888be29b0acU,
  0x3e8d96943e2e4f9fU, 0x3d8c47413e1e86dbU, 0xbdc3adcebd888aa1U, 0xbdfb7ff8bd911055U,
  0xbcdaca103d3fbdaaU, 0x3c2dcc193e472caeU, 0x3c564f2ebd282c30U, 0x3d8862253d498a82U,
  0xbcd87a53bca1f579U, 0x3d7af26fbd20de31U, 0xbe03766bbc9c8369U, 0x3d697a9bbe55cf1dU,
  0xbe102c4bbddf223dU, 0xbe1ff9cfbd0c9d79U, 0xbe1253bbbe24913dU, 0xbe1b771bbe85c464U,
  0x3d9462713d6b550aU, 0x3e5c2928bd453d01U, 0xbdc1de883e52db1aU, 0xbe2dee17be13a9f5U,
  0x3ce6ce39be4ab13cU, 0x3d9859d2bd8e9dafU, 0xbd860e783d42e749U, 0xbd5b221dbd1c050bU,
  0x3c2eecaabd662bb1U, 0x3e11a2893dd1630fU, 0x3dc3b8e7bcfe59f4U, 0xbd465c68be0ae56dU,
  0xbdcf8df93dcc5e6aU, 0xbc45119e3e225b84U, 0xbd1f54fe3d649ef0U, 0xbe448aeabe20831dU,
  0x3d97ace0bc889d54U, 0xbe18646abd08bc29U, 0xbe26f1b0bd37c1bbU, 0xbcda634f3c4ec889U,
  0xbd3f5d5c3dd7a0eeU, 0xbdc245233d2e71a9U, 0xbe31fe1dbe388f5dU, 0xbd697a5d3e49a1afU,
  0xbdb495353e559ac0U, 0x3c4f31753e2e7f62U, 0xbd8d5c8ebe7a5d87U, 0x3d87277abbc61320U,
  0xbbc14b51bd8d4cb5U, 0xbdcb7c22bda15947U, 0x3e6deb763e2bba07U, 0xbd2b27d93e134a9aU,
  0xbd917aa4bceb21a5U, 0xbca903053ce8b8b1U, 0xbe0dc608be1f98daU, 0x3e34fe833d7484faU,
  0xbd41bdd5bce5492fU, 0xbe15a5eebe01aa88U, 0x3d4fef05bdabe1a2U, 0xbcdb985f3e8c7d6bU,
  0x3e283a1a3d611954U, 0x3d91d2263e2a4d44U, 0xbda5c643be415393U, 0xbd43d2c3bc996576U,
  0x3ccab52ebd265f78U, 0xbe978b853c8e6847U, 0xbd8b75febc8f0899U, 0xbdcff761bd248588U,
  0xbe4247883da2d5b3U, 0xbceeb70a3da82a24U, 0xbdeb96a0bd8e71fcU, 0x3d1bfea33e3ca3a2U,
  0xbdf771b03d9653e8U, 0x3ca3fd71be02aedaU, 0xbe9038bcbcac46b0U, 0x3d5665083d8afab2U,
  0x3de9a069be0c8424U, 0xbd45daa93dffbdd9U, 0x3d9eab13bd14cbf0U, 0xbe08d8f63eb9c598U,
  0x3d73b9183e29fbb6U, 0xbe8099f43c9c66b6U, 0x3cd0727ebc063024U, 0xbe97290fbc6d1d98U,
  0x3c449d05be0cd520U, 0xbe3dd5ba3d1404c7U, 0xbe4a58953cf037b5U, 0x3e670ee5be96e7f8U,
  0xbd468e713dacfbc1U, 0x3d3613b6be2334f4U, 0xbd66990e3d346573U, 0x3e394aa3bd6efa8dU,
  0xbd85e4febc99c725U, 0xbe4abf7abdda90d0U, 0x3dd1f82d3d64726aU, 0xbe314243bd2e291eU,
  0x3d044f8d3e0ddaa4U, 0xbd25f2c4bd7778b6U, 0x3d3ba1503cf79a7eU, 0xbe8bd6873cf663d5U,
  0xbe6710ccbe7220e7U, 0xbd8d443b3d904314U, 0xbe465d0e3e09a58bU, 0xbd86f384bbd28dc3U,
  0xbe23da90bd8f0661U, 0xbe9500a7bdeffec7U, 0x3e19edf63e3ba5feU, 0xbddae1fe3d9a8227U,
  0xbdc7a1753d802789U, 0xbe1e3431bd363049U, 0x3e3a100ebe03305eU, 0x3db87a7ebda7e4f4U,
  0x3db45500bcf4a788U, 0x3dc2a32abdd3c549U, 0xbbb6583fbdfb91dfU, 0x3d4deb39bde05751U,
  0xbda215c0bc8e6d0fU, 0xbd2566593d0197e0U, 0xbdcd716cbdaf50a4U, 0x3e39819dbe16eab6U,
  0xbd203f163c8c9196U, 0xbe7a67eabe2285d7U, 0x3e6882a4bd8004b9U, 0x3d95ca4dbe2ba09bU,
  0xbd9c6623bc07e067U, 0xbe4ab1bc3dcf7370U, 0x3b9c95eebe39ba00U, 0x3d82370e3d860a00U,
  0xbd9fc7c4bc5a61a5U, 0x3db1c7f93da8cdf6U, 0xbd03dfa3be95150dU, 0xbddb968bbd7bca67U,
  0xbe2eb431bd00588dU, 0x3d2b61833d9a78d3U, 0x3df4188ebdb38626U, 0xbe1bb41f3e38bb29U,
  0xbe665b233cd7e10fU, 0xbd883d9fbd8df2f8U, 0xbc8475023e3d6576U, 0xbe1fb179bde65982U,
  0xbd89c341be1baed2U, 0xbdae98f1be0bee88U, 0xbe2d02783dead1eaU, 0xbdb32f37bdc449d8U,
  0x3e3a3931bda39df3U, 0xbdf01896bcef1644U, 0xbd65bf82bd8fa871U, 0xbd9030bd3c9cb0c3U,
  0xbdec33dfbd5d1788U, 0x3de0bd0c3e0f1ab2U, 0xbbcde0a9bd045c2cU, 0xbdd206de3e78bd67U,
  0xbe4383a3be3dc04dU, 0xbc4082e1bde84446U, 0xbd1a1657bda1543aU, 0xbe4e43833d5d9425U,
  0xbd4541f93def38a7U, 0x3dc25c81be20918eU, 0x3dce29d13db50a30U, 0xbd1e0392bc7f9ca6U,
  0xbd30d1febdbd3fddU, 0xbdea0d6a3af48347U, 0x3d4ef0a1bd35a2e0U, 0xbe213e96bc45b78bU,
  0xbdc6da103db0c2c6U, 0xbc3886993e424746U, 0x3e1f6c9a3e0b62b7U, 0xbd1e047d3d338f73U,
  0xbdf094313d5326a6U, 0x3d7cab573e318ca0U, 0x3d870da13d768fcaU, 0xbdddc7efbddaedcfU,
  0x3dbf82de3e2531daU, 0x3e405e523d49abd6U, 0xbd5d5973bd92eabfU, 0x3e1dcae33eb0794cU,
  0xbd24bbc93d87e9d8U, 0x3c8b72883c7f2e2eU, 0x3d15c36dba8c10e7U, 0x3d8d3dc73cb78172U,
  0x3e06a25d3e1fb064U, 0x3da113afbdced662U, 0x3e164a263cc70996U, 0xbc9f584bbd23e6acU,
  0xbe1413523d42adf0U, 0x3c75150d3dbb1014U, 0xbc5ffb18bd3fec54U, 0xbdea7d983d086c14U,
  0x3b7f8e0abd934a34U, 0xbd6654683e37cc60U, 0xbd14d7eb3d2dadc5U, 0x3d9dce4fbd0a8e9bU,
  0xbd6ef51c3cf8dbeaU, 0x3dfbfd623d7f80caU, 0xbdccd99e3d7eac0cU, 0xbd9f336c3d9d14b4U,
  0xb791119b3e13de1eU, 0xbdea2a963db0cd81U, 0x3daf8f043c56afc9U, 0xbd916f73be074a91U,
  0xbd480411bc51a2edU, 0xbcaa7f3e3dbad217U, 0xbcf567cb3d3cd8c7U, 0xbe1497493e0da348U,
  0xbe29ca8d3d46b84dU, 0xbdc77ce43e1c71aaU, 0x3c8c07b4ba909764U, 0x3d4eb09fbd9e3039U,
  0x3d51cfefbd89a88fU, 0x3d021a3e3da3e430U, 0xbd80efc5bd0f1446U, 0x3d3990833cdb1c75U,
  0xbcc4221e3dc3f6fdU, 0xbc182d933e0c7ad5U, 0xbd7285b43db2e1a5U, 0x3d66c1fdbd9d96d1U,
  0x3e0387a33c26467dU, 0x3d8b2bb93e38dba2U, 0xbd0ad36b3d8259f0U, 0xbae1d02e3dd4bbbaU,
  0xbd8f4f27bcffe8d5U, 0xbe139c50bd4cbb37U, 0xbdf9cfe13ddd3159U, 0x3e0631453c813527U,
  0x3db7f8a5bde12cd9U, 0xbe1807cb3e04b930U, 0xbd5a4207bd0cf00fU, 0x3d460ee93e044d53U,
  0x3d019371be831f45U, 0xbe4411df3da84e77U, 0x3ca12a3a3d0e6759U, 0xbd9cc8bfbd60ef02U,
  0x3c837f4f3d53abe3U, 0xbd7e7b0a3d3384aeU, 0xbd9fac673d850bc2U, 0xbcf07d2a3dd5ce0dU,
  0xbe5eeea2bcf64e50U, 0x3dd1f4b73dc92434U, 0xbe2b404b3d88f579U, 0xbd870c29bd505d45U,
  0xbe0b77533ce73233U, 0xbe2f69eb3e154b32U, 0x3df8dd15bd35c3b8U, 0x3d4aa26abd10b1e7U,
  0x3e14ed0bbe3b7b51U, 0x3d1f0df63bb3ad5dU, 0xbc7e3bca3df7df18U, 0x3e10d1f8bc8d7f89U,
  0x3cca2ed1bd617a86U, 0xbdfdf806bdd13da7U, 0xbb6a207c3d205440U, 0xbdd72a253da9338aU,
  0xbd9e3faebdaae85bU, 0xbcf50196bd9106cbU, 0x3ddc96063bd5260dU, 0xbe3b62b1bd8f3716U,
  0xbe28370dbe2901bbU, 0xbe5e3ed13d7d185dU, 0x3e1594433e4b3d55U, 0x3dcf89dfbe0496d2U,
  0x3dbdab7ebe4266daU, 0xbd46f5ab3d9ce546U, 0xbd1683753cb2f0d8U, 0x3d81629fbd4a15f7U,
  0x3e04ca623dd419a3U, 0xbe1bdc9fbd16639bU, 0x3cf4b7e93d54105dU, 0x3c8a0c01bd0ea602U,
  0xbd1e39793d2630a7U, 0xbdb40b2dbe0b4725U, 0x3e342967bd7e3e73U, 0xbda7abb4bdeff5f4U,
  0xbda9a10b3c037807U, 0x3d8356053deab674U, 0x3dc3769fbdb114fbU, 0x3b2ab7013bfeeff5U,
  0x3dbd7417be199deeU, 0xbe4f09eb3e23ebfeU, 0xbd1533e13db74ce6U, 0xbe40261b3d3c4d70U,
  0xbcddbca5be585de1U, 0xbd1e70cfba448631U, 0xbe2ab3583e227650U, 0x3e2e243a3b2368ddU,
  0xbda20f883cf404c7U, 0xbdf73af2bdb70b8fU, 0x3dbda1c13d99ce93U, 0xbddaeee8bd16c788U,
  0xbd2c623bbde561d0U, 0x3d7bc4cf3dbab1f0U, 0xbdbc56c6bb653437U, 0xbd501a9cbe338b8cU,
  0x3d0a1554bd4f9ae4U, 0xbe210b603e2a2b84U, 0x3d12e9be3dd0abbbU, 0xbe4685883dab94e9U,
  0xbdc0a100bcde44beU, 0x3c0d07a6bd5b25cfU, 0xbd8fcb003df62beeU, 0x3d551676bde1b124U,
  0xba9121c43d0a3331U, 0x3dfecbf33d41f0fbU, 0x3dcd9068bdbc277eU, 0x3e10d243bcb4b622U,
  0xbe0b5ebbbe36edb5U, 0xbdec6ba7bd88ae1eU, 0x3dd9c1653d693fe0U, 0xbdf593a7bac426e7U,
  0xbd6a4196be8bb86fU, 0xbd939187be0b70f6U, 0x3c098bc03dbeec57U, 0xbe0203ecbd83978eU,
  0xbd37ce023cd2b810U, 0xbe1743343d753730U, 0xbe13343d3c12991cU, 0x3db1e74bbd2a3641U,
  0xbe206e49bd1a318cU, 0xbda73499be19a23aU, 0xbdc5cba13dcb69adU, 0x3d9138473dd252cfU,
  0xbbe3beb03e16e0a1U, 0x3d33c6acbe2d3a99U, 0x3e0955f1bd41b5cdU, 0x3d52ab603d9a50ecU,
  0xbe4500863c98c3d9U, 0x3e433f4a3cb7de16U, 0xbd12fc63bd645a07U, 0xbe2fede2bd069885U,
  0x3e820e573d97aa42U, 0x3e17714fbde6c1beU, 0xbc6f1aee3de97163U, 0xbe167a21be094ce4U,
  0xbdd0a906bda78a8cU, 0xbe09200b3e0eece3U, 0x3d98b2393de57e3fU, 0xbdc83ca2bd96fba8U,
  0x3dfd38d6bc16b788U, 0x3db21589be007ecaU, 0x3cbac9453d9e6ac5U, 0x3e2faebd3dae5534U,
  0x3d33ed3f3dae3463U, 0x3d49ceeabdc21310U, 0x3d3eebdbbd8c16beU, 0x3d81854b3dfafd32U,
  0x3c266fa53e02fae8U, 0x3cde17b83dac3fa1U, 0xbd9ad2693df3ac46U, 0x3e07430fbdb00268U,
  0xbbd56b173c012c0dU, 0x3dfeb54ebcb32e99U, 0x3dd8878e3d16fa62U, 0xbdd12e36be4138daU,
  0x3d1a239e3dca94afU, 0x3d16ea6a3db86562U, 0x3e03e052be03df66U, 0x3e7b15adbda3203fU,
  0x3bcf92d8be64ec1eU, 0x3e0c14ef3d328079U, 0xbe21b2133e0dd23bU, 0xbd0260683df73443U,
  0xbd81fddbbd9e5a59U, 0x3d6843153d5d4d13U, 0x3d57bc883de5c428U, 0x3de50e673bb02235U,
  0xbe3ae4353bbbd75cU, 0x3d7fccfbbdb7a85eU, 0x3c8a5f213d4a5c18U, 0x3c52e76e3cf41c7bU,
  0x3dfc9b743cc18111U, 0xbc002a9abd70a390U, 0x3d5084e53e26394cU, 0xbcc5c9bdbd08fcc1U,
  0xbd854b363d3a70e9U, 0x3e8486943e43225fU, 0xbe5f7e023ccfd12eU, 0x3c83de15bdf8ef07U,
  0xbdf51771bd8f205eU, 0x3e3f57083ddba475U, 0xbdd22d5d3d881664U, 0x3e0856db3bfce986U,
  0x3df79466be182416U, 0x3e13cd3a3e05f674U, 0xb9a291ecbcbc6106U, 0x3dce082ebd905d4aU,
  0x3cd103c03c65d1fdU, 0x3d8fb681bd26968aU, 0x3db621b93c96bb1eU, 0xbd0be74bbe3ddf8bU,
  0xbd1d4104be35501aU, 0xbc2b72de3e1be09aU, 0x3c5f2fa3bc785edfU, 0xbd963d49bd04f5a8U,
  0xbdaccb45bdcc8a5dU, 0x3dcc7a683df9bfb2U, 0xba8c96233e025155U, 0x3da0a7cabe0b1b59U,
  0xbd9edb063db93721U, 0x3c9028083e26dce5U, 0x3d8384d6be35e64cU, 0xbd312c4abddbedb1U,
  0x3c9614dfbcefd455U, 0xbd5675d2bd8e9f9eU, 0xb8c875f3bd5753b9U, 0x3e283673bde0c3e2U,
  0xbd1a5901bd120214U, 0x3d329235bcc61746U, 0xbe36e87c3d1ae62cU, 0x3d39200dbda0b22cU,
  0x3e8cdc20be270bb7U, 0xbaabe812bd6a5b88U, 0xbd8285563d517504U, 0x3d8687babe1fda20U,
  0x3ddd22f5bcba0d26U, 0xbe11141b3e008586U, 0x3dfd1707be2543b1U, 0xbc1b4e00bc77dd53U,
  0x3db18a2ebdbe18a2U, 0xbdc36f693db3a264U, 0x3b0d422c3e02d93fU, 0x3d8035533d03dde4U,
  0xbdaf7b4b3dc39613U, 0x3b58c5f6bd84475aU, 0x3d87600ebd6eb137U, 0xbe07324d3b0d94e3U,
  0xbc32042a3dae11ceU, 0xbc04f4e1bc844eeaU, 0x3d1e76f73daa571cU, 0xbcb78215bd91371fU,
  0xbdc1b0663dafec2bU, 0xbd765b4dbde76f4bU, 0xbd59115d3e087612U, 0x3df78e15bda3d7c5U,
  0x3db56dd23debc7e2U, 0xbdbbc6eabe1502c8U, 0x3dc2b2fbbcf9b5faU, 0xbdf80f2abd1fc7c7U,
  0xbde21c5d3c4c0b86U, 0xbdd5264fbcbfe3beU, 0x3d3a57903db9f93eU, 0x3e1bae913ddf78dcU,
  0xbccb644a3c56e541U, 0x3d829c633e2260f1U, 0x3e095f10bcc6ebbaU, 0xbcfac3683d10940aU,
  0x3d847fdf3d1d306eU, 0xbc58ca463d04c5cbU, 0xbe36d9403e22d16aU, 0x3e04d0a6bafe3c37U,
  0x3e35b54a3e316ff5U, 0x3de79555bcdc5759U, 0x3d2fdd0c3dd66c05U, 0xbd5f970b3de8ee5cU,
  0xbe39daabbd19e1e9U, 0xbdb0c9a9bddd911fU, 0x3d0a6ba93da6e152U, 0x3e144504bb888ca7U,
  0x3d9f97103e316f1bU, 0x3dac50953cd7512eU, 0xbbe383393cd38104U, 0x3d10e2a23c1e575dU,
  0x3cc568303de8f589U, 0xbdeb271c3e23920fU, 0xbe1ec196bb8a09a6U, 0x3d1de4383d9e678eU,
  0x3dd84f4e3e3cc631U, 0xbe4357883dd2fcfeU, 0xbd663dc23d7c7975U, 0x3dc3ebc43da2f0b8U,
  0xbe63e4c9bded2230U, 0x3d739cacbe0992c9U, 0x3d7ab74dbceeb394U, 0x3d28f0df3c91ca07U,
  0xbd8c49a43e403942U, 0x3d77f666bca8efffU, 0x3d980e0b3bb3defaU, 0xbdcd8b39be368519U,
  0xbd94e458be4159e7U, 0xbe3571e53c57fdf8U, 0x3d2541a23e722691U, 0x3e0d627fbe381771U,
  0x3dae1a803e714ce8U, 0xbd9b2905be1b44e8U, 0x3d80b4cebcdd6f94U, 0x3c7bc82fbd9eef58U,
  0x3cd426a53e0caf4fU, 0xbd41bf9a3d34a48eU, 0x3dbda07e3e0cfa06U, 0xbe0c2a45bdce8491U,
  0xbde5f2393c0c1ecbU, 0x3ddda1babd7e7e58U, 0x3d8b5e483dec6c26U, 0xba4c404fbd0f5858U,
  0x3d84cb24be1b1cb9U, 0xbe4b5f783b1065eeU, 0x3cad0dc93e2c6d8bU, 0x3d975760bdcc3055U,
  0x3db87f9cbcfe240cU, 0xbce9e0b0bd931416U, 0x3daa81d6bcbe28c5U, 0x3d1071e4be6c8012U,
  0xbbe19f713d1542c2U, 0x3deb9df9be364278U, 0xbde53fee3e1d8691U, 0xbdc829c23df79738U,
  0xbdaa54a83e3cb5faU, 0x3e209e233e2f51a7U, 0x3c83713e3e133548U, 0x3e27c1bd3e0733abU,
  0xbd3c1fd2be6c43adU, 0x3dab8c7ebcff8684U, 0xbe030b6c3da99927U, 0x3d1baf40bdd77c0bU,
  0xbe0189763dd0cad4U, 0xbd2ae2e63d9bb85fU, 0x3e417c223c919742U, 0x3e0e1eae3a5e19b2U,
  0x3c4db130bdd43c72U, 0xbdc27abdbd7098dbU, 0x3db8e03cbd37fc74U, 0x3d377238bde24451U,
  0x3de378a43d3887ffU, 0xbd952249bbc8df60U, 0xbd1f1d9fbe62e2ecU, 0xbd6bfda23dd73091U,
  0xbe3607c8bdb0cc2aU, 0x3d2cc3873d5b6c66U, 0xbd91c1d0bd18e487U, 0x3ce1af7dbdd7eb50U,
  0xbd0b69d3bd07e5e4U, 0x3db6ccd4bd0fe9a3U, 0x3d73ccd13c27c682U, 0x3e75e52abdb3bd1eU,
  0xbd19012dbda3a2b1U, 0xbd66c815bd864f9bU, 0x3ca0b75bbd02bd1cU, 0xbd541c43bd1fc971U,
  0xbc622cda3e05391eU, 0xbe2b9d14bafb6a94U, 0xbd2db1cabe20c2faU, 0xbe2e193c3dfa1d9eU,
  0xbd4b1ba0be2a2eceU, 0x3da8e243ba8a553fU, 0x3e1917e3bb0656faU, 0xbd5b55893ca788eaU,
  0xbe736494be244705U, 0x3e14ba71bcc31955U, 0x3cd6a460bc9b1591U, 0x3d881778bc2b3eeeU,
  0x3d5c1e373d085bc6U, 0xbc9cfb3dbd8735e7U, 0x3e0ac3873d0b93d2U, 0x3c5398533d282ac8U,
  0x3c04e1f83d15d062U, 0xbe7de0973cf00ca8U, 0x3d7dcdedbdcfc72bU, 0xbe51e7a4ba50ff95U,
  0xbddc7231be0f60dbU, 0x3c9e962fbd2057d1U, 0x3d15f841ba6224ffU, 0x3d3836513dca6ac4U,
  0xbd21663b3d94729bU, 0x3d18e467be389704U, 0x3d40acfa3e3a16a5U, 0xbe0c405d3e0b7699U,
  0xbe0c5cddbcb17b91U, 0xbe14ed0ebd91761fU, 0x3e4cfb013d32bf60U, 0xbd00c0773d1140e2U,
  0x3d1dfd413e1f2982U, 0x3e2479d23d0d0511U, 0xbd763295bcf3b09eU, 0x3d83861c3da55bfeU,
  0x3d184a713d0d9408U, 0xbdd8b7873d249df5U, 0x3df2887d3caf1ceaU, 0x3e1571e13d870836U,
  0xbc2e755b3c877defU, 0x3b8aa22fbdcb618eU, 0xbd1cf2173e1fa679U, 0xbd33afb33c8f9872U,
  0xbd8d11d83e3ff8a5U, 0xbbb76d9d3d126bc0U, 0x3e06b80ebcdee1c2U, 0x3d76903d3df356a7U,
  0x3d4c00d6bd927bd6U, 0xbc1bf9be3d4ca416U, 0x3df57408be0d860dU, 0xbd8990973dc7349cU,
  0x3e054224bd5884afU, 0x3dccb6f73dcb98f6U, 0xbd8f75633dd50144U, 0x3dde5873bcf41a62U,
  0x3df05a873e040008U, 0x3dd6bcaabdb83cf9U, 0x3c8438bbbb8f7a75U, 0x3d65dd073da3ef7fU,
  0xbe4b666e3c672c93U, 0xbdfc26523d0597e0U, 0x3e3144a43b186fd6U, 0x3e244d87bd2b0fc0U,
  0xbe241f02bdb5eb36U, 0xbd8623793cfc590dU, 0x3e1eda21bdec39daU, 0xbd824e99bd80116fU,
  0x3d6e19883dbe0ff9U, 0x3df6f605bd063d49U, 0x3d445356bd5c97afU, 0x3e029711bd149931U,
  0xbcc163f03e613e2eU, 0x3b337ee7be3b6ce1U, 0x3da6e8303d59e5e6U, 0xbcf1ae15bd9255e4U,
  0xbd91f08f3bd3264eU, 0x3e47954dbda2990fU, 0xbbb82cf93d92bceeU, 0x3e30c27c3e160568U,
  0x3e1528ee3d5b6230U, 0x3d8582683dc1b9e3U, 0x3ca37b563c17f3ecU, 0x3e3401cdbde29b09U,
  0xbc9455c93aac5c4aU, 0xbe350da2bdad95b2U, 0x3e72b373bd28acc8U, 0xbe16faf03dd7e2c6U,
  0xbcb636963de990f6U, 0x3d8a9cebbdc75d54U, 0x3cbe888a3e0b1f3dU, 0x3e24a7d2bbccb676U,
  0xbe2c80efbce211aeU, 0x3ca002cd3d816355U, 0x3e76b0913d75453dU, 0x3da1fef0bc84dab3U,
  0x3e0d1021bdaa013bU, 0x3cc1e3c4bcb2c1f2U, 0x3d91566d3e10b91aU, 0x3db1e67d3d5d1b88U,
  0xbde439b2bd2fb05cU, 0xbe075adfbd971ff3U, 0x3e4b5d60bdffd49fU, 0xbcbf9cfebc0e8bdeU,
  0xbd417c9d3e344242U, 0x3dec3c8ebd59b1a3U, 0x3d6d36ca3df64397U, 0x3da887313d7e0c1eU,
  0xbd065b1b3d2fab80U, 0x3d42037d3db388a9U, 0x3e3ac654be14a097U, 0x3dd1fc5e3d29b4b8U,
  0x3e0b19f73bcc904bU, 0x3caa26d13d8b8f49U, 0xbd0d7c01bd918a03U, 0xbdc434d8bda571a5U,
  0x3db698b33b71bbffU, 0xbe23d0103d8524d0U, 0xbce93c763e1acadaU, 0x3dd2f35e3c991452U,
  0x3c790eb93d4ab513U, 0x3d4da50ebd9712fbU, 0x3de1ba333cdf11f1U, 0xbbb51aaf3d928b6aU,
  0x3ce52c663d7a4636U, 0xbd471a663e29996eU, 0xbdf5f1e5be4bfef7U, 0x3ada98e63cae0948U,
  0x3e11d84abcf5dd0dU, 0xbe40dc86bd7eff67U, 0xbda997e1bdfbab88U, 0x395b2e5bbd51a1e2U,
  0x3e0630203e9467d1U, 0xbe5b05633c813bbeU, 0x3e4b8c003da15f36U, 0xbd2b57223cee3809U,
  0x3e00fdea3df4a0c4U, 0xbccd4b72bd36fc33U, 0xbc62c559be12e164U, 0x3e097884bd9112d7U,
  0x3e6333cc3caf38a0U, 0x3e031da5be1f2300U, 0x3dd70271be2ff7fdU, 0x3dcaaf46be60d749U,
  0xbbce1221be29e65aU, 0xbe20bc15bdd2f0a7U, 0xbcae126dbd289e89U, 0x3c5035de3e2db5b2U,
  0xbdd98eb5be1dcb81U, 0x3e03d23c3d9ce6f9U, 0x3e24253ebe13e1e7U, 0xbcee1f10be63b8d4U,
  0x3e8c1f20bb75402fU, 0xbdfd2b55bda01c75U, 0x3e1dd7b53da132a4U, 0xbd8cbfa5bd0d8a22U,
  0xbd8fd36ebd543828U, 0x3cdf8362be3f1faaU, 0xbd8153ce3d1d9221U, 0xbe63671ebd351c2dU,
  0xba879e01bd5c6f08U, 0xbdd596da3e2f7e29U, 0x3d8446333c91531aU, 0x3dc360183da29715U,
  0xbe4d6fe73dc128f9U, 0xbe0578cf3e751a53U, 0xbe364b98be14806dU, 0xbe550fa4be5869bcU,
  0x3df38f5fbd221761U, 0x3d6ecf463df6ab95U, 0x3dba2154bd1aebdbU, 0x3dd47e7d3d96f0f2U,
  0x3b5e9c0fbd2e68efU, 0x3dcb3524bb908ba2U, 0xbe080de93dca5553U, 0x3cb82a423e1e3670U,
  0xbb3b109abd8eac0fU, 0x3e0480f7bdcbbec8U, 0xbc7149a2bb813e5fU, 0xbe0b316c3e07a766U,
  0x3d3fb705be3a0028U, 0x3e55672a3d957306U, 0xbe00dc0ebb4b3853U, 0x3cbc2accbd209faaU,
  0xbd8fbc5d3de8ba04U, 0x3d8a6f13bd3958e2U, 0xbdc3e7acbd8f2908U, 0x3de5f1033d839063U,
  0x3c1a5a1a3cba7a5cU, 0xbbc051bbbd14f883U, 0x3e36146e3c215f82U, 0xbd9a3d553e5ffdc8U,
  0x3c89b3273dcf3999U, 0x3de9e2e7bdc17da6U, 0x3e0851053dc3bb9cU, 0xbcf56afc3d0dddb0U,
  0xbd24eb29bde51576U, 0x3e2122a3bda1dbf0U, 0x3d0282903cc8e673U, 0x3cbd0a1a3e4674d9U,
  0xbc721f813d271586U, 0xbe0195783d23f15dU, 0x3c3e05b13c142a9aU, 0x3e2ff2d63d196abcU,
  0x3d88c7bb3aed9e7bU, 0xbc704854bd74cbacU, 0x3e451dec3e6b48a6U, 0x3d3119ea3e0dfa5aU,
  0x3dae7adebcdea743U, 0xbdecb87e3d82fdb5U, 0x3d667878bd85d9a7U, 0x3cdcad60bc328bc0U,
  0x3cd14cd9bd98468eU, 0x3cf2076c3dcfcd8bU, 0xbe5ac0b73d04f006U, 0x3c980a643e1abda6U,
  0xbe89585abe2556e3U, 0xbd542ef93c018504U, 0x3cfc02a73dc52b58U, 0xbd79d5bd3e0fca59U,
  0xbcc77d0cbd4f1c38U, 0xbc931c353d700ee0U, 0x3c22d814be68b497U, 0x3cbd2dd9bd852260U,
  0xbe07d6d33d90eba0U, 0xbe2432d0be12b5d8U, 0xbb46d0d8bd71cefaU, 0xbe0fd0763e2c150aU,
  0x3d4c089f3c80a14fU, 0xbda4d1c7bdc56fa2U, 0x3d325529bdf7b72aU, 0xbc605a353e28c891U,
  0xbdffb3e7bcdd2f05U, 0xbe0f6957bcfb1407U, 0xbd8dfe243dc15b8cU, 0x3dc1d6993d34965cU,
  0xbe3bbfe8be40170dU, 0xbd106f05bc57df54U, 0xbe2d9365bcc5c7d5U, 0x3da4c9e5bd4f88c8U,
  0xbe51e3823e24fad4U, 0xbe4e81a3be59f4c5U, 0x3def62103d3a1635U, 0xbd71fb6e3d85df5dU,
  0x3cc63e9abd95aadbU, 0x3dfd1b50bd97b0a2U, 0xbdfde19abd576e82U, 0xbd38ca533e12d5d0U,
  0xbe84bc013d2860ddU, 0xbd717d523dbc87aaU, 0x3cf4c9a0bd16c05dU, 0x3d9a2943bbb04665U,
  0xbc8b47953ce8a51dU, 0xbe4f9a5dbdbfd757U, 0xbd94bf87be046a47U, 0xbd6b67c5be0ad1baU,
  0xbd9116613e1cff23U, 0xbde6bf1fbda249f3U, 0x3dbc8c7fbd8d30fbU, 0x3d2e1c433dfc399bU,
  0x3d1a08b63d21b75dU, 0xbde1d4f8be17a5c1U, 0xbe4c6d863d681d17U, 0x3e1f086bbd8c2d0eU,
  0x3d9c90a63e0b6110U, 0xbdd1d9243d7925a2U, 0xbdda7c43bd15a9b7U, 0x3d1814a8bdb18293U,
  0xbe1ade923c193e34U, 0x3d8794273ddf1b2aU, 0xbbd21bbf3dcbec6bU, 0xbdd4fee83d003de4U,
  0xbdfb6301bd6424cfU, 0xbc8f3191bdbef2b7U, 0x3dfc1c453c8e75d3U, 0xbd30305fbdc3b586U,
  0xbd8947df3db50043U, 0x3da3958abda4628dU, 0xbcc2a6843db680b0U, 0x3dcb227a3d8e627bU,
  0x3dddec4d3d5d9286U, 0xbdc1eaa73e070ae2U, 0xbe29305bbe3ede5bU, 0x3d2c5efa3c955087U,
  0x3d883670be20c3bdU, 0x3d433985bd908f96U, 0x3c1e03003de829fcU, 0x3dbeb929bc83b53dU,
  0xbdaf7ef9bdf445ffU, 0xbe58b9203ca0f163U, 0x3e0d14fb3dbbc8b8U, 0xbd6281e73db74c50U,
  0x3ce998d13cacc54eU, 0x3cbf7d74bdead11dU, 0xbe259f193e1e408eU, 0xbd9432193e2b6695U,
  0x3df699bb3da76689U, 0xbd75393d3d9f1cceU, 0xbe0c16cebddce752U, 0xbd2e0709bdb2df3bU,
  0xbd18e526bdbc15e4U, 0xbdb72ec7be033b17U, 0x3e4348ce3de971adU, 0x3dd745e23ab09f64U,
  0xbe3af45e3cbe5ec1U, 0xbc9bac3a3de8f4bdU, 0xbd8cd533bd79066cU, 0xbd9616993e3d4453U,
  0xba079cb13de8e16dU, 0x3ddce3c63e04059eU, 0xbdc05311bd225f52U, 0xbd4254293e32a92eU,
  0x3db54f41bdc6534dU, 0x3ddbd979bd8275cfU, 0x3d00c4dbbd050f46U, 0x3d50a7293e755eb0U,
  0xbde15f953dcec25eU, 0x3d2f28463d975e73U, 0xbdd0f164bd275e16U, 0x3d48412d3e337e7dU,
  0xbe12e3e9bbf66a42U, 0xbe387d4bbde34cbfU, 0x3c6ad5103e2101a1U, 0x3da4a60bbd593bc7U,
  0x3dc45014bdd028e1U, 0xbd1f458f3da412e4U, 0xbdc88eddbe13820fU, 0xbd54930abd581402U,
  0x3e1d37d3ba9cb047U, 0x3d964d83bd836a7aU, 0xbce72edfbe3dfbbfU, 0xbdc9957c3e56b4dfU,
  0x3cf3959d3d77575cU, 0x3d54c8fc3d81fa15U, 0xbdd555a6bc3facc6U, 0x3c63821c3c452ca0U,
  0x3d3298ebbdccf584U, 0x3ce79cd9be1a7eb2U, 0xbdc531d83e3d25f3U, 0x3c5669733dfb38b9U,
  0xbd0c2b8b3d039682U, 0x3ddd1fcebdb32200U, 0x3ce708febda04d27U, 0xbe1190a93ce5fc67U,
  0xbdaadd72bde1ea42U, 0xbdb702de3ddc7989U, 0xbd1f96cabda7c887U, 0x3d3812193db8774dU,
  0x3dac9c45bdfad945U, 0x3cfcd595bd6a2958U, 0x3d3bbb2dbb26d83eU, 0xbdaa3df73e132ca7U,
  0x3d8f9a13be0f1c11U, 0x3ceaf629bdff063aU, 0xbdc507073da6258bU, 0x3decaa92bdb1a033U,
  0x3e4267f6bce5703fU, 0xbd29a4543b217f55U, 0xbdd34289bd84d241U, 0xba5469793ce918f2U,
  0x3d29e511be451ae4U, 0xbbfbf058bc5210c7U, 0xbcbb06d43da3781eU, 0xbd293ea0be74f2c0U,
  0x3dfd9c23be02b7cbU, 0xbd3ed1983c873b19U, 0x3e30e381bdbc3900U, 0xbcea16bf3e3b4bdeU,
  0xbd3a04ccbe18e1bfU, 0xbd0ad6173e1bc085U, 0xb94d8b683df45439U, 0x3d8fa6653e392ad6U,
  0xbd17a034bdf7fd76U, 0xbd3a581e3daeebabU, 0x3ddb5f45be3f303aU, 0xbe7f79a8bc5d88a3U,
  0xbe1a0d99be6f164cU, 0xbd70d5e0bd721b2bU, 0xbe1022e0bc45e761U, 0x3dfb2579be0f2b0aU,
  0xbe097dc73d4437deU, 0xbb7e2d273d169d8dU, 0x3e1235d3bd053398U, 0xbd398809bc93dee1U,
  0x3e3780f73cf0915bU, 0xbdbec085bd13aa7aU, 0x3d32fa8fbd9a5ff7U, 0xbe3ff6eebbc2b642U,
  0x3e4cfe3b3dccb7e0U, 0xbdefef923e2673f2U, 0xbd7a31b5bdd44275U, 0xbdb4d0f3be1967c5U,
  0xbe01c04cbe1aa1fbU, 0xbde75ba43d1d17c2U, 0xbbfa4d7e3d377b0fU, 0x3d6cc31abe3f487bU,
  0x3d0155093e02824bU, 0x3cad993f3e443892U, 0x3e06fe633ac9bd52U, 0xbe3cfb5abdf08c23U,
  0x3dc39cc43d9f7194U, 0x3d343237bd10cf14U, 0x3e1b86f5be39c06fU, 0xbd0118b73d46f481U,
  0x3d93f4fdbc943618U, 0xbca7ec923e3f9350U, 0x3c22d6b7bcf9ac74U, 0x3d230ee7bd0c3488U,
  0x3d93430bbd1c42a4U, 0xbd800ec6bd6b0cdcU, 0x3d479e553e677c11U, 0x3d0803cf3ae70840U,
  0xbe0b42a83e099c3bU, 0xbd9c68afbd85d3f1U, 0xbd913b343c83d6c0U, 0x3c8d149abdc64acfU,
  0xbe2b46303e114e85U, 0x3e5f7f64be03f09dU, 0xbd85d3bcbdd5b270U, 0xbd8c43e4be0d2893U,
  0xbd56f7b6bd60e4f0U, 0xbd5dbf503d79a30fU, 0xbe193da03d5144c3U, 0xbd83db25bde3c367U,
  0x3e1145d13d352d62U, 0xbccfe7d6bde0edc0U, 0x3da683b3bced14a6U, 0x3d22a85b3d212407U,
  0xbdb024d43d16e4b2U, 0xbd90a3de3d9e1c00U, 0x3dc70cedbd41fcc6U, 0x3dfc23c1bcbf7982U,
  0x3d55a8573e13b975U, 0x3e584ee3bd64e1f7U, 0xbd90c9b3bd0fb1d0U, 0xbcdb5157bb83fe22U,
  0xbc918260bc8dbcecU, 0xbdbfe2cd3d91d901U, 0xbe17718fbd0f383cU, 0x3d75765d3d482464U,
  0x3e2346763d4660c5U, 0xbcc0da0b3d4d7c94U, 0x3d9429f53cadff81U, 0x3dc949313e0786a4U,
  0xbe338edf3df3bde9U, 0x3dc64e223dbf2718U, 0xbd2746963e08d625U, 0x3d04f2a13dbf0653U,
  0x3c9e27b63d68cb83U, 0x3dd0a4c93b703a40U, 0x3d1ae171bdfaa448U, 0xbc9c97a0bdaf5a39U,
  0x3df2b47fbca406f8U, 0xbcb5c7aa3d5bded5U, 0xbd9ab365bc2a900dU, 0xbd93177cbd8c7c38U,
  0xbda4b8613da87e4dU, 0xbe8df4263ca916feU, 0x3d0d3e38bdee6f45U, 0xbe2a7965bcf601e0U,
  0xbd360291bdb75f17U, 0x3ca37c43bea5bb29U, 0xbe09eed13d348bc6U, 0xbd8072913c52c10aU,
  0x3e5c7f89be80d65eU, 0x3e2169d73c0d6406U, 0xbd3a7e64bc642d99U, 0x3d9bf55cbd216467U,
  0x3bc3e92b3e16b6abU, 0xbd305ecabcf994c7U, 0x3e30891a3d20016dU, 0xbdc5968bbd6758feU,
  0x3ddecdf8bd957fbbU, 0x3db9e1cebe0559ffU, 0xbe6bcf0cbdc6e9f8U, 0x3bfc89a5be9ab08aU,
  0x3e5f9f763cac26e0U, 0xbe3ff743be3beb40U, 0x3de0e1293e0dea24U, 0x3e073655bda41f5eU,
  0x3d0b54bcbe1dab24U, 0xbd697da13e23be8fU, 0x3b597e59be9383caU, 0x3e3a9f2cbe410e92U,
  0xbe46f43a3dd357d9U, 0x3de59e7bbdf625d8U, 0xbd0900a63d1234ddU, 0x3d8842473a2b1b59U,
  0x3e1398763ba11323U, 0xbd11aba5bcbf71aeU, 0xbdce3f7cbe99c334U, 0x3e5787443e3659efU,
  0xbc63c1733e45abdeU, 0xbd315921be061861U, 0x3ddfecc93e2945fdU, 0xbe63f0abbe33edebU,
  0xbdfeb1debea8ad72U, 0x3dad8ec53e0a272eU, 0xbb1e30a5be532df5U, 0x3e394bebbb01db2bU,
  0xbe7642bdbdbd42b9U, 0x3def4c9dbea2351eU, 0xbdd611aa3e1b230cU, 0xbd1c20fbbd8bab43U,
  0x3c9e0930be0e208aU, 0x3dfc65543de1fcf3U, 0xbc3da7d13e315d1cU, 0xbdd2bac03e51eb88U,
  0x3d9869d93e30c054U, 0xbdc02498bbab54cbU, 0xbd613e2c3bb48bd1U, 0xbe0f38793d7bbce8U,
  0xbdfd9741bd8dc2e4U, 0xbca81c9d3d270216U, 0x3d0f41433d8297feU, 0xbdd1580dbd161243U,
  0x3d55beefbdd44d8dU, 0xbd0adcd0bd5891b2U, 0xbd94e4f23e161272U, 0x3e40c871bd8bd2b2U,
  0xbdae8233bd946bc8U, 0x3e65b322bcbf2657U, 0xbda1d7afbdc3d77fU, 0xbcbdad513e35db13U,
  0x3e365fb8bc9576d0U, 0x3c853961ba877aa5U, 0x3d969da13d6c629fU, 0xbc90538abdcca45fU,
  0x3df74e25bd3250bdU, 0x3caab65a3e09b7a8U, 0x3dc4d7ddbdee3a96U, 0xba1e76193e2ec7f6U,
  0x3cf76c06bda16caaU, 0xbd8b9aa13d6a45c7U, 0xbe2789e0bb3f634aU, 0x3d34566b3cd4acc4U,
  0x3e10f7473c700a83U, 0x3e3d85fbbdb12758U, 0xbdff8793be09a200U, 0xbd8d47d83dd186a9U,
  0x3de137ee3ddfa152U, 0xbd532e053e0474cbU, 0x3dc3f127bd04ebb6U, 0xbd053d273d245464U,
  0xbbacc53fbcdc151aU, 0xbcc329c3bc4c13f1U, 0x3da3a9883df794a1U, 0xbd121272bd83b754U,
  0xbcd9e76f3c2b5162U, 0xbd0c9125bb500d8bU, 0x3d355c52bd6321cdU, 0xbe2b06183c4fde1bU,
  0x3db24c1abe27329cU, 0x3d4435c43d9a37f3U, 0xbe2ad88c3ce35e41U, 0xbdb1bd193df81502U,
  0x3a86eef63e728800U, 0xbe2088f6be2d4f96U, 0x3d0dcdcabcf54136U, 0xbde85251bcd71f46U,
  0xbe11025a3e140ab2U, 0x3dd60cb93d274566U, 0x3b24922b3df42165U, 0x3df9ccdebd3557dbU,
  0x3dccf53f3bf4cbe4U, 0x3db67413bd62470bU, 0xbd291f2d3e47a13bU, 0x3e0544fe3dab847cU,
  0xbdf84e81be008c81U, 0x3dc43804bd1f1fb5U, 0xbe5724f0bd2cd5daU, 0xb9c716233d4c635bU,
  0x3e1828cc3d82b3ceU, 0xbde23642bd9b6b9fU, 0xbbd9f77dbe3a783cU, 0xbd9b51013d1c3e77U,
  0xbcc52c293d424424U, 0xbcbf93c1bdf6c9fbU, 0x3dc8ed733e049be6U, 0x3de2701cbd8e9c4fU,
  0x3d85777bbd870fd3U, 0xbce0afb7be2b87a5U, 0x3d951ffa3d727519U, 0x3d537e32bded5c84U,
  0xbccf4ec6bcf014cdU, 0x3cd0aa0fbd0076c4U, 0xbd9bb31a3b356a06U, 0xbd74f0abbbc676c6U,
  0x3cf42bb5bd42f86bU, 0xbd595f17bd173670U, 0xbc49daaebe31a61eU, 0xbd0db442be4a76b2U,
  0xbd54467bbbe7489eU, 0xbd3217b6bd9ada17U, 0xbb13ebcabd34533dU, 0xbc9119e9bd874257U,
  0x3d3d794a3d48e943U, 0xbda4c51abdf935a3U, 0xbc9597673db463e8U, 0xbd085868be3d71d8U,
  0x3e07993e3d8e6c80U, 0xbd81b1c6bd32c1e7U, 0xbd129b9d3e1f34c2U, 0x3bee2c48be2accf5U,
  0x3df083dbbd886fb5U, 0x3ce743be3e54cef1U, 0xbe33273d3c1759c0U, 0xbd336319bdf89f21U,
  0xbd915ba6be01811aU, 0x3dc7f4eebc7b4d79U, 0xbddd8148be32d959U, 0xb99ba9debd36f29cU,
  0xbd408a613d1b44b0U, 0xbe20d2ed3d87fe93U, 0xba0e1525bd7a42a4U, 0x3e17f093be43b76eU,
  0x3de078983d4ab629U, 0xbd74d99a3bc149b3U, 0x3c95093e3e2a9925U, 0x3df499f9bc36e79fU,
  0xbc07fd1bbdd912f9U, 0x3e33b414bd28e242U, 0x3d3934e23cc1d380U, 0xbe20a852bdc29e62U,
  0xbc65a7f53dce6de9U, 0x3e1b05ffbda42fe4U, 0xbab014533c99b33aU, 0x3d1bc61a39e71f56U,
  0xbc298d48be1bbf45U, 0x3d5e00fd3e05628aU, 0xbe01fcf2bdb33db5U, 0x3d67963a3cf667bfU,
  0xbd97ef833de4cb59U, 0xbe5403aa3cd44a27U, 0xbd9b251cbd6bf728U, 0xbe415ec0be443e0cU,
  0x3d9d72853d3fdda1U, 0xbe0a211dbd85ec2eU, 0xbe11f5df3d9197f8U, 0xbd69311b3da33af4U,
  0xbe5c2e483d0e7e43U, 0x3e30df30bd70ac33U, 0xbc128bcfbe325b85U, 0xbe7780183d768890U,
  0xbe48846a3c06496bU, 0x3e15f7323db2293dU, 0x3ba1f420bdec5951U, 0xbe170da4bdfe652aU,
  0xbcb7f3023d8b2aa4U, 0xbd8836f23cd93ae4U, 0x3e3d41513daf92e0U, 0x3e0736afbe823c46U,
  0x3dbe7a493daac373U, 0x3cdf87dcbe1ccefcU, 0xbe89c2e3bccb5572U, 0x3e0f63f03de18790U,
  0xbd4b6d903d10b8feU, 0xbe05babbbe664af7U, 0xbc032d1ebd97cdd5U, 0xbd1e3802be3b22acU,
  0xbe31406f3c0f2b8dU, 0xbe11dcb93db5cea4U, 0x3c38e9b1be12bfe5U, 0x3dc0b2efbe199335U,
  0xbe5b85e93daf1b14U, 0x3d66fa53bd9c98d1U, 0xbc8921c23e19abf5U, 0x3e002df7bdb1f12fU,
  0x3d2a98ffbbf2d7deU, 0x3cd4ddb3be05079aU, 0x3d8726893def90bcU, 0x3d9beb8e3dba1fd1U,
  0xbd4bd647bd2dffe7U, 0xbd2188a53de61f62U, 0x3d994618ba3e4dbbU, 0x3e0ebc79bde07554U,
  0xbe5e119fbe77e387U, 0xbddba7583c8433a6U, 0xbc9d9135be6d4fefU, 0xbe17f6b03e1eb06fU,
  0xbd9390ff3d1d1e3bU, 0xbe1767c4bd70ade4U, 0x3dc308353d9581a5U, 0xbd38f8173e00f665U,
  0xbd764f373e3eb5aaU, 0x3d97368fbe478590U, 0x3e391adb3e302868U, 0xbc9089bd3d91f40dU,
  0xbe59fb533e58beb9U, 0x3d5097f9bd483231U, 0x3d558d353e3f56b4U, 0xbd4684f03c720919U,
  0x3dac56a0be0250fcU, 0xbdceaac2bdf35c43U, 0xbd8238733dc7e97bU, 0xbd337e67bd5564cfU,
  0x3e0e88743e715f90U, 0x3daa66c6be3816bfU, 0xbd6d926e3c3c13a8U, 0x3d19e3e03c432f27U,
  0xbe12ade5bcf7986fU, 0x3d52af6f3db9955dU, 0xbd08ad7cbdadb6a1U, 0x3d343724ba6a3addU,
  0x3da125dabc6b12abU, 0xbd93c04cbcfa2e9fU, 0x3e1266abbe0bf1ecU, 0xbc3bf11cbcf88179U,
  0xbe21e5203be4957aU, 0x3da3ddc4bdcd14b3U, 0xbdcd76d93e4807e7U, 0xbd4c620e3de545c1U,
  0x3d90950f3e472da9U, 0xbddebf3b3aa6d0d5U, 0x3d74353bbd409f91U, 0xbe1311fe3c124f18U,
  0x3c45e8f0be4a8d1aU, 0x3d9fb73d3dbeb50eU, 0xbdb140f53e1b432fU, 0x3dd651babc86aba1U,
  0xbdd144da3b380415U, 0x3d475c9f3d8d9539U, 0x3e35d93abd291b8cU, 0xbdbf958e3d9241a8U,
  0xbdfffb1f3d7d4878U, 0x3d3f377c3c970b60U, 0xbe29ed68bdafecedU, 0x3c5fd3073dff68baU,
  0x3da4c7593df3e041U, 0xbe3ebad4bd9a6b9cU, 0x3dc6d20dbdd2f206U, 0x3dc6ac033d805c5aU,
  0x3d8388573d44be77U, 0xbe47d1c2be09a30aU, 0x3e2de87b3d513664U, 0xbdabe69d3db3db86U,
  0xbe5ac1e93e1b9b99U, 0xbdbd1e8bbcb7ac2aU, 0xbd420a0bbe5c5c9fU, 0x3de4aec93e3c6c70U,
  0x3deaa471be3d3e7dU, 0x3e5cce9c3ca093d5U, 0xbddbf3563d95e9fbU, 0xbc6d54f13dccd102U,
  0xbc89b6efbd76af01U, 0x3d60362fbe0fcddfU, 0xbc46d2173de833a4U, 0xbd99072abe55c8a7U,
  0x3d9363d53e52df26U, 0x3e61f1c2be396ce6U, 0x3caa943a3d16c2eaU, 0xbde0f1713c801526U,
  0x3cf0751c3d4a457bU, 0x3dfe4e1bbe3dda9fU, 0x3d3c1920be14be1aU, 0xbcb07963bdacc983U,
  0x3e12a220bd97fd1bU, 0x3d34ea5cbbd99e82U, 0xbdd325c7bd236177U, 0x3db5a3b33e1ff71bU,
  0xbc28c9efbe1d0f91U, 0xbd5d95e53c8a2539U, 0xbe08e0f83e36315dU, 0x3d3148bb3df85c9eU,
  0xbd6039c33cf274e4U, 0xbae0f857bdb5f8f5U, 0x3deca6abbd0688f6U, 0xbdfb8c1abd60f58aU,
  0xbdf4eecfbd02dd5eU, 0x3c3b2d03bd17bd84U, 0xbe7a5970bd1a26cfU, 0xbe33b507be104260U,
  0xbbffd6ad3e0c0e73U, 0xbc1ce75a3e0485a8U, 0x3d68e09cbdf702b4U, 0xbd48451cbd0156b6U,
  0xbe2f27c3bea258e8U, 0xbd7e39afbb2b2773U, 0xbe0ea1d93e6f0699U, 0xbe31d88e3dc75bcaU,
  0xbd8d4ab43d6b24d7U, 0x3df9befa3bc6267bU, 0x3e542061bd8f34e1U, 0xbdad24a8bcf5485fU,
  0x3d94fc83be4e9cb5U, 0x3db11fb73e204970U, 0x3d41f669be869631U, 0x3dae759c3e46a9efU,
  0x3dd9b749bd5ba89bU, 0xbd274e733e473f80U, 0x3d9066ee3e4d7500U, 0x3d890f433d169701U,
  0x3e0530f7bdcbbdc0U, 0xbde0b2d6bdf6423cU, 0xbde436853da7e8cfU, 0xbd55cc743e010cd4U,
  0xbe04a2ca3d91d7acU, 0xbe28dc75bddc97acU, 0x3cac30e23dbc4eebU, 0x3d86eaaa3d812f59U,
  0xbcdfb0c23ddfc3a4U, 0xbd1cf2743b4357beU, 0xbe034844bc7b5651U, 0xbd877c7ebe0431a0U,
  0xbdc5b18fbcd1f016U, 0x3e0663c9bc97b1c6U, 0xbd59bc853d9f7f0cU, 0xbd8c2e923d93662fU,
  0x3e41dcb2bcff1ab9U, 0xbcea1cb63d8014c4U, 0x3db2b8dc3c88db5dU, 0xbdf1e7df3dbad633U,
  0xbd5cd43d3d737790U, 0xbc5383f7bda4af5eU, 0x3db638383e0d4b88U, 0x3e108a7cbc76a855U,
  0xbc59f20ebdd01faaU, 0x3e04196abe47e3c9U, 0xbdce94143c3aef0eU, 0x3ddc1756be878ec9U,
  0xbca203263da6b606U, 0xbd344dcdbd9dc8efU, 0x3c97ee2a3a9063e9U, 0x3cf42bb43d83ff9fU,
  0x3e365bb1bdf364daU, 0x3d3a62de3d6fedadU, 0xbdb692bb3c9b7623U, 0xbdd773a53d169af7U,
  0xbb7d63c53e206555U, 0xbc665d353ced8916U, 0x3d8b1db9bd44e87bU, 0x3dd5cb643c80bbf0U,
  0xbdcad8e63c6fcd5aU, 0xbd037c4abe42df3aU, 0x3dc385e13dcb4a1fU, 0x3e2f538dbe2730bbU,
  0x3e53e8493c7485d3U, 0x3da204c43dcca7ebU, 0x3d59ba7bbe2a7245U, 0xbda71d26bd0a9308U,
  0xbdebdeb9bda48e7eU, 0x3bab83753da80d16U, 0x3e5305cfbd87c231U, 0x3e0452a83d876f5aU,
  0xbd32271d3d80022cU, 0x3d84381dbd966c4aU, 0xbc08ebbc3e2e070cU, 0xbd88db363c92d19fU,
  0xbd9bdfd93d4c2040U, 0xbd9a878fbdb8233bU, 0xbc88029b3c71fa56U, 0xbd986ed03d3d46e9U,
  0xbe2a5d0ebc677829U, 0xbb1eb26bbe00f9f6U, 0xbca4f19dbe5bbc86U, 0xbe0c89383e0a712aU,
  0xbe2a7363bd563654U, 0x3daff00f3d08f8b9U, 0x3e660ed93e1874f3U, 0x3dec1d033c86625aU,
  0x3d5a1f043e051d65U, 0x3abd2ab9bb968ed1U, 0x3e0e66a8bcf9ef86U, 0xbdb9e5bf3d1df92cU,
  0xbdcc7ae73baf0460U, 0x3cacc253bd2525bdU, 0xbe114cdabe1adb61U, 0x3dd17edbbd2e3db1U,
  0xbe4784a3be029786U, 0xbd6beed3be566048U, 0x3e12c9203c9cf66eU, 0x3dbe4dbebdad19feU,
  0xbdc5f606bdcbd699U, 0xbd941f9fbdda0e4dU, 0x3df553e23e3162d9U, 0x3e0bae1bbcd75c52U,
  0x3c662b3a3e0d0d27U, 0xbdb5724fbe1faa36U, 0x3df813023daf45a7U, 0x3dbe56b23ddc0e6eU,
  0xbdff157e3e26ed43U, 0xbe5f1e1d3e03f5deU, 0xbe0f0b31be075841U, 0xbdc6c8d13bf4fd40U,
  0x3d57710fbe15e85fU, 0xbd294281be1232ecU, 0xbda2cca23c4b8c0bU, 0x3d25f52abbe2e09eU,
};

AI_ALIGNED(32)
const ai_u64 s_combination_input_44_bias_array_u64[16] = {
  0x3edf09593fa772f9U, 0x3e99cf453f70c2cfU, 0x3ec07a433f9a1d6fU, 0x3f09f9bcbf055d78U,
  0xbf1b6db33f38b5d6U, 0xbf27ecf43bc6b8d0U, 0x3ec43112be3358b9U, 0xbf7ada7dbf4e1a91U,
  0xbf6f13ff3e88d579U, 0x3d87821f3f8a22d4U, 0x3ec2bc383d2c16f3U, 0x3f868f61be9020a8U,
  0x3ef811debec809faU, 0x3e9fe0083f1ef9c1U, 0x3e24abb1be701573U, 0x3e950d76bd14fbfeU,
};

AI_ALIGNED(32)
const ai_u64 s_combination_onnxAdd_127_weights_array_u64[1536] = {
  0x3d351f2d3d36eae5U, 0xbd82255e3df338eaU, 0x3e1c86723d352a86U, 0x3d9fba703c948721U,
  0x3da1dbc0ba8329d3U, 0xbd68afe4bdbd2a8bU, 0x3c47baff3e11d2adU, 0x3d892a333df1756eU,
  0x3da2973d3e0c210eU, 0x3d06f98bbdba1300U, 0x3d2ea0103de7edb8U, 0x3d8fca7a3d9d8f52U,
  0xbe093528be01e07fU, 0x3db0b3143e2ab4d9U, 0xbe27f8f23e1cf619U, 0xbc91e6cc3df5171dU,
  0xbda6fe8dbd8fb2caU, 0xbe3c1d16bc0f3866U, 0xbab43f15be24e551U, 0x3dd88993bcccd499U,
  0x3dad7277bd8d2670U, 0xbd9ef04a3dbdb1a8U, 0xbd1fd8ec3dd79ebcU, 0xbd6a76c9be2a76f9U,
  0x3e7b8c06bd80fca9U, 0x3b85adabbe470b41U, 0xbdd1ef883e28679aU, 0x3d7d5b463d1e1888U,
  0x3d6fb6c7bd6f4310U, 0x3dcdbfbbbd804bfaU, 0xbd99b8f23b5e2082U, 0x3e0f1ab5bd53780fU,
  0xbe131d243d53541fU, 0x3ca88b20bd8de51fU, 0x3dd12369bd1dada8U, 0x3dec9c5e3def5575U,
  0x3c86becc3d42f813U, 0xbe410be9bd3a7339U, 0x3e248c3dbdb917c7U, 0xbd14c53bbdaaf64fU,
  0x3e4c8cfb3d925522U, 0xbd9fe98d3cb37c0fU, 0x3d288be0bc486dd8U, 0xbd9c824f3cd8eafcU,
  0x3ac6d921bdf26a9aU, 0xbba0c690bd846568U, 0x3d385d353d800d39U, 0x3e1019d5bdf9e5a2U,
  0x3e190deabda5b327U, 0xbdbd65fc3d110576U, 0xbe4116ab3c12a8dbU, 0xbd4aaea43de4acbfU,
  0x3dd0ef3bbdd4cf59U, 0x3e0596fb3ceac9d1U, 0x3ca926e13d1da93dU, 0x3d68a43b3e54369cU,
  0xbdc744f1bd8bc583U, 0xbdd464153c88dd42U, 0x3d97387c3d2b42f2U, 0xbe1246673e2b7252U,
  0x3cc9c269bcc4b83dU, 0xbc9593e7bdc20628U, 0x3d39500cbcc8a23eU, 0xbd8b9fd43dd11b57U,
  0x3d8766783bd932ceU, 0xbd7df759be19d44cU, 0x3b3a2ccebce5a72fU, 0xbdd213df3d6b0776U,
  0xbd991c5abda8ceceU, 0x3d791033bcc3c5b8U, 0xbb54f7733cc0bc88U, 0xbc396b223dcd99cdU,
  0xbd875949bd90661eU, 0xbdeb47423cde0801U, 0x3dd4bc993e163d52U, 0xbe0d442c3c910de5U,
  0x3e17bf6abd5be5ffU, 0xbe0dd710be238419U, 0x3caecd573d48c96aU, 0xbdc822e63c88fb63U,
  0x3d2958b53c9faa66U, 0xbde5cc7b3cb5b3c2U, 0xbde3bd21bbec13b0U, 0xbd2669843d2d9134U,
  0xbc7ad59abda63239U, 0x3dc61742bcaf354dU, 0x3ca43d67bc12d743U, 0xbda18e7c3dd9d74bU,
  0xbd3fc6c53e0c8a81U, 0xbd79c5eebd6eb3e3U, 0x3d2dd959bdab46a8U, 0xbdeea46dbd0aefd0U,
  0x3d2b9e3b3dbfce19U, 0xbd8012c3bdeae1eaU, 0xbd1cc35abcca6ca7U, 0xbdb9c569bb98c9b8U,
  0x3e16a1613cda71ddU, 0xbcded5f33e27d48eU, 0xbdc706d83d87fd38U, 0xbda71c38bcd641beU,
  0x3d85dc9abe2f1470U, 0x3d7ce99b3c80cc52U, 0x3e04aca43d85d2edU, 0xbdc5b518bdaa403dU,
  0x3cf7e7433c00bd7eU, 0x3e32e390bddeb56fU, 0xbe21f1a8be2cebb8U, 0x3cb254dabc32dbe0U,
  0x3d538ff73bd83b20U, 0xbe6ede59be604cb3U, 0x3de0589cbc8a8bf1U, 0xbe5e16cc3b5ee91bU,
  0x3dab075c3d70d654U, 0x3da9ea1a3e50acdaU, 0x3e03bdabbc656d48U, 0xbcd86ce33d66f8d7U,
  0x3cbfaf803dfb93edU, 0xbc9aba8fbd8b8be4U, 0x3db8050a3c036be4U, 0x3dd79181bde3daf9U,
  0xbb5dfdbc3e07aaa7U, 0x3e2e1dd8bb5b7f23U, 0xbe1b2598bd7d6abdU, 0xbdb55ca03d55959eU,
  0x3e0cec43bc9462b9U, 0xbde26a2cbe0f9bc5U, 0xbe02b869bbc91f83U, 0xbe2b9931bd39ee6fU,
  0x3df8ab9d3e5b09d4U, 0x3d1a4cf33df76f23U, 0xbc6924643e111b64U, 0x3ddc2bdabd457bdfU,
  0xbe2bd20d3dfa273aU, 0x3d31bdbfbd01b4eeU, 0xbdf1a58a3d0cd748U, 0x3d1df6b9bbe5e4c2U,
  0xbdd04b1d3da30daaU, 0x3e6e1cb0bc992a9cU, 0x3d9014c9bd9a1721U, 0x3d0b6c5fbd7e2368U,
  0x3dc7104bbe09171cU, 0xbe0e33df3da917ebU, 0xbda941e53d8797b6U, 0xbe11c0903d2a76c0U,
  0x3dba4e773dfb76a2U, 0xbd13d18d3c356243U, 0xbd2519b7bdbf9296U, 0x3c732f04bdd7033aU,
  0x3dee70e13d572f4eU, 0x3a37a7bfbdbabb4eU, 0x3df1bcb23d34522bU, 0x3d80f85bbdacc22bU,
  0xbce684cebd9eceacU, 0xbe2493ea3e23a583U, 0xbe1e084ebdc2f39bU, 0xbd3c74b93cc0b9d3U,
  0x3d082210bd6c5cdaU, 0x3d06efc0bd7d7129U, 0x3dbc12053d828539U, 0x3e3d8829be0e797aU,
  0xbc454e71be0247afU, 0x3e35c3e4bcbc1481U, 0xbcd52fb7bd6b3a0bU, 0x3ddebab8bdc82985U,
  0xbdc690c6bdc34946U, 0x3d41414b3ce113b2U, 0x3e59b1f6bdc48511U, 0xbd93991ebe1221cdU,
  0x3dc2e4d3bd47ba51U, 0x3d63e6aa3dc801d6U, 0xbdac09033d34b844U, 0x3cd91677bca6f224U,
  0x3dabfd18bbff81ebU, 0x3d2637e6bd305162U, 0x3c0652383de3bbabU, 0x3e522e43be312e2aU,
  0xbc46e33b3d6c2aa0U, 0xbbc3d14abd7683e1U, 0xbe1e465abcaacad7U, 0x3d3959d73e23bf7dU,
  0xbdad111fbd575dddU, 0x3d3598a8bdc2fbd3U, 0x3e4b6e91bde2718aU, 0x3db057b4bc5004d6U,
  0x3dd0de993d2a81eeU, 0x399914613e14e404U, 0xbc6ba62abd17fcc6U, 0x3d8d0963bb7f69e0U,
  0xbc1777333b454496U, 0x3e067c67bd9d5948U, 0x3de2ce933ccf0118U, 0x3e1e449bbd950529U,
  0x3e0f04443e2e3acbU, 0x3e375515be3a2063U, 0x3db8041e3d18b78bU, 0x3d0f5d2dbe6f8843U,
  0xbe3d1f2b3e7fb1cbU, 0xbcfb63adbd950e90U, 0xbddf9c803d84428aU, 0xbe1ebe42bdb9f69dU,
  0xbdc2514ebdb4adbcU, 0xbc4fa8adbdbf0f1cU, 0xbd066897bd15b177U, 0x3dbebb753d32635dU,
  0x3de4fa41bd25463dU, 0x3de783ea3d386e31U, 0x3b4d31fcbd3299b2U, 0xbad024513dbd7988U,
  0x3d97c02c3d99026cU, 0xbdeaa8ddbd905f87U, 0x3e0df1e1bc1beaccU, 0xbd171f93bd8bdaadU,
  0x3c01cb003c030f9eU, 0xbdcdb020bd74bfbaU, 0xbe00fe2e3d2e60eeU, 0xbe0eaf78bdc6465fU,
  0x3dfe7ad4be5082b8U, 0x3d5c5b36bd10642eU, 0xbe0e65c2bd63ee2dU, 0xbdf6e53bbe1f37baU,
  0x3d90b8d8be047137U, 0x3e3b4d18bd5860abU, 0x3e04d063be1e49d0U, 0xbd81c9213e1c6725U,
  0xbdc62332bc4879c9U, 0x3dc04e31bd417bc2U, 0xbdccc41fbd09540fU, 0xbe64ca79bdabbdd5U,
  0x3bb69c02bd2cd5f0U, 0x3de2d48bbe93ff46U, 0xbd1829bc3d4c23edU, 0xbd148e9fbdedefa8U,
  0xbe6aaf08bdb54351U, 0xbe578d1f3e441ac9U, 0xbe04f8df3bc7fc9dU, 0x3c19cb723b53ca64U,
  0x3dcb6dd6bcc2e6bbU, 0x3cb419b33ba451aaU, 0xbd8fcb1cbd8f3195U, 0x3dddc1b2bd08ac96U,
  0xb94abdd63e5fae62U, 0x3da36c583e15f5deU, 0x3dbb4fff3d69dec7U, 0xbafda2cebdd59a94U,
  0xbdf0b7433d1df1f9U, 0xbdd68514bdf6722cU, 0xbd4346b73df9cfc2U, 0xbd557cd0bda161deU,
  0xbd9bbf7fbd8f43c4U, 0xbd3febc93c7e1566U, 0xbdac72b6be39bc0dU, 0xbd709e21bd1ed79aU,
  0x3db4f640bca806b2U, 0xbd872078bc9aa2c3U, 0xbc0eaa4d3c48bb5cU, 0x3dc6675d3c862d79U,
  0xbd5317c13e492b7eU, 0xbd46dce23d4d1ebdU, 0xbd4316cd3d85e489U, 0x3c5f0759bda32a9fU,
  0x3d5073e1bdb16752U, 0xbda6d13fbdf0034eU, 0xbce5b0cc3d685673U, 0xbdd8cc93bbdded4aU,
  0xbd92e871bd9c4287U, 0x3d31933d3e421945U, 0x3d96070dbe164425U, 0xbdaefe4ebe274869U,
  0x3d44b099bdc0c621U, 0x3dba24743da91397U, 0x3e234f5ebd93632bU, 0x3cf4408e3d1f4887U,
  0xbd8764c63e2012fbU, 0xbb59b8ea3e293310U, 0xbc9212aa3d1c5facU, 0x3d0f4a053d985a72U,
  0xbdd821ceba0b4422U, 0xbe0051fabdf21d03U, 0xbd8eef68bdb0b6b5U, 0xbdbac7dfbe3c01f9U,
  0x3c97fe43bcbc5e2bU, 0xbe1b2b123da26b4cU, 0xbd67d1e5bdff6b02U, 0x3da0003cbe1ffd05U,
  0x3d4ba1debde978f7U, 0x3d0c113b3dc167f0U, 0x3d0cfda33d5a7f4cU, 0x3d9b8909bba49d22U,
  0xbbf55527bd2214f3U, 0x3df7d480bc982e27U, 0xbd2c4316bd95f616U, 0xbdf074563da89180U,
  0xbdd417f83c94a263U, 0xbdb4cd0d3d530137U, 0xbdb6c5aebe37a3e5U, 0xbe4835253dc3d958U,
  0x3d26a499bd3687a7U, 0xbdec82df3de3cae9U, 0x3ca26c773d5699b8U, 0xbac825183da2df09U,
  0xbc2e4a7e3da1a053U, 0xbdc82c413de7a810U, 0x3d38a2c33c17eef3U, 0xbe1d2ed03dec9ee9U,
  0x3e0060d4bce16497U, 0x3e1e7fe03dc602c7U, 0x3dda743cbe11916aU, 0x3d344e993b9ea52fU,
  0xbdd49ed13c951a3bU, 0x3bd4c86dbb276e8dU, 0xbc4b6ad3bdafa99cU, 0xbcd4aad33d662487U,
  0x3dfb9a87bdd7f1dfU, 0x3d9bd040bdab8f73U, 0xbd65614c3d26d6eeU, 0xbceaa1a03da0bd20U,
  0x3dbe2721bd7d874bU, 0xbe577789bd46ba15U, 0x3dd517cdbd512f54U, 0xbcc76d763e0059eaU,
  0x3d9e2b373e0badf0U, 0x3d9076e53804bb69U, 0x3e58793f3d9b77a3U, 0xbd57b72bbd901e5dU,
  0xbe02e62e3d930abdU, 0xbd069dbd3c258f65U, 0xbe06ad6e3c908b05U, 0xbd9754d53dac977bU,
  0x3df263babd64878dU, 0xbab8a7713db224b3U, 0xbd45637a3e2f3e50U, 0x3db00be33d6c2b3bU,
  0xbd8fc7053d4cac00U, 0xbd9d67c4be131e61U, 0x3e25ae25bd65e4e0U, 0x3cb8a9403d306fd8U,
  0xbc9b6c9c3e134a2eU, 0xbcc88bf7bd5a7236U, 0x3e24f03bbb251a48U, 0x3dc2efac3cd42acdU,
  0xbda7520dbd55ef9eU, 0x3da2d9f4bdc54164U, 0x3ba3cbdc3e281279U, 0x3cea30dbbc402f2eU,
  0x3c4bd48bbd2efe45U, 0xbd92d1293d995436U, 0xbda6bec53d31fe68U, 0xbb1fbde83d74f8f7U,
  0x3bb2b9c2bdb82fc1U, 0xbd15ed4abd563e0dU, 0xbdd006563c9b4380U, 0xbc9f63593dbb158dU,
  0x3c91b91f3c455221U, 0x3c36e0b13da75d62U, 0x3bcdcd92bd302f5eU, 0xbdd74f973dcdcee3U,
  0x3c68e1b03d2dd9d6U, 0x3d037044bde3941eU, 0x3dbf604f3b6951b6U, 0xbd9a2dbd3ba62a9fU,
  0x3ded32de3e117c56U, 0x3e213d62bdecbbf9U, 0xbd00f400bd8bfaddU, 0x3e0c4c61bda75345U,
  0xbda7aa833c307cadU, 0x3cf5cfb63d2910b5U, 0xbe0020203e351793U, 0x3d6d18fb3dac9c99U,
  0xbc34487c3d3fabe6U, 0x3df86d063d97cde8U, 0x3e03a001bc21d75aU, 0xbe14ba563d9c6c2eU,
  0x3cf12e7fbd8d3376U, 0x3e02b303bde85df6U, 0xbdc015ec3b85a0d3U, 0xbdac8f043d78d598U,
  0x3c95545dbdb6722aU, 0x3e3a656a3d89536eU, 0x3b6a766bbdda182cU, 0x3e18cd2fbd8b357eU,
  0xbda2bd5e3cbd9415U, 0x3c910f45bb088499U, 0xbccaf53f3e0312a0U, 0x3cffc6b63dc4efd3U,
  0xbe04f7c0bdf37158U, 0x3d920ce23dfbdfcfU, 0xbda3b85c3de8bd53U, 0x3d352e80be12abe0U,
  0x3d69d7fabd2c4466U, 0xbc91f6a23db7c31dU, 0xbe07d9c7bd8a7c0aU, 0xbe166cd23d9b46e9U,
  0xbdd0f0d4bd140386U, 0x3cbe11ce3d0a77b2U, 0xbd227bfdbd1de7ffU, 0xbe1e1d9e3de2a17cU,
  0xbdf2d7c93d6e0858U, 0x3d1518013cf8a718U, 0x3cab9a043d025948U, 0xbcb44b0d3dd51e8bU,
  0xbe346159be2b7454U, 0x3dbc7537bc40b077U, 0x3d9887cf3c7f02cdU, 0x3cbd5983be0f6a96U,
  0x3cbffa05bbacfd0fU, 0xbd63e5a1bdd2431fU, 0x3bed3d593d83c048U, 0xbd897b13bd891aa8U,
  0xbdd5e69a3dca70fcU, 0x3dc65b37bdcd9900U, 0xbce7a0db3e1a0389U, 0xbe6b56f03e0721c8U,
  0x3dce7716bd554b9bU, 0x3d2ae0613b0e4b85U, 0xbd954347bc996c19U, 0xbdf1050abd4ebfbdU,
  0xbd0346b4bb375781U, 0x3e293946bd94eaf3U, 0x3d1e5bdf3e04d651U, 0x3daaaa293d990c11U,
  0xbdc62cab3de7338aU, 0x3d15fc4c3e18b438U, 0xbde71ba8bc057216U, 0x3ca44cc9bd8760a8U,
  0xbda0b1523c54d6e0U, 0xbd87c398be22285fU, 0x3dafb6443d8bd9e6U, 0xbb823afd3e1de375U,
  0xbe0031b0bd886b66U, 0xbd33e2da3d69c979U, 0x3d6c59493d9330ccU, 0xbe06797d3e1cb324U,
  0x3d8e7f323d914692U, 0xbce7c7893e399a0cU, 0xbd1e67fbbb9f1361U, 0x3ccb68aabc98c966U,
  0xbd18ad2c3d65b3d3U, 0x3cd47e633ddc3662U, 0xbd2dbdc83e148240U, 0x3d28391abe0d89eaU,
  0xbba79667be0de734U, 0xbcf38e97bd149555U, 0xbdc69b9e3d69bb28U, 0xbdcfca92bd6b71cdU,
  0x3e2f5f9b3d5f860dU, 0x3d81bc97bdeb84d7U, 0xbe26eca4bd53c059U, 0xbc4f10a3bd7dd280U,
  0xbd0f55ff3c51f373U, 0xbe068a273d52fc86U, 0xbda11eed3df2b7f1U, 0xbd9700bb3df1b98fU,
  0x3e109b00bdbfd23fU, 0x3c4a01f5bca53522U, 0xbd8c8d3d3c0be48aU, 0x3d6ca423bdd17174U,
  0xbd1d0f813d5035d3U, 0xbd8843ccbc8500c2U, 0xbcfb75bebcc7f241U, 0xbcb1d7903d2bcf0fU,
  0x3e1a4e163dcb8b86U, 0xbd75f0edbd944dedU, 0xbdbf80a8be0ce368U, 0xbc23d6283d32effaU,
  0x3d26f6c2ba036115U, 0xbca9989e3c959c7cU, 0xbd5500ff3e0453a1U, 0xbdd32bfa3d314a29U,
  0x3d4615eebd85e43aU, 0xbde3e2de3bdbabf4U, 0xbe0a0a283df53d86U, 0xbc9c3b61be770d72U,
  0xbda6d2bd3e047306U, 0xbd7d699bbd9543aeU, 0xbd2a60c23e28f6a2U, 0xbd354ebbbe00e244U,
  0x3d89e738bd98b21bU, 0xbd06837abdd623d5U, 0xbdfa33463d8ed9dcU, 0x3ccdf17e3d9dbf24U,
  0x3de80331bb8b194eU, 0x3da3d514bca1ee4bU, 0x3dc66c66be03f335U, 0xbdc5152cbc76ddf1U,
  0xbd387ca9bbadda94U, 0x3c19cae6bc75e80eU, 0xbd01708bbb8c5946U, 0x3c8fe3103cca8110U,
  0x3cbe7214bcbd37d1U, 0x3dd1d92d3c3e7d45U, 0xbc89074b3c60282aU, 0xbd9cb840bd1479c2U,
  0x3de00c0cbd68b3c6U, 0xbe342a0ebd642debU, 0xbde31089bd016e8eU, 0xbe4b1085bc65397dU,
  0xbd099463b97c4d20U, 0x3df32d76be11d0d0U, 0x3c1c751f3ce7df52U, 0xbe382923bd4611d3U,
  0xbda00a77bd08b614U, 0x3e25c58fbde0378fU, 0x3d70b43a3ab9dcb8U, 0xbd4055883df1e9a6U,
  0xbc4432373d4526ddU, 0xbcf4ac703dc69be1U, 0x3d963645bcdeb93eU, 0xbd6837553e1e6828U,
  0xbe088c95bd0fc075U, 0x3c52aaaa3cee3940U, 0xba173c833dea2b9eU, 0xbd96fc353dac0238U,
  0xbd3908efbe65dd5bU, 0x3de920abbe517232U, 0x3d80e89a3d849349U, 0xbdf767053d2465b8U,
  0x3d75054abdc45b72U, 0x3e579ca2bd8d0d46U, 0xbdee674abce149e2U, 0xbddb565bbc8b5ea6U,
  0x3cd3e1473d94ad94U, 0xbdcacb9e3d897737U, 0xbd4a8791bcda4716U, 0xbd2675293e56248dU,
  0xbdf328bfbd809704U, 0x3cdfac283da68a18U, 0xbdfa0f673c1e4221U, 0x3cd252d33de7b45fU,
  0x3d69d69c3dd94fb8U, 0xbd6998983daa6968U, 0xbd202adcbd556f0fU, 0xbdaf1b843e156d47U,
  0x3da47cd9bd01e474U, 0x3d9a37a23dbbbdb2U, 0xbda3d83cbbe548ddU, 0x3de147103de96c59U,
  0x3d1ee9f7bdadd4e8U, 0x3d4999d1bdd4e8b5U, 0xbd225433bc429c5dU, 0x3dee0cffbda3bfa6U,
  0x3dd8f0e4bc913aecU, 0xbca6afa13d0ee223U, 0x3e489cbd3ce95545U, 0x3dec602dbdc40a09U,
  0x3d13a78bbb38813eU, 0xbd8705273dee0920U, 0x3ce1227fbd392d46U, 0xbd48e1f33d4c3cd5U,
  0xbc3571b8bcefdb78U, 0x3a8ded253d02efdcU, 0x3d93e9253da5e784U, 0x3d07dd343e13c83aU,
  0x3d23c33c3cb473c5U, 0xbc871e0bbdaa658bU, 0xbdcb611ebc88c293U, 0x3d5704cabd3c1d45U,
  0x3e0226c23d2262bbU, 0xbd65a5d4bd10e792U, 0x3d88e252bdf8765dU, 0xbd6346c53d560cecU,
  0xbd1f522dbc6a7c5eU, 0xbd58c9443d9a724aU, 0xbd03bd79bd94ecc8U, 0x3dd5dc2d3bf1699cU,
  0xbc581042be0ab77eU, 0x3e23527f3ba81d95U, 0xbdb39986bd1c8985U, 0xbc93f621bbc6d582U,
  0xba1f45d7bd03271aU, 0x3e0598e6bd8cbce3U, 0x3b6c146dbdaa0debU, 0xbdce37debde3b4c0U,
  0x3e05b0f23e1a8c5eU, 0x3da5ce20bd81c0e6U, 0x3d879dbd3d7f63c0U, 0xbdfe4dbf3d7a2db1U,
  0x3ddcbc2bbd686f3eU, 0x3d83c7d43c4427d4U, 0xbd4fb3673d28c4b4U, 0x3d9fb5963c9eec22U,
  0xbe1a9ca4bc2750ecU, 0x3c81ca783dceecf1U, 0xbb832a58bdf459fcU, 0x3c4045273dfca74fU,
  0xbe081786be167073U, 0xbcd9f58cbd13e3fdU, 0x3cc9d6ce3e03307aU, 0xbe0466503d739854U,
  0xbbad256fbd00bd0dU, 0xbdbcb85cbdac1225U, 0xbc5124d13d497ef3U, 0xbe0bbc063da5ae86U,
  0xbb94e1debe14a531U, 0x3db7c603bc90488cU, 0xbd1b87d83db5ff6eU, 0x3db37757bddc2577U,
  0xbc6d7eafbb761679U, 0xbe097e753da20dbfU, 0xbc711739bd031d79U, 0x3d7021bd3a70e4dcU,
  0xbcefcd3bbda3fec6U, 0xbdaa3d393dd25884U, 0x3df2d09f3d682f16U, 0xbd819e6d3df96632U,
  0xbda14a543ce8943fU, 0xbaeb08313cbc2d93U, 0x3c7630e03cb6c2adU, 0xbe384d403e05f3d7U,
  0x3b2559e8bc328b08U, 0xbcfe4494bd288e1bU, 0xbdaf9751bb5ec229U, 0x3cbe6b60bb794be0U,
  0xbd2f8546bd9c1636U, 0xbb757e133d229402U, 0xbe20afaebd82f9f2U, 0xbe0b1acfbdefecf8U,
  0xbe5e0e84bc9e95d5U, 0xbe3aeebb3dc25cdaU, 0xbcccdbc13db5823cU, 0xbbf8b5993d7d1262U,
  0x3d9ecfa4bddc2550U, 0xbd84bf20bdec9af9U, 0x3e2c2457bda0347dU, 0xbdf575bb3db8035eU,
  0xbbaade083d147d97U, 0xbd6b59c6bd8d599fU, 0xbdb092debe052d16U, 0x3e02b310bda15225U,
  0x3cc8bf123e394ddfU, 0x3dc940893ddb3274U, 0x3e211cac3e13cf1bU, 0x3d35ef753cdbfcc9U,
  0x3de079953a366cf1U, 0xbd96aa9fbdc34140U, 0xbdbfe99e3d3af720U, 0x3ce7bede3e0d179eU,
  0xbe0dd12fbe08e124U, 0x3d88d3863dd65a94U, 0xbda9936c3a7ef6a6U, 0x3df05b21bd9c5060U,
  0xbdf826c1bd4c2c46U, 0xbd92f01a3debe174U, 0xbd966c4abdb562b9U, 0x3d880850bd217aabU,
  0x3e20fc35bbe90a87U, 0x3d764c26bdbce1f5U, 0xbb0084ba3e14a699U, 0xbdaa85c5bd366f16U,
  0x3dec7448bd33597cU, 0x3ddfc943bd2d39eeU, 0xbc329f883d61bfecU, 0x3da120643e1330faU,
  0x3b6d0834bda65598U, 0xbc8b6e063dc624d6U, 0xbd02eff13d3ea1ccU, 0xbd8c1c463d8f7496U,
  0xbdd086a53dccbb0bU, 0xbd3eee5d3e2fbc82U, 0xbd8bf985bd0224b5U, 0x3c01b5e73d837726U,
  0x3e2633283d10d038U, 0x3c957c7b3d2c69f2U, 0xbd32ba213db673fcU, 0x3d216355be0c0212U,
  0x3d71b459bdba6f59U, 0x3b736db3bdb62e48U, 0xbe5b5f0bbd74d034U, 0x3e08e7d03ddc1162U,
  0xbc985d8bbda78a30U, 0x3b4111abbde3a782U, 0xbe3982b3bd3cf6b9U, 0xbb683edebd051158U,
  0x3e4f4724bd9c3040U, 0x3e0e05fdbd809cbdU, 0xbd8701cfbdafa07aU, 0x3daba95abdbc1bc9U,
  0xbda16b93bd2b9e20U, 0xbd823c5fbe01e742U, 0x3dee05943e3c2b9dU, 0xbe48b71bbb72b6f2U,
  0x3dc5ef4e3da392ddU, 0x3c1141dc3bc95268U, 0x3dc8add0bde2f5a5U, 0xbc86ad7dbd04febdU,
  0xbde85ce03ce37de2U, 0xbdd074d83c851764U, 0xbe112bd3bdb42a09U, 0xbd17982b3d66822cU,
  0x3ca6cde43cdd5d62U, 0xbd06bea4bd454a1dU, 0x3db1e87abe0f6285U, 0xbcb6edd2bd0eec3eU,
  0x3c77d1233db7f5d2U, 0x3dead09b3d24da7bU, 0x3d82f9253da96935U, 0xbe3c807f3bf7b2b8U,
  0x3d97df74bcf9cdf9U, 0x3d4680d63e191cf5U, 0x3c815597bdeacc85U, 0xbdc6fe08bde086ddU,
  0x3dd85211bd1703f1U, 0xbdc5f220bd9be586U, 0x3d9686fd3d358d7bU, 0x3db977863df822fbU,
  0xbd6b26a03e3f4455U, 0x3d4ef459be3ee45fU, 0x3c862fdfbdc3bb8fU, 0x3cbbff47be0fbb30U,
  0xbe06ef6abb63ae71U, 0xbaf5fa0abe552b42U, 0x3d9d99013df0f1e4U, 0xbe4acfd2bd273c52U,
  0xbc0351bfbe11cee6U, 0xbbda06373e4c7632U, 0xbdae1100bdcbae23U, 0x3cb5bda9bd7d5c50U,
  0x3e7ee22abbe46018U, 0x3dfb3cdcbdc802bfU, 0x3dca29fe3b551548U, 0x3d3fb78b3d470758U,
  0x3ce34e693d40c747U, 0x3d7e27043e1ceb9aU, 0xbd9eeb5abe413943U, 0xbd16985a3e67aa37U,
  0x3e2c6a35be105fbbU, 0x3e199b4a3e478e4fU, 0xbce7edb23db86923U, 0xbdfece593dbf759dU,
  0xbd21c421bdff3905U, 0x3c8d2afdbd633481U, 0x3e05a00b3dbd2d9fU, 0xbcec00eabbfeeba7U,
  0x3c9531df3db23f8dU, 0xbe2cd3c73e08c27aU, 0x3d900b853dbd00f5U, 0xbe00192abd14daacU,
  0xbe2934a4be17c9cfU, 0xbd96ed373e1cc586U, 0xbcee8ddebe15279aU, 0x3dc7603c3e0e7c12U,
  0xbd86cdb5bd42864dU, 0xbdd63e133e20cf13U, 0xbab30e6e3dab4089U, 0xbd9950963d2cbc63U,
  0xbcf5d4dabe1ee1d8U, 0xbd45bf3fbe4b0399U, 0xbd8d4402bdd8bbd2U, 0x3d89d30c3dea354bU,
  0x3d67461a3e143a4aU, 0xbe0dbd063d4a197eU, 0xbddefaf43db0ab08U, 0xbd4f271bbda92f38U,
  0xbd9cbb82be44fa48U, 0x3d0872773d69f8cfU, 0xbe21a1b73c6756aaU, 0x3e22668a3ded3479U,
  0x3ccd9846bd40626dU, 0xbd5ee5f23dfc58f3U, 0x3e15f3d3be02f15dU, 0xbd4fccbdbd58984cU,
  0x3dc98367bdf85026U, 0xbc996c97be3c24b5U, 0x3dbe56fabd7fa3e7U, 0x3d20f38d3add3a78U,
  0x3cdc86cc3ddc7658U, 0x3be7417a3d06a2a2U, 0xbdac33e6be212ba2U, 0xbe0afc32bda7f7c1U,
  0xbd5cafc6bd6fadb8U, 0xbdc6994d3c9774f8U, 0x3d5a67313debff93U, 0xbd3ae89f3cc5ad27U,
  0xbd843cdcbdaefe9fU, 0x3de8dfeabd20794eU, 0x3c5fc33e3d319ea3U, 0x3d7bd4f33e031cb9U,
  0x3d6b8800bd8547fcU, 0xbc928d5fbe123064U, 0x3d5d7fddbc71b282U, 0x3dafee3a3e162848U,
  0xbd922906be17303bU, 0x3dcc975c3d2e23bdU, 0x3da6a5c13db06cb5U, 0x3dc3ac23bdc5ab3fU,
  0x3a610603bd8df1daU, 0x3cf253333d7ca4a8U, 0xbd89eee03c87eddeU, 0xbd1ec8fbbbe02168U,
  0x3c3be9223d0e477bU, 0x3d2352c7bdcb33d8U, 0xbd67fc563d97fc28U, 0xbd01798e3d0c95ceU,
  0x3c48d3e53d382f67U, 0x3d5ec366bbd0c358U, 0x3d137a88bce0419dU, 0x3d93b5bbbd1402b2U,
  0x3d43b13dbdd06806U, 0x3e0631bfbd1ea526U, 0x3d68adac3e140ff7U, 0x3d00ea0e3d7f5dbcU,
  0xbdcb5e05bd8a3999U, 0xbc872b343c1fb8edU, 0x3d0391a8bbc3cb3dU, 0xbbe38d843dfd010bU,
  0x3d0e20a83c0a6fa3U, 0x3c1d17cfbdd6b362U, 0x3dc52f6d3de80dccU, 0x3d1cb8de3e1fe7feU,
  0x3dde8e28bd316606U, 0x3df88085bd09b3efU, 0x3d9939ffbccc0a5dU, 0x3d7b96a43d5e2074U,
  0xbd89fa58bcc6a9ceU, 0x3da3f7973d1b365cU, 0x3c25aeed3da80b98U, 0x3dc89ed1bd9fe189U,
  0x3d7a2699be5ab64bU, 0x3d81a51cbe545b22U, 0xbd9afc66be10e0fbU, 0x3d6b28c43e2e83d0U,
  0x3df02f663d7bdc58U, 0x3d3933953d0a28d1U, 0x3c13bcbbbe58a648U, 0x3d617c893d868cd3U,
  0xbdecb1073dc3a1d8U, 0xbe0d0ce2bda92590U, 0x3db926f23e3693caU, 0x3ddd1afb3dbc487cU,
  0xbd2f63323cd8d87dU, 0xbc068c5fbdf260e2U, 0x3cdc9bfbbd79f511U, 0xbe1923e5bd387929U,
  0x3da475e7bd8f4e03U, 0xbe3f6aaebde58897U, 0x3d89a943be424ee1U, 0x3b9312243e309defU,
  0xbdf18d893d6f9385U, 0x3de85ef3be089f80U, 0x3dceb669be3440ceU, 0x3d8508183ce72d84U,
  0x3e0fb1593d933e47U, 0xbe1b7736bdba9f73U, 0x3e67c8ca3cb82c36U, 0xbd8ad0b2bd8dc35eU,
  0x3dcabae03e251e90U, 0x3d82d4e63cdcdfb4U, 0x3de4ab243b9a93caU, 0x3dbeb93a3da36fc9U,
  0x3e67db273c2b60e6U, 0x3dea2359bce59cefU, 0x3d50fcffbe2fd378U, 0xbe101dbd3ded2539U,
  0xbccad1b7bdc2e292U, 0x3e294fbdbd7fbbcdU, 0x3d6a10643da1732cU, 0x3dd5a0ebbd84bfbcU,
  0x3ba1ffd83d39298aU, 0x3da28c2c3c2c8bafU, 0x3e26213e3bc92c26U, 0xbd6271323df8beeaU,
  0xbdbfa9d23dd5b67cU, 0x3bb8a997bd475562U, 0x3e82dc3ebddcbd8eU, 0xbd826e57bd9e3b28U,
  0x3d964202bdef58aeU, 0x3d1c091f3d7b7244U, 0xbc40da3e3d8a52f5U, 0xbd1a3dd0bd87c9ccU,
  0xbda148fe399567caU, 0xbd046b013d291c18U, 0x3d9a4127be001c8aU, 0xbdb2c3ebbd7e2416U,
  0xbdd015f13d9c7329U, 0xbdaa77d83d0f4132U, 0x3db1d819bd9e50fdU, 0xbd2434e4bd858c73U,
  0xbdccaa9c3d7c4278U, 0xbdd6edcebd82acc6U, 0xbd869a88be054781U, 0xbd17997f3caf4bb1U,
  0x3d0008ecbd46e8d4U, 0xbb2f113b3d83749bU, 0x3d8299853d323fe1U, 0x3de7d8643d31c038U,
  0xbe29e8aa3d8975e0U, 0xbd693f26bceddae0U, 0x3de6bddcbda73136U, 0x3d033a973c971a75U,
  0x3c3da7b93d1421a6U, 0xbdc20b783b9e5d9dU, 0x3e33d4c9bd82042fU, 0xbdc9c0f73d401c50U,
  0xbc3f4424bbef625aU, 0xbd1492733d32c490U, 0x3ca6c97ebe4221f8U, 0xbd027585bdaae3e6U,
  0xbd3acbb3bd9e2aa0U, 0xbd5cbb09b9b137faU, 0x3cb250343cda309eU, 0x3d099c8c3c9e7ccbU,
  0xbc7b5a003dbacf4fU, 0xbdb1abe0bd9e6681U, 0x3e2572fabe1b15a0U, 0xbdd4eb263cc7945eU,
  0xbdf49340bccbd9adU, 0xbd8290a3bc87818eU, 0x3dd92eb8bc50ea59U, 0xbd5a80dc3d00d860U,
  0xbd53c30ebd833e95U, 0xbd68e6413dab1b95U, 0xbd4f835abdf0fd0eU, 0x3dd4c9cbbd0cd46fU,
  0x3e116e0d3d82c4c9U, 0xbe0ff1b43d3a6b8dU, 0xbdc3d576bdb222fcU, 0x3d8f9d28bcfebfdaU,
  0x3e74482e3e4b3006U, 0x3e07f9133ce49889U, 0xbe0f915b3e3ba917U, 0x3d32971f3d901c57U,
  0xbe1aecb83d170292U, 0xbe09d180bd7c70edU, 0x3d0d1f1abe2caad6U, 0xbe1b49d03e1ffd56U,
  0x3c291a0fbde88c68U, 0xbdae59273e11be92U, 0xbd005f8e3c8c6aa4U, 0x3d02fb0f3b4a8a80U,
  0x3d50d95dbd94282bU, 0xbcbc0f1dbd538147U, 0xbcd75979bced5856U, 0xbc6104343dd29556U,
  0x3cc65b0a3c935533U, 0x3e074c753da74a0fU, 0x3c14a02b3dbeb835U, 0xbce44f813bef6568U,
  0xbc8117333d355fc7U, 0x3d6c8d1c3cd7db5bU, 0x3d20e7cabdce3714U, 0xbe07c3a13e2327c1U,
  0xbd9d7bbdbd9a8af1U, 0x3d8b1c23bb89213eU, 0xbd15bc8abdc78042U, 0x3c73b2dbbd8370edU,
  0xbc8dd6b53cee56f3U, 0x3cd15fdcbdbc4655U, 0x3c5c8e493de727c4U, 0xbdd96cafbc6928f4U,
  0x3e5ad57d3caa26f6U, 0x3d8004a73deb7497U, 0xbd24a2473e62c98dU, 0xbdadc45bbd855c92U,
  0xbc0862fdbd138393U, 0x3d295de23dd39e90U, 0x3cd92ec6bd909eedU, 0xbdbfcf733e074987U,
  0xbd39c36a3d34cbc5U, 0x3dcb16433d8913c8U, 0xbe073497bd647d49U, 0xbced2841be0b3964U,
  0x3d3734c23ba32e09U, 0x3c00416bbd67c7c5U, 0xbd2475dcbd3c6cb8U, 0xbd45c5653dacc065U,
  0xbccd44ba3b32a7afU, 0xbd2d90f0be176ab8U, 0x3bf4a631bde744b3U, 0xbc2a696e3dd61faeU,
  0x3e0778d1bbb74119U, 0x3e159f3a3dc3c08eU, 0xbe178a7c3d32bd08U, 0x3a9445613c9c0363U,
  0xbc35cb623e009dffU, 0x3df35c3fbc5ddefdU, 0xbe184b743d3a8b7fU, 0xbd404cc1bd899b7dU,
  0x3d3caaa43cd1e834U, 0x3c3477f4be10872cU, 0x3db2f3253c8353d3U, 0xbb9ba5e7bda040acU,
  0xbc94e024bde4bf4cU, 0xbe15d055bd560065U, 0x3d047b98bd8f4109U, 0xbd6696543d948fb9U,
  0x3dc75074bdb0442cU, 0x3ddb02373e35672cU, 0xbda9d7bc3e11f22cU, 0x3c066aa13d940565U,
  0x3d62000d3d8ce625U, 0xbdec5d163d3404b2U, 0x3c08d1d93dd07719U, 0xbde1bbfabd23812cU,
  0xbe2761a33ce2c1e6U, 0xbde3c2813cf2ef23U, 0x3de698eabc4e9ce4U, 0xbd8b48a5bd09deceU,
  0xbdd50f07bdc2b083U, 0xbe0e2cb03c1acbb2U, 0x3d820eefbdd305f3U, 0xbde2e59bbe09cf71U,
  0x3e31052f3d4e4dfeU, 0x3e0e1b1f3d8e9c99U, 0xbde341623d85a140U, 0xbd49db6ebe182c9cU,
  0x3dc4d7133e03a0c7U, 0xbe418577be3b4c1eU, 0xbcda63323ca6698aU, 0x3d522321bd84bc42U,
  0xbc83d72b3c2fee65U, 0xbe0146e63ddda13bU, 0xbe3e9a3d3be621e5U, 0xbe08a4413d58377aU,
  0x3d1c493ebd6b7976U, 0xbe0c3421bc44f7feU, 0xbd097081bd81c1e5U, 0x3d8642dbbd77d916U,
  0xbdfea3433e018769U, 0xbe3234cebe577573U, 0xbc7f4b52bd7303b6U, 0x3e8bc1a7bb97d2c1U,
  0x3e1f4d093de74157U, 0xbe0a64d03d372bf4U, 0xbdac8727bdc5b309U, 0xbc0aff923db7f019U,
  0x3d8a36133dd67c55U, 0x3cfc24a33d2dce9bU, 0x3cf953e23d49c229U, 0x3c1c96923c611934U,
  0xbd3b55463da4ceb8U, 0x3d8c97913dbcab61U, 0xbd6f962f3d58c17cU, 0xbdd5b29cbb19eadcU,
  0x3c7abe843d89fc81U, 0xbe633508bcd5486fU, 0xbd57b31c3d61ae03U, 0x3dd87f01bda59721U,
  0x3e16fd04bc707f87U, 0x3cb8b4d4bd95f28fU, 0x3c10e24bbd64f4b8U, 0xbdf0f4f23d6f88f7U,
  0xbd4a73bebda51a49U, 0x3da712a0bce085e1U, 0x3d6888253bb22944U, 0xbda6a5ffbda6299dU,
  0x3db102a3bd0aef50U, 0x3e16f1d8bd919c76U, 0xbd1434cf3d0e4eb4U, 0x3daa7a52bde7d530U,
  0x3db4856e3e40e04eU, 0x3ce49482bdd42e74U, 0xbd9fb2db3d13e948U, 0xbceec0abbd9b7f23U,
  0x3d292ab83d86a524U, 0x3a8fe9a13d21c651U, 0xbdbfc12b3dac5987U, 0xbe03fe70bdb16e59U,
  0x3caa08673d8daf45U, 0xbda84c453c261772U, 0xbdeafc6c3d01cd50U, 0x3db6775bbcf38bbbU,
  0xbcb75e983d93b2a5U, 0xbbcd7ae8bcec9033U, 0x3dfd4886bdceda65U, 0xbdcf3e873cd09ffaU,
  0xbe046d0ebd804384U, 0xbcb432c7bd69cc64U, 0xbd0ec046bd4bb521U, 0x3d17d387bdce968cU,
  0x3d39ae0a3dc8cf0cU, 0xbde74383bd98e550U, 0xbe17e1c83bea7762U, 0x3d7c6953bdd5a789U,
  0xbdc206203d569977U, 0x3d37996cbb123b22U, 0xbdddee303cc366ccU, 0xbbcdc9fdbdb72bdaU,
  0xbdcf08953dde61f1U, 0xbd393ce2bd797b48U, 0x3df31b59bdc43950U, 0xbb82f8a1be2261deU,
  0xbc3d7a5abb4ec4abU, 0xbd3c91593d031488U, 0xbbbcdac4bda2232eU, 0xbc21b961bdf81b89U,
  0xbce2e4d5bd49a12eU, 0xbd6df987bd167344U, 0xbdb78936bdd4e7c6U, 0xbd2b6ee9bdb67f21U,
  0xbdcd41c13c938919U, 0x3cd0c09bbde21235U, 0x3d3cc379bd194700U, 0x3d80b6a0bd1f8a1aU,
  0xbd8e5e15bd3718a0U, 0xbd4f72bdbbbb53d2U, 0x3d306418bcecac5cU, 0xbd1827cabc945caaU,
  0x3c00657b3c97268aU, 0xbdef0d683dcea9b7U, 0xbd4d16dfbd6a260cU, 0xbd59b1b03cf6ed44U,
  0xbd489cbb3d4f78bdU, 0x3cc56dc63db3300dU, 0xbd7c3eeebd6a1ee7U, 0xbc5379b4bcdeccecU,
  0x3db074d5bc188c0aU, 0x3c6f5549bc8b59a6U, 0x3d493c613e4636c7U, 0xbca00a87be165b9fU,
  0x3d4caf713e2690feU, 0xbbeeb4963e453164U, 0xbcd4567d3d1d4c1aU, 0xbc9a108b3d4b1e81U,
  0x3d3ed3eabd7508bcU, 0xbc8d5d65bd9a6779U, 0x3cf5d887bd8babedU, 0x3dc720ac3d330b5fU,
  0xbe34c879bd5dda6fU, 0xbb3644493d61fd89U, 0xbd1a7040bdfc1477U, 0x3c7237b2bd48b038U,
  0xbd89cea2bd4bed7fU, 0x3d40e59f3d99fb32U, 0x3d9ef0043dcfe7fcU, 0x3d3ed7c7bd033000U,
  0xbdaca32ebd7da38dU, 0xbe41c5d73e0bd219U, 0x3d5700033b5a4bc4U, 0x3dad1b2fbd6836f5U,
  0xbd2cab9a3e13e919U, 0xbdd7f5f2be355f3fU, 0xbdb8b7f93d6d4a9aU, 0x3d7844d13d1676a9U,
  0xbe39d432be37e355U, 0xbda688aebd185129U, 0x3d9a82debe0cca43U, 0xbdac5790be206d74U,
  0xbd44288a3dc43281U, 0xbdab59203e17cfd4U, 0x392a7c5b3e1765e0U, 0xbccd0b5d3cf50204U,
  0xbd988fe6bdbf0454U, 0xbe51e7fd3e26ba8fU, 0x3df013973d802c10U, 0x3d31b6c6bd3b9ac8U,
  0x3d70e1a8bb8fef47U, 0xbe1b1b69bcaeaea6U, 0xbd925cc93d37c223U, 0x3dbf59f2bd66ff07U,
  0xbdea0b99be21e559U, 0x3d29da673abb7231U, 0xbceaf3f6bcd1afe3U, 0xbe046bac3cf60955U,
  0xb8fccf4d3e08ab37U, 0x3e16cfedbdf5aeb5U, 0x3d2798bebb4a5ff9U, 0x3d4879c4be14e4d1U,
  0x3d61e6723d6846c1U, 0xbdd77a09bdece3efU, 0xbdcf574cbd7b95ffU, 0x3cb2f3d43dc42c13U,
  0xbe14a7b3bdb54f6aU, 0x3d845da53e2407faU, 0xbd81f9b1bb58931fU, 0xbb8b99db3d8a47c3U,
  0xbcf0a7f93da063f6U, 0x3d9495c9bd1bd3dcU, 0xbca5db6cbdbb2235U, 0xbc143ddabd040a6eU,
  0xbc9f2d7c3cf143dbU, 0x3d1910b7be2a5c70U, 0xbd898f263dd286c0U, 0x3d555084be3734b2U,
  0xbe06c0383cb2b340U, 0xbe06dd78bce1c2a4U, 0x3da09820bd5711e2U, 0xbd7f5958bd2c3ba0U,
  0xbc2ba9433dd2bdd6U, 0xbbdd089b3ca68459U, 0xbc0fc19fbd24298bU, 0x3d72e46bbd8ae9a3U,
  0xbd16045cbd970878U, 0xbcda89b23be73d10U, 0xbe1403f53d18362cU, 0xbcb31cf13bb5a1a2U,
  0x3d16d8a0bc7dde57U, 0x3e3c1747bd66bbebU, 0x3cb27d75bcf44969U, 0xbcbeb596bc880e42U,
  0xbe0047ebbd63499dU, 0xbd4e62e7be36917dU, 0x3ccb807bbded4af7U, 0xbdb4274dbdcffa7eU,
  0xbe02d75c3c8c9fdcU, 0xbda9e0e53e456a91U, 0x3d91a7a4bdc6890fU, 0xbda8e564be3364aeU,
  0xbd328595bde0a0caU, 0x3d79479abd75c0b5U, 0xbd5d6c8d3da68affU, 0x3d323389bcee5d66U,
  0x3d9c25abbe277e0eU, 0x3d6f4048bc650e8cU, 0x3d41090b3d551eabU, 0x3d40071dbdfa3515U,
  0x3e0477963cc1be2cU, 0xbb8dd16d3baa7916U, 0x3bc4fcb73d9f8684U, 0x3dee6de8ba7389bbU,
  0xbd42944cbdf118a7U, 0xbdf172cfbd0485e1U, 0x3b22d9cf3a6d2ce7U, 0xbd9c55083c609553U,
  0xbe00d852bd198338U, 0x3c884f35bdacfcf2U, 0xbd90caa0bc3c160cU, 0xbd82822a3d321fb4U,
  0x3c7d17a9bdae8d8dU, 0x3d4cac1abb37ee87U, 0xbd732132bc09e54cU, 0xbca9eb423c87c018U,
  0x3dc45f7dbc3aebfeU, 0xbd94cf823dd0fd9aU, 0xbd01996ebdb5e8d9U, 0x3dd810993dd8ab44U,
  0xbde2d0a63d1ffc3eU, 0xbd4c93e6bd52ee24U, 0xbcc70cfcbd324d0bU, 0xbe3c3b5abc606228U,
  0xbe24a69bbdb58eebU, 0xbd5c44813d00d907U, 0x3d57b5873cef6158U, 0x3cdd21d9bd8f1f7cU,
  0xbbd4e6e3be19115dU, 0xbc915b7cbb9631a1U, 0xbd5a099d3d7d7175U, 0x3b5b1a1dbda191d0U,
  0xbd8e8174bdd9e2d0U, 0xbdbbc3bd3dffd5e7U, 0x3cdfe4323c17e566U, 0x3d6b10d9bd947de8U,
  0x3d94e7da3cef20a1U, 0xbdeb95ac3d87bd92U, 0xbc62dc6e3d6e8d7bU, 0xbe107a933db72d38U,
  0xbe04f8ab3c1c878eU, 0xbd832ec73d41a1a5U, 0x3cc20adebbfb5b01U, 0xbb64c447bd4cd4acU,
  0xbe6c812a3c584d9eU, 0x3e093e0a3d009937U, 0xbd429f883dd9de08U, 0xbd418057bbeca097U,
  0xbdf67161be283ee5U, 0x3d04ce33badd1282U, 0xbbd2d477bdd690a3U, 0x3daa3bd03db33ec0U,
  0xbb6c19d83d9b286eU, 0x3de78f89bce39b22U, 0x3d2c86e5be1c6830U, 0x3dac10833d8db7d8U,
  0xbe3d8a45bde1e340U, 0xbd64af1b3cf491caU, 0x3d49f9783dbebaa4U, 0xbde83ecabc9075bbU,
  0xbc04bb40be1c0614U, 0x3e1e05d1bc59b018U, 0xbdf2ce1ebe1ebf51U, 0xbe11196f3dc856a8U,
  0xbd96cc8fbc88bfa5U, 0x3d998bac3be7a206U, 0x3ce61c07bd815cfbU, 0x3dfe38c23d9256bfU,
  0x3d25c1143d7976a1U, 0xbd4c72b8bd18a9daU, 0x3cac7678bdcbb985U, 0x3db51cbc3d9e2d02U,
  0xbdfae6b5bc26b102U, 0xbd532cf63de08fe1U, 0x3d75d0383d35c1ebU, 0xbde328a0bdd386a3U,
  0x3dc933bcbdfa2385U, 0x3de8e0143d0a2bd6U, 0xbd56a788bdb5adbcU, 0xbd520896bb8b593fU,
  0x3cf18c7ebddfea15U, 0xbbc1b04e3bf0d696U, 0x3de8d694bdfc0dffU, 0xbc2457a53d626e54U,
  0xbd6723ed3d89d7c4U, 0x3dfbc36c3da552e2U, 0x3c94f0a03d0ee3baU, 0xbd5343343d9624baU,
  0xbd578f8b3c8ca1b7U, 0x3dba49093d78a882U, 0x3d2763883e137106U, 0xbe1c15ab3b77ba5cU,
  0x3db2a7d13c8f23e0U, 0x3d56cebb3dd78707U, 0xbdd58d75be1eceb7U, 0x3d18ec9fbce79604U,
  0xbc5f420d3dc984c1U, 0xbcfcd29ebdf847d4U, 0xbdd607923a922e08U, 0xbe3c534e3ca9f6cbU,
  0x3db251b3bd9a16adU, 0xbdece5d6bdb0e844U, 0x3d9e8a1d3e166a53U, 0x3dcd985b3c87c838U,
  0x3d18acba3e1fcb4bU, 0x3b499434bdc46107U, 0x3ca9fdf3bdc49f36U, 0xbe06266a3e1659b7U,
  0x3d5d10893e254877U, 0x3d87a89a3dc01b13U, 0xbdbdf95bbe02b493U, 0xbd622fafbcba5d8bU,
  0xbd80f8debd8cc06eU, 0xbd8ae8eabe5a0297U, 0x3d1c3cc7be223dcbU, 0xbe127f4f3dcc302bU,
  0xbd7e6238be235812U, 0xbb3e3fa53d8bdcdcU, 0x3d96ed143e0d3a80U, 0x3c8df7ef3d0b2543U,
  0x3d2fda59bc54f449U, 0xbe197f8bbd82d4acU, 0x3cfb35a5bdae45b6U, 0x3b9e03f33cbdeac5U,
  0xbaba71db3d9a8c15U, 0x3e088431bdc8d397U, 0xbb69e2413da5dce7U, 0xbe30d048bd5189bcU,
  0xbd0d655d3cce0be0U, 0x3d6efab6bd23e1a9U, 0xbe106d6ebde21217U, 0xbe089ce6bce09b94U,
  0xbcfeea90bd04f27fU, 0xbcc0332e3da78d1eU, 0xbe23bdebbd630ab2U, 0x3d58fcbb3e4ddd14U,
  0x3d95c3eb3e1eaa25U, 0x3d1851d23dd55036U, 0xbdb82d7b3db02415U, 0xbda6b176bd39d027U,
  0xbe5ca1a2bdcf9fbaU, 0xbcd1bf7c3e7fe1a3U, 0xbd2cca1fbe1173d9U, 0x3c67b84c3e0112e3U,
  0xbdddccb63dc7e34eU, 0xbdc66f063da10749U, 0xbd4590723d167bacU, 0xbd430579be0fc63eU,
  0xbd7bbc7f3d84f157U, 0x3da6457f3ccc4079U, 0x3d6076593d8382adU, 0xbde527afbe5efd52U,
  0x3cf44f163deb1e78U, 0xbc861c05bcd86b40U, 0x3e17693a3ddb1febU, 0xbe1bf9c9bdfc4da7U,
  0xbdbfdfabbca3585fU, 0x3e0714873e4c4c2dU, 0xbd8717963d2790feU, 0xbe0128473df95c17U,
  0x3cec3a173dda6f6aU, 0x3c155f85bc2874e4U, 0xbd012c67be0ae8e9U, 0x3ce75125be45d20eU,
  0xbd30fdeb3de59d42U, 0x3d751315bdc60eb3U, 0x3b1df7f63d1f5e6eU, 0x3cdb2497bd1450fdU,
  0x3cb55f27bd8e1e69U, 0xbd2b2eb73df52c31U, 0x3dd56c5bbdc1c4cfU, 0xbd7dbaeebe25c77eU,
  0x3c165a8fbcfe38b9U, 0x3d8ab0e53e83b931U, 0x3d46cf48be4d5dfbU, 0xbe3f556c3dfb5e11U,
  0xbdf8b96fbd88be46U, 0xbd3e8d683c03879dU, 0xbdf268963de6149aU, 0xbe81b91dbc8256b2U,
  0x3da5a0173db35c0cU, 0xba03f480bd33201bU, 0x3d1c4cadbdaa800eU, 0x3e0ec3e3bdb12c2cU,
  0xbe2b31d03c8d240fU, 0xbd89282bbbaf5f84U, 0x3db88c0bbd253457U, 0xbe29f7d63cf12199U,
  0xbdbe2d943dac68d8U, 0x3d6a013e3e26ecccU, 0x3dc22e723cc9aa44U, 0xbe6acbd53e2627beU,
  0xbdf6fecbbc48ae60U, 0x3dc6c470bc610b4eU, 0x3da4f428bd1e9da4U, 0xbd1fe5b23d692097U,
  0x3d1af7fe3e120e53U, 0xbd7fc9c9bd4cf55aU, 0x3db54a26bc13462cU, 0x3db896a6bd93d375U,
  0x3e42a7f03e1114a5U, 0xbc822653bc1d97d4U, 0xbda760fa3c554d99U, 0x3e11b6f0bc8bdc66U,
  0xbdc89b223e219402U, 0xbdf8d6a73e2abab8U, 0xbb5429993b62a47cU, 0xbe162d063e1ea389U,
  0x3d405872bc134de5U, 0xbd9daad2bd1b74aeU, 0xbdc2d4bc3daa2c5cU, 0x3e091216bd4bacb8U,
  0x3d9307e73d493331U, 0x3de9a2a1bd51ec8aU, 0xbb113570bc199f47U, 0xbcddb4cfbc0b33f9U,
  0x3e0920713e3ab652U, 0xbc59fd5ebd9b551fU, 0xbd96ee60bdc1aad1U, 0xbd1730613d07a746U,
  0xbc8e8a043dcc67ecU, 0xbdadc5983d28185dU, 0x3d2b6bb93c683d33U, 0xbe30c03c3da019deU,
  0x3d85e398bddd89dcU, 0xbe380c1f3e106f78U, 0x3c7a72babdba00f7U, 0x3d066f14bb6a71abU,
  0x3de24dd43c7bfc92U, 0xbd41c93fbdee82b7U, 0xbd27b5233c1a5289U, 0x3d0ba592bdbb7b91U,
  0x3ded8def3d69d452U, 0x3d9acfc5be1df19fU, 0xbe065ad53d04224aU, 0xbd832563be245262U,
  0xbd4cd1d73d96c6adU, 0x3d9788d93d94d86fU, 0xbd81d7d3bdd8f7c8U, 0xbc41ae9e3deb9c84U,
  0x3ccdcb063c9cf745U, 0xbd53cd2d3d205586U, 0xbc3d1ba23d1b48feU, 0x3d65bb46bd422f7cU,
  0xbd24cf823d78566bU, 0xbdea73c1bd0314f2U, 0xbbfd6607bc22ec45U, 0x3b8e1546bced3375U,
  0xbdbc41593de02c3bU, 0x3cbfddf6bc05cfc4U, 0xbd8498a8bddaa783U, 0x3e0804d2bdb3cd41U,
  0xbda930dfbd9caa95U, 0xbdcdce76bd608e42U, 0xbdc90c09bc3ebf5dU, 0x3ddc61d33bec676dU,
  0x3d062d4c3d6d8a37U, 0xbce480bebce99c83U, 0x3df424263c4dac21U, 0x3d49a99f3c9572c5U,
  0x3abd8e6a3dc6e2ccU, 0xbe116c9b3d3f20bfU, 0x3d9c3e123d4b127dU, 0xbdf5286fbdc09083U,
  0xbd487debbd3344b0U, 0x3e01cb63bca426fbU, 0x3d949e81be066054U, 0x3d64e043bd89180bU,
  0xbd194120bdc5778dU, 0x3c9d4f0fbc76bdfdU, 0xbdb7fb363da857b8U, 0xbc695737bcae4c3fU,
  0x3dce2db9bd8e9c52U, 0xbdfd26973d8adf83U, 0xbc9fa1e6bd12bb78U, 0x3d90411d3c400e36U,
  0xbd74bc023d8354a9U, 0xbe2ac7b33d16f786U, 0x3ddd143b3d271882U, 0xbdb598fcbb4fdc82U,
  0x3c7117fd3a587784U, 0x3d24c85ebdb4dae8U, 0xbc1e5de2be29b113U, 0x3de54ebfbd4fec43U,
  0x3cee6dac3cc978f2U, 0x3e25df23bd5a48b6U, 0xbde6edc43da63566U, 0x3c8edb4f3dae099aU,
  0xbe3abc9ebdaf1d6bU, 0x3c84bd2cbdef6d05U, 0x3d39488abd7b15d3U, 0xbd5b0737bdc661a7U,
  0xbe2d0e943e065448U, 0xbd2645a23c8c15b2U, 0xbd18eb00bd02aaaaU, 0xbe0568313c8842e5U,
  0xbdcf7e92be10dfc1U, 0xbcb64dc6bc9c1985U, 0x3dbea2dc3b599b99U, 0xbd45c91ebd12a388U,
  0xbe17d974bdb17ceaU, 0x3d893ca13db2cf90U, 0xbc492dc33d71dbb0U, 0xbde048c2bd30fc56U,
  0xbddf9dffbdecb4c7U, 0xbd989d423c935cfdU, 0x3d1cfdf13d981ff7U, 0xbc27e331bcf12134U,
  0xbe110af3bcc15514U, 0xbc99edec3d4612a4U, 0xbd978861bd9fba15U, 0x3d078358bdf3cde4U,
  0xbbcc5cd33ce02d8aU, 0xbc6ab09c3dfbd16eU, 0xbe528f233d39c18aU, 0xbda4fd3bbda4be18U,
  0x3d8191303d9cb2daU, 0x3da4b25bbbba42deU, 0xbd8e99eb3dd390b0U, 0x3d74f146bd918476U,
  0x3bbe73593b9dbd52U, 0xbdbdd9afbbc87d74U, 0x3da586c3bd9217b4U, 0xbd8cc818be12fb2fU,
  0x3d571aba3d58d96fU, 0xbdbf08d2bdbd6dc5U, 0xbd78c745bdf3f98dU, 0xbd5f63963d877cbcU,
  0xbdc3f620be2f4da4U, 0xbb9bcab43d91d7faU, 0xbddba4743da47384U, 0xbd63ef2c3cacaf90U,
};

AI_ALIGNED(32)
const ai_u64 s_combination_onnxAdd_127_bias_array_u64[16] = {
  0x3e8a1952bea96376U, 0xbe9f0d37be618fdcU, 0x3eaa65763f470566U, 0xbee7c206be1651c2U,
  0x3eb2148b3e5c80f5U, 0xbed63cd63e65b884U, 0xbe2066f93eeb656dU, 0x3e72d6543dc0427eU,
  0xbe7268a0bf1e8919U, 0xbe98b01f3f0de4fdU, 0x3e25b8103e86a3c2U, 0x3e9abc063f53f8d8U,
  0x3eef4edd3f1d4959U, 0x3eb454263d79066eU, 0xbe6796b83ecad582U, 0x3f4bdd4c3e3769c8U,
};

AI_ALIGNED(32)
const ai_u64 s_combination_input_60_weights_array_u64[1536] = {
  0x3b7163123d4698f2U, 0xbcbb7262bd16af23U, 0xbc89a2403c4dc518U, 0x3c72da053bc541c6U,
  0x3c9ef3bd3c877539U, 0xbd867f823c0612ecU, 0x3cee9013bcbb9602U, 0xbc64d061bd78deb6U,
  0x3ce771e2bcf536d8U, 0xbc9b9a4fbd6c56e9U, 0xbd003fd73cff4d41U, 0x3c6fd30ebd649ca2U,
  0x3d69259ebd60267cU, 0xbd3eb8a2bdb67c28U, 0xbc95d34fbd1436f6U, 0xbcbe12ad3af25965U,
  0x3d1964e2bd008e76U, 0xbc9bf751bcbffc26U, 0x3c7e20d3bc4db5b1U, 0xbd80407ebd532046U,
  0x3d41f9cc3d469623U, 0x3c82343fbd32e355U, 0x3bc3c6233cf85ae2U, 0x3cfddf97bab5d6adU,
  0x3cd452c4bb9038abU, 0x3c6d567dbcf06dd8U, 0x3b1c51f7bd8dda6fU, 0x3d9a3804bd2667c0U,
  0x3d210653bccc5c9cU, 0x3c0be891bbab5624U, 0xbd604fc53d28a2c9U, 0xbd56cbe23d0e7754U,
  0x3d3899abbd0112faU, 0xbd5a9f11bc562e45U, 0xbc9131a9bd2e8277U, 0x3cba4308bd263d0cU,
  0x3c06d55b3caf9a8eU, 0x3c998eec3ca1e4beU, 0x3d666ee43cec7c87U, 0x3d6d3ec5bd7c8da8U,
  0x3c83a9563c2e6ed7U, 0xbcdce9103d723ceaU, 0x3d1712223c482a1dU, 0x3d2beaaa3c66864fU,
  0x3d56f82f3d16b92dU, 0xbb4ea4493c755781U, 0xbbf0fe6b3d1e07a1U, 0xbd41e19f3a265986U,
  0x3d81bd7e3d791708U, 0xbcfafb22bdb6ab91U, 0xbdb7047dbd87a949U, 0xbdb35b97bd891149U,
  0xbd22f5a0bc25ca56U, 0x3d7b3cf9bd5208ecU, 0xbb90ddcfbcdbfeb1U, 0x3cbbc327bd31df1dU,
  0xbd91e903bd50ceb2U, 0xbd5c91e53dba686bU, 0x3d42d3283cebe072U, 0xbd9031133dcd278aU,
  0xbd91442a3d8642f5U, 0xbd1f5cdb3c0c46aeU, 0xbcd5e88b3d0f51dbU, 0xbd593cbbbd88c5d0U,
  0x3d83d816bd4f6929U, 0x3c0f7c4c3c4324c3U, 0xbd940d573cc1aa1fU, 0xbd86fd593d44d94dU,
  0x3d2ac3ce3c16859bU, 0xbd257b533d1f99afU, 0xbceccd49bcfdb298U, 0xbd9afe0b3b9c792cU,
  0xbca581dcbcdbc246U, 0x3c78fa3c3cda36e2U, 0xbd4149883d5c4b74U, 0xbdb52bbc3c3586abU,
  0x3c8c7d503b1d2aa3U, 0xbd86d6e33d3384edU, 0xbd58ced1bd9ff529U, 0xbc51537dbd9966d2U,
  0xbd341134bd8d2f65U, 0xbccf83f5bd0c53e2U, 0x3bc12a38bd826c0dU, 0x3d21c7913d5c92f8U,
  0x3c11a354bc5f269cU, 0x3cdd1681bd23445aU, 0xbd3d54a1bd41004fU, 0xbd5c55393d6b1800U,
  0x3d8571df3d5b2bd9U, 0xbcb0f4113d227988U, 0x3ca19da1bd142e06U, 0xbd9193ab3db5323cU,
  0xbda598dc3d8f28d5U, 0x3d396b54bca078c4U, 0xbd3cd032bd88ac9bU, 0xbc32e0c23d1aa4b5U,
  0xbd7d871c3d16da9eU, 0x3dbe854f3c475abcU, 0x3dade45d3cc4d051U, 0x3c35db663c2fb4edU,
  0x3d32031dbbf18c05U, 0xbd29107d3d931eacU, 0xbde9c554bd5e4a20U, 0xbd85c66cbda38715U,
  0x3d17cc10bdba2b90U, 0x3c7b9cb3bdabb951U, 0xbc3294e7bc810da3U, 0x3dac2e0d3df49af8U,
  0x3d61983c3d539ea8U, 0xbcdc37d6bdc1669eU, 0x3d4f9e40bd48359cU, 0xbd61e0533d930fb3U,
  0xbdc202d0bd0c34e9U, 0x3cd21cd5bd5718ddU, 0x3cde4e093c9081b1U, 0x3d2d0502bd23051eU,
  0x3ce14696bc646fc6U, 0xbd4cbbfd3d262edbU, 0x3d0eb404bd9d570dU, 0xbc751785bd97356bU,
  0x3d360d04bd08ac81U, 0xbc0149ddbdb8bc45U, 0x3dccdf57bdafc7bfU, 0x3ca4992c3cc6cd39U,
  0xbd6a6e22bdad8707U, 0xbd336c5ebdf46fe7U, 0x3c57bb923d637d2aU, 0xbda157f93b05951eU,
  0x3ce1e65f3c43dbbfU, 0x3d294028bd4db98bU, 0xbde817d2bd0509ffU, 0x3dab553fbcf77cb8U,
  0xbd0c59b23c6ab862U, 0xbc9031023dcf0dd4U, 0xbd2bffe6bda6b958U, 0xbc3e96b5bd187d64U,
  0x3d915e7a3e1561b8U, 0x3d16ba373ce62d0dU, 0x3dbfff38bdd4d203U, 0x3dcf0a3dbd5fdb73U,
  0xbcc197253d5d3dd5U, 0x3d5ee11a3d0e53b8U, 0x3d237e70bd177dbaU, 0x3d3bcc7bbdf3830bU,
  0x3dcf09bbbbcafb1eU, 0x3b47d5a83d5dcc85U, 0xbd0ef36e3d7baf9dU, 0x3d22ee8e39f1ba3bU,
  0xbd6ebf4fbdb70c76U, 0x3d6d61103cdefe53U, 0xbbeab6d23d60ea76U, 0xbd69e0763c4c3d6fU,
  0xbd5d73ae3d66568cU, 0x3d96354c3c487efaU, 0xbda559d73d217ec3U, 0xbdd5779dbd078ab7U,
  0xbd8b7567bc0bc0d2U, 0x3c67647f3d9294c4U, 0xbd9d4621bd77c7c5U, 0xbc425db53d5608c5U,
  0x3dac0230bd81ccbeU, 0x3d4590193d32c521U, 0x3d82b502bcda0396U, 0xbd29bb693bf7e61aU,
  0xbd0149d0bbc6d718U, 0x3d54ec11bd445449U, 0xbd8bcae8bd2b3183U, 0x3c11194dbcd5792aU,
  0xbc0d1795bd5b50c5U, 0x3db007253cadcf51U, 0xbbdca3c4bd83e01eU, 0xbdc5ff303cbb03bbU,
  0xbdaba4cbbc7e8f0aU, 0xbc18aab13c5c8967U, 0xbc91b9f2bd8dafeaU, 0xbcbb7b62bbe1f0b5U,
  0x3e0b4cb7bdca5b90U, 0xbd0b9ced3dec83a8U, 0x3d6935fcbd3d212dU, 0x3d85701b3d022ba3U,
  0x3d5cab1bbd2c1705U, 0x3ceecc513da6186bU, 0xbcd385f93d40e425U, 0xbd275f9ebd94841cU,
  0x3c9292c7bd924d34U, 0xbcd326673ce97510U, 0x3c14f52ebcc11e21U, 0xbded077ebd3fdea1U,
  0xbcbdfbda3bfb39f7U, 0xbcc258bbbd42ddeeU, 0xbc6df6fc3ba659b8U, 0xbcacc62e3dac552dU,
  0x3d557e663d9fbf52U, 0xbd306a14bcde98e8U, 0x3b50fbf13d936adaU, 0x3d3e29c83c4475f6U,
  0x3ce4bd143d044126U, 0x3d0fb5693cefb1a4U, 0xbd63accfbd83882cU, 0xbc47a9413be3f9d0U,
  0xbd3076e8bd61da94U, 0xbcbb8ba5bd49a8bbU, 0x3cc1e91c3d12bc34U, 0xbd8586ab3cff1d3cU,
  0xbd047007bbd94e16U, 0x3d82cd44bd7a51b3U, 0x3b8961683c766ef9U, 0xbdadaac7bce74000U,
  0x3c714d9dbba81db6U, 0xbd75a51dbd27263dU, 0x3d175d2f3d46b686U, 0x3cb074573d29ba60U,
  0xbd2ec42e3d67d985U, 0xbbfe40fa3d720e19U, 0x3d1314bc3d434340U, 0x3c36c9a2bc4c1841U,
  0xbd3212e0bd417d33U, 0x3c5720ecbd1b3b15U, 0x3ccbd3773d0d7642U, 0xbd832a74bccb3cb0U,
  0xbd407919bbd3e2e7U, 0x3c73c626bcfae00aU, 0x3b348c603d3e3cd0U, 0xbd1e3cf9bd2b4aa7U,
  0x3c7feac23ccb9667U, 0x3b17778ebd3f0f22U, 0xbd013ad43da46d9cU, 0x3d56bfb03a3d58beU,
  0xbd9700653d63e1f4U, 0x3c17d4f53d88511bU, 0xbd1c4f973c99b5ebU, 0xbd3dbbefbdbd003aU,
  0x3ced7337bd3b4253U, 0x3ccf97ce3ac7ab28U, 0xbccc332d3d1799b2U, 0xbd53ec1d3d103284U,
  0xbd69252a3cf9a522U, 0x3d021ce33c12d212U, 0x3d1622873d5dc21eU, 0xbcae76b1bd3b8703U,
  0xbcc600afbdcc0ccdU, 0x3d080d2e3d59f91fU, 0xbd56c65a3db77817U, 0x3d5e25b1bd9566e2U,
  0xbcb98d64bcc5a8f3U, 0xbd6f7c763d075675U, 0x3cd174703c736796U, 0xbdbd06ef3ca86054U,
  0x3c0fd82abd0ea422U, 0x3d787c8dbd0f9b17U, 0xbc7502e53d2ee015U, 0xbba2cc5e3d2e5ca3U,
  0x3b4757c13d22a333U, 0x3da885cb3c44298fU, 0xbd6075833d7fe047U, 0x3c8d61a93d312085U,
  0xbca077723c98ca22U, 0xbd31d785bd012581U, 0x3c8e979b3d62ca3cU, 0xbc5b2698bda27822U,
  0x3c92cba9bcc89fbaU, 0xbd3672fdbce43ad5U, 0x3d5ee7913dd82e15U, 0xbb9ab5dc3c4c033aU,
  0xbd763f073d6adb6cU, 0xbccc4a173b07deebU, 0xbc89f31a3bf8b2e9U, 0x3b279c0e3b196de3U,
  0x3d1fc6033da69df0U, 0xbd754b6ebd375799U, 0xbd95b8d33d5d1809U, 0x3dda3831bd2a6453U,
  0xbbfa39093d2c1b65U, 0xbd52656f3d3079f7U, 0xbd9de88cbd11fb3fU, 0x3af5166d3d660ea3U,
  0x3be2657dbbbf6405U, 0xbde43673bda421f7U, 0x3d20a9643da6cf80U, 0xbd0fda133cc9aafbU,
  0x3d4c52fc3b0b4a20U, 0x3d2d92573c67a63fU, 0x3c9063b73d614537U, 0x3df8421cbd048f9dU,
  0x3d126b113cc4ea35U, 0xbd93748abc0c961eU, 0x3caa3f19bda530abU, 0x3d8a954cbd88751fU,
  0x3d70b092bb891136U, 0x3ac532eebd1408e9U, 0xbc778b2d3d8674a7U, 0x3cbf8e233ce2c93dU,
  0xbd8a69813d82e286U, 0x3d29d1923d886f41U, 0xbbf20f62bd2af001U, 0x3ce98ca33dae7df5U,
  0xbc6541183d783a4bU, 0xbd876cbcbc4f1986U, 0x3d26dd6e3d008c55U, 0xbda3180cbcf7d022U,
  0xbdac7e0bbd0e7e3fU, 0x3d8adb023c8eee71U, 0x3dc4428d3d9bf32eU, 0x3d2687883d75b0b4U,
  0xbb7bceb9bd5b081cU, 0xbd6628753d6b8466U, 0xbd0aa3113d76df2cU, 0x3caa0aebbc3e2e06U,
  0xbd29f2763d82ae14U, 0xbbd955333d68f22fU, 0x3d2369243dce0d38U, 0x3d4583a63d3f42d6U,
  0xbcabf0833c6f1a91U, 0xbcdf363bbd0237bcU, 0xbd726b6b3d1b03a6U, 0xbd4e05d83cc83b3bU,
  0x3d891c7fbd97e4b8U, 0x3d14f1d13d56b242U, 0x3de243d5bb574f5aU, 0xbd26d0f23d178353U,
  0x3bd641ccbc9468c6U, 0xbc9ad361bd29f011U, 0xbdb6f8133c18194aU, 0xbd048a563d5545f0U,
  0x3cd270433be9692dU, 0xbc882e55bcb4174bU, 0xbba80da03da35451U, 0xbc0b64c53d2df255U,
  0xbda1c2e4bbf03ce5U, 0x3c580621bc6d5d1bU, 0xbd7bfb323d152bd5U, 0xbd25e28abcd1ef69U,
  0xbd59ed81bda6e7dcU, 0x3c90ea54bd425ec0U, 0x3c2c6813bd34ff4fU, 0x3b878e433cfbea82U,
  0xbcdeecc7bdb91f5cU, 0xbc5619823d9a7ec5U, 0xbd6f9cbf3d3c4178U, 0x3ca5b1f4bb786817U,
  0xbd97a0693cbb5021U, 0xbd4ecb5b3d434a52U, 0xbcae7890bc1292faU, 0x3b71df14bd4a4331U,
  0x3cc4ba8f3c742620U, 0x3c350ac7bc4b605aU, 0x3b74274cbc8405e9U, 0xbcaae48bbbe20a2dU,
  0xbdb43d5e3d1c7c54U, 0xbda3bf4dbd89dd02U, 0x3d1c6508bb80ead0U, 0xbd744cffbd23b7d4U,
  0xbdb38d123ce4e5a1U, 0xbd0ed0bcbc41dbfcU, 0x3c8545b93d4707cdU, 0x3dc609823dc21dd5U,
  0xbdb01ed7bc8a7931U, 0x3c461913bc25c2ffU, 0x3d1a384bbc0c3135U, 0xbd54f14abc22b868U,
  0xbb80892ebc25d1d4U, 0xbdc0098cbd8db456U, 0xbc4136473d73c1d8U, 0x3d2c46fc3d4ac2acU,
  0xbca0fa92bb1d1bc1U, 0xbcb775f1bdb0edccU, 0xbdc32ea5bc23d610U, 0x3d502f993d101f4bU,
  0xbd8c46733bca1252U, 0x3cc611f73beafe3aU, 0x3cf5e71f3d8b269eU, 0x3d1afd54bc9d7801U,
  0xbc9f6df53d182c7dU, 0xbcc2c8c0bc7f090eU, 0x3d3663aa3d48263dU, 0xbd54661e3d843fb4U,
  0x3cc78afc3d9998fbU, 0xbcaa0d79bc79937fU, 0x3d2a1b563d3932eaU, 0xbcb47afabd216458U,
  0xbc69c83e3d1bff8cU, 0x3cbc3f913cfc3054U, 0xba9b5c3abd897c1cU, 0x3cc69cb63d5596eaU,
  0xbd9b72033d76f98dU, 0xbd4fe735bc487b70U, 0xbb42c8cd3ce5b7b0U, 0x3cc47d8f3d088121U,
  0xbd5bdb2e3c4dd381U, 0x3b8f032dbc6a109aU, 0x3ca2f241badf76cbU, 0x3b9e8261bca9468fU,
  0xbc7141bcbdb3a3b2U, 0xbd0e555e3b87575eU, 0x3cfadc93bd8727a9U, 0x3c01f71e3ce931ebU,
  0x3cf4ce29bd7a5a1aU, 0xbd0129303b8cf81dU, 0x3a3a739dbbb37a5cU, 0x3d8d8bd73ce29567U,
  0x3c9070af3d532c5dU, 0xbdb62e9e3d07a9eaU, 0x3d99542fbcb019efU, 0x3cfe10f63cd8129bU,
  0x3d2e0a893d6f76d7U, 0x3cfd183dbd0c9887U, 0x3d0bf4e63da81110U, 0x3d72ff4cbcc0d862U,
  0x3cc2ce4ebca0162fU, 0xbd81615f3cf593ccU, 0x3d2bbb47bd9a38caU, 0xbc7dd3f6bc32de86U,
  0xbc515612bbaf2d44U, 0x3d3bcea23cb79c56U, 0xbdbbc5f5ba596e97U, 0x3cf7dd513d288989U,
  0x3d0204733c79c1d7U, 0xbcfd9ee3bacbad96U, 0xbd5f2d29bda35a02U, 0x3bf5c4d73da4b7bcU,
  0x3cef62f53d4377d2U, 0x3d65494fbcaa9a81U, 0x3cabc58c3d22012cU, 0xbd67860dbdcec60cU,
  0x3d2171a33c000caeU, 0xbc6c97d33d70d034U, 0x3ccf3365bd430fcfU, 0x3d86d90f3a4df0b4U,
  0xbd3ff986bd5a32d2U, 0x3d69850f3dac2512U, 0x3baf7bb7babc7a7cU, 0x3bebdb4f3cb7d605U,
  0xbcb4878fbd2036f3U, 0x3d1ef7883d62556bU, 0x3ca6289dbd9e02fdU, 0xbd45b7983d54d5deU,
  0x3dacfdf4bd8d39dcU, 0x3c1a8e213da8411bU, 0x3d5c0b5cbd42a021U, 0x3b8808db3c8ffdc7U,
  0x3cee3061bdc67316U, 0x3d82c7fd3d767dbbU, 0x3cad783e3ce2b6d3U, 0xbd8d180b3d1a4c9aU,
  0xbd84637fbd478d52U, 0x3cf577b53ca70355U, 0xbd8290cb3a04357fU, 0xbdb106193ca5143aU,
  0x3c33776abd2f66faU, 0xbd2fc91b3d99e700U, 0xbd110252bcc76ea2U, 0xbc845050bcd32b2dU,
  0xbcd16a7cbcd8d113U, 0xbd07c9bc3d77e2b1U, 0xbad99027bb87a26dU, 0xbd76ac77bd2d1a06U,
  0xbada0d1fbd3a8ae3U, 0x3d89e9113d493d33U, 0x3bf824853b8f5a1aU, 0xbcc65cbc3d3f9184U,
  0xbc5ca9583c7661b0U, 0x3d8f14c9bd1fc769U, 0x3aa0819339cc206bU, 0xbbc1f4733ca8d00aU,
  0x3d309711bdbfa244U, 0x39b2d9b93cabfcfeU, 0xbbe51a5e3dc28126U, 0x3cb5f2863a6cbe64U,
  0x3d1f34b23d7830e0U, 0xbdad1ac13dbcfb15U, 0xbd6fbb063d40c1f5U, 0xbd97019c3d4ecf95U,
  0xbd37c6993cfdbf58U, 0x3c6bf7623b9c8e27U, 0xbd1412efbc898339U, 0xbd4a3914bc356d99U,
  0x3d1170543d82aa86U, 0x3cd8db1e3ccfad99U, 0xbd15a6e6bbe3033fU, 0xbd0ba8e6bd772e36U,
  0x3ca20fa1bd37f801U, 0xbccb36873ccccd3eU, 0x3d31170fbc29d839U, 0x3ceb532ebd2066b0U,
  0xbd0558e2bd236637U, 0x3d615bdcbd6db44fU, 0x3cf01275bd4d17d2U, 0x3da5ea41bd5c638dU,
  0xbd1c5dcdbd41a993U, 0xbd3bba223d81961fU, 0xbc5a082bbd27e115U, 0xbd16f5ea3d9e2695U,
  0xbd9ef1d83c6bc0f9U, 0xbd03fd083c7f1e8fU, 0x3d60af463bb4e1ceU, 0x3c5198723d343223U,
  0x3c78dd36bcdbb510U, 0xbd3cad85bbfd605eU, 0x3bffa0d8bc5fed96U, 0xbd31a64abd00b053U,
  0x3c8611df3d82af89U, 0x3d83a982bd3b3898U, 0x3d052199bd557166U, 0x3d6ca78abd6e4a70U,
  0xbd462349bd32228eU, 0xbd5d473d3d2f98e2U, 0x3bad43443d22aaf8U, 0xbd79c3623bcd7e28U,
  0xbd56d957bd8c5416U, 0xbd8dff1b3d3e0809U, 0xbce914803d858911U, 0x3c72b9b63d20e6f1U,
  0xbcd6d7f23cead3f7U, 0xbd0255cfbc8921e6U, 0xbcd84d3ebd510192U, 0xbd57d77dbd0b9136U,
  0xbc8f62b1bc9329f7U, 0x3ca189ca3ba23f8cU, 0xbd39123abbdf198bU, 0xbc3e660abda51ca9U,
  0x3c333418bd2312b9U, 0xbc22522e3cafc31fU, 0x3cca7ea03bb841fbU, 0xbd5cd2073d2a33afU,
  0xbcd74777bd6c685eU, 0xbcee3cfb3d2eaa8bU, 0xbcf50e4dbcc95c70U, 0x3d4d9ba43d8b4293U,
  0xbdaff877bc9eb28bU, 0xbce843d03dcc5a74U, 0xbd019dc33d04600dU, 0xbd295079bd49850bU,
  0xbdca248a3d59f697U, 0xbd6daf58bd95ab00U, 0xbca554363cb02688U, 0x3d887aaa3d22613aU,
  0xbdbe1371bdb96368U, 0x3d08ebe5bd729308U, 0xbda413a63dd4196fU, 0xbc6b79383d01ee77U,
  0xbc85b627bd76910dU, 0xbc393cf9bcaf79f2U, 0x3c930b5c3da0fc39U, 0xbc52f6013d09e3b8U,
  0x3bf63201bdb87a57U, 0xbd5b3a183dc3461aU, 0xbd50325ebcc10e02U, 0xbb774158bbf03c8aU,
  0xbdc630ae3c9610f2U, 0xbd651204bdba3361U, 0x3da5d1683da90d0bU, 0xbd36ff61bbad5d50U,
  0xbbab3449bd906b40U, 0xbde98eedbda6f4dbU, 0xbdb14adbbcce3dddU, 0xbda30a7d3d257d5bU,
  0xbc9110073d170bb1U, 0xbc026acbbd77f0d3U, 0x3d8163db3d170affU, 0xbcfff4683db8af3cU,
  0x3d20917abd405920U, 0xbc7c54353d38df1aU, 0x3d96d7433c4c7a3aU, 0xbd24e265ba96ce49U,
  0xbaa2149e3adc8731U, 0xbdafdd1cbd699129U, 0x3d49a97a3de63ae8U, 0xbd543a82ba6d0a88U,
  0x3cd6275fbdd2f0aeU, 0xbca4e7f23ddec28fU, 0xbd8b0939bc76bd09U, 0xbd9a38f93daec390U,
  0xbcfcf4aa3dab952eU, 0x3d104de4bc716e91U, 0xbc9253f83cd2b374U, 0xbb43295d3c038cfbU,
  0xbd2299f13caa7680U, 0xbd7e1e6b3d244492U, 0x3c5d4f8c3ddf62a3U, 0xbd5f0c8ebe0693eaU,
  0x3cd3360fbc4057cdU, 0xbca6e6903cde0debU, 0x3ce3a02cbd77aeb0U, 0x3c9044c2bcbde4b4U,
  0x3b531a6fb90cf0efU, 0x3da2aebfbd0261adU, 0xbd04434fbd103fafU, 0xbcb705eabd76795fU,
  0xbd19031e3ce4548bU, 0xbc2fa1dbbd4d2f32U, 0x3db1fec8bd67edbfU, 0xbd47df833bfd08cbU,
  0xbd655354bd703ae9U, 0xbd3c291abccbae4dU, 0x3cbb1a1c3c5412b1U, 0xbd011670bbedbfa6U,
  0xbd13183b3d0fb13cU, 0xbcfccb18bd3ba743U, 0x3d41b1ca3d9d0ab6U, 0xbd4d7fb8bcf3fb5bU,
  0xbd9ac1b83d97671dU, 0x3da84bb63c10d6d3U, 0xbd05ee613cde169dU, 0x3db155893d258f4fU,
  0x3c7d0cdfbd2868a2U, 0x3c1788f1bd5347aeU, 0x3d0e4d0a3bc9ecedU, 0x3cae1226ba87d556U,
  0xbc1e8ab23d49a8acU, 0xbd060a3f3ca1be4eU, 0x3db45bcebd8e634cU, 0x3d7095403c00bd8aU,
  0x3d3f77043d46bbd8U, 0x3ce668aabdb2e03bU, 0x3cb7ab62bd714176U, 0xbcf59682bda0e4e8U,
  0xbd9aaf8e3d27a2eeU, 0x3d9ecd773d2b746eU, 0x3c6791b8bd32aec5U, 0xbd445705bc4c72d0U,
  0xbd9b4d89bdcca08cU, 0xbd4bb596bd2851c1U, 0xbcd1c02b3d9ac10eU, 0x3d84d9dfbd9a5148U,
  0x3cf1e87c3d433501U, 0xbc40078e3d3ebbedU, 0xbd541ec0bcef9f36U, 0x3d7492153da01facU,
  0x3c35e4aabcaa7e8dU, 0xbd6afc493cae4b98U, 0x3d82057b3dc77610U, 0xbc934a5a3ca73e72U,
  0xbd82bf9e3d8e981cU, 0xbd014b7bbdb5ed6eU, 0xbc9c4dd13bd21a29U, 0xbcce7454bd1e5c01U,
  0x3ccd1772bdbf2f2eU, 0x3cc945653d322909U, 0x3bf24f02bca3895cU, 0xbd106a5cbd646faeU,
  0xbd2f55a33d08530fU, 0x3d62fd323d5f9399U, 0x3c03dc343c4948fdU, 0x3c7490ec3bd0efa0U,
  0xbc74217dbcf3f04fU, 0xbd1eff883d1239b3U, 0x3da7e57b3de5cda7U, 0x3af64afdbc81f2b9U,
  0xbca4c3c63bb77e3eU, 0x3cd18076bd00242cU, 0xbd8c121a3c82d230U, 0xbc4a30fa3cab7b2eU,
  0x3cc6873fbcfd51ddU, 0xbc66c5a1bc7d6eefU, 0xbd4f2c6bbc13b574U, 0xbcb6584c3d0a2beeU,
  0xbd36cc993d844114U, 0xbcec95c43dcc9629U, 0xbd622b393d518e2bU, 0x3d1dddc9bb1cfaf9U,
  0x3b9ec151bd85f343U, 0x3c1d18713d265a0eU, 0x3c4b60143d121925U, 0x3d45bebbbc0269b0U,
  0xbd90693cbd705a11U, 0xbda334e03d2193f8U, 0xbdb1e8cf3d8a8eb4U, 0xbd13dcf7bd170d4cU,
  0x3c68b44dbce85aa8U, 0xbd4a5288bd1aafc9U, 0xbc9c57f7b86e7725U, 0xbd8b7872bc6ac3e7U,
  0xbc7421493d360bc4U, 0x3c5dc3c93c066afdU, 0xbd4e76b0bb807affU, 0x3ca3286a3ca4c3afU,
  0xbda26eeebd56851eU, 0xbd53e2efbd7dea60U, 0x3cc6e1fe3d4bd769U, 0x3c69eeac3cf3cbdaU,
  0x3cd2986d3d134d7cU, 0x3b3666e0bd5a366cU, 0xbb2486fbbcf9b0f1U, 0x3d3cc330bd38c48eU,
  0xbd05045cbd122e17U, 0xbd365234bd15e52aU, 0xbca610a3bd83ce8bU, 0x3ddf535abd8e257cU,
  0x3b9209363d3253bbU, 0x3d07679d3d012c6bU, 0xbd46b05f3cc0c509U, 0xbd843342bd193098U,
  0xbd79d2103d3dea0bU, 0xb9891f5c3cebc2f9U, 0x3c63cc773d9807ecU, 0x3d1ea41b3cda5e79U,
  0xbba1d23f3d661bb8U, 0x3c6b87373cb002cdU, 0x3bca46aa3c1f5968U, 0xbc93753a3cb62d83U,
  0x3d9e36593d15fb06U, 0x3d2c3f74bcba8d48U, 0xbc50d8a7bd4c5233U, 0x3d948bca3b040b37U,
  0x3c4a5e163d365b0aU, 0xbc8af01dbce076f6U, 0xbd77270cbb710d25U, 0xbd03ee433d20695eU,
  0x3c7ccabe3cfd9191U, 0xbc1e18783a9c520fU, 0x3d66d2bc3d818d3fU, 0xbb4331413d164b8bU,
  0x3c38d8353d77adb6U, 0xba9ad63ebd40de14U, 0xbd4933713d08654bU, 0xbbbfe790bcb46bfdU,
  0x3d9b3fb8bd359e83U, 0x3c3d26dcbc8414bcU, 0x3c0e8338bd9e68e1U, 0x3cc9a841bb8f7ff2U,
  0xbd92cfac3b093f5aU, 0xbc43454e3b795f0fU, 0xbbd2a3523bfe678eU, 0xbc9cb414bd089175U,
  0xbd09b4453cf05002U, 0xbd8cc9683b50cb7dU, 0x3cc067f1bdb7ffa8U, 0xbd6bab413d22259dU,
  0xbd27f775bc10549cU, 0xbd128b6e3ccf677bU, 0xbc8271bcbb7a9a6fU, 0x3c2dd960bd6d78b7U,
  0x3cb2a37fbd225d49U, 0xbd70e247bc315234U, 0xbc71d050bd985ee5U, 0x3d125fdabd491b11U,
  0xbddad2923d57ab6eU, 0x3d8626a3bdaf2669U, 0xbb99b790b935a8b9U, 0xbc9aa966bd9e98d9U,
  0xbcdd2d5dbd2faffcU, 0xbd5d27f9bd7503a5U, 0xbd632a34bd8a26e5U, 0x3bed5447bd3f7150U,
  0x3c13b0a43d0730beU, 0x3c54a89b3d19e7b8U, 0xbbe03a20bd225e4bU, 0xbd94dde5bca6af36U,
  0xbd47efcc3c5437e7U, 0xbd8e218bbcd0f0a1U, 0xbce002b2bd3407b2U, 0x3d84ce0bbccb7987U,
  0xbd59a326bcceed0cU, 0xbcc454d6bc1ff461U, 0x3d6e2f36bb3f5695U, 0x3ae4cd25bd2c32d3U,
  0x3bd88e6fbcca1a0fU, 0xbd93d1bebd8395b6U, 0x3a9971f3bbf51370U, 0xbd2a76eb3a245482U,
  0x3d020c653c148201U, 0x3ca19d4d3d23b68fU, 0xbd78ab5b3ca7b2b8U, 0xbcdd32e5bc3e9433U,
  0xbd390159bca41c62U, 0xbd4bb886bd801fc3U, 0x3c908b083c9fb1d4U, 0xbda36fd03d22b01cU,
  0x3d6fb461bd47da5fU, 0x3c685953bb317f89U, 0xbd4e98723cc82714U, 0x3c110ac9bcfb73e1U,
  0xbd232d813d52c759U, 0x3d59dd02bd1326b9U, 0xbd9b2d0c3c83c075U, 0xbd866ff03ca26349U,
  0xbcef53483d92d56fU, 0xbd4e134ebd896da8U, 0xbd56d5d0bddd9d1dU, 0x3ddf3a9abcbddbbeU,
  0x3d757e533d58f8b6U, 0xbd35cd183d21e317U, 0x3ce08080bd77af5eU, 0xbda74f59bccb71c9U,
  0x3dabb489bd0bb34bU, 0x3dd2874b3c99a9fcU, 0xbd378aa6bd3fc89cU, 0x3cf8e0e1bd723312U,
  0xbbfdfadcbc0bb808U, 0xbcaee9953cbd3969U, 0xbd958ceabcb0e8a8U, 0x3c9e98333cd71b95U,
  0xbc87890e3d3f5a03U, 0xbbd84626bd88536bU, 0xbc83beb43d3b95baU, 0x3d6f1ca3bd4037d4U,
  0x3d9f02ed3d09c2b0U, 0xbdb33bbebca63a2fU, 0x3d96d3abbdbdbdb6U, 0xbcb360ab3c800c98U,
  0x3d4323dcbd9a7971U, 0xbcd5b68bbbd76949U, 0xbd07906dbd3b554eU, 0x3d90099bbc8a3580U,
  0x3962a6a4bda0c9caU, 0x3c6963e03d28ae50U, 0xbdaad2093c6ce8c6U, 0x3c96e2903d87900eU,
  0xbc23102c3d263361U, 0xbdce6c88bc081b71U, 0x3cb73145bd3000edU, 0x3d544d7fbd0a0331U,
  0x3cde4c7e3ce8a307U, 0xbd414b19bd0f2296U, 0xbcea94eabc555f7bU, 0xbccdd2453cf0f417U,
  0xbd8355f9bc8bb77dU, 0x3babd3803d58d855U, 0xbd528f14bd028151U, 0x3d6217913c80f589U,
  0xbd9b30c93d25222aU, 0x3c97c4e83cccd1a1U, 0xbdaad620bd0c8135U, 0x3be7e44fbbd5e0f4U,
  0xbdc5e3193c6a7fb8U, 0xbc6680153d17783bU, 0xbb6609e8bdca0794U, 0xbccefdaabd0579e5U,
  0xbd9cfa5dbddda950U, 0xbd0c51f83db0232dU, 0xbce384073df7e9abU, 0x3cb63745bd5d7818U,
  0xbc89f36ebbdea18eU, 0xbdaf85b43d1e4c7bU, 0x3b3ce60c3aa205f0U, 0x3b697eaabd61f0d0U,
  0xbda8805c3b437456U, 0xbd8375e8bc8c255bU, 0x3bcd3f593c861ca8U, 0xbcbae4b6bcd58170U,
  0xbcfdcf703c2ad505U, 0xbd2a129dbd1471e8U, 0x3d5dea793ca438ffU, 0x3c836a103c1af5f9U,
  0xbcc550fbbc9f8d85U, 0xbd93ba8d3dd419dcU, 0xbd2b87ec3d025d10U, 0x3dca33003d1073b5U,
  0xbdd214bc3d258379U, 0x3d6a17eb3cd8739eU, 0x3d3aadb93d831a2fU, 0xbce8539f3dc05ea3U,
  0xbcfeed79bda5212aU, 0xbdca9736bd591d3aU, 0x3da8929dbd42649eU, 0xbd1770af3d37e433U,
  0xbc39a8293c9b00b1U, 0x3d809d4dbd414cb9U, 0x3da1ff9bbd4dc114U, 0xbd69a92e3caca2f4U,
  0xbd0857f03d554f51U, 0xbc83e72e3bac2676U, 0x3d874caebcee8ffcU, 0x3cc51e60bd4fa4eaU,
  0xbd0f9a853dd0edc6U, 0xbdb951a43cf5b5deU, 0xbbaeb995bd401bfbU, 0xbd1a24893d9a5021U,
  0x3dc151f7bd788c2dU, 0xbd581577bc8de9eeU, 0x3d270d8dbaa35829U, 0x3cb54e21bd96eef4U,
  0x3abf0e1bbd8b100fU, 0xbd6e77f33c8dd12dU, 0x3ca2c0fb3d5d4398U, 0x3be02dd23cf4bf63U,
  0xbdc898fc3d0a8d5cU, 0x3d95af82bd7cc27dU, 0x3be9dfb3bcb8bff4U, 0x3c9ecab7bcd8c293U,
  0xbce0c3333d238f78U, 0xbac5c8723d307870U, 0xbcc3dee4bd239156U, 0x3c98000cbbc52f3bU,
  0x3d1275913d533079U, 0xbc2dc9203d46fd22U, 0x3be77d4b3ba9c4c6U, 0x3ae000f8bd92683cU,
  0x3c47b115bd97be9bU, 0xbc8d16353beac47bU, 0xbc44fb74bd8471dbU, 0xbd4b2cf93db923c3U,
  0x3d4f76fd3d295094U, 0x3ada4cc1bcb10f4dU, 0xbd67de3fbd80ab88U, 0xbd80237dbd83bc94U,
  0x3b003e03bd5b8e7aU, 0xbd9a1ede3c9bf4bcU, 0x3cfa109b3d28e70fU, 0x3d582300bb8462c3U,
  0xbcd20e10bc34ba88U, 0x3c6efa9d3d9dd05fU, 0x3c443b2fb99945efU, 0xbd6608b4bd8ba167U,
  0xbb37eb61bd62a4f9U, 0x3d53940bbcc3df61U, 0xbc4721e3bd97f6f9U, 0x3cb62fb8bc31fb19U,
  0x3cc54e03bce2d28dU, 0x3c6b5c69bdd303c6U, 0x3bba7aa9bd07bfb8U, 0xbd8507a2bcb1bc30U,
  0xbccedf693d1586c8U, 0xbd6b0583bd96a38cU, 0x3d5ef5e5bc83135aU, 0x3c60fe4c3d54ef16U,
  0x3d6dc202bc85e739U, 0x3c20d6c23d94ab84U, 0xbc59b5b83c10d373U, 0x3cedce89bb79c2d1U,
  0x3b4e033abd71fe65U, 0xbc93c83dbc45d028U, 0xbc4e8337bd97148dU, 0x3c1538b63c039025U,
  0x3d53f8933c8580f2U, 0x3cf22cfd3d42a0a9U, 0x3db5729e3d1ba657U, 0x3bbfff52bd9f3c44U,
  0x3cebb841bc87ad73U, 0x3cfbb5583d2ca5eaU, 0xbd1a173c3d104765U, 0x398eb62b3cc91a6aU,
  0x3cdc548dbd9188ffU, 0xbd90da113de3b408U, 0xbc3a9782bd344470U, 0xbc5a4732bcadfaadU,
  0x3d2c29ffbd5e6997U, 0xbd11c31b3d1d6404U, 0xbd80b9c13c17b3a0U, 0xbd4861bc3d9533cfU,
  0x3d8433743d01d671U, 0x3d5e4584bc79b707U, 0xbc7019123d058af4U, 0xbd4e571fbc9ff89eU,
  0xbb79d48c3cda5054U, 0x3d7b934bbd176d55U, 0x3d2f55db3db0461dU, 0x3cba9968bd0dacecU,
  0x3d0a38023cfae24bU, 0xbd13d3a63e008432U, 0xbd6fed28bd0a3b6bU, 0xbd4adb933d900aeaU,
  0x3c9c3d1abc34ddc6U, 0x3b1c45c3bc7ec093U, 0xbda7cafe3cede061U, 0xbbcc53113c589fcfU,
  0x3d0b98013d9f2c8bU, 0x3c60849cbd5d9064U, 0x3d10874b3cf12b39U, 0xbd9a474abd9a61daU,
  0xbc5784153d493e96U, 0xbd8e514c3d4e3ac9U, 0x3ce116233d4ebc20U, 0x3d046499bd5a2d86U,
  0x3d42632bbbc2b3f0U, 0xbafdea1d3b5df605U, 0xbd161424bbfbf416U, 0x3ceb6e0ebd3a9bbeU,
  0x3b9c9bb6bd64bfddU, 0xbcaa7cf63dcac947U, 0xbd8b277c3d1bc203U, 0xbd20c2d13cfbe621U,
  0xbcca3a293c0f4b36U, 0xbd8139e63cb3cd16U, 0x3d3cde14bbec6b5aU, 0x3cf2c1053d1cfb72U,
  0x3cd7c0b73cfe78b1U, 0xbdd8467f3d3cbdcdU, 0xbba7c9a13c348254U, 0xbd77d70b3d754bd3U,
  0xbb6160e43d065baeU, 0xbd8161c03cfb48b7U, 0x3d05fd90bb8bf43fU, 0x3cecde4dbd36f0dcU,
  0x3d12dadb3b9a528cU, 0xbcad79563d903e9aU, 0xbd589fc6bd4a9e00U, 0xbd7d910b3d8beebbU,
  0xbcd8256abc594f90U, 0x3d18d4bc3d886041U, 0xbd1b99673dcce2b8U, 0xbcfb70a9bc254966U,
  0xbd39cd4abd4fb3eaU, 0x3c5a9812bce73d6aU, 0x3d3649ab3d1fac1eU, 0xbca0570d3d97ba2dU,
  0xbd02725a3c92666fU, 0xbc29b583bce6d8ddU, 0x3c99998abd422184U, 0x3da059febcfe0940U,
  0x3cb2481ebce5fcc8U, 0xb9dc12a13c9609a8U, 0x3cdf192ebc80a629U, 0xbd36a0153d7e562cU,
  0xbc113b59bd9a282dU, 0x3d19235a3d7ab75dU, 0xbd1b34e13de15700U, 0x3d9a7df5bd946a05U,
  0x3c03e2d8bc908688U, 0xbc8b85e33dd3d35fU, 0xbd1c836dbc3f7daaU, 0x3deda599bde992e2U,
  0x3d80bb7c3dabb0e6U, 0xbd58a59a3cb5e1a9U, 0xbdb754acbd0760bdU, 0xbd37ac92bd97da9dU,
  0xbd958d1ebc53cae5U, 0xbce39929bcf3b123U, 0x3cc87b683d3b4fd8U, 0x3c826307bd77253aU,
  0xbcddbc12bd749be7U, 0xbc7d336ebd58f5d7U, 0xbcfd48073d4951d6U, 0xbd801b86bd93f1caU,
  0x3c54c887bb0cbfefU, 0x3c49c12a3c45c4c8U, 0x3b1013e6bd717f3fU, 0x3c9147b7bde9f87fU,
  0x3c0b3393bc278ce7U, 0xbda38226bbfa4511U, 0xbd92879ebcaebd1eU, 0xbce879d6bbd92261U,
  0xbc87e2d93d2b4036U, 0xbbe562403b813c41U, 0xbd9201e73cb5bc6fU, 0xbcafa724bdc2e6ddU,
  0x3d43ea34bcec9eebU, 0xbd8a41203c8fc00eU, 0xbd05b7463d08ccdfU, 0x3ada141abc45a465U,
  0x3da456fabc8254ccU, 0xbd836fe53e16a2c5U, 0xbca3f099bd947a1dU, 0x3c435acfbd60196dU,
  0x3bcd36753cdb33a1U, 0xbc3bea4d3d9b5013U, 0xbd7a4c97bd76f838U, 0xbdaf5a743cb5788fU,
  0xbd0ea1e9bd6eec3dU, 0xbd2be3283c2e1057U, 0x3caacc453d54a6b7U, 0xbd0c0c19bd21769dU,
  0xbcaf5eb33d485b11U, 0xbd4e4d3cbd3461beU, 0xbdca96f43d9dbc8cU, 0x3cf192a0bdaeb3b9U,
  0xbc9e717c3c55139aU, 0x3d65e1db3d657230U, 0xbab36129bcda804eU, 0x3d02b6fc3d34ef3fU,
  0xbc855deebdb03476U, 0xbdb4b7f73d0f67ccU, 0x3d7018753d9945e7U, 0xbce5ecc63c8d4939U,
  0xbdbc401bbb8b3ea5U, 0xbd15691b3d8e7bcbU, 0x3cd5d6c93d2b2e05U, 0xbd00d60b3b643998U,
  0xbd88864cbd92aa93U, 0xbd59f48f3dbe69f9U, 0xbdb6f523bcd9cf90U, 0x3d5ebc31bd59d258U,
  0x3d283fbdbd83e792U, 0xbcf2bc713defce8dU, 0xbd22194bbd818465U, 0x3d924ace3e148bb7U,
  0xbd40062abd0cfb62U, 0xbc4576f63b476f81U, 0x3d0fb7ec3cb10150U, 0xbd401e20bcef6eaeU,
  0x3d684284bd1b1fadU, 0x3c669992bd8c8999U, 0xbbb6e056bb8c990cU, 0xbd90ef393da02b2fU,
  0xbdfad86c3d91b2e3U, 0x3de9c4a63b4903dfU, 0x3d86568ebcfeaf2cU, 0xbd03867a38575845U,
  0x3d026f443d1eb979U, 0x3d37f863bbc24d9cU, 0xbd4b63853dcf10c1U, 0xbccf69d43db5c26bU,
  0xbd0009953da3d3f4U, 0x3c39c6c03ce1a45cU, 0xbd64c8cf3db4b08fU, 0xbc4e7e013da06646U,
  0xbce79fa33d79b253U, 0x3d4a22e3bc53d07bU, 0xbd11976dbd9f6c53U, 0x3d5a69ea3c9b581dU,
  0xbceeb0013d9149f1U, 0x3c7ad06cbd550559U, 0x3c7debd03d3e29dcU, 0xbdab76563d0b877fU,
  0xbdbdba94bd4d5bb4U, 0x3d3cc1a03cbd2044U, 0xbaa3c6da3cf9bd1fU, 0x3d191e2f3c42a367U,
  0x3cf1b47c3ace3d90U, 0xbc0478c23d171ecdU, 0x3ce87c903ca42646U, 0x3d02e4c0bd11de05U,
  0xbd5746a23d20de2cU, 0x3cb5c6fbbc8fd805U, 0xbc4da969bdabb035U, 0x3c5147083c91b5d8U,
  0xbd11ada2bbd92a8eU, 0x3cc66c6fbc769313U, 0xbd0461e83ca18700U, 0x3db029be3ce4edfeU,
  0xbd1d2b40bcba3660U, 0x3d17bee6bd1af4cfU, 0xbd1d4e6bb9fb76feU, 0xbd1f16f5bd916854U,
  0xbbba50323d375c35U, 0xbd75178fbcbd5758U, 0x3d172f203d21a656U, 0x3ce2b1e3bcd4e2eeU,
  0xbccf0d2ebcd4d4d5U, 0x3c11be043c7e8ad4U, 0x3c85779fbddc5297U, 0x3cee25303d018d8bU,
  0xbbf6ae453cb077d4U, 0xbc7a439c3d13539cU, 0xbc05b714bb9afc7aU, 0x3d6c790e3d61c11cU,
  0xbdcb51e63cd7a476U, 0xbd5ae6293ceb5106U, 0x3c95f3993c70450fU, 0xbcfd9cdcbb798126U,
  0x3ba94da4bcd848e0U, 0xbc4ecdec3cef8fb0U, 0x3d8e9e2d3ccf9225U, 0xbc832587bd509958U,
  0xbd08dffa3d3066c5U, 0x3d6fddf83c6a3000U, 0xbd709a49bd24ebb5U, 0xbb80f381bc46b9e5U,
  0x3da7f8d4bbc4213eU, 0xbdc1fc833ce55239U, 0xbc81827e3c0a12b0U, 0x3d8a814d3cf343d2U,
  0xbdc6058dbd2cde91U, 0xbca9c2bcbd46b219U, 0x3d5e8d403d83e0c0U, 0x3d0d699f3cfffc21U,
  0x3d41d49a3d8d45f4U, 0xbd9dfb5dbcb0e223U, 0xbcc530583d9d720eU, 0xbd94440e3ce1e81cU,
  0x3ca5ec64bca64992U, 0xbd63827dbd58624eU, 0x3d273bf73d487391U, 0xbd20eba5bdc52062U,
  0x3d06e6a53d8bce27U, 0xbdd279143ccb9d3cU, 0x3de43b993d504a63U, 0x3d0d66333c1f2df0U,
  0xbc86e02a3d872d63U, 0x3d39539fbd024ef3U, 0x3d9b5f9c3d9b15beU, 0xbd8729fa3dc621b3U,
  0xbcdfb0733c7db73eU, 0x3bc5bbad3d030868U, 0xbd23a3553da01aedU, 0xbdae6a45bc14167dU,
  0x3d7d5e8bbd8e3ccdU, 0xbb4f59d03d06fceeU, 0xbb9576aa3caab0e6U, 0x3d83621c3d78ed67U,
  0x3da5f665bd744b2bU, 0xbd2e57283d5edd05U, 0x3c3e25e5bd44f2d6U, 0xbca620d1bc109816U,
  0x3c33f6c63d7156ddU, 0x3cd9421ebd45830eU, 0xbca6b5cabd544f21U, 0xbdbd6343bd6feeecU,
  0xbc21121b3cd806f2U, 0x3c8e73173d2d94b0U, 0x3ca8bdbe3d907519U, 0xbd8ae7f1bb0c59e8U,
  0x3d3e60bcbd076338U, 0x3ca744fbbd2d8640U, 0x3d13ba8d3ddebdd9U, 0x3b6a3657bb66120cU,
  0x3d4b9acabd5b231dU, 0x3d9237ccbd911bf2U, 0xbd82bc9e3ce72c21U, 0xbd43d39cbdb88d4dU,
  0x3ca47420bcef8c92U, 0xbcb6e249bd389286U, 0xbcda43d43beb6b60U, 0xbd8be3d5bd507840U,
  0xbc9ad0d5bd207eddU, 0xbcf46db23bb72144U, 0xbb25082b3d108946U, 0xbcd9b479bd623c18U,
  0xbd09d7403b91e5faU, 0xbb92f772bbe5380fU, 0xbc95b30f3da6b0d8U, 0xbb809879bd111eb1U,
  0x3b6213d0bd1a51cfU, 0xbd47270c3d171799U, 0xbdc0d2c8bb888f92U, 0xbd386103bc5c9d57U,
  0x3cc44a183ce51282U, 0x3cef829f3d265c12U, 0xbcc59f37bbe1ccf2U, 0xbc0d2528bd7c549bU,
  0x3d20e4ba3cdaab23U, 0xbd81ada03d02039bU, 0xbbd0ade4bcac463bU, 0xbddbf0a73caf2d4fU,
  0x3b619802bd8b1b79U, 0x3cdff132bcd0dc4fU, 0xbc728aa33cb3ea21U, 0x3c0fe3333bd8aa1fU,
  0xbbc1be19bc849f8aU, 0xbd667bd83c4fd5bcU, 0xbca5d0d0bd5df863U, 0xbcb5af35bc3b4621U,
  0x3da90ef7bd24d773U, 0xbd1976703d64892cU, 0x3b5fd16bbd833a44U, 0xbcf40258bd91cdd3U,
  0x3d8d9a1abccda532U, 0xbd48eae13b8b82ccU, 0xbdb6195f3b930c81U, 0xbdca536cbc08404eU,
  0xbc4d4dbebcdccbd2U, 0xbda0e69b3d3664c0U, 0x3b5e2ead3d701749U, 0xbca718843d32e3a8U,
  0xbc794a52bc3a9caaU, 0xbca3f129bd80abc0U, 0xbdaaf80cbc957976U, 0xbd188755bc1bdb13U,
  0x3d168341bd09454aU, 0xbcf53b7f3d20d1eaU, 0x3e1239ccbd2757ceU, 0x3d259e58bd8bb454U,
  0x3dedf1ec3d5202a7U, 0xbd3f276bbbc134ecU, 0xbd03c4d3bb8650c0U, 0xbc4d63eebd2d3c1aU,
  0xbd937659bddb6d39U, 0x3da917cabde19527U, 0xbd203393bd00b93dU, 0xbd8a6767bd8c5cdfU,
  0xbd5c78fd3d0bdad0U, 0xbc7867a4bd8ddd20U, 0x3da69536bddcaf29U, 0x3dace2823d92bd43U,
  0xbd1f630c3d677e47U, 0x3d56383f3cce89dcU, 0x3d9f2e83bb7d5efaU, 0x3dbda9a1bd9052e4U,
  0x3d40bf453d004dacU, 0x3d3b4534bd208a01U, 0xbdc353b7bd5492eaU, 0x3b6cc66abd6bd025U,
  0x3d8a283b3ba5a0afU, 0xbbcc5d68bd85d7feU, 0x3bc53209bd1241bbU, 0xbd809b243b8f7f60U,
  0xbd7224733b05aadbU, 0x3b69606b3ce5873dU, 0xbd9bb5443d938a36U, 0x3d1f857dbd4647f6U,
  0xba7cbdb03d485b6bU, 0x3c280a213d456ed7U, 0x3c54e1293c76aef6U, 0xbcab37c9bd99d26aU,
  0xbd0524bcbc7d7604U, 0x3ca655a33d29ccd6U, 0xbde46d97bceab303U, 0xbdfcd84ebd9284bcU,
  0x3d2ce79f3d262e58U, 0xbda5f5bf3c4984a9U, 0x3d6581143d2690f2U, 0xbc99f4cdbd58f734U,
  0x3d1ca68d3c905152U, 0xbd397218bcc1a8d2U, 0xbd95bc40bcb35b01U, 0x3c262470ba808199U,
  0xbd1338763cfdeef4U, 0xbccec37cbdbab672U, 0xbdb91b233d3c112bU, 0xbd8670f33d9031eeU,
  0x3cdb7d363ca11d49U, 0x3c98c3aa3d2f144aU, 0xbd2d8c92bd569275U, 0xbd03ed3bbceb7999U,
  0xbd1816bcbd030f72U, 0x3cd083233cfac7ecU, 0x3c89fabcbb9c6a70U, 0xbd29f729bcdfbafdU,
  0xbbebb36cbc869442U, 0x3bb719f5bc567275U, 0xbc00b940bd264efaU, 0xbbc7a5d3bbbc012bU,
  0x3d84bed73cf5d6dcU, 0xbb85ff9abd2a6056U, 0xbd322786bd7ae97eU, 0xbd9b96b63d2a8e1cU,
  0xbbacc9c13ccaf3e5U, 0xbbb59f313d84d628U, 0x3d0ab7b7bcfc4426U, 0x3aaf75e9bd95ddb6U,
  0xbd24b1d6bddce5aaU, 0x3cc05c80bd3b09a8U, 0x3d83d2e7bd06af41U, 0x3c6af1f4bc15af2eU,
  0x3d6b445fbd8beb08U, 0xbd12d84a3d8052e4U, 0xbcaf925c3cb87883U, 0xbd8891b9bd1df9d6U,
  0x3d02e7c9bc2fa71aU, 0xbcf96b083d31bc2aU, 0xbad362e0bd542d96U, 0xbc4bacc53cac8e0eU,
  0x3da3e6fe3d493ff7U, 0x3b5bc8d33dab846cU, 0xbd01bfa03da046f8U, 0xbcd6060d3b4de539U,
  0x3d609551bd9d0d23U, 0x3a2c58b8ba2d2f48U, 0xbd0a24463d7ae00fU, 0x3ba0e17dbc878959U,
  0x3d801334bba97ea4U, 0xbc09b48abd499392U, 0x3c5ddc723b532d84U, 0xbdcb9f65bdaaccd9U,
  0xbba8c7e9bd25f168U, 0x3bf1c9d7bd1e056fU, 0xbb6e92793d564917U, 0x3c07ad013cb57620U,
  0x3d0b94183d0bc631U, 0xbcc1b9a4bd495eaeU, 0xbd6f3ccd3c789315U, 0xbba9106e3ca39696U,
  0x3cf1c79ebd34471fU, 0xbce18a083d26d87fU, 0xbbf8f6b8bc64e99cU, 0x3c4a6760bd07161fU,
  0xbb924fd63b77aceeU, 0xbc9ff7663d718bcaU, 0xbd39ffc2bc04e25cU, 0x3cf6a6273bca58e0U,
  0xbba353b73d01ca15U, 0x3c611fe6bd328cf5U, 0x3d1e7037bc5a1c40U, 0xbd718dc2bd0a7a23U,
  0x3cc68b7b3d5016a0U, 0xbc28f3ae3c303494U, 0xbd3c11c03dc2e408U, 0xbcef17c63cd0916bU,
  0x3d49627ebbe0793dU, 0xbd6517323d86c7a3U, 0x3bbc4c5a3da3e6daU, 0x3d3f5192bce80ad9U,
  0x3cfea5373c5c25d6U, 0x3d7c670d3cd829d3U, 0x3c5f600ebd0a8af7U, 0x3d483e44bc949815U,
  0x3d68ea20bd0cab1eU, 0xbd20bcddbb1d3f71U, 0x3d43c798bc45364fU, 0xbd8640cf3d562801U,
  0x3b6e2f60bc128c27U, 0xbd2ab8f33ce22c7dU, 0xbd07e5aebbc0544aU, 0xbc4e5d963ca4fe17U,
  0xbd0d080ebcb295c6U, 0xbd842ecf3d90e6e0U, 0xbd66f6f83d8b13ddU, 0x3c28ef7abd5f3390U,
  0x3d9274cabc0a19beU, 0x3d738b823d706065U, 0xbd5f092b3da0ca82U, 0xbce710b7bd91d186U,
  0xbd3bb6fdbc163d3cU, 0x3d93f1293d1749c6U, 0x3c2f0c50bcf5a600U, 0x3d58b529bd9b2ef4U,
  0x38291957bcab83f7U, 0xbcb408e3bb3218a1U, 0xbdd90d0ebd5468b9U, 0xbd18e6173b10d2aaU,
  0x3c0df9833d1fe443U, 0xbd49425cbd4fd052U, 0xbd718d6a3d45179fU, 0xbd5d4a6b3b97a66bU,
  0xbc4b70c4bc8edfa7U, 0xbcca6efc3ba434d8U, 0x3d8da6353d0918a7U, 0x3cdd2ac8bd8deaaaU,
  0xbcdf9fd8bc59bb8fU, 0x3bcadd503ce8b685U, 0xbb9bc3d7bd3cbb46U, 0x3d91d9bf3c5ebc7aU,
  0x3ce79349bc3b546eU, 0x3cd40ef43d44b599U, 0xbd97263cbd959ebbU, 0xbc8aa2113c027a6eU,
  0x3ae18a473d998d93U, 0xbac10598bd4ab1f2U, 0x3a83edccbd8e826eU, 0xbd573f323c98307fU,
  0x3c1126e9bc5fe3a6U, 0xbcaaa9023da75078U, 0x3bfa43313c46bed2U, 0x3d78a00b3c5a0ec1U,
  0xbc467c19bd555d42U, 0xbc2037ab3d080035U, 0x3cc843f83c9086e2U, 0x3d950675bd8ff8e9U,
  0x3d3654c0bccc6187U, 0x3d44b71d3d7267baU, 0xbd1461bcbd1ffa53U, 0x3c029a66bce63782U,
  0x3d74374f3d2a2658U, 0xbcc95351bd58860bU, 0x3cc86a7bbc07f870U, 0xbd5eadb33d30eac8U,
  0x3ca4b6a9bcaf44e6U, 0xbbfe42943d1bf1f1U, 0x3d593ffd3da19b6aU, 0xbcdf1c6cbc80b572U,
  0x3c7660d6bc8f7786U, 0xbda83361bdff0deaU, 0x3c9259fcbd88ce94U, 0xbda3274e3d494890U,
  0x3a3363acbdb0637bU, 0x3ceda7723d431c7eU, 0xbd6389c4bd87f4c3U, 0xbd319586bd081155U,
  0x3ba088213d23b0b3U, 0xbd89d2c03d085653U, 0x3c2f81bebd311ad8U, 0x3dc5b7133db97ebaU,
  0xbb25ed423d9a4e24U, 0x3dab4c41bd558fabU, 0xbcb35e123cd8d29bU, 0xbdb4b2d83b3a5d05U,
