/**
  ******************************************************************************
  * @file    combination_data_params.c
  * @author  AST Embedded Analytics Research Platform
  * @date    Thu Jan  4 15:06:25 2024
  * @brief   AI Tool Automatic Code Generator for Embedded NN computing
  ******************************************************************************
  * Copyright (c) 2024 STMicroelectronics.
  * All rights reserved.
  *
  * This software is licensed under terms that can be found in the LICENSE file
  * in the root directory of this software component.
  * If no LICENSE file comes with this software, it is provided AS-IS.
  ******************************************************************************
  */

#include "combination_data_params.h"


/**  Activations Section  ****************************************************/
ai_handle g_combination_activations_table[1 + 2] = {
  AI_HANDLE_PTR(AI_MAGIC_MARKER),
  AI_HANDLE_PTR(NULL),
  AI_HANDLE_PTR(AI_MAGIC_MARKER),
};




/**  Weights Section  ********************************************************/
AI_ALIGNED(32)
const ai_u64 s_combination_input_36_bias_array_u64[16] = {
  0xbe07ba9d3eaee912U, 0x3ed089e43efab608U, 0xbe7dbeb33f2e7c73U, 0xbeb0064a3ebb44c7U,
  0xbf42ec463ebed654U, 0x3eec82b83ea37420U, 0xbee6b75fbf3aa59eU, 0x3e1c16383f25d579U,
  0xbd86244abd9364baU, 0x3eef4aac3e98dd22U, 0x3ea68a79be8fdb5aU, 0xbf20e3443e963a14U,
  0x3e64e5e03d172634U, 0xbf79be9a3eccda55U, 0x3e3276e83f40d2e3U, 0xbde44b0ebf72d744U,
};

AI_ALIGNED(32)
const ai_u64 s_combination_input_44_weights_array_u64[1536] = {
  0xbe228c003df02982U, 0xbe8f59b1bcb5ea26U, 0x3e40bdf13e642cefU, 0xbccf74c13daf6734U,
  0xbdc2bb713ddfe04eU, 0xbd36eff6bc87a954U, 0x3c8a89b6bdeb7f5fU, 0x3e1bf5b33e294c9dU,
  0xbdbb693abe0cf8f4U, 0x3d75014d3e301100U, 0xbded293bbd09e538U, 0xbdca60fb3e14afbeU,
  0xbdee17b43d264197U, 0x3ddbe746bed3aa23U, 0xbe2d83ef3cb605b7U, 0x3dfc52de3dfe76a3U,
  0xbdbd84023e53f080U, 0xbe8bf3573e0e5f2eU, 0x3d2388463e0b85d0U, 0x3ddacb5f3cbb460dU,
  0xbdc521a03da4d5a8U, 0x3db9ece5bddea231U, 0xbdccb8c83db67732U, 0x3e63bded3e3725ecU,
  0xbde025e8be2b34c7U, 0x3d73c6953db15684U, 0x3d94405e3d18ff86U, 0x3e0f34d3bd6b0484U,
  0xbcb29b62bdf4b8b7U, 0x3e17d2bbbe3358d6U, 0x3e06b4723e7b48d1U, 0xbda24d7d3caabc6bU,
  0x3e6665bf3e292864U, 0xbe61c2473d2364fcU, 0xbdb347da3e182142U, 0xbd76f0fabccb333eU,
  0xbe152cc53d785b73U, 0xbd765499be35115eU, 0xbe55bf773dffdd42U, 0x3e78fbd33deb26e8U,
  0x3e2531aabe9f691bU, 0xbc1834a63e8912f0U, 0xbcdcc0e0bac62c49U, 0xbdd6d1eebdcdb55bU,
  0xbe49635abe7f25dbU, 0x3c6145e83c8d2261U, 0x3c14a0253e1128f2U, 0xbe55223b3e58d659U,
  0x3da7ee2ebd6dd602U, 0xbe42aa59bd0c4c8aU, 0xbe6b0f3cbe66bc57U, 0x3b88e1cb3d430709U,
  0xbe31d8343dce80b3U, 0xbdb708e7bd4fbecfU, 0x3ba4bd60be1c6244U, 0x3de1a8a63c54f328U,
  0xbe7648233dceb162U, 0xbd7476e83d08fc9eU, 0x3de146c9bdd820cbU, 0x3d98200b3d6ea405U,
  0xbe51a01e3cafb89dU, 0xbd860454bdb0a971U, 0x3db3af073c2f5203U, 0x3d4ed0ce3d118d61U,
  0x3b8ee1643d97b28aU, 0xbe09f5f8be1619bfU, 0xbe8c7693bc8d6417U, 0x3c884be23e2d8e55U,
  0xbe8be0e43d9bc848U, 0xbd29a499bd0c24f3U, 0xbb9e1892bda97df3U, 0x3d069d91bd78d978U,
  0xbe9a1de53d648f64U, 0x3bfc406fbd3cf2dcU, 0xbca66ef0bcbea95fU, 0x3e26763e3d1e1b19U,
  0xbd4446e53d33da4fU, 0xbcfce5053d3832edU, 0x3d01c287be1f5f4aU, 0x3bf074d63e3c8683U,
  0x3e44d3ce3c09c57fU, 0x3d40bbd7bb409ba2U, 0xbe53e7173db7378bU, 0xbdbfb0b13e546a78U,
  0xbe833cb53dd74d50U, 0xbdef0befbd3a5a8aU, 0xbe401c973d56c8d0U, 0x3e26d216bdefe83eU,
  0xbe950a10bd9cf698U, 0x3cbe962cbdc76db5U, 0xbccde4d23cb9d323U, 0xbd67b6e8bddcf5c6U,
  0x3e12db85bd048410U, 0xbe8e6453bb9ea2beU, 0x3e64ecc2bdfee121U, 0xbe7733223d89b9a6U,
  0xbe36456d3d88cb01U, 0xb8f9ee7abd362a9fU, 0xbe18824b3e3175a2U, 0xbd51b6963e33cc26U,
  0xbdc5e7773c1c0985U, 0x3dba5ae43d06e257U, 0x3c10a6cbbdb4614fU, 0xbd7838d83db46544U,
  0xbdd9ad173da1c6c9U, 0x3d4a52813e2022e6U, 0xbe32e1fbbe3948ccU, 0xbe853fc43e1ccdadU,
  0xbd5c2b8e3d33853cU, 0xbe37201abe25ad7bU, 0x3cf4e2173da6e89eU, 0xbc321c32be057ab3U,
  0xbdd14fba397f58eeU, 0x3e1a439fbd5021feU, 0xbe3411883d6d37ebU, 0x3c641f493e120f04U,
  0xbdcdf0953cadafccU, 0x3d414dd53e05ffa7U, 0xbe07bc1b3d67fecaU, 0xbd4431c73e86acc2U,
  0xbe565f543d6011efU, 0x3d805f1c3e168b18U, 0xbd8948593c9d1e78U, 0xbcce287f3e204bbdU,
  0xbd93a6873c909b4cU, 0x3c8b8e88bdeeabcfU, 0x3d8b5e273e3ba88eU, 0xbcbefdc4bddf4c4eU,
  0x3e0a97213d2c39f0U, 0x3e126628bd8a176fU, 0xbca74727be184200U, 0xbcdecac9be351a35U,
  0xbe0198943e1aca76U, 0xbc6567053db95142U, 0xbe53b87dbcb25b1eU, 0x3d0182773e471edaU,
  0x3e0293473d8b61fcU, 0xbda7852b3ce9409aU, 0x3e444af13ddb5506U, 0x3db397313e1028e5U,
  0xbe3aedebbde03f27U, 0xbe1273de3de172a0U, 0x3dad310c3e0ec653U, 0x3cc09cb13d5842a8U,
  0xbe32767a3dc9911aU, 0x3da28f44bdd76793U, 0x3e1323083dc8c31bU, 0xbd74310ebd87fa9dU,
  0xbd0d2e003e01b28aU, 0x3d593c323d1e251eU, 0xbe05843dbc49bcc4U, 0xbde9e578bb350d8bU,
  0xbd1039a63d9abcc4U, 0xbca17ae7be244c79U, 0xbe25e5343e30781fU, 0xbe3cfc93bd684175U,
  0x3da1f0c2be45c69aU, 0x3dbd7411bcb848deU, 0xbe80c5bbbd8d3121U, 0x3d164c82be03e1faU,
  0xbe2c49e4bc4c958aU, 0xbd208837bd579433U, 0x3d0bb42a3cbd895cU, 0xbd15b1dd3d418249U,
  0xbc8e6e013dd807f1U, 0x3dda612dbe125df3U, 0xbd6d8106bd8ac453U, 0x3da0d7873dee8282U,
  0xbe0d853c3c26bffbU, 0xbda0d7e1bda15322U, 0x3d9be86bbbe8047eU, 0x3ce5cad5bd617d3cU,
  0xbd9fd59cbe1fcd8dU, 0xbd4e3b3e3cd2ee46U, 0xbe8869353b88daf1U, 0x3d7f71ea3ba38197U,
  0xbe6d8d52bc9e3066U, 0x3d7db183bdaed52dU, 0x3de4df9fbda7e635U, 0xbd0d2a073da1b58dU,
  0x3dd56b1d3d32ef75U, 0x3defb1d7bdfa2cc3U, 0x3dd8634c3cf5c73aU, 0xbcb43d403d932135U,
  0xbdb696253e5494f9U, 0xbd604ef33dfc7dc9U, 0x3e098e4c3d694503U, 0x3e3e224ebd735bdeU,
  0xbdcdb174bcd4008aU, 0x3be9fe883ce6fc2eU, 0xbe9908703c8e891aU, 0x3cbb3f7c3d7ab103U,
  0xbd4f88c93e76b094U, 0x3d4ae2d33e047eb0U, 0xbe4970933cf3d4c7U, 0xbd440b163cba9885U,
  0xbe4529d0bcac2791U, 0xbe4a721c3e93c4afU, 0xbd81b3babe24c23bU, 0xbe5e5118be897b89U,
  0x3e4638813dbf8338U, 0x3dc7c1f8bdaaaad6U, 0x3d4074a0bdf316e8U, 0x3e54b97abdccdcb3U,
  0x3e1970fdbdda9c84U, 0xbe27bfc83e85fcdcU, 0x3ded568bbe9e5268U, 0xbddc747a3cb07eb6U,
  0xbd2d4a523dd4edd7U, 0x3c67e1abbd812a22U, 0x3d276d923d584420U, 0xbdaddb3dbbc9af50U,
  0xbddd8874bc272f4fU, 0xbd7a04ac3e133ae3U, 0xbe2bc420be1e8de7U, 0xbdf7c5e4bdfad82eU,
  0x3e2d94abbde194c6U, 0x3da140a1be139fcaU, 0xbe5cbf263c383e8bU, 0x3df99dc83dce447dU,
  0xbd05fc1c3d7979f7U, 0xbe5b1daf3e2159a8U, 0x3de0c123be8bdb8cU, 0x3db339f23c9042d6U,
  0xbd4b428e3e3080baU, 0x3c7d54aabe39d51cU, 0x3d25e45b3dbbf353U, 0xbddacc54be0ba275U,
  0xbe4825d23e1428e4U, 0xbb16b9b1bdf309d9U, 0xbdbd2522be0db714U, 0xbebc25e83acedcabU,
  0x3e2bcc7abe02c644U, 0xbd3e835dbe6f4b47U, 0x3df5ddae3cbdf950U, 0x3e2f040d3de0a40aU,
  0xbe0342ba3d6b8d22U, 0xbe30fb983e1e0c13U, 0xbe83869abe6261a3U, 0xbd97d958bb3b92ccU,
  0x3c8c8cb8bcae1c04U, 0x3e20f6573d34b963U, 0x3e3f1ac5bdfc1347U, 0x3c82faa7be906a3bU,
  0x3e53aa3e3cdd7c50U, 0xbd4827863e0f5ef4U, 0xbde6f96d3bf59a3eU, 0x3e3b49b73dc1bbf2U,
  0x3de04ccc3cb0a105U, 0xbe3d6c20bd154badU, 0xbe3b470d3ea80749U, 0xbe8711123ddf5cd2U,
  0x3d5884abbdf11144U, 0x3d946f943dbc3d9eU, 0xbe61ab06bdbf167dU, 0x3dc2e7f3be5a19a5U,
  0xbdb203a1bda11490U, 0xbbecd7c6bd9ec064U, 0x3e9f09e9be379d96U, 0xbe0436ddbe356809U,
  0xbe4547e5bd9d71ebU, 0x3c4d7eb03d82b745U, 0xbe4dc84b3cc84b31U, 0x3e3505193d8c6753U,
  0xbb8b9d4e3dcde301U, 0xbd8111ab3dd97710U, 0x3d2bc02fbd318889U, 0x3e18f473bbae21f3U,
  0x3dd2d48abe1984bfU, 0x3b159ad23dfd50c4U, 0x3c0ceac1bc0834afU, 0xbdecb726bdec2d63U,
  0xbe02b364bd7fa259U, 0x3d09e9dbbd67219aU, 0xbe14efc6be5d4f63U, 0xbe1675acbdd22dc7U,
  0xbe287ae9be0e9e39U, 0x3de46e343ddaf2e5U, 0xbe92e6c3bcfb1141U, 0xbc2e3cf93d8b8a44U,
  0x3d7f05a33d99618fU, 0xbe78bdc33e116a4aU, 0xbd585e06be42643cU, 0xbdaab650be745e34U,
  0x3e1bdfbcbd28db82U, 0xbd698471bc707809U, 0x3d571bf3bd472024U, 0xbe5495a9bc314783U,
  0x3ca0c97cbe1817a6U, 0xbdae2147be024412U, 0xbddef9ddbe13b16cU, 0x3e62d9babcca0d1aU,
  0x3e79f38cbdfdd549U, 0xbdebf8173db88757U, 0xbdf9ee2abd8f5325U, 0xbe5c7304be44a16eU,
  0xbd760782bbf6a9bdU, 0x3dcf8ee8bd88a5abU, 0x3cff6487bdcff57aU, 0xbeae7756bcc385e9U,
  0x3e81d6233d812cbeU, 0xbe83cf3f3d3fea41U, 0x3c584b4bbe033456U, 0xbd99ecd6bbef2b87U,
  0xbdd1f2103d0ab09aU, 0xbe2a3a28be934b61U, 0xbe8539633d3cb7e4U, 0x3eaee0ddbce93963U,
  0x3dabeb8abc663e33U, 0xbe90c3683d4b2330U, 0xbddda13ebd334f72U, 0x3dc34e2ebeb4ad40U,
  0xbe439c76bd0fa09aU, 0x3dc0ac8dbe336cbdU, 0xbe12fa523d71f1e5U, 0xbddf51f93e1c6be1U,
  0x3e90317c3d5e64b5U, 0xbe761c9c3bf6e176U, 0x3e686bc5bea0efb1U, 0x3d62651cbc831be1U,
  0xbdb448a83e4a4f89U, 0x3e2a8ac4beb43d68U, 0xbe36c534bbb2017eU, 0x3e95bfe9bda8f25dU,
  0x3e1eddc53e78a660U, 0xbe7298e63dcc4a00U, 0x3dd569e9be1d14f7U, 0x3c104ace3ce2a95cU,
  0xbdd1f97f3da37743U, 0x3d734684be5b0e20U, 0xbcd1193a3d3dfe85U, 0xbed044913e7bd0d5U,
  0x3e8b34f8bdeb72f4U, 0xbd9b1a71b801ebdcU, 0xbe55f0e1be8bf910U, 0x3e253b90bd2def2aU,
  0xbd2dac89be257f4eU, 0xbeab18e83ece61e7U, 0xbe1c6361be33fc46U, 0xbe0ba798be2ee0f3U,
  0x3e0007c23a79edffU, 0xbd2863f4be512d60U, 0xbe23a6d73d03cc6cU, 0xbe0c1af93e15a1fdU,
  0x3e30bc5b3d7e0544U, 0x3e80a5fd3d1b2581U, 0x3eb10c3abde24215U, 0xbe380e3bbeadaa8fU,
  0xbe8061313e90d1dcU, 0xbcee29ae3d1d2958U, 0xbe7ad3623d39374dU, 0xbd8579f5be8542b0U,
  0x3d4bcd95be477986U, 0xbe2e65093e9f6b81U, 0xbdaddbe1bce6388cU, 0x3d73ea923ceacba8U,
  0xba75d66dbe586f7cU, 0xbc15594ebc6257f4U, 0x3d40df97bc81a161U, 0x3b15e1f63d5acd91U,
  0x3dccd9c73d2dba81U, 0x3dfd3b823cd0cd64U, 0x3cabcf85bd0d1872U, 0xbcb42c74bde9b8e1U,
  0xbe3167e43d0dc823U, 0x3ded45533cd177dcU, 0xbe1ac539bdceba04U, 0x3e5416a9bdd9ce92U,
  0xbd38fd7cbe997a4eU, 0xbe9cd58b3e3ec373U, 0xbd846f5bbceb5783U, 0x3c90c9d03d3ab898U,
  0xbd521633bed77e01U, 0x3e08d41ebdd48b1cU, 0xbe0ff3813c3660e8U, 0x3e1113c43dee638bU,
  0xbe180b4ebe2751e8U, 0xbd728d5fbdf39a3aU, 0x3dd3c0d2bcac3eb3U, 0x3d31897bbee6103bU,
  0xbd8252063e411885U, 0x3de314913dc323fcU, 0xbd9c98d9bd0fbe05U, 0xbdbf53933c13d802U,
  0xbe0b8c4a3cce5114U, 0xbe23d71fbd354f1aU, 0xbdea82063e29bd8eU, 0xbe0ad895bd7bde56U,
  0xbd2cc4243eb90973U, 0x3d6249f5be4bad59U, 0xbdf2b8393e8d950eU, 0x3e8be7e6badc4061U,
  0xbd07a6ae3d4027adU, 0xbc1e0bb7bde0ac91U, 0xbe8f32d6bd7ecbf0U, 0xbe4da3cabd5c432bU,
  0xbd703d3b3e2209a9U, 0xbdd17506bc84d1feU, 0x3d577b9abdc2c89cU, 0xbda891933c760f5dU,
  0xbdafd357be10d866U, 0xbd8eb427bd6abfc8U, 0xbe9f3db33c61f49cU, 0xbdaca7643d8c40feU,
  0xbd8b7d903e53ef93U, 0xbcf01302be582a17U, 0xbbf842d13dc2a1bcU, 0x3e85fa08bdb4c7b7U,
  0xbe3cdb6e3bbc1a17U, 0xbe04dcb4bcf5a1a1U, 0xbe3cd167bbebc0bfU, 0xbdb31e4dbe7b2b57U,
  0x3db55bf23d6ae9ebU, 0xbbf60a193e09addfU, 0x3d850889be01aec7U, 0xbd1bd2afbd43f286U,
  0xbe3711efbe127073U, 0x3dc6ceec3dcd5ffbU, 0xbe3c196cbcea8dcdU, 0xbe88f59f3dc94f40U,
  0xba5d0de73df896a3U, 0x3c81b74ebeb76f35U, 0xbcbef5ad3e11e198U, 0x3e08e1513b8a22a7U,
  0xbe897f3f3b8fa7afU, 0xbe213f34be2cd0acU, 0xbe8db4d93e352251U, 0x3de81e68beadb0bbU,
  0x3da4eb963da35df5U, 0x3dd893c23d14e4cdU, 0xbdcbe3bcbe527b4aU, 0xbe34237cbdaa945fU,
  0xbe120feb3e0672f7U, 0x3c92cc633b4aeb41U, 0xbda891c33d8429c0U, 0xbdef1233bd026df4U,
  0xbcd0b4323d8a8280U, 0x3db22e98bd9c77e6U, 0x3d00da4d3c14a828U, 0x3dcc37ccbd15e24eU,
  0xbe09d24e3e127169U, 0xbd936313bdbeeb0dU, 0x3ce268b7bde99338U, 0x3db7d239bd50c7f8U,
  0xbe55a6313d29d04dU, 0xbd3edb5a3cfaafa1U, 0x3c08e6f43dc3d983U, 0x3d9181ef3d9f96d4U,
  0xbe08872b3dbf46adU, 0x3c6edc1abccc3adfU, 0xbe1079983d2d5d47U, 0xbe4bc565bd65bd14U,
  0xbc05606dbc0ea77dU, 0x3d7b4c8abdbe152eU, 0xbda98b023d18344cU, 0xbd0c655d3ce2eb53U,
  0xbe3dedeb3d71326cU, 0xbcb12cb4bd8d5217U, 0xbd808b52bd7d164dU, 0x3dfeef3cbd8b149bU,
  0xbe058c1b3d0801d3U, 0x3db29461bd0dfa42U, 0xbc6941a73dd5284cU, 0xbdcd6e433c9598cfU,
  0xbe1b905b3cee2be2U, 0x3cb9670c3df5e569U, 0xbe0d9abb3baa571cU, 0xbe5b2d38bdd44b6fU,
  0xbd69e8623cf54fe1U, 0x3e2496babe442c41U, 0xbdc2575ebb98859bU, 0x3cda36febd606f91U,
  0xbd077ea6bba91c14U, 0xbb0db298bda0d2baU, 0xbe15a0a0be3b407bU, 0xbd69aa7bbd633a9dU,
  0xbe641b2dbddf84eeU, 0xbe010908bcf929b2U, 0x3d06020c3e07c327U, 0xbe8c3746bca2f2a0U,
  0x3d33fc3abe3dc53bU, 0x3e185aabbe4c91cfU, 0xbc8dfceb3de23ec7U, 0x3e8ce2413dccf876U,
  0xbd7b0feebda03977U, 0xbba0b565bde43aebU, 0xbd60ffe33e5c3648U, 0xbe223afd3e01b958U,
  0x3ccc1e0cbe7f8780U, 0x3d8457e6be5d7188U, 0x3cb907af3e476d3fU, 0x3d8b7954bd38942bU,
  0x3d8f3e5abc2a0290U, 0xbd2981513dc812dfU, 0xbe2e84ea3d32b6f8U, 0xbd34fad63e621674U,
  0x3dc9aac5bdbd6d56U, 0x3e10c1f5bdfddfd5U, 0x3defb4e73e0af730U, 0xbd51eb4e3d4134d0U,
  0xbe4151a1bb6ac2a7U, 0x3defbdd9bdac9b64U, 0x3d9ef8503e17677eU, 0xbde91b2a3e9d968eU,
  0xbe37b92bbcc3409eU, 0x3de54e38bd63d729U, 0x3c053b073e09eee1U, 0xbc5e3f24bc4e74a6U,
  0x3de4324b3b942e63U, 0x3cd3d04c3d7dbbaeU, 0xbca974193e097563U, 0xbe1c62413e634ee2U,
  0x3cef4bacbde59373U, 0xbd6cad73bdd33fe6U, 0xbc3976d93d00b14dU, 0xbe3a758abdb5b6a4U,
  0xbe873afd3d92811bU, 0x3e566ce4be462a12U, 0xbdafc6cc3e165c37U, 0xbe7313923e65984fU,
  0xbde1b56bbe210931U, 0x3e3ce30dbdb5b9aaU, 0xbdc56fd53d7318bcU, 0xbdd8accebbca0216U,
  0xbbd1b77dbde1e416U, 0x3ddd53d53e9b4d37U, 0xbe1ac3e63dab53f7U, 0xbe81b6723e19343dU,
  0xbdc245953e4565d2U, 0x3e864d4d3e09350cU, 0x3e05bd22bce66bb7U, 0x3cc231ca3dce1275U,
  0x3d02eb683dacae9eU, 0xbd14c90fbe8e1631U, 0x3dd7fa03bd9ab0b0U, 0xbcd50fd43c839714U,
  0x3e01bbac3ce3075bU, 0xbeb601f3bdbc1f98U, 0x3e67ddd8bd8b4590U, 0x3c8e5d703d618513U,
  0x3d7ab104bbb5e3aaU, 0x3e1f2eb0bd0c3dd9U, 0x3cc43dd93de47de1U, 0x3df2ff0b3da1496cU,
  0xbe1b963a3e3cd82dU, 0x3e3412bc3cd1e945U, 0x3d70cc1dbda58cbbU, 0xbdda37f23c993994U,
  0x3d4a363a3dc07a67U, 0xbc2423e8bdd3b9caU, 0xbda5afc2bd890f6fU, 0xbd3c78ab3de58265U,
  0xbe021089bcecfaf9U, 0xbe322eccbdfe6a1bU, 0x3e230192bd718a58U, 0x3d3bea4cbca736f8U,
  0xbdef47293d465231U, 0x3db221f1be4a6c33U, 0xbd20aee63e1c5752U, 0x3c9035d23db00b2aU,
  0xbe42c86c3e359c11U, 0x3de15f6b3dca31ebU, 0x3d9abcd7be43c7d9U, 0xbe18aa56bd3bb953U,
  0xbcdb06a43d7fd5a4U, 0x3d2d4a49be1308bcU, 0xbe5e82c0bd3118feU, 0x3de2ed68bda0014bU,
  0xbe1679dcbe07ffacU, 0xbd2c9f24bd3ef4ccU, 0x3e97da0bbdf93a3aU, 0x3c8fe74cbe75f013U,
  0xbbf114193bc271e0U, 0xbdb1fff9be607b83U, 0xbe11750dbd50ca85U, 0xbd438d553c50bf5aU,
  0xbd89cc2abd9121dbU, 0x3d8c1f7e3e60b788U, 0x3d812935be801fbbU, 0xbdba3a22be143fc8U,
  0xbe2d845abd36cb6bU, 0x3ddb1caebd2ef324U, 0x3d42f725be54017cU, 0x3da104d63d1749e0U,
  0xbe121f5e3e39be43U, 0x3db0870c3e2f6855U, 0xbd5319bf3d72c067U, 0x3c0a1377bd1a9cadU,
  0xbcba63b23c6af807U, 0xbd60b0e03d7a2a36U, 0xbe94bc2dbdb133a8U, 0xbe220d75be586467U,
  0xbe260bbb3dc96710U, 0x3d43b5b83e0404e2U, 0x3cceaf36bd8335e5U, 0x3d8eeaa3bbb84ebaU,
  0x3da455c6bb250f62U, 0x3db02abbbded00d1U, 0x3e12b69ebe1f3f55U, 0xbd598e69bd73a6d1U,
  0xbd9336453df7bee3U, 0xbddb61943d928229U, 0xbde28e563d86dc7bU, 0xbcadd39f3d3dfa9bU,
  0x3d83e18e3d59fa83U, 0x3e07ace5bd2c6237U, 0xbd9142d1bdc95684U, 0x3d24b7c6be3b9456U,
  0xbd4151f53e455bfaU, 0x3dbe6bf23e6eb35bU, 0x3e25d93dbe1eabffU, 0x3e0d73d7bd212c04U,
  0x3e1aace9bc0a477fU, 0x3e0b6543bddbd215U, 0x3e5a246fbe07ce7dU, 0xbc57528fbdc5b2d3U,
  0xbd85a62c3e977a5cU, 0xbde979883d939416U, 0xbd15fa5a3e550851U, 0x3e0f5fdcbc330e05U,
  0x3ded06c63cf05655U, 0x3dc0151c3cdf0411U, 0xbb353d4fbd04e0f5U, 0x3dee2a22be020dcbU,
  0x3ce4ae3d3d39093cU, 0x3d91b5f13cb63ebfU, 0xbd5d0758be69e8fcU, 0x3c9e0214be66c689U,
  0xbd5644e33e05049bU, 0xbe67d9bbbd671c2eU, 0x3c8258503cca2e27U, 0xbcc0fd5abdb1b5eeU,
  0x3e354cccbce8040aU, 0xbe81023f3d94e6d6U, 0xbe2f60fe3df386c1U, 0xbe1cccc43dbd3b91U,
  0x3bb54fd53de2a2acU, 0xbd9b5f8abe17d544U, 0xbd288122bc1a40a2U, 0xbcdba0133e52a248U,
  0xbd902816bd04e3efU, 0x3da2908bbc6e91deU, 0x3db5cd1fbe5cb1c6U, 0xbd380461be488b03U,
  0x3cfb3e88bc81d047U, 0xbe5fbd80be80ebadU, 0x3d5a48cc3d925626U, 0xbd3a84cbbdcc41f1U,
  0xbdd1a10d3db69375U, 0xbda98755bb6ee97bU, 0xbddc7e733d422766U, 0xbdea94223bf11065U,
  0x3c8f55bf3d846db5U, 0xbd6d2c6dbe8aaa3aU, 0xbdff933bbc661666U, 0x3e1e44f0bd9ddbfaU,
  0xbc3f42af3d00426fU, 0xbdd3d0ad3c197d29U, 0xbc250f5bbe4a0b67U, 0xbe51a4cbbe5e9e4bU,
  0x3ac651963d003e9aU, 0xbd3b5d6dbe24560eU, 0x3d681329bd9956e4U, 0xbe2624c5bd649429U,
  0xbe0fd03e3b55332aU, 0x3c581c273c199475U, 0xbdf95f683dc82f61U, 0xbdfdbeb93ca17adcU,
  0xbe58ed3fbe527607U, 0xbe4271a9be8dcff4U, 0xbda295923d5bedc2U, 0xbe2f6898bd849aedU,
  0xbe335fe0be0e10e9U, 0xbe389ed0bd27b8ecU, 0xbe5715953d704cd3U, 0x3d0aac89be086fa8U,
  0xbca9f14abe40beb6U, 0x3d6c0d9f3e0b547bU, 0xbd38349e3d72c66dU, 0xbec71f4abea93ef9U,
  0xbdad4e0fbe475371U, 0xbc35c4953e3c14daU, 0xbea920853d10e21eU, 0xbc1b385c3dba464bU,
  0xbe41f3063e215a14U, 0xbcf8e634bbe09d05U, 0x3d28a8213cf7d1b2U, 0xbe313464bd9811edU,
  0xbc961e9f3dca8288U, 0xbcd87f493e2513ceU, 0xbe912e203ca827a8U, 0x3de519fabe71ce5aU,
  0x3d53938c39a7b645U, 0xbe335dbd3dbb9f0bU, 0x3dd62f963da56658U, 0xbd332ba3bebd6b68U,
  0x3dbddc97bdf4617eU, 0xbdc75441bd817e04U, 0xbe70a6d0bd8902a6U, 0x3d9ee7f4bcfb315cU,
  0xbdd8717b3cb8fba5U, 0xbe2d90523dc70f5eU, 0xbcc2857fbc40dc83U, 0x3d4dd12d3ccb775eU,
  0xbd4cfd323e66d409U, 0xbdcc3c463dbeaff5U, 0xbe38d0cd3d5be568U, 0x3e8725a0be9822d7U,
  0xbdc70d0f3e5c2809U, 0xbcaf691f3dee6b91U, 0x3c11cccb3e116102U, 0x3e11f260be07307dU,
  0xbaa9fc02bd25ddd1U, 0xbe54509b3e0bc4fdU, 0xbce9d44cbd434a86U, 0x3e63987dbe03f2bdU,
  0xbd95c0dd3d50f636U, 0x3d04fbbabd98b0d5U, 0xbaf4b10f3e71199dU, 0x3d138c993e9c3249U,
  0x3c045ce53e257cdaU, 0x3d016b3a3d3fee39U, 0xbe8fb41a3def9202U, 0x3d95026c3e2a502dU,
  0xbe796adc3da9d796U, 0x3e6e66223d72c4e2U, 0xbe5095bcbec4953bU, 0x3d88067c3ecca478U,
  0x3bfd1927bd425621U, 0x3d6550253e694037U, 0xbe07cc69be16b857U, 0xbe8bfd49be51fb15U,
  0x3cc05b96bd4bdb0eU, 0x3ccc1333bda8e8c0U, 0xbeb078f33ea8cb21U, 0xbdba32cabe32b6b3U,
  0xbd85ed35bd9a248bU, 0x3dcb1c553e030feeU, 0xbd80dbcabe85716dU, 0x3db7003d3dc2fe6eU,
  0x3deb658fbda7440eU, 0x3da7bbec3e1ec908U, 0xbd2b0c913cc52c3bU, 0x3d77edb03dab1121U,
  0x3d9e1e61be90c4a9U, 0x3d12da433e9abd33U, 0x3dea607c3a91d400U, 0xbe222cd2be18f2acU,
  0x3d20ed733c7bdab5U, 0x3cce8303be2ed798U, 0xbc28744abdd7c900U, 0x3b3b9272be146317U,
  0x3e9daed8baa4ef27U, 0xbd71a398bd766aeaU, 0x3ca55729bf1822f9U, 0xbdd64e21bc5588f2U,
  0x3e11a3d8bdacc9bcU, 0xbe0c0a1b3dfb2116U, 0x3de015553e433d73U, 0xbd9201f13ca58d7bU,
  0x3e6a5d53bd965d3cU, 0x3d9bdf743f009430U, 0xbcb715de3d6d15b6U, 0xbd8596e1bd104c0dU,
  0x3e57946a3db1f099U, 0x3d57d8e3bdb2282cU, 0xbd0120dcbeb789a0U, 0x3e15418c3dc5e584U,
  0x3c5748ef3e58396dU, 0xbcafaceb3e572a02U, 0x3e01ccb3bde9afe4U, 0xbd1867a8be8b0356U,
  0x3cc1df563e31915aU, 0x3e91610f3d567bdaU, 0x3c00531c3e47e0cfU, 0x3e84bcd03d728fe3U,
  0x3e82efdebc87e123U, 0xbe26d16ebe126d53U, 0xbde92d4f3d50860dU, 0x3d9036fb3e694374U,
  0xbd8411c7bd03f85aU, 0xbe1b2b473e494f94U, 0x3d3c1c113e83b8d5U, 0x3d597e843e764705U,
  0xbe7d01a53daaa29dU, 0x3e4a5a813e0c4483U, 0x3d856b15be00eb85U, 0x3c3b1ebdbdbb72f8U,
  0xbd88406ebcfe8dc9U, 0x3e1809f93e2a0d2eU, 0xbe3c12c1bd05dd95U, 0x3e85ea52bd9482dbU,
  0xbe72437cbd306fdaU, 0x3d8d653bbc76d715U, 0x3c0e1e63bdf168fcU, 0xbd9fb9b5be0cf5f6U,
  0x3dec1051be01305dU, 0x3c23328cbced44fdU, 0x3c784eec3e969524U, 0x3e1807373dabb246U,
  0xbde21d0f3dcdbef3U, 0xbd0b57ae3e02a9bfU, 0xbdcb3040be7f6b09U, 0xbd524a5f3d53a1a1U,
  0x3d8f5cfabd283377U, 0x3ec6de2b3e0ceeaaU, 0x3dd7a53fbe99abf0U, 0x3e0a1fccbe34d94dU,
  0x3de723b53d0387e7U, 0x3a4811c4bdab20abU, 0x3dc546b5be261fd1U, 0xbccb2307bce031e7U,
  0xbe1c25bbbdd57a21U, 0xbe1cd0d73e45248bU, 0x3e7c13433e854dd5U, 0xbe4f487dbdbd483cU,
  0x3e3bffe03e2e5d11U, 0x3c212372be12f1d1U, 0x3ce23db63dbe2ff6U, 0x3ded256e3ca43d12U,
  0x3ddd4653bd85f9ffU, 0x3b9ada84bd6a86cdU, 0xbd740b043cd7bd67U, 0x3e0f677c3e89b096U,
  0x3d85209c3af6fc49U, 0xbe3830a8bce6ed6aU, 0x3d53987c3dd1a85eU, 0xbb03c4e03de19970U,
  0x3db1a648bc804822U, 0x3e2a64fbbdc3b888U, 0x3e1ccb013d786da1U, 0x3d51196b3e30f7a7U,
  0x3e04c3213dd77127U, 0xbce2cc42bcaec5ebU, 0x3bfcf8e63da0663dU, 0xbd16a4153dc3fee6U,
  0x3d7e6cafbc2c621bU, 0xbd42af9d3cabbabcU, 0xbd346f373d46007dU, 0x3bfdcdcc3e1da25aU,
  0x3d80d7d43c07015fU, 0xbc909431bd16f910U, 0x3dab45f13d899a45U, 0x3d98c3103ded25eaU,
  0xb9829f5ebe1d908cU, 0x3da74977bdf7bd15U, 0x3e0d20333d8f9751U, 0xbd78d038bbb572bdU,
  0x3d99d51f3e23156fU, 0xbe107f95bd95a606U, 0x3c7e0636bd04b88cU, 0x3da25f1d3e0446d2U,
  0x3e189de23d680d93U, 0x3cb1ad6f3e0036e0U, 0xbc91c6f6bdb1e48bU, 0xbcb9adca3dc5d6e6U,
  0x3b8406debd7b8286U, 0xbd575b2fbd3ef078U, 0x3c915e683dd4a80aU, 0x3e2161f4bdd5bc7eU,
  0x3deb58e6be053212U, 0x3e733000bd4bf5aaU, 0x3e049b1c3d49ab9bU, 0xbd96fe73bd26e2b5U,
  0xbe085e38bddeabf0U, 0xbd104c15be5547d4U, 0xbd81f2053c114924U, 0xbd2f6b7ebe014badU,
  0x39d48b56bd0a28eaU, 0xbdbd9d783c963dbbU, 0xbeac14053e314841U, 0xbd91961c3c9d4418U,
  0x3d88dcaa3b4266b7U, 0x3e434905bd23f2a9U, 0x3c17f03fbe31480dU, 0xbd884a66bd9fca0eU,
  0x3cf8b139be01a2bbU, 0xbe12e0343d641fcaU, 0x3b6599293d19c286U, 0x3dfeed38be1c86bcU,
  0xbbcf2988be0f956fU, 0xbd7283d7be5b610cU, 0xbe611bdfbdaf30a1U, 0xbce05c03bda354ecU,
  0x3db77c73bd00cb23U, 0xbd3f1af53bcd94b4U, 0xbe5e5b3f3e59a8d4U, 0xbce125693b94fcfdU,
  0x3de514aa3c56b686U, 0x3def6d17bb03da76U, 0xbde6d7a7be4343e1U, 0xbdebeebcbdde8985U,
  0xbe24ae7fbd84801bU, 0x3d0cfb69bd4ea495U, 0x3e22fba23dac3000U, 0x3d7e2eb0be029bc6U,
  0x3d014592bdd7b107U, 0xbe279beabdd13cacU, 0xbde79b10ba186eb0U, 0x3d1ae3aabde8c085U,
  0x3d2a86d73db136ceU, 0x3cc17e5b3e1372f0U, 0xbe727c363d981bb9U, 0xbd748e9c3d5744c3U,
  0x3e1fbdbbbd8cf41bU, 0xbbd2dec7be011a03U, 0xbe00431c3c53ddfcU, 0xbe784bdf3c75e771U,
  0xbd83cf3bbe10a588U, 0x3c5e6438bd876c62U, 0x3e049f993d867e73U, 0x3e11e78ebd8268e3U,
  0x3e0301f73c3c4d4fU, 0x3e0fed6bbea74aceU, 0x3d7d3e18be050bacU, 0x3dfebb793e2c1798U,
  0xbe4856933e3f4c4bU, 0x3e6796d93ce08d97U, 0xbdd0f7af3dde5d8fU, 0x3e10f9553e655a84U,
  0x3dec08e9bd7f1105U, 0x3d9a2616beace8e2U, 0xbe1e377e3d8e0d8eU, 0xbe46e63e3dd816d3U,
  0x3dc97c6d3c190389U, 0xbe59781abd0d99d6U, 0xbe78228dbe4da863U, 0x3de6c5f9bd5a04f7U,
  0x3d6c77cfbd9cad0aU, 0x3d268816be16bd6cU, 0x3d7473203c328165U, 0x3c74bd9b3d882854U,
  0xbe5ddc4f3da63cc2U, 0x3de9f01dbd93b0d2U, 0x3c82c1bfbdd9365eU, 0x3de5d52dbc2b94c3U,
  0xbdebcf0b3d601cd8U, 0x3e91db9e3eb3584eU, 0x3dbfb3ac3dbdea62U, 0x3e3f8ee83e1b7978U,
  0x3e2094573a4b6fe5U, 0x3df12164bdf6e11bU, 0x3e103b6fbec626f1U, 0x3af473c6bd465c82U,
  0x3d9b374f3e0e7f56U, 0x3da7ef88be31454dU, 0xbda3ee74bd990c8bU, 0x3e663c283e268f95U,
  0xbe38a9553c704320U, 0xbcd950ca3e21ea1bU, 0x3e7ccaaabe221adfU, 0x3e129528bd94fdddU,
  0x3dcb1c64bda07a31U, 0xbd7ff933bcb89af0U, 0xbd3edb4bbd31c47aU, 0xbd0a4f03bdb87bf7U,
  0x3def0d9bbdcc95e9U, 0xbe02783abd7cca92U, 0xbe62fbf7bea933e7U, 0xbdc6e6ae3ea01e1fU,
  0xbd0e2fbdbe4645ebU, 0xbe77c3013d80fe36U, 0xbd977882be32ff4fU, 0x3cfc56f4beb0678dU,
  0x3c8684f6bd1b1b55U, 0xbc9babe23da15c38U, 0xbd6c0da83de4c47bU, 0x3c9dc7123ac34523U,
  0x3e32ef2fbdf77e72U, 0xbdde4174be9f3ac1U, 0x3df2cb0cbe0ff2c2U, 0x3d428f943e21e351U,
  0xbcb71b1ebd9176a3U, 0xbce0e6e83df213eeU, 0xbe2ae0d9be064d65U, 0xbe5ff01dbdadf8c0U,
  0x3d2a2454bda574abU, 0xbe65432fbd0816e8U, 0xbd9a5226bd101eddU, 0x3dfdb317be338da0U,
  0xbe4a4650bd0d1a41U, 0x3ddcab76bd11c732U, 0xbdff52d23ca3238bU, 0x3caa14ad3d59f8d4U,
  0x3d8898ccbce08bd8U, 0xbdbe0616be525f00U, 0xbb3512dabdbe060dU, 0xbd63117abcd35e06U,
  0xbdcb32f5bd559ef8U, 0x3d7fb67c3ccd3efdU, 0x3d0878d33c957146U, 0xbdc96292bd9800e7U,
  0xbd24ee1b3c7ffb67U, 0xbe2371cf3d36c16aU, 0xbdd9867d3de6e528U, 0x3d6a7d28be33229fU,
  0xbe1fd0e8bcfe91a6U, 0x3e3a1197bdccf79bU, 0xbd532c603b4b3c7bU, 0x3d309b8b3c9c5373U,
  0xbcdbe6fdbd7a3b41U, 0x3c117303be4a1f24U, 0x3decea6cbcbdce38U, 0xbd3ae1f5bd11b8ddU,
  0xbdeef77ebd92c6baU, 0x3e245dde3d58d1c9U, 0x3da72f833c966310U, 0xbdaaad48bdc9d158U,
  0x3b857147bddc54cbU, 0x3d574652be06f02fU, 0xbce0656c3dd78e87U, 0xbe1edc3b3e32d3bfU,
  0xbcf66e353d493542U, 0xbd8bc4bdbe5795e9U, 0x3ddab232bc1a1f64U, 0xbe6453393d938623U,
  0xbeb43e0dbd90dd7aU, 0xbd181433be197e08U, 0x3d9d6f563dab7aa3U, 0x3c954ecd3d31e5f6U,
  0x3dd6b877bc2b5e3aU, 0xbcacdbc33d517d7fU, 0xbdcdb3cabc41b4e5U, 0xbe583df13df5e1acU,
  0xbe178aa7be326885U, 0x3e1ea757be2fe25bU, 0xbd945edf3e09917fU, 0xbd139eac3e19d4a7U,
  0xbdbf9e853d113216U, 0xbcdff2bdbe1c2d8bU, 0x3e28c6c53be36b17U, 0xbe4ac22b3ca50f44U,
  0xbe9224293dba6745U, 0xbd10565fbd987bb7U, 0xbda42d703d8b9bbcU, 0xbe14a6693de7a96bU,
  0x3ccafb67bd8a8b21U, 0xbcdde9233d72ddbfU, 0x3b9d28c03d9df40bU, 0xbea1058f3dadc72eU,
  0xbd07fe2cbe1ad530U, 0x3de6fc83be38da57U, 0x3a94db883e508ef3U, 0x3bff038d3e682c85U,
  0xbd1a18253c220a3eU, 0x3dcb459cbcf1106eU, 0x3e35cbe13dd6e723U, 0xbe5fe6163d9f88c1U,
  0xbea5b0f63c97e545U, 0x3c70609f3caab727U, 0xbd621eddbdeb2378U, 0xbdeb2b163e83b885U,
  0x3d0f529bbd336396U, 0x3d38270b3dc9e934U, 0xbbdf4ead3df9ae33U, 0xbeccfe03bdd58361U,
  0x3cfb88df3eca8c00U, 0x3de9fbb03d448fafU, 0xbd81863a3ea9be6bU, 0x3dc3393dbd0bd092U,
  0xbc964b97bd28b4a0U, 0xbdf1251abdab092dU, 0xbe9217523e244f59U, 0xbe27b7e53e0f7849U,
  0xbc81a3c43e04acc2U, 0x3c44429cbe0750aeU, 0x3d2501b83d8b3923U, 0xbe06a0d63d4a2888U,
  0x3e920b96bcd52a19U, 0xbd892c9fbd399604U, 0x3d11fd453d9471fdU, 0xbe3b3a003d40dcb5U,
  0x3de9f4e93e84f90bU, 0x3e1cc7463e2fd8dcU, 0xbdea0ee43e5f8e96U, 0xbd51fbaebd35c1d0U,
  0xbca6fdeebdfca983U, 0xbc7c6a6d3dc3a1e4U, 0xbe1698da3dc39282U, 0xbe2178aebb112b27U,
  0xbd949015bce465bcU, 0xba238c73bd9e8bcaU, 0xbb63f551bd75b07dU, 0xbe70ce62bc692229U,
  0x3e273bcdbe0a77d0U, 0xbddc987abcd37cf4U, 0x3d4617b93c9bdb9bU, 0xbe027c8c3cc8c8fdU,
  0x3d8c75e63d71b545U, 0x3d29d3ec3ced142aU, 0xbe55688c3dc77377U, 0xbd8f554abcfedb0bU,
  0xbd04bad9bd115697U, 0x3c8bdd53bb47d3a0U, 0xbdab3c293d656445U, 0xbde03c5e3dd716b3U,
  0xbd425655bd8f84a4U, 0xbe3e9f2bbdf46df1U, 0xbb91d9c1bde3cef7U, 0xbe1b9e13bdb821bcU,
  0x3c3466d1bdfd4877U, 0xbd209b703dab6a3eU, 0xbd573cb73e0a2520U, 0xbd4108ffbd083bbeU,
  0x3e28abe73dcbe1aeU, 0x3eabdf63be0cdd65U, 0x3db7a68c3e25fdbeU, 0x3d72a08bbe3b8fd8U,
  0x3dc9a520bd8e5389U, 0xbd8f218bbe1a3b5aU, 0x3db50fb8bd1f2274U, 0xbe293e7abe0692ebU,
  0x3c4552713e2b1eb2U, 0xbe19e9103d4f3368U, 0x3d7036713d858db5U, 0xbde620ca3e0c67d1U,
  0x3d95ffe93e0debcdU, 0x3cd6c07e3e0dc5b7U, 0xbe3ec32bbe048c58U, 0x3d44e11d3d270e45U,
  0x3e15ab04bc9276c7U, 0x3dd1dbe23dea7b09U, 0x3ccf061b3e09e719U, 0x3c84e5fabcfe33e2U,
  0xbd6629febdd61e5fU, 0xbce375633de71fc1U, 0xbcde531abd24a91dU, 0xbda313ab3d06c9bcU,
  0x3d9965263e254476U, 0x3cc984e93e4040c1U, 0xbe0c71b83dc3b1ccU, 0xbd8659133c5d9b94U,
  0xbdf522503e362e2aU, 0xbce01c363c77e0b2U, 0x3de2c2663d92039bU, 0xbde2ac20bda28ee1U,
  0x3e209aca3d7c1071U, 0xbe0692b03dc70e8dU, 0xbdfe9d3e3e825cf2U, 0x3e693888bd37b178U,
  0xbc64e516bc9a0e17U, 0x3d4fa5da3e6c2955U, 0x3b4140a53d703e9bU, 0x3c240a1c3e4ba374U,
  0x3d0aaf873de90e7bU, 0xbc4f32e73e85b5efU, 0xbde3a1fcbc4c618eU, 0xbe19e8e23e255ea6U,
  0xbe383a903e683c17U, 0x3ddfd3e53e47171cU, 0x3e4733f93c0dc31bU, 0xbd910a243db76bd5U,
  0x3dd74e22bdcaeeb3U, 0x3cde27debe965b96U, 0x3cdf7da13d9be3a8U, 0xbb9ee5893e5c1b57U,
  0xbd98236e3d10ed78U, 0xbdd8c151bcb3c7a8U, 0x3dc970f43e7c3370U, 0x3d9da01fbe1643f0U,
  0x3d2ddcc9bc58fc4cU, 0xbd6c0e88bda1e41eU, 0xbe02e759bdc30911U, 0xbd5f72883d884929U,
  0x3e08a70dbe7c3641U, 0xbdc28bf03e42ef38U, 0xbd6dc742bdbe9943U, 0xbe4345fcbc895a8bU,
  0xbe2a432ebe99eac7U, 0x3d4f3957bdff35a3U, 0x3c9e64acbd4ffafaU, 0xbdb17d013d7ad1afU,
  0x3c68dc52be176239U, 0xbdaf1940bd7579e3U, 0xbcca6b59bd7e8a33U, 0x3e35e24cbd839b5eU,
  0xbdaa8077bdbb7af8U, 0xbe0cefe5bd8798adU, 0xbc02941a3c498d8fU, 0xbc1c5c6d3c99ff25U,
  0x3d4a6e20be927a01U, 0x3d7e78063b1a6a60U, 0xbdab777bbdd7c346U, 0xbda378c0bcf8b10aU,
  0xbe71c7cabe605921U, 0xbe1830b73b512666U, 0xbe17cb99be84f6a4U, 0xbe47553a3e34e56dU,
  0xbc91b91ebe1633b7U, 0xbdf105efbdc56ebfU, 0x3d7bd6bebd563660U, 0xbc0e95a6bc72ddf2U,
  0x3d66727fbdb0bc7aU, 0xbe1f709cbdda420bU, 0xbddde297bde993d5U, 0xbd02f6d83c3ad852U,
  0xbe822c30be58da1eU, 0xbde81705bd2db0caU, 0xbc420e443da82ae7U, 0xbe823014bd13126cU,
  0xbe4592463d358828U, 0x3d83db23bd31e139U, 0xbe1e38323e943bb4U, 0x3c9edf8b3dee4bc8U,
  0xbe8058acbdd93c8eU, 0x3e1ccf683db3250aU, 0xbdc55016be5cff9aU, 0xbe832f793d376ae4U,
  0xbe678e99bd209dd0U, 0x3e750306bdf79cf3U, 0xbdc65f24bda5b3f5U, 0xbdfef604bdff1021U,
  0xbde1c78dbd0a3fe2U, 0xbe8540433e42fdaaU, 0xbd37fc543d49acc3U, 0xba904e60be455574U,
  0xbca7a95a3cc17c95U, 0x3d4329cfbd5196e0U, 0xbe0e69c03dc08440U, 0x3db02329bacbd984U,
  0xbd06203bbe2e8297U, 0x3e3aa9663d20bc2bU, 0xbd975759bdb62048U, 0xbdf9e96f3ca1da98U,
  0xbdfbf50d3d6eb74fU, 0x3e2295613d55c173U, 0x3d651d933e0be7bfU, 0x3dc56194bd5d4d79U,
  0xbe62c6363ceefe91U, 0xbdf6f9c43e14f148U, 0x3e130646bc5d9a1eU, 0x3dce98f0bcfc0870U,
  0x3e76c242bdd92d9bU, 0xbcdc6c27bdfe594dU, 0xbe440526bcd5c7f4U, 0x3e27cf2c3d5430d6U,
  0x3d2b5e93be3a8ec5U, 0x3dc1563e3d3151f9U, 0x3c22291fbc109364U, 0x3d8edeedbe0cd770U,
  0x3d20e3103c371f88U, 0x3e401e973e2240e2U, 0x3c1914a83e02af9dU, 0x3da88309bd26e0c3U,
  0xbe4079f73db6826fU, 0x3ce78a9a3e5575beU, 0x3e1ba763bcd4564eU, 0x3de6cd903e5f77d9U,
  0x3cef529f3dc3a9dcU, 0x3de7bf99bb0902a2U, 0x3c318189bb8ede0bU, 0xbd7a56a73db256c2U,
  0xbd0e1d77bdfb6b70U, 0xbc9f5a4e3e1fef3cU, 0x3dd96516bd6c150cU, 0x3c9960e0bd8823f1U,
  0x3dceba67be03183dU, 0xbd29981abd79e07aU, 0x3e1b6795bd58c130U, 0x3dc3f105be03bfd4U,
  0xb9c184ffbdfa8016U, 0xbe017ce2bd63cc9aU, 0xbcd29313bbcb82a7U, 0xbd276ef53d915f88U,
  0xbdd102023da0df44U, 0x3ca2fa7fbe562d46U, 0x3caf1e0abcadafdfU, 0xbe15861e3dbdf828U,
  0x3c4535eabe0fe6bcU, 0xbe0d91ccbd195bbeU, 0x3dccd7b5bdb5c9feU, 0x3d8b27dd3cb4da38U,
  0x3da03696be30e3c2U, 0xbd62f515be012df1U, 0x3e4963e53d4b8ef7U, 0xbd44416fbe2add84U,
  0xbbab9435be846489U, 0xbdb8ce52be09a9b2U, 0xbe27757ebd8d4edeU, 0xbc85ec2abd8c82e8U,
  0xbe534ca9bd7f525fU, 0x3d6b84a5bd978556U, 0xbd1c501d3d9b63b3U, 0xbd959c063e444e35U,
  0x3d8ea5a8be59a3ecU, 0xbd8761c2bdd868eeU, 0x3e08c6c6bcb2296eU, 0x3d73abf4bd86e913U,
  0x3d4bc3b3be4eb33bU, 0xbd88f7b73dd7a3a0U, 0x3e07d5abbe007177U, 0x3cdf1087bdb44823U,
  0x3db0a230be1ea1c4U, 0xbe1f2f6cbe93f4eaU, 0xbe2dc4743ca95f26U, 0xbb3bb573be1fd61cU,
  0x3e149a94bcc36c06U, 0xbe6dc2de3db8d2ecU, 0x3e19a2143e0b4626U, 0xbd86b175be233606U,
  0x3d6830383e51fb04U, 0xbe2cf290bd25c724U, 0x3d7f13cd3c9f7f50U, 0x3d194fd83c20151cU,
  0xbe28e09fbe15d4feU, 0x3d3bb2ad3da27bcdU, 0x3ddbec903da459daU, 0x3dc5deebbd380c31U,
  0xbd78a35abc3e8d07U, 0x3e3dbb51be04c018U, 0x3c6797d0bca91642U, 0x3d94e0ba3da78002U,
  0x3e1765ad3d4637c7U, 0xbea260cebcb503aeU, 0xbd2eab6ebdc0c2d0U, 0xbe7844c0bded8616U,
  0xbdd991b03d672a30U, 0xbddad637bcbc1450U, 0x3d7049fb3d67b85aU, 0xbcc0d0523e40c188U,
  0x3d59b486be1e8c6cU, 0x3e537178bc68a1deU, 0x3ddafc6a3e26357dU, 0xbe6f0f6f3dc5e165U,
  0xbd2aba13bb6c0476U, 0x3d370acb3d87163dU, 0xbe749802399b838cU, 0xbe50f9da3dd40f04U,
  0xbd916d57bdd379d0U, 0xbe87b9b3bb980f42U, 0x3baf3536be17a921U, 0xbe5ab658be0c7271U,
  0x3dc765723b84b50cU, 0xbd1b5bc9be422c81U, 0xbcdecb63bdb5cabcU, 0x3d40e42c3e2ebc8fU,
  0xbe4907aabe347121U, 0x3e96c4043be4ed1dU, 0x3c19a5573dbe5ec0U, 0xbe9e0c4abda4f428U,
  0xbe23e173bd4903faU, 0xbd7af492be42e39cU, 0xbec3e207bd8d0bffU, 0x3dd2b7d3bdef97afU,
  0x3d3bf8f8bcbb7493U, 0x3dd7179a3e2ae85cU, 0xbe0285f53e7fe5f0U, 0xbda4fadc3e1b81bbU,
  0xbdf18c32bcfa89daU, 0xbe978f4d3d00c009U, 0xbd319e36bdb49b4bU, 0xbdf30f90bebb32baU,
  0xbd38d9503d13ae84U, 0xbe2fdb193dd66e5eU, 0x3defa438be913677U, 0x3c78a210bd5ed0f6U,
  0x3dfaa1a03e16d9baU, 0xbd73b829bcc6fdb6U, 0xbe05774dbe154c9aU, 0xbd27ed8f3e117edfU,
  0xbe5471c0bd4520b0U, 0x3e2e77533bb0efbaU, 0xbd885cb53d017cf6U, 0x3b7c47803bff010aU,
  0xbc87b003bba68ee4U, 0xbf0c107d3dcec863U, 0xbe38ac62bd14ece7U, 0x3d5b163cbe3d45b4U,
  0x3d895af03d943c31U, 0xbe92e025bd7dbe83U, 0x3e23fb9ebe3f6bcaU, 0xbc70df28bdf502cfU,
  0x3e2c44163d92c64cU, 0x3d598f343c877034U, 0xbdbb219cbd31dc5dU, 0xbd218d3abe09b784U,
  0xbea98a28be132622U, 0x3c64a9783e16ece1U, 0xbdab89e5be0bc76eU, 0x3db095c7bd05b096U,
  0x3cb30d16bc884626U, 0xbe677ead3e4d9a07U, 0xbd4a7732bb665638U, 0x3d6de8e0bdf0b552U,
  0x3dc41b5d3df448edU, 0xbeb0acd7bc71dfbeU, 0x3d7048ffbbc52a12U, 0x3c9ca6903d299c46U,
  0x3d0b72febd8534b8U, 0xbcf8f6713ba8c82fU, 0xbe7d65a93e258432U, 0x3d5f15f9bd9c61d9U,
  0x3cd47a3a3d545375U, 0xbe5783a93dce0a97U, 0xbe3dd7e33e04f229U, 0x3dabbeb4be70c36aU,
  0xbdda1d5c3e0f5af7U, 0xbe1786b43dfe36eaU, 0xbe5b7bddbd417072U, 0x3dda8648bced0ac9U,
  0xbc465786bce985efU, 0xbe09a8acbdec0c52U, 0x3d9fe028be1811b1U, 0xbdb555d23e2337e4U,
  0xbcfeff8d3d08bff2U, 0x3deef8e6bc1c41bbU, 0xbcb46803bc60974fU, 0xbd9c561fbd8037f1U,
  0x3d0fbd0b3dab11dbU, 0xbea2d6173dc5ca37U, 0xbe87c9eabc54de66U, 0x3d81bb88be2cbcabU,
  0xbe0b46163e075364U, 0xbe19ea7d3d3a1478U, 0xbe08d70bbcafff94U, 0xbcb925f83ac79accU,
  0xbb9994503db8afdfU, 0x3d073d3abdff009dU, 0x3d5cc707bdaba006U, 0xbe26e54cbbeda924U,
  0x3c707cabbd0d6f5cU, 0xbcc0a1093dab719cU, 0x3d643140bc6aee6bU, 0x3da91d00bbdb6b00U,
  0xbd85e2533d2d473cU, 0xbe9377373e2ed687U, 0xbdc2a5443e311d5dU, 0x3d9c5220be16233dU,
  0xbdee197c3e884108U, 0xbdb08f5d3d87706aU, 0xbe1e6e653bcbdbc7U, 0xbde79e4b3c9cb031U,
  0x3d0324b83c41350dU, 0x3d5587d9bdbb181cU, 0x3db150fabd133935U, 0xbdd103c3bdc2568cU,
  0xbd498922bde24079U, 0x3d3383753d8b21c7U, 0x3e056956bd1b04b1U, 0xbd92bbf3bc37f3f7U,
  0x3c3b3c4b3d4f43b1U, 0xbd92ffeabcf52d4cU, 0x3d4b196d3e84ba35U, 0xbbbfca0c3e64fcf2U,
  0xbe5966b63dbcbf53U, 0x3de921733e5c8c48U, 0x3cf72376bb671e6bU, 0xbe80bf41be930cdeU,
  0x3db6b7403eb67ddeU, 0xbe265660bec54755U, 0x3b2799b03ca93d3dU, 0x3d1a23d0bcb94566U,
  0x3dc64ca5bc3ed4f2U, 0xbe2c71963d8775c2U, 0x3e06bd8b3c441f3dU, 0xbe79257dbc3f634aU,
  0x3d3864d53dc6be18U, 0xbe05d944be1b9c2eU, 0x3d394e0c3d1866bdU, 0x3e3325533e0d7f62U,
  0x3d5229663d5514b3U, 0x3cf2d7a33e10c124U, 0x3e4ce087bcbcc3adU, 0xbc705742be95dccfU,
  0xbe32d7803e2bda7bU, 0xbd5d0e0ebe42c663U, 0xbda2f0a13e310019U, 0x3e0b06913ba6b00bU,
  0xbcab2e0ebdf9fa2dU, 0xbe56560bbd7d85caU, 0x3e19c1cb3ab261d3U, 0xbbebe4cf3de7581dU,
  0xbc7f9177bd3ab371U, 0xbe20097bbe159678U, 0x3b4aee9d3db6ba14U, 0xbcb04b463d84c676U,
  0x3d69680a3cb849ceU, 0xbe13ff5a3d9ced54U, 0x3e9ba3cebdd0ca4bU, 0xbe471df4be9a7190U,
  0x3daa8f0a3e5d22a2U, 0x3e281a713cb6f980U, 0x3dc768ae3d9dc738U, 0xbdb912f93b186c24U,
  0xbdcecaa23c6dda8dU, 0xbe9582f3bc6e87d6U, 0xbd8b3ff03ca68435U, 0x3d4dcae03dcc90dbU,
  0x3d49807ebe12dcc7U, 0x3dd845873e1ef8d5U, 0x3d709494be2b088dU, 0xbe2fbbcebe46f006U,
  0xbc8351cd3c0ef841U, 0xbdb74822be3d516aU, 0xbca4b0013e78a8a8U, 0xbe22af38be34b317U,
  0x3dc761dcbd0e0f7aU, 0xbdafcd463cdf9073U, 0x3e47bf10bd7ae92dU, 0x3c815aa83d7fac2bU,
  0x3dbde26c3d54846bU, 0xbe670fd83e79cf84U, 0x3e387709bdf89fd0U, 0xbcec47803e1f6d98U,
  0x3e11e6d63da6566aU, 0x3d42de25bd015451U, 0x3bd48979bd325083U, 0xbe0f0406bc3e577dU,
  0xbc121ca13dfa866bU, 0xbd70f042bcba5141U, 0xbd3a344c3cc9285fU, 0xbda99a76be86ac2eU,
  0x3d8a614d3cb1e161U, 0x3c7534ec3c649294U, 0xbdd8d608bc7bb0d7U, 0x3e0464213dcc474cU,
  0x3dea0a203d312cbbU, 0xbdb0c5a63e397bc4U, 0x3d102d5dbec7ec93U, 0x3e1a46ccbb846cebU,
  0xbd7de055bc3a9993U, 0xbd327e98bd37e58bU, 0xbe3c41bf3d3d1fe9U, 0xbd0ec72dbd83282bU,
  0xbc79ef79bc1f1cd0U, 0xbe87a960be1f39e7U, 0x3cd1c39ebd973e10U, 0xbdbd9f51be948e2cU,
  0x3d3064ddbc96a0eeU, 0x3bb84b3b3d97e0c1U, 0xbce55f53bd22ce16U, 0x3e0b43d43de4ae98U,
  0x3c25fc9e3e62a183U, 0xbd6595c33d5bca57U, 0x3d98e4efbe8871c7U, 0x3d58ee923e11d41dU,
};

AI_ALIGNED(32)
const ai_u64 s_combination_input_44_bias_array_u64[16] = {
  0x3ef1092abe55e5d4U, 0x3e74f6b2be25d148U, 0x3eadeaff3e8a45a1U, 0x3e88b6eb3f0e31ceU,
  0x3eeeb8c03f2de711U, 0x3cb1049cbe26079bU, 0x3f47d640be618676U, 0xbdca88ad3e8918b4U,
  0xbf851932bf3a3717U, 0xbe8f6aa53ede2b50U, 0x3e1544393ee9b25fU, 0xbf782ddc3c6af1f0U,
  0xbecc2e6a3f30dd9aU, 0x3ed46a503ed75cd2U, 0x3ebee20e3ed9b886U, 0x3c82d2c0be8a438dU,
};

AI_ALIGNED(32)
const ai_u64 s_combination_onnxAdd_127_weights_array_u64[1536] = {
  0x3c87eb303e259748U, 0x3d9d23523e30dde1U, 0xbc180a9abdd854beU, 0xbebf6bd43e4d71f3U,
  0xbd042a33bb284377U, 0xbe4d36febe3b4c3eU, 0xbcd16aa2bcc922c2U, 0x3e57dd45be36c480U,
  0xbc7af0a43d8a61b6U, 0x3dd47f6f3e6710dfU, 0x3d095a55be22eb80U, 0xbc4a011ebd03e014U,
  0xbd8e2e883eae836eU, 0xbdaa496d3e039841U, 0x3d371c4c3ca2ec49U, 0x3cfd68fb3d9b2276U,
  0x3ddbfc483c7d0b96U, 0x3bee4011bcd9db2fU, 0xbcd92a44bd24a9e9U, 0xbe523eb63e13cf05U,
  0x3dbfa1c4bd6c7a01U, 0xbd3f1f4dbe4593d3U, 0x3c8cf6a43e730f00U, 0x3d9dfa6bbe10f4fdU,
  0x3b5fcb013d8e8ff6U, 0xbd8085243e43004fU, 0xbe057ab33e25dfd5U, 0x3b83f0d5bda2034dU,
  0xbe184cf93d12a843U, 0x3e3763543e457412U, 0x3d331be2bd48858fU, 0xbc5813713cf9cf80U,
  0x3d82d93c3d7590edU, 0xbd207089bc2e7cb0U, 0xbe0c01a83da0eb71U, 0xbe365e803eb3ed00U,
  0x3d6e0fabbd621fb0U, 0x3dff5347be620c90U, 0xbce0844b3e146cf1U, 0x3e2e0b45bd78cb51U,
  0x3e3acb513e4b7d41U, 0x3ccc39f03e8a09beU, 0xbe6c58773e4af7afU, 0x3ce95365be512d06U,
  0x3cd9e5333e187cd1U, 0x3c89a9803d86a718U, 0x3e1a2647be63cb37U, 0xbca6dc5d3e0fc070U,
  0x3d0b7329bcad05bbU, 0xbd3c61133da4c58bU, 0x3ce3f0c03dafb595U, 0x3d25af123c01ffddU,
  0xbd9dbccdbdb490dcU, 0x3da189153de5b0bbU, 0x3cf8d7053d2eb32bU, 0x3df757d4bd5be74fU,
  0x3ded66ef3e037216U, 0x3dcbc93cbd225953U, 0x3d73e9b4bc8baaf9U, 0x3e01db003e483e95U,
  0x3db07ef43e17d970U, 0x3d6cae7e3e082abcU, 0xbca4856f3db9a582U, 0x3e70eeb33d411dc6U,
  0xbcb5a7a03baf7aa1U, 0x3daa6ac03d1de10bU, 0x3d4fe4853da1accaU, 0xbce50e54bd163bd5U,
  0xbc108cfbbdb8b56dU, 0xbccc8d7e3d4faf2aU, 0x3ce38dc23a818e96U, 0x3da89b6f3b30a421U,
  0x3dabf2523da53060U, 0x3e1c8f22bdee9f8dU, 0x3e0e9b503b1a5eb0U, 0x3d54776b3df45a12U,
  0xbcd00bbb3d1ba1d4U, 0xbb4b3a643e0415baU, 0x3c8cbbef3dca470cU, 0x3da0c8393d7acda5U,
  0xbd117135bdb57058U, 0x3dd85fa63de7591fU, 0x3d82bdc03d125349U, 0xbd4d1f7fbd4cbb0fU,
  0xbcdef982bd2e7c20U, 0x3cc8e29dbd2f6595U, 0x3b50bf423e3dafb9U, 0x3c3c765abe113bc2U,
  0xbc1a1bd43d521badU, 0xbda01ed2be4a30c5U, 0x3dcc62f8be00b148U, 0xbd7fe6223db3bc4fU,
  0xbdbbd68f3e0e0d92U, 0x3d5208373d6bea6bU, 0xbd92ebf8bc97c648U, 0xba0c66133de9e8c7U,
  0xbce06a8ebe3c990bU, 0xbd73f9343e552ed8U, 0xbd950c753e841acbU, 0xbea753373d13c34aU,
  0xbe986b13bc92278fU, 0xbdbbd2bebe3d1c22U, 0x3d8178f2be7d16bdU, 0xbef3f4753e9ac56dU,
  0xbe522f6f3e0bbee4U, 0xbd7189dabda484eaU, 0xbe84b92a3d5ec801U, 0x3d784fe4bdbcb873U,
  0xbe27ab573d2d2892U, 0xbc3dd7a43db4b4cdU, 0x3d8e44dc3e0db963U, 0x3dbd98c03dc123faU,
  0xbd86b34dbe1645cdU, 0xbd0f05253e88a424U, 0xbd9809893db9186dU, 0xbe4ba21ebdac052aU,
  0xbe6bdc7dbdaa88a7U, 0xbc5f7332be3290b5U, 0x3e03ad9dbe65bb7fU, 0xbdbf890f3deaac0bU,
  0xbe8a3a6c3e3737c1U, 0xbce4837abeb16ff7U, 0xbe24215a3d916120U, 0x3e419b9cbdca93b6U,
  0x3e599ce33ddc8c22U, 0x3cfe82e43e08879dU, 0x3d1ab3583e152702U, 0xbd11b67b3dde4822U,
  0xbe0e11c5bd4c47b0U, 0xbcd7839abc39f8f1U, 0x3d53d542bd1bcca7U, 0x3d766313bd545b75U,
  0xbe00974bbe04b316U, 0x3d410ed0bdd08f20U, 0x3d2531b8bd639efcU, 0x3d2ee5bfbd37c17aU,
  0xbe44ee40be0c27ffU, 0x3dcb9087be49f0d7U, 0xbe41a6a13c88d7ceU, 0x3d5520bebe3c91caU,
  0x3e9a2648bd0ae6bbU, 0x3e014c8c3e4672cfU, 0x3d1171eebc6b83a4U, 0xbe72a8493d068bd9U,
  0x3da52d553dd02c05U, 0x3b4db019baee895bU, 0xbb2f63a9be1f153eU, 0x3e462932be9a70b1U,
  0x3e244536bd704d9bU, 0xbe06ead5bbe35ca3U, 0xbe0361cbbb841676U, 0x3ddebebabe1b58e7U,
  0xbd49d4bc3d37c4f0U, 0xbd656f1bbdf7d409U, 0xbc8bd5f6bde6aaaeU, 0x3b9c1ccfbe1315a5U,
  0xbc921b2e3d336509U, 0xbd601d44bd9aff2bU, 0xbe47237fbda31995U, 0xbdec0aa9bd9a069cU,
  0x3e0e1b4b3e039467U, 0xbe75bde8bddc446fU, 0xbe30f8f73d3b8353U, 0x3d9c16d9bdf8483cU,
  0x3e898309bd661c25U, 0xbeb1815a3d1ce422U, 0xbe0b96363c4fef6dU, 0xbd251e70bd8b7aa2U,
  0xbe03ec3d3da6f8caU, 0xbc9739823d3cf57cU, 0x3d92fa92bc246140U, 0xbd2b267b3cac6de9U,
  0xbd764bc7bd519157U, 0xbd0387cebdc5aee0U, 0xbdf03366bd61c318U, 0x3cc5a09ebd7e5f27U,
  0x3de8e4cd3e3f4fa7U, 0xbe536cd73cc638ceU, 0xbe7696373bfb9402U, 0x3daf88f3be5f3cf1U,
  0x3e2ed0a03da272c7U, 0xbeabb204bd8a221bU, 0xbe2c9a56bd8014fbU, 0xbdc85332bd3d83b0U,
  0xbcc97b463e4dac55U, 0xbcc920993e017d61U, 0x3e0840bf3dc4dc70U, 0x3e0dcc433ddc1894U,
  0x3dcf11da3ce899eeU, 0xbdd8ef99bcb80668U, 0xbda46741bdfefd13U, 0xbe148a77bc61d0f7U,
  0x3de13f1b3d787113U, 0x3e22e15c3e9212ceU, 0x3eb52038bd2efab6U, 0xbebf2c683cb48f98U,
  0x3e35318f3dcad9fdU, 0xbe7380d8beac3934U, 0x3e31eaa73e04d96cU, 0xbd0931293e3abccbU,
  0xbd7e4ddebbc66650U, 0x3db15b73bc2a102cU, 0xbd0e65e7be787d7dU, 0x3d7915853e52ee20U,
  0xbd1a07243d183822U, 0xbd1cf32bbde12053U, 0x3dffc1e0be7a708bU, 0xbe8afc113e9406acU,
  0x3e58ec0e3dbfdf1fU, 0x3e0d91af3c8ebcffU, 0x3d9125c0bd3b4ebeU, 0xbe52714c3e03a89fU,
  0x3e522ccebd20af00U, 0xbdfb4734beb5bf5dU, 0x3e34b8383c9dbd89U, 0xbe225d473e81e738U,
  0xbdc42ea93adb6c54U, 0xbd9bd153bc59f398U, 0xbe3588ccbd82ced6U, 0xbdf2d2d53d5738daU,
  0xbddabff3bab2ab38U, 0xbd83ad33be3a59dfU, 0x3e14b4bd3ca38512U, 0xbe91aa3b3e4b99e4U,
  0x3d6507a23e15905bU, 0x3dd1ce383e6b6e11U, 0x3c824e7e3e3fc528U, 0xbefe1a25bd410565U,
  0x3e108383bda9d83fU, 0x3d2fbfb73bbf338bU, 0x3e1351b13e02c59dU, 0xbe8b14a83e052273U,
  0xbb90d35ebc875962U, 0xbb9faa3d3e11a858U, 0xbe34b143bd1f6a67U, 0xbd01e5113c9ace4aU,
  0xbe2e3290be8dc3b3U, 0xbd5e73aebe6cf730U, 0x3e872c3ebde78b34U, 0xbd75696f3d8161f9U,
  0xbd1176cf3e68cbeaU, 0x3d97ecbe3e85bb46U, 0xbd917ee63d5a5547U, 0x3d924350bd79bc2fU,
  0xbd4b3971bcd4f8ceU, 0x3e01cabcbe198994U, 0xbec2bab7bd399dc8U, 0x3e0fa3dcbcc2349eU,
  0xbda79a4f3e040094U, 0xbd4edbd33dea7a32U, 0xbd93c7c6be042564U, 0xbd5ceeda3e098c08U,
  0x3dd4f579bd91246cU, 0x3e449150bc09e9fcU, 0x3df60d8cbd98846fU, 0xbd4a48b5bdb52a91U,
  0xbd9be1f83e700dbeU, 0x3d0c8d313e023a28U, 0xbe60653c3e4eca8eU, 0xbd013f263df3bbe8U,
  0xbd0ae180be82b460U, 0xbd650939bd054c98U, 0xbe881193bae63c31U, 0x3e38d2e3bec1b32fU,
  0xbdb69fdc3dd40113U, 0x3d60e8593d97f32fU, 0xbdc7a9e4be5fa18eU, 0xbdda2636bde45108U,
  0x3d676d25be1c9575U, 0x3d3f5e7b3d9038c8U, 0xbdb5308cbe345b7eU, 0x3d78429f3d46a252U,
  0xbe26e4273d660356U, 0x3c839fd23cb553edU, 0x3c0b61ee3e545dffU, 0xba8b8809be47484eU,
  0xbe75e6f0be459dbdU, 0x3e3969e7be658fb2U, 0x3daeee82bdf8a5d7U, 0x3e3b7836be50f93bU,
  0xbe416c8bbdc76d9bU, 0x3e493fd23d86f0abU, 0xbe01f8b1be844c06U, 0xbe785bacbded65caU,
  0xbdc6d3643e6f2cbeU, 0x3e3eb71a3e3c1c2fU, 0xbe522838be7cbdbfU, 0x3e04e17ebe2dedc0U,
  0xbc7ec08cbcf0db2cU, 0xbe7d78823d97f0caU, 0x3d2aa6db3db0f2aaU, 0xbd28037e3d955834U,
  0xbda38310be72ac2fU, 0xbe55fce3bc9220aaU, 0x3cbee9eabe13a4b2U, 0xbd88a0633d0123cbU,
  0xbddc14c93c24275fU, 0xbc9a9031be7f86c0U, 0xbde04e89be369793U, 0xbe26ff62bdb61c66U,
  0x3add22b5bdb3368aU, 0x3e2b3bf8bdf39aecU, 0xbe5b8130be20e223U, 0x3dc978763dcb5beaU,
  0x3d08301d3e4fe7e9U, 0xbe4d7ec53d6826eeU, 0x3e8fe7cc3e15cbf5U, 0x3ccefb9cbdfb1fa1U,
  0xbe138e58be36abddU, 0xbd64eba53d546afaU, 0x3e0d9be0be1d81a6U, 0x3e368c3bbdcdc6d1U,
  0xbe18cf8e3e1974dcU, 0x3cc9eb76be7ffc8dU, 0xbe00aa263d4dcb40U, 0xbe8b9693be141c4aU,
  0xbb517bca3d615235U, 0x3daf5b06bd02ee03U, 0xbd104729be7711c6U, 0x3d0d20573ded286dU,
  0x3b1239713dde78a4U, 0xbdeec1e73ddb2932U, 0x3e326a913cec6354U, 0xbcf07df5bdb69dc7U,
  0xbe033604be461944U, 0xbe8a16543d4ce130U, 0x3dcca136be8f4535U, 0x3e146292be21a81bU,
  0xbcb05facbcbe5770U, 0xbd528179be08bd1fU, 0xbd4bb50c3d54965fU, 0xbd9ff5e4be013133U,
  0xbc8890353d3f31d0U, 0x3e417688be81f5e1U, 0xbd8690aebd87389fU, 0xbca847bfbe6ebf80U,
  0x3dbc357fbe09f605U, 0x3e411cf0bd3ed1b7U, 0xbd7f2f893d8ea5a2U, 0xbda23dd5bc48ae35U,
  0xbcb0d8593e15440aU, 0xbe02ac8dbe03b535U, 0xbd89302ebc477fd1U, 0xbe2ec5c1be962d37U,
  0xbda098013dd70b28U, 0xbe0f4ef53d41f019U, 0x3df2a1403d453e6cU, 0x3dae0b903e01367dU,
  0xbd33da993e70ebd2U, 0xbe50b82f3c00f90eU, 0x3c44845c3e17a732U, 0x3df0d5ee3e2aab99U,
  0x3dd7ef65be533839U, 0x3ceb40e0be388d40U, 0xbe14938ebbe7d97fU, 0xbd7a5b1f3d825749U,
  0xbe14ad723d678c27U, 0xbcc4ccfdbe7a0ebcU, 0xbd8c2a3b3c83de6aU, 0xbe226c6bbc690764U,
  0xbdea80343d04f51aU, 0xbdb57946bd949990U, 0x3c8fa14cbe03a2fcU, 0x3d854f9d3cf1beedU,
  0xbc6555d13ad9cc24U, 0xbe885b073d3d7871U, 0xbd7c228abd1337b1U, 0x3db3c3d23deff831U,
  0x3e3c88a2bd07cf8fU, 0x3dfdc71a39a19ad4U, 0xbe7f9f4cbcaaa167U, 0xbdb33d673d9e7133U,
  0xbdd798183c4e2a8cU, 0xbc272afebebcd2a4U, 0xbe6266393e07e3baU, 0xbdfa9bcd3d2d47f9U,
  0xbb76bca13d4d18f8U, 0xbd268eeebe191f52U, 0x3d0fab45be12a350U, 0x3e00496d3d784d84U,
  0x3b8c5b25bdbe7734U, 0xbe3485923df271beU, 0x3b0ebc6f3e2455ceU, 0x3d8fea433e0c50e3U,
  0xbde89e7b3e22a004U, 0x3e2795cd3e3fcb12U, 0xbe8563c33dea82b9U, 0x3d04c59abd192568U,
  0x3c34a7773e2d5490U, 0xbe30e5f63e2e6b5eU, 0xbe0804f23d9db6a2U, 0xbda9381bbdd2496aU,
  0xbd398d8fbe8dc2a0U, 0xbd554d30bd3ab737U, 0x3bad5b3d3d632a24U, 0xbd927bb93e404aebU,
  0x3dc7b932be2bc515U, 0x3e7074bfbe6ff1b6U, 0x3e27af50be5a0e32U, 0x3d9b8a99bc798dc0U,
  0xbe498d523e4e9f80U, 0x3dde43273e179ae8U, 0xbe1c20d73d5c1236U, 0x3dc8b65cbdaa89d2U,
  0xbce07dadbd3db3daU, 0xbe2a75f53e1cdccdU, 0xbe3542f23de1d25aU, 0xbd54af42bdf0d9fbU,
  0x3cd62abebe8d9b7cU, 0x3d17d35fbe1f6396U, 0xbe24e726bd495452U, 0x3e422c6c3db47838U,
  0x3d1bf85fbe8c9c8cU, 0x3e268daabe28e802U, 0x3cc0a062be624885U, 0x3d76782ebc0b8b16U,
  0x3bd038e93de69e90U, 0x3c03563d3bf067baU, 0x3d5c35bf3d3d0363U, 0x3e14b437bd97f7b1U,
  0x3b9bb8a0bc004432U, 0xbe7ca9c43d631d44U, 0xbde19da73c34953aU, 0xbca0c0bbbdd9843dU,
  0xbd41b22ebe873df7U, 0x3daf646fbd0be7f8U, 0xbdb6b64bbd9927c3U, 0x3d93789ebd79f93dU,
  0xbd938938be6a4cdcU, 0x3e54b2dbbeaa17bfU, 0x3dc4cdc2be8c0073U, 0xbde4b2973de485bbU,
  0xbe72764abd74664fU, 0x3dbf21a9be01f664U, 0x3d9c0a463de6324bU, 0x3e0cccb0bd101a59U,
  0x3d6d4b243c9f98c3U, 0x3d7971bfbd06e207U, 0xbe560d323e2b931cU, 0xbda2dbfdbddc3f91U,
  0xbe773c343dcf2ae1U, 0x3d26a2203d2789c7U, 0x3e27d9483cd20b74U, 0xbd97ee103e681421U,
  0x3ccf74513e65ac81U, 0xbd6fd5793e42dd59U, 0x3d50fedb3e43708aU, 0x3e324d1abdc99171U,
  0xbe3db1463c8782fcU, 0xbd91003ebd3e51eeU, 0x3c88ec393d3a3b44U, 0x3dd5c28dbe3c390eU,
  0x3d961954bd83d34fU, 0xbcca96d13cc9d88dU, 0xbe05bde33e145f75U, 0xbe169c44bb783126U,
  0xbe8ab7e5bcdf64afU, 0x3cd055d53da64568U, 0x3d80ff4f3d8448a9U, 0xbd0f15573d87093aU,
  0x3d73c30c3e29d16aU, 0xbdd1a3963e1e4615U, 0xbdae2f263dc0b9a6U, 0x3d50fa92bdce2b03U,
  0xbdc1a9813cf5780aU, 0xbe41760f3b1ca24dU, 0x3d696b353dfb1b37U, 0x3d36481abe596f05U,
  0x3e22284b3d3bc97aU, 0xbcf909063d7abfadU, 0xbe4b03edbdeb3047U, 0xbded39bcbdd51f0dU,
  0xbe70fe6d3d8a0c68U, 0xbd78ede8bce6c451U, 0x3d6f26a33d8b4b5aU, 0x3d9ef7f3bd595430U,
  0xbcf88f9a3d0aa83aU, 0xbe114a973dd11c68U, 0x3d3c3fc63e1c2213U, 0x3dd760a7be11d616U,
  0x3e1bd0663c413488U, 0xbe449198bde59a53U, 0xbe1d3b4dbebd3221U, 0x3e850ac9bba181eaU,
  0x3c813618be4d6f82U, 0x3d6768e9bdb918e4U, 0xbe23b95fbd6d0b27U, 0x3e8b02ee3ded2cf8U,
  0xbc380037be5add3eU, 0xbe417f22bd92bef0U, 0xbe5208c8be2bda9aU, 0xbe7cbf6abe5dc776U,
  0xbe9c4fcdbeb5a9ffU, 0xbe26727dbdd1d3b3U, 0xbb8ab5e23e410eaaU, 0x3ca0ece4bd49b366U,
  0x3d131880bd9c34ffU, 0xbe4ceb02be44c9dcU, 0xbe4d04663c6a548aU, 0x3ac552ae3ea899e2U,
  0xbe96b5a6be509c88U, 0xbe042443bda1c6d5U, 0xbe037b2ebe1d6ee5U, 0xbdd322803d4ce327U,
  0xbd85b9a0be4c679dU, 0xbcf44093bcfd24abU, 0xbe6b6ccfbe31dbe4U, 0xbddc232bbe317972U,
  0xbe8d8c49be2ad687U, 0xbdad5328be1ef921U, 0xbd1c94a43d728d84U, 0x3dc2a01e3d8df211U,
  0x3db5c7e8bdda6b5cU, 0xbdde3ce2bda7b17dU, 0xbd9e4e8b3e2a764eU, 0xbe503b4c3e8ea1eaU,
  0xbf3459993dd2fa79U, 0xbe3207903d3d9d10U, 0xbe21eceebd0997f8U, 0xbe3004603dd685e3U,
  0xbbda7351be432d79U, 0x3e6414d6bde8dbcdU, 0x3dee18683cb42a75U, 0x3d9a97f73db502a5U,
  0xbe27c5eabdebd8e5U, 0xbe7587cdbd807fe0U, 0x3d29af573e5e9ae3U, 0xbd2ecead3de2a873U,
  0xbe5e2bccbdbd5886U, 0x3df81c3f3dc57667U, 0x3da78b7bbe5f7bffU, 0xbdf33bb5bde110ddU,
  0x3b82f0093c5cf590U, 0xbcf617583e52db87U, 0x3d93b76bbddc8fc7U, 0xbdbc6a24bd2d9829U,
  0x3d04b0593e3b7c65U, 0xbc499d64bcbd0ccbU, 0x3db4af1fbe11f42cU, 0x3dfc1a8f3dd69082U,
  0x3d48125f3e923f24U, 0xbe35a248bd2f989bU, 0xbe7948ac3dd4b72fU, 0xbdd843753da71c26U,
  0xbe1928d1be59c61bU, 0x3d3f389d3e13db72U, 0xbd9309c3bdeb3045U, 0xbdfb414dbdbab9e9U,
  0x3db87cbf3d345de8U, 0x3c4db9aa3d77e171U, 0x3d6a2efbbc8ac860U, 0xbdd506efbcd15957U,
  0x3d67a212bd38b090U, 0xbe88678ebdf00876U, 0x3db8c9aa3c8045d6U, 0xbe147f59be361220U,
  0x3e2189373dcca435U, 0x3c8029893d020bcaU, 0xbe20152f3d6c42acU, 0x3d2693b8bda46251U,
  0xbdfa8252be586cd4U, 0x3cd8ad6d3e10611bU, 0xbda5ec8bbe07d80bU, 0x3cbed7e53d059d44U,
  0x3e86c5fcbe1e7f1aU, 0x3cb50440bdc61a18U, 0x3e71c248bd5bc824U, 0xbe1304e43dd24d51U,
  0xbdc0245a3c65f853U, 0xbd982fe6be0b13dfU, 0xbab56f483d1a8659U, 0xbe5115d2be694432U,
  0x3da75d5f3e7613c4U, 0xbe760a273d8b8943U, 0xbe80af773d65be47U, 0x3d83f917be1db6ecU,
  0xbd673f17be29383eU, 0x3ea7aff53d747f01U, 0x3db9eb68bd027fe5U, 0xbe07cd7a3dd837cbU,
  0xbde77cba3e25d2f9U, 0xbe45be083e3103c5U, 0xbe0101503ddc1625U, 0xbd690d083bf55224U,
  0x3d80f224bebb0b3aU, 0x3e36b06e3e6ef823U, 0x3e7836093db94982U, 0xbca3b5633dd1495eU,
  0xbe798e77b9197569U, 0x3d551802bd9a6e56U, 0x3c1f4aeebe2e3934U, 0x3e20fa613cff4e82U,
  0xbe18ed75bd437335U, 0x3e10a1ae3e00b61eU, 0x3bbab3693dff3f1cU, 0xbe6f3b2a3c6ed5acU,
  0xbd47f0953e43be7fU, 0xbe719d4a3d35766dU, 0xbe109bda3e7341fdU, 0x3d93c12c3e1f7ecaU,
  0xbe05f513be17c5e9U, 0x3d01d63e3d6bbb44U, 0x3d93205e3d4c3700U, 0x3e1e5da4bccc0b59U,
  0xbe8429d9bcab4111U, 0x3cc17cd53ce8f152U, 0xbdb346fe3b8f2a03U, 0x3bcef1cd3e0565d6U,
  0xbe92479f3e03c6faU, 0x3e54b151bd9502b3U, 0x3dc154db3d2e0c01U, 0xbdfc3e41bdf0ff26U,
  0xbd010b8e3d63ecfdU, 0xbea965703dac9bccU, 0xbe15c3d6bbe62097U, 0xbd8feac73d08e00cU,
  0xbcf0f194be498748U, 0x3e220ce7bdf57aacU, 0x3e8a6f043ed7b30eU, 0x3e0eb40e3da3195eU,
  0xbeb39421bcad0084U, 0xbc3cf1793de16b81U, 0x3e5d5a30bddeb681U, 0xbe6a39653d886f53U,
  0xbb9108a2bdef2f24U, 0xbe1e1300be305107U, 0x3d0c71543dd97004U, 0xbc51a6163d8a19e7U,
  0xbe80f741bdef5999U, 0xbdbb0befbd205e23U, 0xbdb206c43d9bb6e2U, 0x3e18f9333e41d875U,
  0xbd6c48adbd4f0ba3U, 0x3d113fb1bc83dacfU, 0xbd842447bb994e13U, 0x3d12ce6ebd5a86d7U,
  0x3d50bff23d9d6067U, 0xbde0d5abbced6ed2U, 0x3d7fad053d78abd1U, 0x3cce4f78bc2eb625U,
  0xbd4c34e33d8ebbdcU, 0xbe709edebe1bccd6U, 0xbd7f62323d86e63eU, 0xbd1264cc3d0e4077U,
  0xbe707071be4cdc73U, 0xbdb391473d9ed62aU, 0xbda7895b3d0deb94U, 0x3e206bdc3e27736dU,
  0xbd5f9affbd1b468cU, 0x3d9c93ce3ca63a1eU, 0xbdb332bd3d641497U, 0x3d22da223ccdd2baU,
  0xbb56eb57bc7be7fcU, 0xbdcc918abd6f70adU, 0xbd82e1e4bcff40beU, 0x3d056e1b3d067b29U,
  0xbdaadadd3e27daccU, 0xbe78df09bd7ec8e3U, 0x3d0043c4bc119956U, 0x3cd6e30dbdebe0bfU,
  0xbe1ec47fbd81a9dfU, 0xbd6f07e93d8480c1U, 0x3b8066723b3b3311U, 0x3e53ed3e3dfa3547U,
  0x3dd2373e3c36be06U, 0x3c5a01403d8c9704U, 0xbc1d91a937de2b2aU, 0x3e19d6293d0f8909U,
  0xbd41bf503dc5c42bU, 0x3ddb7defbdb2bbd1U, 0xbd3ecbe2bd057ed7U, 0x3cd76fc4bd9b000cU,
  0x3e13586ebd140284U, 0xbddcb72cbe1fb0e1U, 0xbe080d463cf936abU, 0x3dd3ccc73dbd643dU,
  0x3e007e15bdb55d47U, 0xbd68ddbebe0e436fU, 0xbd6ac21dbd4acc84U, 0xbe39a5383db4da69U,
  0x3c54fb2fbdc5ebc8U, 0xbe0d432dbdc97a84U, 0xbccd267f3e814b04U, 0xbe204ec5bdd067e4U,
  0xbe8dd676be322db2U, 0x3c515f54bdcaf3f7U, 0x3e51b1ae3e0fe09dU, 0xbd0714df3da9af29U,
  0x3e14bc20bc99c7dfU, 0xbca51dd1be18f1b8U, 0xbdb9a6393e24f333U, 0x3daa07713decd9b5U,
  0xbd6d2ef5bd9fe01bU, 0x3c4aa175be538a14U, 0xbd69ae19be064eecU, 0xbe27a253bd7132e5U,
  0xbd7f812b3db327baU, 0xbde7085ebda56048U, 0xbc9724583e2fc25cU, 0xbe7c47873d3f5d73U,
  0xbed257e7bdc8504bU, 0xbbf120bcbd79cd22U, 0x3e31d8f13c9a06b1U, 0x3d91c46d3d68a2b5U,
  0x3e451e963d648eddU, 0x3d867414be5777e0U, 0xbd5a5e543e65e362U, 0x3d944e49bcbe810aU,
  0xbdb7b8a53d1f3601U, 0x3c20444cbe0e81c4U, 0xbdff3760bc0ef122U, 0xbe4657babc5866d3U,
  0xbd2f6d9dbd12b16aU, 0x3ca01c973bcbd49fU, 0xbcb14b0c3de5e062U, 0xbddbaa833bc3014fU,
  0xbddfc5cbbde2499aU, 0x3dd072923dcee9e4U, 0xbc977a9dbd43ad13U, 0xbd6e011abcfda153U,
  0x3d9bb3f73d23b71aU, 0xbe76f254be519fc0U, 0xbd094d12be9b4af4U, 0xbd6bfc143e4e744bU,
  0x3da8ac203ea3aba1U, 0xbf1086873d72a4aaU, 0x3dbd60053d81eb96U, 0x3db9fb813e58911eU,
  0xbd933de83d76b539U, 0x3c6bab523dd96568U, 0xbda19736bc492ee6U, 0xbd4448673e17771bU,
  0xbcc22f413e2e3738U, 0xbd18ab1b3d3b71c1U, 0xbe122e72bde27b28U, 0xbcbc87e03c066651U,
  0xbd16667bbcdd53d3U, 0xbe85071cbe250220U, 0x3cda2c5dbe8f6901U, 0xbdb724a73e1b9a7dU,
  0xbd9f09363e626515U, 0xbebc75e43d016dbbU, 0x3d29ea043e84b075U, 0xbdc696523df9790eU,
  0x3cd0ecbc3db1d6d5U, 0x3d9d52623d958c3dU, 0xbd127ad3bd5aea97U, 0xbd469b903e6d500bU,
  0xbe090ec53e43e1ddU, 0x3c92f7adbdb42067U, 0xbd44fa643c92dde8U, 0x3cb93ea6bd248a50U,
  0x3d7cb1543c20057fU, 0xbc0b447fbe0b8af7U, 0x3ded0126be9f344fU, 0x3d0566f9bd6f2f9bU,
  0xbbb4a8d93e3e9876U, 0xbeb6176e3e41425cU, 0x3ea6400d3e657806U, 0x3d654f4a3e0dc1a5U,
  0xbceba0b8bd31804aU, 0x3d904d093e17f925U, 0xbb23c36f3db3dc55U, 0xbe0f4a203d0c7595U,
  0xbe8c88bc3e3d858eU, 0xbdaf0e253d0ab2edU, 0xbcfe5064bdc3904fU, 0xbd179d4cbe42ae45U,
  0xbc8e45fabc4b6913U, 0x3dbe2344be2f334dU, 0xbd12e0d7bd4cecc6U, 0xbd721983bd728aecU,
  0xbc89a26abe522332U, 0x3d20a7083d501292U, 0x3e20e8363d897490U, 0xbe083e423bfad59bU,
  0x3b0eced53d982085U, 0x3e205f8abdbda4cfU, 0xbaa6f30b3db4dfbdU, 0x3e66aae7be084856U,
  0xbdf8494d3e103769U, 0x3d87c5363e65aacbU, 0x3dea870dbba8868eU, 0x3e0237ec3d538822U,
  0xbce0b0bb3d294e44U, 0xbc41555dbd868426U, 0xbd901949bdd6ae53U, 0xbdc3011b3e00024fU,
  0xbdedc797be51f6ecU, 0x3d8b835bbd33debaU, 0xbd3bdeac3d9f5498U, 0x3d4b71ec3d2a8051U,
  0xbd93cad63e032d48U, 0x3dee225e3ca0501dU, 0x3d8efcf13cfa1aafU, 0x3e60b5d5bddda253U,
  0xbdd75e60bd91c70eU, 0x3b4d8a283d769632U, 0x3d1f60143d2a9008U, 0x3e0b333a3c7a2dfaU,
  0xbdd8fd1abd2b71deU, 0x3db71649bda65b20U, 0x3d80cd963c9a1a11U, 0x3cb77d5fbc18134dU,
  0xbe502cf4be411ae8U, 0xbd1da3acbc1cb5dbU, 0xbd01adccbc8d1e08U, 0xbd308d653cff86a8U,
  0xbd5938833dc22671U, 0x3c84bb8bbde62bdbU, 0x3d8762123caa6903U, 0x3d87a3a3bc8a731fU,
  0xbe00a5cebddfe7adU, 0xbcfa1fec3e00962fU, 0x3d7023a33d26ef14U, 0x3decd2693c7c5effU,
  0x3d0265993d887783U, 0xbbe23b75bceacad9U, 0xbd3b61a3bd6f3222U, 0x3d1043dabdde7861U,
  0x3d1b16ef3d5e8499U, 0xbc9f0196bd574237U, 0xbd9e44eabc8a7ed7U, 0x3b9f3598bd832fd8U,
  0xbd756aeb3d9b560aU, 0x3cc06073bc1c3af1U, 0x3df3430abd6a973dU, 0xbe1965bbbe819b59U,
  0xbdd7380d3def8b9aU, 0xbd151b583e229584U, 0xbdbb0ecb3d0c8be7U, 0xbd31c40cbb6f8207U,
  0x3d9125fdbd3eaf23U, 0xbc9ca880bd670591U, 0x3c858e78bcf227a9U, 0x3c897a94bc594021U,
  0x3b5d8ec13dcabcabU, 0x3b83cb7abb069363U, 0x3d21cb94bdefd860U, 0xbd29237abd88dc7aU,
  0xbddf8f8e3e1cab54U, 0x3d0113be3bfe2e39U, 0x3dcf767c3d3fca58U, 0xbd2d59e4bdd09568U,
  0xbdb46e963df5d69dU, 0xbda02f213e1a7d3bU, 0xbd339b8cbd17b199U, 0xbd67666dbc285adbU,
  0x3d409af83b536534U, 0xbbbe656bbcefb87eU, 0xbd1027eabd9546aeU, 0xbd6a77a7bd05aed2U,
  0x3ce09bfd3d8c97cbU, 0xbd8fe87fbd8ac23aU, 0xbd95c588bd9a78ecU, 0xbd40966ebdcd4d8aU,
  0xbe173f08bc92a946U, 0xba9a834cbd04775fU, 0x3e0045433c440406U, 0x3bcbd41f3bca0723U,
  0xbdd7b142bcee3f79U, 0xbc938b563db07bfeU, 0xbbafbdafbd250360U, 0xbe44f0763da1bf5bU,
  0x3dd147a1be3427f0U, 0xbe48abacbdf1ae11U, 0xbdf019933da02c6aU, 0x3d12f21a3d29dc5aU,
  0x3b77edc2bbf299bbU, 0xbdc19ccebe12859fU, 0xbcf9ac1ebe3131cbU, 0xbd8112963c3c0a99U,
  0xbe4089553e37e8abU, 0xbe1c4b453d040650U, 0xbd3aec32bd107966U, 0xbe157ed0be50d48cU,
  0xbd0e6405bcaa211fU, 0x3b94f0fabe8d4f97U, 0xbc57917b3d819011U, 0x3e12fba03d5244bcU,
  0xb9fbed60bea72adaU, 0xbd93f7d2be1f5045U, 0xbdeb1198bbf1a7ceU, 0x3ce05c933e66ac66U,
  0xbe6b23c6be265036U, 0xbd97889fbded1022U, 0xbdb3a62ebdc15853U, 0x3cbb2a63bd6e59edU,
  0xbe39702fbd73c381U, 0xbb6a99ce3e04c2aeU, 0xbcab2001bd54de50U, 0xbd858e70be57e3dcU,
  0xbd63eee7be6ec92dU, 0xbd77ebbebe80d402U, 0xbe00b1ba3b8ba753U, 0x3e362a3b3d80572bU,
  0x3ca77d7bbe45c82aU, 0x3d3f62353d1bed1dU, 0x3e29a2de3e0cd3a7U, 0x3dbbc4a13e067886U,
  0xbdc08fab3d41aa2dU, 0xbc8495cfbde4e6c6U, 0x3e28759ebc5a8d54U, 0xbcd536a93d6d99acU,
  0x3cbb26333d6bb636U, 0xbe33c2403d0fab94U, 0x3e168623bda0ecc8U, 0xbdcbfe67bcd1223cU,
  0xbe07af323b80f758U, 0x3da891acbe85d930U, 0xbe2982f73df08457U, 0x3dd420c23e2524b6U,
  0xbb26601f3da0e2f6U, 0x3e50380b3df61dddU, 0xbd9f1f9c3e9157deU, 0xbdc28d46bdb23ce7U,
  0xbe3a585e3e9ca59cU, 0xbe17666b3d50f93cU, 0x3d371e59bd30ed88U, 0x3bedf61b3c6c1a3cU,
  0xbd836add3d81813aU, 0x3e798e9c3ded79fbU, 0x3da962b53de50f0bU, 0xbe9b7592bdc915f5U,
  0x3e416a483e09f955U, 0xbe490facbe5e5d59U, 0xbbfd8698bd9412e0U, 0x3d7d7a923e204417U,
  0x3d0f0e03bc91dc14U, 0x3e21cc613d419554U, 0xbe1b3acdb97de231U, 0xbe2464b5bd819b68U,
  0xbd58a26fbb8bd7dbU, 0xbd47953abdebafb2U, 0xbd6b4d61bd853d84U, 0x3de7c63ebdd1d789U,
  0xbdbef6593de0175eU, 0x3dc67ee9bd5955ebU, 0xbd500aaabd919633U, 0xbe482d9ebe2266b7U,
  0x3e362a6dbd8af435U, 0x3e650be5bd6b9de3U, 0xbe879dc6beb3a9c7U, 0x3dafb1843be36dffU,
  0xbd9ae61dbce809c6U, 0x3df1e4c5bbdbedb0U, 0xbe151e4b3dd87388U, 0x3d7ba4ed3db6e268U,
  0xbeede839be187da9U, 0xbe20a6d5be2ec7fbU, 0x3dfc04a93da7e270U, 0x3df34d4f3e1c9e80U,
  0xbe3e4008bcbd65b1U, 0x3d7b3459bd8864b4U, 0xbeb0191cbe16b990U, 0x3ded1107be625188U,
  0x3ea4dcf63e551ea9U, 0x3d44ea6c3d8f0faaU, 0xbe69cdd2be897cc1U, 0x3eb7ed0a3d8f1d3eU,
  0xbd6d98f33d93590aU, 0x3ea3f82fbe321f9fU, 0x3a95d9e83acac65eU, 0x3d1c528a3e667377U,
  0x3e3a25303daa97daU, 0x3e906c94be8fc8bdU, 0x3e4697e13d9edaf9U, 0xbd446a33bc2350c1U,
  0x3e4ad04c3e2990e3U, 0x3cd62453be20ad6aU, 0xbdf2f5c23ce983b2U, 0x3c96e58cbdd2e648U,
  0xbd692778bc9c3395U, 0x3d864cc8bdb18cccU, 0xbd53fe1e3da549e0U, 0x3dba20cabe21adfdU,
  0x3c371a343dbcbed1U, 0x3da1228dbe519814U, 0x3d8db670bd983c52U, 0xbda1fbac3e2b64c7U,
  0x3e14a298bc77f78bU, 0x3e6286d4bda7dafaU, 0xbded3d0d3e196bb7U, 0x3c08a9773d14c4bdU,
  0x3e526b2a3e00b44fU, 0x3dbdc6943d5c1abaU, 0xbde786113c54cbd0U, 0x3e2023bf3cc492a7U,
  0xbd8e263ebe33a04bU, 0x3d70dd16bd241800U, 0xbdbb68e13d89c6f0U, 0x3d8293ec3d403585U,
  0xbdcd59bb3dad27b0U, 0x3e54aeb4be151586U, 0x3e6672d83e36b927U, 0x3d427c70bccf9bdbU,
  0xbd1e74ef3c5c6a52U, 0x3e25b70ebdabec9eU, 0xbe17a99fbde54700U, 0xbab6633d3e000121U,
  0x3e845a533e4f8ac9U, 0xbe34290fbc90d0a9U, 0xbe00e6d63b219950U, 0xbe3bfbd8bd8466a9U,
  0xbe863d62be162720U, 0x3e32d1333e11ae63U, 0xbe18613d3e57290bU, 0x3d6ca72fbd1fd0feU,
  0x3e369e33bd608c30U, 0xbe5e30a7bdbf0ee0U, 0xbe9d9f3c3e6b43afU, 0x3dc63bc9be3f24afU,
  0x3c72edef3e2cc3dcU, 0x3cb24eeb3d39b2eaU, 0xbc9f3f9ebdbf726cU, 0xbe1789d53c684ee9U,
  0xbc5015993e095f1cU, 0x3d548c16be8a156cU, 0x3d832028bdc95525U, 0x3c283cff3e1e3f94U,
  0x3c97f12d3d85875cU, 0xbd0ef8013da89ae6U, 0x3df0672b3d468cecU, 0x3e021a8b3e65e213U,
  0x3daa0d8abe040133U, 0xbe55671bbe68badcU, 0xbe9ab5593e164ce0U, 0xbc57eedf3d97b93fU,
  0x3badc116bd8c5585U, 0xbcad51573d97352dU, 0x3e855082bc942c58U, 0xbe8715163e00dc57U,
  0x3cb1e24b3e10bc36U, 0xbda5ad2fbe4cefd5U, 0xbd6825b8bd7b1fb7U, 0xbd60c879bd6476e7U,
  0x3d6e7317be1bf988U, 0x3e43311abe129705U, 0x3c91f1973e1301b9U, 0x3ddc9cbf3e82a6e7U,
  0x3e2697633a84c7a7U, 0x3cc793bcbe20889fU, 0xbe7ac1f33e3c6f65U, 0x3d14716a3caa89e4U,
  0x3d12b4d23df21a8bU, 0x3c95e61c3c1c6d10U, 0x3e1d17623d7be1b5U, 0xbe09e19f3da56465U,
  0x3d689e7d3c21d1b3U, 0x3e28b033be06f767U, 0xbe66c83bbd42c828U, 0x3d643daebdf906aaU,
  0x3e9080b2bd820d0bU, 0x3eaa55b7beb04a7bU, 0x3d1c356fbe047e12U, 0x3e4880ec3e723080U,
  0xbcd619febe3d8f8cU, 0xbd065ff5be970ed1U, 0x3d64f7d43dadd7e8U, 0x3b2b277d3e66f896U,
  0xbe4dce73bde514e1U, 0xbd40276cbdbb5cdeU, 0x3d9c28973db950b5U, 0x3b95e3a53d917d68U,
  0x3e40da753d47dc21U, 0xbda66def3dbe7394U, 0xbe0ef11bbe6c6e11U, 0x3d9852a1bd52b75dU,
  0xbe48dbcc3d0502cbU, 0x3d10923ebded4f09U, 0x3ce507263e79b126U, 0x3e35c3593d74a5f4U,
  0xbd841130bd0aad01U, 0x3ce24d11be952213U, 0x3db98121bcd7b3f6U, 0x3ccf03f23e610933U,
  0xbe3594393b26e796U, 0xbd36c72cbbc849f8U, 0x3d14ae213e5e8998U, 0x3d4a394abdc5121bU,
  0x3dc926c73c3ce448U, 0x3dd612103d197a3aU, 0xbe2264d6be0e50cdU, 0x3dae63f0bda96269U,
  0xbd587a6bbdd504a7U, 0xbd4340d1be01c886U, 0xbc88d9803c35d41eU, 0x3d5729a83d47c190U,
  0xbe22999f3dd1ba16U, 0x3da26641be05ac56U, 0x3e7e71e6bcd567c7U, 0xbcc92e163e584fb9U,
  0xbe2d84c33b856aadU, 0x3c1e8ac2bcd3b560U, 0x3d3a6efd3dcb4031U, 0x3c6027a9bd8e84cdU,
  0x3d84a8d73cabf94bU, 0xbc5d1fbebdc884a4U, 0x3c0339813d84606fU, 0x3ae96e133d3ed768U,
  0x3d575a793d3daa9fU, 0x3de32062be05a5b1U, 0xbd8315db3c9b2363U, 0xbcb82bcf3d2199daU,
  0xbe3a4192be23250bU, 0x3d2b013cbe7292aaU, 0xbd8ac3f3be17389fU, 0x3e3f9486b98e10d5U,
  0x3d6e560f3dcead32U, 0xbd581dc03d9c7be1U, 0xbc0fbb913de9d871U, 0xbd43dcfa3934685bU,
  0xbe1398153d4ce225U, 0xbe611af7bcdf9865U, 0xbba479673ac428eaU, 0xbd349e67bdcf3289U,
  0xba14dd31be32288aU, 0x3cb37241bcd8fac6U, 0xbe1b91503d0f478aU, 0xbc143630bd09066eU,
  0xbe293010be5e8ca0U, 0x3da2b7f6be9cc954U, 0xbce080efbe9ac2f0U, 0x3d5af0d5bd6b7629U,
  0xbdb0f8a0bd245fcaU, 0xbcc455853de5b617U, 0x3c2c4fe93da4e9d3U, 0xbd0b5c30bd8a993bU,
  0xbe8bcb9c3e2a9b2bU, 0xbe40fd9a3e0b352aU, 0xbbbc29423d8d66bfU, 0x3cf13208bbd3e717U,
  0xbd633ca53d00cabcU, 0xbddb049cbdcd7911U, 0xbe93090e3d4ddcd6U, 0x3cb1b0d2bd76ff9fU,
  0x3cd4f9b9be92f314U, 0xbdf4dcb7be85896cU, 0x3e36544abeb12624U, 0x3c77f464bcbe7618U,
  0xbc257e553d826909U, 0xbd3b37abbd949514U, 0x3e15a6053e7f45caU, 0x3c38b3c3bd0c8f27U,
  0xbe14516d3e0b5946U, 0xbde491fd3d4dcd52U, 0xbba8e922bd0c383aU, 0x3c6e19efbd9ef8beU,
  0xbd2e8d4e3e51384cU, 0xbe4486d2bb17ea05U, 0xbe0447163d1f6242U, 0xbba5c7b1bdcbdde0U,
  0x3e369e863e0f9f43U, 0x3cc2a5c93d85dc62U, 0xbe639c4ebe209787U, 0xbd607126be77ae96U,
  0x3dc08e113e137574U, 0x3d984d9bbd936c5eU, 0xbcfa4788be339c95U, 0xbe005359bd16d771U,
  0x3ceb0bd7bde3756dU, 0xbddc6e2dbea07e6fU, 0xbe254ca9be8e099eU, 0xbca5e4ba3d03d15cU,
  0xbd8520563da4ca9eU, 0x3dba7411bdc71c51U, 0x3dad5dfb3e58f6fbU, 0x3d0103c6bc9c9640U,
  0x3e28e12d3cdee47eU, 0xbe808b8f3ce3010fU, 0xbd36ba09be8a72a7U, 0x3d8edcc5bdecae69U,
  0x3df24d6f3db67fa3U, 0xbbb6b12dbdbe3867U, 0x3d7ac294be390ba0U, 0xbdfcf316bdc2df87U,
  0x3d8ebfd2bd0f6938U, 0xbe3eb021be7f1709U, 0xbd8770b5bd1a7225U, 0xbded39b1bda4544fU,
  0xbcf0e8db3cdca28aU, 0x3d310edfbd9a4e15U, 0xbd9454e13e01d833U, 0x3d476bb13c24048fU,
  0x3e4428d5bdbcb6b2U, 0xbe290800be08097aU, 0x3e1efe4fbe431962U, 0x3e361fc5be315083U,
  0x3d84cad73deceaccU, 0xbe61be95be0c4085U, 0x3ccea66bbe8b3c14U, 0xbcb238e7bdcfdec5U,
  0xbdc703ecbd125281U, 0x3dad03d8be5cdcd3U, 0xbdbba1b5be0f0963U, 0xbd85b1aabe2a559cU,
  0x3c92b7483dc9d052U, 0x3e32038ebda4f0edU, 0xbe09cb56bda52b60U, 0xbdbd5f953c98a0b0U,
  0x3dbde47d3d89f5a5U, 0xbe1477fbbc6ec681U, 0xbd017bd73b88cb9cU, 0xbd19866a3da95464U,
  0xbdc60d033e4661beU, 0xbc2fdb8d3dc3c9deU, 0xbe892573bdd9ef8dU, 0xbd96cfe1be0e7233U,
  0xbb8a4454bdbeb719U, 0x3d34f09fbdd15b70U, 0xbe04f9cbbeab4c00U, 0xbe0502f63d9f1863U,
  0xbcc857f2bd82eb26U, 0xbc1140743d2d31b8U, 0xbe0c006a3dce89e7U, 0x3e51c789bd8768fcU,
  0x3e99a2073d102a95U, 0x3ccb6cebbdd6664eU, 0xbab4819cbc60bffdU, 0xbd9f0dd7bda2bf77U,
  0x3df7eddf3ded102dU, 0xbd05d4dd3c720e3cU, 0x3be8b2a0be57296eU, 0x3d2c4022be4d1222U,
  0xbdae93cc3e18f20dU, 0x3e6998debb246e6aU, 0xbc9a1862bde0203cU, 0xbe6d71c5bd9d810bU,
  0x3e256ea33d0e150eU, 0xbe73762d3e1f3bd5U, 0xbe5e54c43debe4a6U, 0x3dedf8b9be358e3eU,
  0x3e875ad83af17520U, 0xbc0cec25bd9d4607U, 0xbe7eaa4a3dc21327U, 0xbdbc2f713e107a84U,
  0xbd877a193e561c6eU, 0x3d74bcbc3c4a4b18U, 0xbd6e97b6be4c36dfU, 0x3dbb3b223d8ea0a0U,
  0xbd48d5cebe889755U, 0x3de00900bb53e98dU, 0x3e45e58bbe2d20d5U, 0xbce681eabd715ec7U,
  0x3e0d7ac13e4130d9U, 0xbe794e4c3e7c159cU, 0xbe0a4a4e3e4699b9U, 0x3c12ba35bdb79d8fU,
  0x3de19b38be391a3fU, 0x3c8e11b7bce05df6U, 0x3c41183c3d773301U, 0x3e4a669cbbc84344U,
  0x3dc4d99f3dd69f49U, 0x3d4c6a13bbbd2b2cU, 0xbd9d60bf3df11d43U, 0xbd14088f3defb5feU,
  0x3e727d223c0a5564U, 0xbc768b5fbad06da1U, 0xbdb824f33c7d3b9aU, 0x3dbc6c0ebcbce254U,
  0xbcd2d04a3ce5f2a1U, 0x3de0c749be2aecc2U, 0x3db19b33bd49a962U, 0xbc82fe46bde230c5U,
  0x3dac0700bdf62e24U, 0xbaf14e28bdcc68beU, 0xbdec26273db89644U, 0x3dfbc426bd1f53e9U,
  0xbd47ec2f3e070ab9U, 0x3cdf94ad3df6ba98U, 0x3a7173b4bd0f6a2dU, 0xbb6963f63df0a887U,
  0x3e462859be065dbcU, 0xbd251fa2bcde8374U, 0xbc0d2035bccc7cbaU, 0x3dc2d019bd73754bU,
  0x3d30bf603d8fd9b5U, 0x3cce9915bd59bbdeU, 0x3e206bb83e1afb03U, 0x3d4e926cbdb65de1U,
  0xbdd21abdbe35d1e0U, 0x3da44da8be121367U, 0x3d1f86d8bd79debeU, 0x3e4f0abfbde39290U,
  0x3d206b4c3e0e22c8U, 0x3c3e8d7f3d18dbf7U, 0x3d5125793d3b50acU, 0xbe2879f03d00717fU,
  0x3e879c2f3df85d60U, 0xbca1ccb9be10f150U, 0xbd150c453d7842f5U, 0x3d797db6bc9c7b73U,
  0x3db315803d22c0fcU, 0x3d905662bdf658caU, 0x3d0c31733dabb1aeU, 0x3df7888dbe0be8d8U,
  0x3e875e093db151f0U, 0xbe1039483db12bcbU, 0xbf01000abde2ff4fU, 0xbdd9e8d8be6c00b8U,
  0x3e4e31993e76078fU, 0x3e216611be4ca86bU, 0xbe50ec1dbec1d0c7U, 0xbdd1a9f4bd3cc1c8U,
  0xbc6351c8bddc6776U, 0xbe49d121be7c89e9U, 0xbcffb222be109c28U, 0x3dff7e8dbd641311U,
  0xbdfe9a7bbe670c13U, 0x3e099fe03d9c37bdU, 0x3db8398e3d874f86U, 0xbd99c8ac3e041db4U,
  0x3d85204c3e17da48U, 0xbca8095cbe0326d9U, 0xbe8a15e23db3a470U, 0x3c04566fbe114fd8U,
  0x3daac35a3e789126U, 0x3d8251a6be108571U, 0x3e33b9b7bea9e640U, 0x3e3d27f93e14b8dbU,
  0x3d1fd6d1be15c44dU, 0xbe379476be72b5a2U, 0x3d9e52063a3d01beU, 0xbd6d2e493dd38cc7U,
  0xbe1b8c3b3dada8c0U, 0x3bc1c97e3e3e897aU, 0x3e2c5c543dcea035U, 0x3d60c6843db0378eU,
  0x3dbc94893d6d64b5U, 0xbda87b3dbe8c778dU, 0xbe0fa708be2bdde7U, 0x3e4a2bb5be875073U,
  0x3d9305d13e1c68eeU, 0xbe39ecc6bdd7d45fU, 0x3e22918abe139beeU, 0x3e347ca53dbca00cU,
  0x3bf712d7be5c7b4eU, 0x3d7c6d35be924addU, 0x3d7c3b1abc8c886fU, 0xbe0ee09fbd344bdeU,
  0xbdd9ef433d558d3fU, 0x3e67637a3e4f12f1U, 0xbcd74ee93d1185deU, 0xbe0ed3ffbda1ec92U,
  0xbdfd83bbbc968a1bU, 0xbd05250bbbe38729U, 0x3e8f545dbd5d9330U, 0x3dbe46d4be0edc1cU,
  0x3d02cc2d3c40a6d1U, 0xbda811a8bd7d57b4U, 0xbd96e216bd4cfcd0U, 0xbddcbf58bbb63231U,
  0x3d45ae183e4101d2U, 0xbe3765e73e1f9425U, 0xbe82ad6d3e98f511U, 0x3e366ffc3dd7c198U,
  0xbe6efad63e0d8552U, 0xbe5c044a3db8d9b6U, 0x3e10d4eb3dc44961U, 0x3ac6e9d4bc31fb94U,
  0xbda9f3c0bd666cabU, 0xbdc070de3df9437aU, 0x3d1b17853d3d6b11U, 0x3d362028be28cb31U,
  0x3d9a6c3c3c30f9adU, 0xbdf6a4203cbfbce9U, 0xbe980045bd543951U, 0xbe27987f3db817a6U,
  0x3d9be1a43e386eaeU, 0xbde50a54bc93e505U, 0xbe90447e3e599547U, 0x3e052c583e14d4adU,
  0xbe8c0c923dc8292eU, 0xbe36cacc3dcc92c2U, 0x3dc2d3afbdab8e6bU, 0xbd84c6edbe2e4a88U,
  0xbdba9ce1bd8ada83U, 0xbd795e683d95fcdbU, 0xba1c3b6ebd8718e7U, 0xbc94b4f63d443f8eU,
  0xbdf3c7ac3e094c54U, 0xbdd82953bd6cdf0aU, 0xbea49678bda41d32U, 0xbcb88ad13e11190bU,
  0x3d5ecd3a3d328957U, 0xbde8af8fbd1b9609U, 0xbe9313d73df76afbU, 0x3e4417e23d8025a0U,
  0xbe6ab1ee3e194dccU, 0xbbe4a4ba3d035b7eU, 0x3e68a0a93d1d00b0U, 0x3cff6836bd206553U,
  0xbc1272113d34fc1bU, 0x3b9c1a823e956c79U, 0xbdb80e30be109582U, 0xbe1b7204bd0f8e43U,
  0x3dad96a2bd776a50U, 0x3d20ddf73c790aa8U, 0xbcfd69a13c3d2f72U, 0xbd99ad743d8f7e35U,
  0xbc2b18cf3d76f4a6U, 0x3ea80b203e2cc813U, 0x3cc0c7a0be2dd3a5U, 0x3d6ef93f3d48d0efU,
  0x3e86c7c13e891c8eU, 0xbe26ce2dbce19269U, 0xbe3e888ebe30da52U, 0xbd6d25f63d837c1eU,
  0x3d8f4ad33dac9d51U, 0x3b2a466f3e36bac4U, 0xbd1c4fa9bd02acaaU, 0xbe4f23493d8508f1U,
  0x3e5170e5be31ce33U, 0x3dc737a1bddb47f3U, 0x3d3693f43c729753U, 0xbcac0764bd1c8c58U,
  0xbe00d3043daa7713U, 0x3e621af43d38b564U, 0xbdbb3610be1e4861U, 0xbd92b9c33d9487a6U,
  0x3dd6696b3e2fed38U, 0xbdb65f7cbd82bac6U, 0xbe3b63d7bd7c7f2aU, 0xbd3be9ca3dbaddf0U,
  0x3d902356bcfbfde9U, 0x3cda41463e1e0ebeU, 0xbdbdffea3e22f262U, 0xbe8125d0bda0d354U,
  0x3cf86c54be6ef9ecU, 0xbd8b12f7bc05bc20U, 0x3e5427213d899a8eU, 0xbd074f4cbd6f67f2U,
  0xbebe86253e577e4aU, 0x3de0f793bde2d879U, 0xbda64989be3cbf4cU, 0xbe4c38513e1217b0U,
  0x3de5a0b23e3b0d62U, 0xbc09feec3e5e566eU, 0xbda688f43da4b202U, 0x3e22d9243db9f28eU,
  0xbda12ab0bdedd2beU, 0xbdec046a3d934319U, 0xbcd457733e6364c9U, 0xbe85ef523df13d6cU,
  0x3cd791c73c82d82fU, 0x3dc3805ebe0334a2U, 0xbdd203bebd3249b3U, 0xbddb9cc23d9994aaU,
  0xbce98509be5d628eU, 0xbc8d50623d7e6cb3U, 0xbe8e5fde3d981ae3U, 0xbe132a603e85cb8bU,
  0xbd9e0934be19cc1fU, 0xbe8265313e1b2cd5U, 0x3c17a2223e124f0aU, 0x3d88deb7bd830b10U,
  0xbe86c342be3cc136U, 0x3d8e44373e0e7ab3U, 0xbe2157373e19ad3dU, 0xbe839c1abd6f61d9U,
  0xbd26d9bc3d5c69d8U, 0x3d461680be339821U, 0x3be5aca23b078a4aU, 0xbcbdeb1ebe170a8fU,
  0x3d9126cfbdcb516cU, 0xbe8188d7bd5bfc92U, 0xbe6119cdbe34ea79U, 0xbd0a27a43cd2a08cU,
  0xbe561ca6be31c547U, 0xbe0261353de6cd53U, 0xbd72e6403e09e32fU, 0xbdc712dd3d8319f1U,
  0xbe868539be97ff14U, 0x3daab589bd6de274U, 0x3c48fed8bd5bca4aU, 0xbd8db750bdb76a2aU,
  0xbd189c293cfcb7d9U, 0xbc187ad6bd821774U, 0x3e1e3481bc8f0e28U, 0x3e50cbecbe4524e3U,
  0x3df1587fbe024af2U, 0x3cacd1a1be028273U, 0xbe6dde51be2736eeU, 0xbcdc2be73da6a840U,
  0xbea0404ebdefba5bU, 0xbeb8e3293d1b69f4U, 0xbbf60cc13e5e5e10U, 0xbe0523fabd8d9117U,
  0xbe2a01233dab43d7U, 0xbb3e0c8e3ca119beU, 0x3ed3efd23db97fa5U, 0xbdf24104be7c3adbU,
  0xbe0513e4be0aea83U, 0xbda01af5bcc91235U, 0x3e022a013d194efdU, 0xbc3ee5153da05245U,
  0xbe9431a9bd9ce526U, 0x3d0bf2b3bdf27803U, 0xbdad7166be929ecaU, 0xbd28d382be592082U,
  0xbd04c6d23c8d157fU, 0xbe16edc63d36e8ebU, 0xbe072ff83da4640dU, 0xba932d92bd13ed7eU,
  0xbe158c37bdb8ce21U, 0x3db3b077bd40ef5dU, 0x3d8594f8bc5c7c4bU, 0xbe3ecb7ebe582601U,
  0xbda7e142bd982cf9U, 0x3b65c718be37932dU, 0x3d898bc93e3d2ee5U, 0x3cc5bcbbbbec4b05U,
  0xbe250e353a349a0aU, 0xbdbafdb4be8e8ed5U, 0xbe27ea21be38069cU, 0x3c3d9c2abdc528d3U,
  0x3e3485d7bd1e80c5U, 0x3d9dfe6c3e248d03U, 0xbe91804d3d9a52d8U, 0x3e1ef7113e19a4e9U,
  0xbe89453fbcb36b94U, 0x3e663fe7be0217f8U, 0xbdd0852b3c85151aU, 0xbd355795bd7c2e1dU,
  0xbc08d47a3d22858dU, 0xbe35192e3d6a2034U, 0x3e7ffb653e86ab16U, 0x3e8a7b5c3d2068f0U,
  0xbd84b20d3de9eab0U, 0x3dd7a082bdb2e139U, 0xbe3dabeabde586c2U, 0x3deed2743e338055U,
  0x3dc5b4a73e6f8ed3U, 0xbd8c29343e187f4dU, 0xbed604a73e10f5b8U, 0x3da361a03e329e4eU,
};

AI_ALIGNED(32)
const ai_u64 s_combination_onnxAdd_127_bias_array_u64[16] = {
  0xbf36fd74bed6e3eaU, 0x3eb19e463ea4553fU, 0x3e173986be8cec3fU, 0x3e1f07143f0ab4e6U,
  0xbcc64df03dcea66eU, 0x3e5058883f7932ccU, 0x3e20b944be7d0769U, 0xbdd6ac3c3e4f8a94U,
  0x3dbae6f4bea4e9b1U, 0x3d19ef083ef6b31bU, 0xbebc0576bf240273U, 0x3f28b3aebdb956c0U,
  0xbd61a7343ec4aa65U, 0xbdebfd64beed1c55U, 0xbe9e5ec43e19ae09U, 0x3e84b0af3f4b53b7U,
};

AI_ALIGNED(32)
const ai_u64 s_combination_input_60_weights_array_u64[1536] = {
  0x3938fe6bbe070c00U, 0xbd683dedbd06bb95U, 0x3ced5a6cbdcb0eb3U, 0xbcd6733abcf3e0e0U,
  0x3d4537893d1582eeU, 0x3d78a8153cf45a7bU, 0x3e4540c8bcd18eb8U, 0xbb1281413df0abbdU,
  0xbd5d06ff3d675ae8U, 0xbd78af6a3cf2ddacU, 0x3e3526a1bde41bfaU, 0xbdd6e10a3d77f9e2U,
  0x3d7f9bb93dff0bdfU, 0xbd84c8c63d97807eU, 0xbd5d76e63da40a7cU, 0x3d8c62dfbd6bd088U,
  0x3e0ef7eebd7390b2U, 0xbd20ce523d65852aU, 0x3c4fca0fbe29a30fU, 0x3cd7ce52bd9da7a4U,
  0xbd1b32083c30bdbdU, 0x3d02e698bd82a2baU, 0x3dbbc307bc35c967U, 0xbd419e903da2ecf9U,
  0x3d15cd073d660425U, 0xbdf5d477bda51119U, 0x3d05a85abd90cf99U, 0xbd1b7cf93bd45f84U,
  0x3d8d2373bdfa37bbU, 0xbd9704523dbadf23U, 0x3d3db3d2bde3ad83U, 0xbd0bc8993cff2979U,
  0xbd100e02bd4a14f3U, 0x3e32da2dbc0be8fcU, 0xbd5879e43c8bdc4aU, 0xbd82c3353cf1d774U,
  0xbda1b522bd651e2fU, 0x3d24d825bcd67a96U, 0xbd814803bd7ac5b6U, 0x3d529a34be0a5289U,
  0x3d09cce1bcb7b854U, 0xbd430df8be438964U, 0xbdaff027bdfd9f69U, 0x3c00305fbd190d24U,
  0x3de2b54d3e06d5faU, 0xbda5fe303a9db3efU, 0x3c6256b6bd95a522U, 0x3a2f9097bda596b8U,
  0xbdb631273d3dc1afU, 0x3d3c53f23db82acbU, 0xbde964c4bd1ac554U, 0x3dc058e83cbe617dU,
  0xbdfdd2b8bdf108e0U, 0xbd2df94c3bfea1d9U, 0xbc943b7cbe353375U, 0xbb736b1abc0db41bU,
  0xbcdf13f0bd2f6117U, 0xbe0b413a3d862ce6U, 0x3d0f59563d6461afU, 0x3d61a94f3d40be54U,
  0x3d01428a3c33984cU, 0xbdbfcd16bcfcb318U, 0x3cb6dc883d7388ecU, 0x3ca7702fbd16f1a9U,
  0xbdb07cb13d4071c5U, 0x3ca2113a3d59b8dbU, 0x3d0c1b87bddf8481U, 0x3daa8fdf3da42e30U,
  0x3cdd5afbbd85b189U, 0x3d4a4ca5bdd2e077U, 0x3d150f25be0df170U, 0xbbc86fe8bda2fdcaU,
  0xbde765acbc076283U, 0x3a7cbd323d1706e6U, 0x3d31d6423c98d224U, 0xbd1f79ee3d01eee3U,
  0x3d23cd6f3d47c719U, 0xbda152a03cd02264U, 0x3d1f10ec3d81e7c7U, 0x3dca4586bc0a110aU,
  0xbdbc77483e213790U, 0x3c817bacbd3988bbU, 0x3b30b103b905e0eeU, 0x3c93ee163dc0c331U,
  0xbdccdec7bd98d352U, 0xbde586b2bc3e5aa3U, 0x3ce32116be5369b1U, 0x3d987329bd815a05U,
  0xbc94406dbd1e3ab3U, 0x3db256b6bd8650d4U, 0x3a0f0f06bd901825U, 0x3d255a55bdd13177U,
  0xbc97bd4a3d6d400eU, 0xbc12f661bd57234eU, 0xbd637f73bcf8dfccU, 0x3cd22320bd2d5923U,
  0x3dc83bd4bd554248U, 0x3cf350ce3ddd9b39U, 0x3dd79e253d4419e7U, 0x3d7aacd4bcabc305U,
  0xbd66aaa1bdc979f2U, 0x3c87ec073c236335U, 0xbbff22f93d6339f5U, 0x3c9336e6bd8a3572U,
  0x3c3b85423dfa1da0U, 0x3a7334da3c1c48dcU, 0xbcb6f4973dcf9c7eU, 0x3cc2a11c3cd2d8f0U,
  0x3c99a678bd4859e3U, 0xbd5ecd8a3d9425afU, 0xbd56e9df3c37b244U, 0x3c09cdf63d83ba19U,
  0x3bd9d394bd846bb1U, 0x3dfecc823dff020aU, 0x3ca053773dd8db2fU, 0x3d3f1c533b223552U,
  0x3cc60fd53cff381cU, 0xbb3bfb5d3c5f7c5aU, 0x3cf3a96c3d2721d0U, 0x3b903865bc5a4909U,
  0xbd1162ec3dad56b0U, 0x3d649dc7bd75ce90U, 0x3cb0c7a93db5fda0U, 0xbd50f0bfbd56bb63U,
  0x3d9ec69d3b9578f7U, 0xbbc802323d303d5fU, 0x3d3973e13ccd337dU, 0xbd0de66a3d98e527U,
  0x3d960e1abe1d7607U, 0x3ca1cb533d131753U, 0x3df603383e154bb4U, 0x3d8bf101bcafdea1U,
  0x3c82d5a13d6af944U, 0xbc4b1bd9bc7e028dU, 0x3d5914a33daa13a8U, 0x3d265d9dbd7db1d8U,
  0xbc2821afbd24d44eU, 0x3d29acc23b22ddb9U, 0xbc2f33943dbadcc0U, 0xbd5b0b33bcf316d2U,
  0x3dd2b6283ca4e16fU, 0xbd0df239bc78fb6eU, 0x3dccc4a13c384c45U, 0xbda8563d3d895d25U,
  0x3c406e1bbd765513U, 0xbd8ebcde3ca89f7fU, 0xbdc66f523d49b2dcU, 0x3d5afea73caeea23U,
  0xbe2085d4bd20a112U, 0xbd403545bbb40592U, 0xbca97733be59d3dbU, 0xbd74e44a3d443438U,
  0x3d658e603cf3e1eaU, 0xbad3e67fbd98bf71U, 0x3c8eae9a3d07e04aU, 0xbda37aaebe0a8ae0U,
  0x3b876a0b3c8db7e0U, 0x3c6d6425bbb3fa6aU, 0x3d6139633db987f7U, 0x3d311e633d5fd4ffU,
  0x3d2eda62bd86639eU, 0xbc85620fbc1ee554U, 0x3d0ebc8a3d17ade2U, 0x3d56195ebc919548U,
  0xbdf70daebd2eaeb7U, 0xbd33a368bb98b7fdU, 0xbd2ff597bda858d9U, 0xbba4f2bd3d317fdeU,
  0x3d31de80bc2530e6U, 0xbcd618d4bc8aae1eU, 0x3c53db223c199f51U, 0xbd8d3d1bbe15e7e7U,
  0x3cb87bbdbd2c9087U, 0x3c5f58c2bd1239afU, 0xbd26d7863d5b7410U, 0xbbc007bc3ca7ea81U,
  0x3da771c6be02a840U, 0xbd1d74f8bc73a392U, 0x3c8384ac3d4fac4fU, 0x3d5ba1febd2c2b7eU,
  0xbdc862c53c0d9fd6U, 0xbd356b51bd82e1ebU, 0xbdb47e1dbcb013caU, 0x3d20dbd5bcc72a88U,
  0x3b8a338bbda932b9U, 0xbd41b457bd4b8665U, 0xbcfb508d3cc3a060U, 0xbd718deebe066c15U,
  0xbccbb4cdbdb31a76U, 0x3c831e6e3c9be455U, 0xbd9b75973c994637U, 0x3d077a4e3c198c9cU,
  0x3c7dc543bd6bca68U, 0xbd2341203d6baba3U, 0x3d45eb3cbd1bd424U, 0xbcc1f161bb947aa9U,
  0x3c7c24963d64302aU, 0xbbc9a80ebd8280c4U, 0x3d8b529abd1a869aU, 0xbd7d943b3dc040adU,
  0x3d82bdb13cd28396U, 0xbd509c903d93f5d9U, 0x3d69e4823e151430U, 0xbd69b2823d65e5beU,
  0x3dafbf1b3c9da67bU, 0xbd6d63893c191d29U, 0xbcefa85dbdbdde1cU, 0x3d8fedea3da92b97U,
  0xbc88e5febd36a73fU, 0xbd1d22083ccd002cU, 0x3d3eeb37bdae5e0bU, 0xbc80c7e13d2120c3U,
  0x3cd493cb3c596c69U, 0xbd25e096bd8437b0U, 0x3cd69b3abbc7de17U, 0xbd0e7d62baf7bc6cU,
  0xbd266e90bcd656e7U, 0x3d171fc93d964480U, 0x3cc4d3243b7c8133U, 0x3cbf8e0e3d8bb43aU,
  0x3d3d7ad33d3099deU, 0x3a5bfefabcacd1f2U, 0xbde0e0a5bd88bbeeU, 0x3d3684a03cd40dbcU,
  0xbc648b8dbb977faeU, 0x3baab5ed3c0861deU, 0x3d189a9abe137da3U, 0xbd06d6d8bbfdf3bdU,
  0x3c4c4c0cbd9af2c5U, 0xbcd86358be40d1e9U, 0xbe17db28bd7b8b86U, 0x3d1e1f3cbc629404U,
  0x3c64248a3d17213bU, 0x3d4030f33da6dc41U, 0xbce771333dfa53ecU, 0x3d6c9f7a3d3bd3ddU,
  0x3d0237793da31843U, 0xbc95ec1fbd61a581U, 0xbd8772b4bd943af0U, 0x3dd627fe3d2d9903U,
  0xbc59aed33c088052U, 0x3bced2bc3daa87b4U, 0x3d931bd93df73e0dU, 0xbdca97d23d12c113U,
  0x3d4708783c610a1eU, 0x3c2a66d0bd0d344eU, 0x3c6569d13d49dc41U, 0xbc4a331ebcd03d7dU,
  0x3d1446ff3d2996dfU, 0x3ca0f181bb802f14U, 0x3cbd63493a3a730eU, 0xbd7902533d15d2a6U,
  0x3c7b8c66bd85f7f2U, 0xbd4bcfc5bc654f4fU, 0x3dbf34eabc1d026aU, 0x3cfebf133c241846U,
  0x3c9e45403d03b211U, 0x3c4783d23d93a75fU, 0x3d62c3f63d2cea48U, 0xbcf702933cd4a960U,
  0xbb217dcdbbdd7a37U, 0x3d6aa64cbd5d9bddU, 0x3d6b9ffbbb08b07cU, 0x3c74b28ebce9a4bdU,
  0x3be1d9603ddad508U, 0x3db61e1bbcc347d7U, 0x3c9bfce33d3bdd39U, 0x3ca91e433d962f5eU,
  0x3d406d9cbd5be079U, 0xbd23df5abc23ccb2U, 0x3b8eda10bd8e2b5fU, 0x3d8e95273d16aa54U,
  0x3d2c48ae3d9f94d3U, 0xbd29291e3dcd8ee0U, 0xbc442ad7bae7cc48U, 0xbd35fa503ba041b1U,
  0xbd4d238fba065492U, 0x3d940fc8bdbc1fa5U, 0xbd111dc53ca67c7eU, 0x3d9b0f93bd3aa068U,
  0x3cc4af033d50b3c3U, 0x3d5b7bcebd537c7dU, 0xbd083eef3d0c8e24U, 0x3d712060bc201a50U,
  0x3d8132993c75580aU, 0x3d0416e8bc8027fcU, 0xbd50236ebd0f12abU, 0x3db0ea153da5a93fU,
  0xbd945bb7bc83d7b8U, 0x3d8460d83d90b7ffU, 0xbd82e39cbdeba13bU, 0xbd3674293d04bae7U,
  0x3d828dfebce23dddU, 0xbdda664bbceb3734U, 0x3d1ff9b9bd7afd42U, 0x3c643ac53d9370d6U,
  0xbe227903bd5cc084U, 0x3d77d6233d0a7625U, 0xbdb6cda2bbce2dc9U, 0x3cc1b037bda52607U,
  0xbdc2adecbded9948U, 0xbe2a11493cc07c6dU, 0x3d5ec6783cff4b9aU, 0x3d8afdd5bdab31cfU,
  0xbde47f35bb369c90U, 0xbcf0a1d13d7f1b33U, 0x3c060b89be133ee1U, 0x3c38084fbd432d40U,
  0x3d2d2671bda55c0aU, 0xbdbddd5cbd1b5da7U, 0x3ddd1d15bd9b98e0U, 0x3d036fd4bc3f1178U,
  0xbd16b9803ddbf5f5U, 0x3cea4cf33d654618U, 0xbbbb45973da427e7U, 0x3cf7992bbce0b893U,
  0xbd4199383ce5f3aeU, 0xbe30b54ebc41ca54U, 0x3c87c580bc336a4cU, 0x3da360d7bdc30a07U,
  0xbe05f1203dc10fb9U, 0xbc1878323d8f03e5U, 0x3cc0b292bcdd60ccU, 0x3dbd71acbd20dce3U,
  0x3cd3946bbdad3887U, 0xbd31b8f73d942791U, 0x3df86ae1bdd91eb7U, 0xbcada5cb3d051e6eU,
  0xbd3fbdeb3ca4ae87U, 0x3de001953d405fb3U, 0xbc300078bc454b77U, 0xbcbb86753d522f40U,
  0x3d29a7f4bcddef35U, 0xbdfa740f3d44354fU, 0x3d5b2492bd103afeU, 0x3ddd194abd9b8925U,
  0x3da47ef23bb4c4b7U, 0x3d79a364bcc84302U, 0xbc5fc0c93d3c002fU, 0xbd2493e3bd14c8f7U,
  0xbc5aefff3daa42aeU, 0xbc349409bd26837aU, 0x3cb12e21bc8a1bfbU, 0xbc8c3b03bdbfd5f3U,
  0xbdad6adcbd1595fcU, 0x3b3def4ebda52a76U, 0xbd402d18bbadfe76U, 0x3cb8fd78bc6e8147U,
  0xbc5b0779bd9c4587U, 0x3d805e78bd1ee4bbU, 0x3b21ab3cbd3402a4U, 0x3da3d4193c60b177U,
  0x3c8894aa3d72de6aU, 0xbb9086a9bd8e46cbU, 0x3cc5e4dc3d6f40f3U, 0xbdaca561bd6d6825U,
  0xbc035fb13d91fc58U, 0xbd8ded9abd412003U, 0x3c48c32c3b6f0177U, 0x3d292b18bd4d627eU,
  0xbd94c39b3d28b229U, 0x3cd0cf80bd586490U, 0xbd0ae8ee3d24152aU, 0x3d0085233d498899U,
  0xbbf0dc93bc6e58c8U, 0x3d8db53ebd377904U, 0x3ca6c1b73d223242U, 0x3de457d43d684143U,
  0x3d19cbde3d95b2aaU, 0xbc6f58233a5bece9U, 0x3db9e3a63d1c71b5U, 0x3c0554e8bd900311U,
  0x3d1ed3cd3cde5c46U, 0xbd0b1da13b2801fbU, 0x3d40e80a3d656e4bU, 0x3c84a011baf9f857U,
  0xbdca30083c33935eU, 0x3d140083bd995f26U, 0x3d3f7e75bc3306b9U, 0x3ced78263d51ad3bU,
  0xbca0c85abd46f5fcU, 0xbc630a49bca46100U, 0x3cd9b8433c69e33eU, 0x3df8885b3cf3d15eU,
  0xbda7c6fc3c6a1799U, 0x3cdea9eb3c4bb719U, 0x3d229bbc3cdc2669U, 0xbcf6e9593cab6900U,
  0x3d2d1dc7bd99e5f4U, 0xbd36ac663d6ca435U, 0x3dbb2546bb12fc33U, 0x3b8f52573dc3903eU,
  0xbcb79a5a3d1fba27U, 0x3b9b80df3d818d43U, 0x3d3a4bb6bdb605b9U, 0xbbd9c15d3c76967cU,
  0x3d0ea5423db92601U, 0xbd9daa8a3bd7f7a5U, 0xbd81f7de3d38dfafU, 0xbc8e1be13c339fc8U,
  0xbd92cc473d63ade1U, 0x3c8920fa3d72e722U, 0x3d253cb2bc5d4198U, 0xbc36fca13dac3eadU,
  0xbc1af104bd52da59U, 0xbc5078e53d5300c2U, 0x3d79a90dbcea20f1U, 0xbcb07b9a3d2ef3a1U,
  0xbd9a28e03d98cca6U, 0x3d2e7c803d20f76eU, 0xbb998b033a5b76c0U, 0x3ca2ee4e3d84c0b1U,
  0x3c4ecb523d98525dU, 0xbdf40c1d3cff864cU, 0xbd077cc63d34a88cU, 0xbc456772bd0cbc9dU,
  0xbd9c8dde3d0883beU, 0x3d205e2f3cc29369U, 0x3c4bbeba3d3c71afU, 0x3cba78373d9451e4U,
  0x3d5a4845bd0641e5U, 0xbcab8b0e3cf8a634U, 0x3da99cdfbb12cc13U, 0xbc8371f93d0510a2U,
  0xbd609d683d60e06eU, 0x39890e923d4d77d7U, 0xbd3cbece3db88a5dU, 0x3cd4fd763d5b3c5cU,
  0x3be3382a3c84c353U, 0xbda2279fbcee7c91U, 0xbb2b17e13d41422aU, 0xbd160dddbd94d935U,
  0x3e20368bbd4801f3U, 0xbd60329f3c87ebf4U, 0xbd9fc03e3caa5836U, 0x3cd6edc2be129e2cU,
  0x3d0813543d6fd170U, 0x3d1ee0ebbcfc46c8U, 0xbcc49f8f3dadaa9bU, 0xbcfe07cfbe39b60bU,
  0x3d797a55bc39ac90U, 0x3c035974be0b7673U, 0x3d051a82bdaf5bb6U, 0xbd87214dbd43a59bU,
  0xbbda8a9dbd768e95U, 0xbd68ce003ddfe986U, 0x3d4c2fedbc8fe19bU, 0x3d28fd5bbd15c39bU,
  0x3d53c2203d1c91a3U, 0xbcff9b8abbd18bc7U, 0xbdb88c923df3c0afU, 0xbd61e2a23cd5f09aU,
  0xbdb026b03d7afd8cU, 0x3d31eb113d63a0a8U, 0xbc424d1bbddb2b1cU, 0x3c122460bd2c2ed3U,
  0xbc25344fbdbe05adU, 0x3d6b2a88be0fcba4U, 0xbdc5ae5abdc497b7U, 0xbccd6aacbe1dc9deU,
  0x3a05bff13d6f32f3U, 0xbdaa849d3d4d7715U, 0xbce68baa3d05cdb5U, 0xbafad276bcbf5281U,
  0xbd1015073db4341fU, 0xbd7be5543b875e96U, 0xbd465b653d24acc7U, 0xbdcdeecc3d6efc9fU,
  0xbd2240a23c404beeU, 0xbd92f002bba2f999U, 0xbd570229bdd47d03U, 0xbd8874803d21e6fdU,
  0x3cd0b455bca0c7caU, 0x3cdba8f53cd817d3U, 0x3d8406d0be17a213U, 0xbb46e9ebbdd2f98cU,
  0x3d028de83dae8098U, 0xbdf8b7643d234875U, 0x3cba14c13c76fc61U, 0xbc1b0f64bd812db7U,
  0x3d64b860bc1539e7U, 0xbde87bf03d1af928U, 0x3cf223b93e0a50bbU, 0xbd43abac3ccc025aU,
  0xbd4531d33d5a125aU, 0x3dcc05aa3d97e5b4U, 0xbd10eb8abd9ed746U, 0x3e2899a03d0c295dU,
  0x3d9f705b3dc420d5U, 0xbd0c26bdbd798224U, 0xbcfd1faa3d05ff1eU, 0x3e085bc3bd076999U,
  0xbd3127013d91fb88U, 0x3ce0516a3d433777U, 0x3a8bcfad3c7c38baU, 0x3dbfbb3d3d2a62e7U,
  0xbcffa860bd16fa46U, 0xbd9351a23db3b7ddU, 0xbd79901d3d8b3ffcU, 0xbc4089733d491509U,
  0x3ccab92dbd2bfa59U, 0xbc7671563da75946U, 0xbcf384bb3b882a7dU, 0x3c4a4b0537a99105U,
  0x3d36663ebd0d22ccU, 0xbd37c19e3b01fc78U, 0xbe019582baf6ecadU, 0x3d3e05cdbd86f57eU,
  0xbd392eef3e039019U, 0xbb9f77c23d43645cU, 0x3cb6504e3c943e94U, 0xbd3c31693ce0f745U,
  0xbdcec82c3baef8d6U, 0xbd6e6ee33adb44e8U, 0xbe3069b5bd2f0784U, 0xbd5d5ef93da0216cU,
  0xbd665c933cacf602U, 0xbd3e54a63d3887f9U, 0x3aef0a943d40166eU, 0xbbfbab493d89c485U,
  0x3bdfad3d3d02fe0dU, 0xbd3f78f1bd37f167U, 0xbdae779e3d876efaU, 0xbd966c18bd958d7fU,
  0xbc5eecd43df3d5eaU, 0x39be0caa3b7fd6f2U, 0xbd2a86a53cb16638U, 0xbd6b8d8bbd202e8fU,
  0xbc8ab0963d11c90eU, 0x3cb30d743c052f4bU, 0x3cc82b2d3d986d1bU, 0xbca264413dd51036U,
  0xbc5c11003a925135U, 0x3d23a7b3bd3e0a24U, 0x3d0f6940bd05362eU, 0x3daa9b2e3cfb0659U,
  0x3d876d633d3c3fd6U, 0xbafc59433d407893U, 0x3da4b2f03dc5302fU, 0x3cd962963d76ccd8U,
  0x3da22e2d3d91458cU, 0xbcb1d756ba1a0839U, 0xbd2374583b45438dU, 0xbb8db794bc4d5d04U,
  0x3d8cb202bce817dbU, 0xbb49134a3c8e011aU, 0x3d9db29b3c54eb64U, 0xbc0864a33d8a63d0U,
  0xbcec70623d798240U, 0x3dc1f462bd1ec790U, 0x3c91eb903cf9da30U, 0x3d881ec23d561b06U,
  0x3d46cae1bc5e20d4U, 0xbcb49ff4ba55d341U, 0xbc9bc7183db679dfU, 0x3d721be53dc36807U,
  0x3d8103443d850806U, 0xbd94cd193cad8494U, 0x3bfc73183be5e281U, 0x3adac06ebc959072U,
  0x3d447d6abc597752U, 0x3bfe65c4bc3f6809U, 0x3dea215dbcb7f426U, 0x3d3e370f3c7c8a8cU,
  0xbd2fa90c3d8b7e01U, 0x3ba40409bd740e16U, 0xbc671b77bd6e449bU, 0x3c7ffcc13d131871U,
  0x3db4b662bbc91910U, 0xbd5ee564be034c50U, 0xbd2fc3fe3d284417U, 0xbb4e3c2bbcb18cd2U,
  0xbcbcd8223cbc249cU, 0x3ccdbf61bc5c5560U, 0x3d0782b23b90901bU, 0xbc2fb88dbd06d20cU,
  0xbde380623d98cf8dU, 0x3d564cb23c28271cU, 0xbc9af615bdb05746U, 0xba8b7b5a3c84cbaeU,
  0x3caa8c62bd92bc5bU, 0xbda6f1ef3dda1f19U, 0xbdbb6699bdef9489U, 0xbca9627fbd3fd7cdU,
  0x3d7673b23bc14206U, 0x3d8d32263c762f84U, 0x3cf0caabbdd0e995U, 0x3d89e908bdb0d78fU,
  0xbd691a4e3b17e083U, 0x3de5bfd3bdc131f1U, 0x3d93ad97bd1bf021U, 0xbc698014bd1816f0U,
  0xbd8c47b53cb98028U, 0xbe04aff8ba4fdbf4U, 0x3cb95aae3d34fc89U, 0xbd4102453d1642ecU,
  0x3d93fca0bdb9870bU, 0xbd9d17f23be2b172U, 0x3d039bd3bdaa0912U, 0xbd6e3158bc4dcc71U,
  0xbb9148feba993e08U, 0x3d9a73d23dd54ba4U, 0x3d90d5adbdeb12f5U, 0x3cce00f63d99e348U,
  0x3c9d7ed13c92bd02U, 0x3db9dd28bdd17040U, 0x3c41efadbc609c11U, 0x3d9a99183d47e875U,
  0x3d46d33abd546887U, 0xbe04af793d738793U, 0x3d579e43bcb1a354U, 0xbd9895723d3dc411U,
  0x3d853ce9bde5179dU, 0x3e00319c3c3da7e8U, 0x3d3f9cc5bd61b831U, 0x3c8c1e56bd0ff70dU,
  0xbdcb0ed43d6b64c7U, 0x3db5fe2e3e0f811eU, 0x3daeaffabd84fd94U, 0x3da5f02f3cfe73afU,
  0x395cb3aa3d5e3c4dU, 0x3d984318bc0b3130U, 0x3cf15fc8bc7914b3U, 0x3d671dac3d0a3acbU,
  0x3d02d4aebd3793bcU, 0x3e0403c5bc200bdcU, 0x3e131b093d6f864aU, 0xbd50b045b79bfa85U,
  0xbe5e8fc23d04d1ccU, 0xbd02331c3c648370U, 0xbd906a65bd87a694U, 0xbc2e63cfbe021840U,
  0xbd6ba89cbe40fc79U, 0x3d460e23bd9585c3U, 0xbdbf46a3be0c98ffU, 0x3db75392be0c0d34U,
  0x38f611f6bcf2ef4eU, 0x3d2a688f3d73fcc3U, 0xbd5994b6be290ec2U, 0x3c6c604ebde04dfdU,
  0x3d54b802bd650669U, 0x3d75c4db3d20a9c2U, 0x3d84b2503d7aec5fU, 0xbdaae3a53cba4b2bU,
  0xbcda4de5bcd891a1U, 0xbd8afbd13d8ee52dU, 0x3d9c11f9bd8ffd45U, 0x3cf4c5abbdab2a70U,
  0xbd48294f3bda7ce8U, 0xbb2320af3d9a99d6U, 0xbc52ccfabd6e0aeeU, 0xbcb049f1bd928004U,
  0xbd0ec81d3c74427bU, 0x3dba7a7a3ddb3c31U, 0x3cef0b09be006c61U, 0x3d573ad9bdacf41dU,
  0x3db063a7bc8677deU, 0xbc47d2ba3d23ccfbU, 0x3d74a2633dd48e77U, 0x3d659db43d8f9f6eU,
  0xbd06cd823de9097aU, 0x3e15bdd83cea2043U, 0x3da3f7513d4191a6U, 0xbccb2e4fbda18ec2U,
  0x3de2302bbdd4cef3U, 0x3da011913dff3185U, 0xbcb358333ce2f613U, 0x3e43a0b73ddf4f82U,
  0x3d8c3be13d4a78c4U, 0x3e0887113dc50811U, 0x3cc1690c3b19d607U, 0x3d0ee13ebd98fb8dU,
  0x3d39f4b1bca83b26U, 0xbdf469563ca2feebU, 0xbdcb4f7dbb9f2f13U, 0x3e1df483bdef6c30U,
  0x3dffce3f3d3f3755U, 0x3cf175a1be09bf3dU, 0x3d793cdc3da38d6dU, 0xbccb576dbdb3f963U,
  0xbe46fbc2be0724dfU, 0x3d16da393c5318dbU, 0xbdb3ff74bcf03dc1U, 0xbd1a15f8bc046f53U,
  0x3dbae5d7bdd0a5a2U, 0x3c7d33aebd8fc687U, 0xbb170d5cbe0dfa4bU, 0x3cace8cc3d997b9eU,
  0x3d5e1dbd3d0bee2aU, 0xbdb0a4783be4b3a1U, 0xbd36856ebdc97a23U, 0x3d76dd37bdf2cb33U,
  0x3d1717f43dacf53aU, 0x3db8c24cbdc7a5c3U, 0x3d33397abbebd46bU, 0x3d9b7ef7bda145beU,
  0xbe042120bd693729U, 0x3cca34a53bfe5462U, 0x3d1c645bbc576021U, 0xbbb81c71bd42a439U,
  0xbc82f1d43dafaedfU, 0xbd2f7785bd72a2e0U, 0xbbf160c3be050f3bU, 0x3db2cab03d81bdecU,
  0xbce1e9e63e13f573U, 0xbd333553bceeb391U, 0xbe109e7cbc020856U, 0xbde2fbcabd73e663U,
  0xbded19ee3b930c07U, 0xbc8ac9793d8bfc84U, 0xbbf56971bde9f98aU, 0x3c587036bcde7495U,
  0xbd492d66be01695fU, 0x3d99cb28be03d9c1U, 0x3d494886bbf2586eU, 0x3d422f2a3b87c685U,
  0xbe4b60db3de3c13dU, 0xbcd8e0183e45c679U, 0xbe0ec5cabcc8b13bU, 0x3d9bfb52bd73b25bU,
  0xbb92307d3d8f7d55U, 0x3d52bc193d24a693U, 0x3d028aea3d4df16fU, 0xbc756ae2bd559e08U,
  0xbcca33153c8bcf8aU, 0x3a3cefcabc33b185U, 0xbd440150ba278375U, 0x3ca1ae5fbd2de780U,
  0xbdbced923bd962f5U, 0xbccc032cbd0bd0b5U, 0xbd8178773c8c71e8U, 0x3d3181e53c9aa128U,
  0xbd17e96ebdeb0c1aU, 0xbda18297bce5d82fU, 0x3ca153aabcb1e72aU, 0x3d7b7c773ba560b1U,
  0xbd0fa7aa3d0415a1U, 0x3ce4c86ebbc80e02U, 0x3d4788b33d81f0ccU, 0x3cea7945bd394e82U,
  0x3d21ff6f3c391932U, 0xbd5593f13c0e9581U, 0xbb676800bb9c3cafU, 0x3d8c0074bc1fead5U,
  0x3d0643783d1520c2U, 0x3dac9fc3bd641c19U, 0xbd51076dbc8962d8U, 0xbb9c93883d95e277U,
  0xbd54514bbaeb34a9U, 0x3b37803cbd15ab55U, 0x3cb6d7b63d455bd0U, 0x3dbfc4b3bac99928U,
  0x3ce31f463b465cd3U, 0x3be1e8213cd118b4U, 0x3def174a3d6f6493U, 0xbbf74fc5bd481879U,
  0xbc909d673ce768ecU, 0x3d91cc16bd507c1cU, 0x3d723af03d168bd7U, 0x3dbc53e5bcb5266bU,
  0xbdaa03953d55e89aU, 0xbabffe32bd63b5dbU, 0xbbbbe954bc2ea70dU, 0x3dacc0613d504e55U,
  0xbb3d5c6e3d0743fcU, 0x3cdc769e3a54b60fU, 0x3ca972e13d9cd6bfU, 0x3deb6530bd9d0495U,
  0x3d61ad853cb5e281U, 0x3c73caab3bc02e21U, 0xbd66d58e3d5ae467U, 0xbc9d27adbd36f822U,
  0x3b9442793d4c2392U, 0x3bef88ba3d1723e9U, 0x3c87d0153da89631U, 0x3bbb4b493d755f1aU,
  0xbdc0b46abc772416U, 0x3d5dc6a63d6482ffU, 0x3d9b4fe0bc62c423U, 0x3d4531d83c00935cU,
  0xbc5b57c43aff17f3U, 0x3d629c4ebc8b7711U, 0x3d0abb3f3d665a34U, 0xbd3440463d9f4dc6U,
  0x3d134f49bd014675U, 0x3d9fb1b03ca0fffbU, 0xbdbff1cc3cad7b24U, 0x3cc0fedfbcf0bbe3U,
  0xbc17e3f13da5a65eU, 0x3beda69c3cd58599U, 0x3bbaee2f3d4ef616U, 0x3c226aa63b30a3e6U,
  0xbd96331c3c61587eU, 0x3d84cdbf3d32a478U, 0x3cf636d0bd8ffc47U, 0x3d1a6413bc22e8abU,
  0x3d0eaeb63d8da340U, 0x3d0572de3c923f04U, 0x3c3d86433d883135U, 0x3c2449243dad78a5U,
  0x3cfc265d3d3346ffU, 0x3deea868bc53d1dcU, 0xbd945969bc027b8eU, 0xbc118107bd2db203U,
  0xbcdf8af13d9a4545U, 0xbceb9c7a3da46f32U, 0x3d2c9fc83d6c32ebU, 0x3ce4a80bbbc54440U,
  0xbd40ae52bb9e2842U, 0x3d4359b2bd436edcU, 0x3d0f2ad0bd93c6acU, 0x3c1b72e9bc3e66f2U,
  0x3db166fe3d0fe739U, 0x3d73dea43cd078e4U, 0x3cfeb7783d8a76f9U, 0x3cb40e113d9bab89U,
  0x3ce651edbdbe150cU, 0x3d05911c3dbbff31U, 0xbd64f777bcc881afU, 0xbdcfeb0d3c9b59e0U,
  0x3c652eaebd057cddU, 0x3d8cca81bd828568U, 0x3da938b53db33785U, 0xbc468e52bb3d98d3U,
  0x3c2d19ef3d39def7U, 0xbd1fcd91bce2fba9U, 0x3cebe5eb3de063dbU, 0x3c854b5ebd3a69b6U,
  0x3d2eb29d3db921ccU, 0xbc04dc003da2a1a3U, 0xbc42f938bdc569a7U, 0xbc3dc6803cfac347U,
  0xbcfb8ea6bda3f9dfU, 0x3d03de1b3aca03a6U, 0x3d25f788be05d6e0U, 0xbd3e4e0bbccbe364U,
  0x3d2c032fbdb2b3b0U, 0x3c9dd824bd83c8e6U, 0xbc8db3a03d01fbbcU, 0xba6ae7d5b93fce7eU,
  0xbd91fa213d7ecfa3U, 0xbd3d8f4f3d295a44U, 0x3d057ced3d8bef11U, 0x3d164e923d756a76U,
  0x3d601b4a3e27ef3aU, 0xbd0388d8bd8ab2b5U, 0x3c5a9d64bd8c33e3U, 0x3c3f978c3d2d74dfU,
  0xbc852c40bde47f6fU, 0xbd8d671a3d2dca7dU, 0x3c0223a5bdc973d7U, 0xbd22d1a13aadf2cfU,
  0x3d4039f2bdb69358U, 0x3d2adc56bd722013U, 0xbdb3c6873cc56466U, 0xbc2ae59cbd5512a1U,
  0xbd77898fbc824601U, 0xbd949f99bc392e29U, 0xbe06813f3cb8bea4U, 0x3d8e53d63d8a6a83U,
  0x3da15900bd8176acU, 0xbd0f5757bd943e04U, 0x3c6405ddbd550566U, 0x3d00a3ac3cea50f0U,
  0xbd53c965bb869bb6U, 0x3c95c1b9b9f0bc31U, 0xbdda7976bd720cf5U, 0x3d9c479cbd9f878fU,
  0xbe351af5bd937273U, 0xbbe2a2cc3db2141eU, 0xbd60ddd2bde67ee8U, 0x3d987355bd322bcfU,
  0x3dd2a41bbe1db2fdU, 0xbc10e05ebd8bb98aU, 0x3d11f0f1bd95327eU, 0x3cbc26dbbe09db3cU,
  0xbbcc009a3d0a669dU, 0x3d832672bd248d4eU, 0x3c217cefbc5f0859U, 0x3db5a790bc7247a7U,
  0x3d31786fbd4608a9U, 0x3d568b6d3cd73f64U, 0xbde5ae71bd3f246dU, 0x3c85de51bb860f17U,
  0xbe05ffcabd90c180U, 0xbe086dcc3c917272U, 0x3d957217bcf3a682U, 0xbc1743b73d238016U,
  0x3d9efaf7bd82f4b2U, 0x3d54c9383be96e58U, 0x3d80fd9dbd8382bdU, 0xbcdc0175bc6286cbU,
  0x3d456d49bc5f5eb6U, 0x3d36dd12bc62c6b2U, 0x3d2f5175bd205fb8U, 0x3da285d1bbba3e33U,
  0xbc86bac5bba1c9b2U, 0x3d7a21d53d348b61U, 0x3d628c903c28ee2dU, 0x3b92b594bd197284U,
  0xbd39e99f3d29d1b2U, 0x3cce87b43dc33479U, 0x3e05bab33c47bc73U, 0x3b1f58d33dd6a619U,
  0x3d6d1401bce04c4cU, 0x3d22aa2b3d72f502U, 0x3dd0f04fbdafee1fU, 0xbc5bf48cb9eb329dU,
  0x3e0d4dc73d581171U, 0x3c9aa20f3d85a0c6U, 0x39015e72bcefcd01U, 0x3cebce24bd4b94d7U,
  0xbdfa95ee3d674533U, 0x3cdca6c5bc850081U, 0x3d404a5e3db0d02bU, 0x3d7b18f8bd406911U,
  0xbd7bdb143d89241fU, 0xbd75de52bcc0b2ddU, 0xbd3f9749bc33f6cdU, 0xbd0506eabce5b593U,
  0xbc5a67febdf3bd35U, 0xbb9281e3bd67377eU, 0xbd9854e2bdd26ad5U, 0x3bf360cfbcbde2daU,
  0xbda6ed3dbd877134U, 0xbd068f1b3cb8eae4U, 0xbd879df6bd2c9b35U, 0x3d4c386c3cec141eU,
  0xbe1292813cf2efc8U, 0x3d0534573c68c424U, 0x3bfd8281bc6988a1U, 0x3c0f389f3d2d26ccU,
  0xbb6def6a3d507702U, 0xbd3798943d99e1aeU, 0xbc49fe55bd265f7aU, 0xbada2c383b0e490bU,
  0xbab8cbb7bd6afe45U, 0x3d886c983c336e1dU, 0xbc1ef019be07ec20U, 0x3b65d4e3bce591a3U,
  0xbd97a305bcf14042U, 0xbdafd5413dd5ce80U, 0xbcc6bc9b3d430932U, 0x3de4ecf43c4f72d7U,
  0xbdc83f8f3d0bda48U, 0x3c02bd553cff4ec8U, 0x3c8f85c93d5b1fa5U, 0xbc9e8f923dba625dU,
  0xbd58e6a53d63ad69U, 0xbdc714363cd0a85cU, 0x3d7c6b66ba942bf2U, 0x3db053473dea6e5fU,
  0x3cc064e4bdb0f633U, 0x3d12b6503cc211baU, 0x3cfd5bcbbcac4da7U, 0xbcb960773caa3910U,
  0x3e01d8b8bd19a43bU, 0xbd57393f3da05619U, 0xbd8bd9d43db6bd6bU, 0x3cd9baa7bd9b6999U,
  0xbd6f68d1bcd77349U, 0x3bd41d5fbde9111eU, 0xbdcffe6ebd95b8c3U, 0x3d22b48f3dc24a1eU,
  0xbd3f9563bd7946acU, 0xbd22e1a8bd7cd611U, 0x3d32914d3ca3e38bU, 0xbceafcc0bbd310adU,
  0xbdc78127bdbe5f8fU, 0xbe0fa3f03d2a77bcU, 0xbcd986f3bcf39010U, 0xbc728cdc3d8f388dU,
  0x3deccf8abe008963U, 0xbd798072bd4fbab7U, 0xbdd3b8e5bd37273eU, 0xbd007de03d1abd08U,
  0xbce356413c097cd3U, 0x3d18a6bbbdad30e4U, 0xbd71fb33bd6fa463U, 0x3d4a141f3de7d908U,
  0x3cb49e2cbdbf466fU, 0x3b1f90593ce59cdcU, 0xbcf3b76ebca76114U, 0xbbb3b499bbd60469U,
  0xbd84fe03bd1aa7a3U, 0xbe18bf4c3d6c7741U, 0x3c29b6c0bc897f62U, 0xbd2f4a44bd31f4feU,
  0x3dadcd91bde3455aU, 0xbd3c6d76bd904a46U, 0xbd75fe71bc0e2169U, 0xbd52d4763d7582caU,
  0x3d2b53a0bc0bcbc9U, 0x3d521bbabceb81caU, 0xbdc070af3cb0628fU, 0x3cda1ec23d68621aU,
  0xbb77599bbdb5f6cdU, 0xbc44eb60bd82ceddU, 0x3d3b92753cdc0206U, 0x381137e6bd667259U,
  0xbdd7d442bbad8854U, 0xbe3c85363cb2fadeU, 0xbcc9e648bd32783aU, 0xbd993d38bd24a023U,
  0x3dbc489dbc5a6be1U, 0xbc3e40bd3cf59810U, 0xbd57e5b73cbe8260U, 0xbda070563d987180U,
  0x3ae323a8bc763c2eU, 0xbd5908c53da41abbU, 0x3d311fdc3d33e07eU, 0xbab1f3773d9bf971U,
  0x3c8287e3bd8b7523U, 0x3e0bcd443d6e2ec2U, 0x3cf73e65bcdb74f0U, 0xbc32f80bbddf1f77U,
  0x3d3ebedabd1ce3b5U, 0xbd16de49bd5fc1e8U, 0xbd1fe9c53c9c155dU, 0x3cc672a7bbe02d41U,
  0x3ce0db36bd7d7227U, 0xbc30ea143d69ab44U, 0x3d280967bc453e16U, 0xbd293ebbbd6f855cU,
  0xbce602553d503453U, 0xbd7184953c85e4f2U, 0xbd86879cbbb06b71U, 0xbcfb15493d4810d4U,
  0x3c4d9d59bd8e504aU, 0x3d9fe3373c96255eU, 0xbd5c7fdebd12ac49U, 0xbc95465ebd0809e9U,
  0x3e1a86323dcc65e6U, 0x3bed5558bc57f306U, 0xbd72dba43d8acef4U, 0x3d2b6a2d3bf8dca5U,
  0xbd78739c3dcb1641U, 0x3c4fec3ebd3050ffU, 0x3da6ea43bd088f2eU, 0xbd345413bcc726e8U,
  0x3ca21e8e3d6d4d49U, 0xbdcc27d43d8ceb4fU, 0xbd225dcebc13451cU, 0xbdddcb843c0c99c5U,
  0x3c61dcd3be00456fU, 0x3cdf3a13bd0684ebU, 0xbd540ee2bd9490fdU, 0xbddbf485bd6aab11U,
  0xbc4c4c043befa9ddU, 0xbd30b8b2bdaad279U, 0xbdff86f6bc71406fU, 0xbd9a7268bd9298bdU,
  0xbd08cf463d8d7433U, 0x3d9fd421bd964d83U, 0xbd1f6d69bd7879ceU, 0xbda604123ae011a1U,
  0xbbe39e0dbd0dd361U, 0xbd747662bcd1543fU, 0xbdade791bd64e20cU, 0x3cf705b4bbf2fee4U,
  0x3d5ef6c5be16c8b9U, 0x3b5a66f7bd70bb64U, 0xba038d903d02b9a6U, 0xbdd85f623da58f24U,
  0x3d1aff28bdc1afa1U, 0x3b971fef3e032be9U, 0x3d59a5f23db723b4U, 0x3d0483913e1428cfU,
  0x3d08b64abd6cc688U, 0x3ccd2b22bd8b35f8U, 0xbdb94e523caa9cf5U, 0xbd95ae023d0d50c3U,
  0x3c9cf2adbd3a54c3U, 0xbe0bf9443930b11dU, 0x3cec37aebd85afb7U, 0x3d5b5a16bd75c23eU,
  0x3d2b629c3bdc8840U, 0xbc8db875bd839cd2U, 0xbc1681b13bbd88e9U, 0xbd4422863cbd803dU,
  0xbc0071ddbdbda15cU, 0xbbfba0e33d53d868U, 0x3dab878c3c936bebU, 0x3d4c278b3d83b3b0U,
  0x3d53bde6bda74c9eU, 0x3ce8f63dbd293aceU, 0xbc0900a6bde3a1f2U, 0x3cf557fe3baa2f87U,
  0x3dd65e40bd70344bU, 0xbe1e2f583cc6758fU, 0xbd3b2509bc93c4e7U, 0xbcfd76a1bd86bbe4U,
  0xbd15d4703df87e31U, 0x3c7d1772bd687ca0U, 0xbc9d50003cc27713U, 0xbd0887dbbe189597U,
  0xbd15a656bd60bfa9U, 0x3cc2dd2abc174d8aU, 0x3cbb3fb6b9adc577U, 0x3ced4e2c3d21b6c4U,
  0xbd9dad99bcde8bedU, 0xbc3bee80bdad90edU, 0xbc8180c2be381fc8U, 0x3dfa670abb9afb0fU,
  0x3d59dfdb3d0a62d4U, 0xbe4abeb0be35e14eU, 0x3d06abd93ccef826U, 0x3e17a648bdfbf414U,
  0x3db3ccbabcb9af32U, 0x3dc95adebd21574eU, 0x3e011cb53e05224dU, 0x3dc85e6dbe058a2fU,
  0xbd95dc5a3b89c36aU, 0x3d8325f9bca1b8caU, 0x3c9e994cbdeed883U, 0xbd40fe5fbc8995c2U,
  0x3d6b04c7be124b57U, 0xbca039edbdfcd6b8U, 0x3d041539be272d26U, 0xbcc122febc6d405dU,
  0x3dba51433ce8223eU, 0xbe8454c6bda77b12U, 0x3d80deb2bc4798aaU, 0xbd7958b2bdc10ebdU,
  0xbd19dfb7bd8d7249U, 0x3a27ff0a3cb78a15U, 0xbb29f6f8bcf431feU, 0x3dac2212bcfe1188U,
  0x3d0fa726bd67b2d9U, 0xbcd3d7d83d3e9976U, 0x3d59e56d3cdd7eeaU, 0x3cf92dda3d06c947U,
  0xbd1696023d61f656U, 0x3c594aa6bcd4dcfcU, 0xbcea25c3bc2d0ac1U, 0x3b4d265dbc9217c1U,
  0x3de6c4de3db4edffU, 0xbe8ca11ebe19f353U, 0x3d080d343d8fc229U, 0xbdaefe8a3dd0fc0aU,
  0xbdc9abcfbcf88856U, 0x3dc4031bbe0628deU, 0x3d9e24edbe283f5cU, 0x3dbe8c2f3e08a45cU,
  0x3db9f33d3d2476d1U, 0xbdacaa05bd8ea8b5U, 0xbd9997c73d6782bfU, 0x3d62d46e3cb39387U,
  0xbe6624c73d66ae28U, 0x3d4f1ec43cd16b04U, 0x3c1d3b9a3bd1e259U, 0xbc6175c03ccc8f88U,
  0x3d67f897bd0f0ea9U, 0x3dc8c4573e322ab4U, 0xbd88e8af3dfd52dbU, 0x3d70db393bba4347U,
  0x3d986cb53d6c826bU, 0x3df891f6bd6d95bdU, 0x3c2f9b863d33c6f9U, 0x3ccf41f83da2004fU,
  0x3e00c2383d1b286aU, 0x3d20c13b3c93d667U, 0xbd0a24d13d5ce795U, 0xbb8a867abcc8a5baU,
  0xbcf076403e08cd8aU, 0x3d5bacaf3d812c99U, 0x3d41adf3bd102acfU, 0xbc1f9486bd0a51dfU,
  0xbda28f7abc6e85daU, 0x3dea7c323db4b2afU, 0x3d4177643d0c5472U, 0x3d34be303d19f743U,
  0x3d55ae813c1075f2U, 0x3da95541bc85448cU, 0x3c63510c3db17d93U, 0x3ca18cac3da59b03U,
  0x3e1f15f33d9b8f57U, 0x3db3deb4bd466dfeU, 0x3d2d87fe3d94d199U, 0x3ca9af753cb45959U,
  0x3d5769bb3d6f3b6bU, 0x3dc927e4bc0ca4cfU, 0x3d144409bd63587cU, 0xbc6e92bfbba3887cU,
  0xbdef6cc1bd84236fU, 0x3c47e0a33da97efbU, 0x3dc33efebb6bc751U, 0x3c14ac74bba62b26U,
  0xbd0ff1adbd97e277U, 0x3ddacb733d52cd27U, 0xbe10b35f3cd51df0U, 0xbc0bb9563dac6bc0U,
  0x3db171363ae119d0U, 0x3d18b2cdbc959b0dU, 0xbd0ac60ebcab4e53U, 0x3c491daf3d60e055U,
  0x3d6522493dd23360U, 0x3d3f043fbcdee4aaU, 0x3c909eafbd2e36c1U, 0x3be944de3d301218U,
  0xbd68b274bd983491U, 0xbdd85d133d2265eeU, 0x3da5f31f3cd98c72U, 0x3ac2d0bbbcac8095U,
  0x3d4982293cf79a13U, 0xbd873110bdcc3fe2U, 0xbcb5b707bd03be2dU, 0x3d9827833cb3d358U,
  0x3d4057d13d450dc2U, 0x3b91515d3c0f965eU, 0xbb87537e3c2e00a9U, 0xbd18f28ebdb6dee2U,
  0xbd4ef7fd3dfbe13aU, 0x3e74b6cebd3e17efU, 0x3d512210bdb7160dU, 0x3cd6f8f13dbc9731U,
  0xbd6a6515bb5431c9U, 0xbdd0f2bdbd92a63fU, 0x3cf2fce5bd8c4accU, 0xbcad959abd089954U,
  0x3d0ad499bd8549a2U, 0xbd851a3cbd70e9c1U, 0x3cd79adebd2ee59dU, 0x3d90f9e53cda418cU,
  0x3b6eabf83de18c4cU, 0xbd04a1cf3db2a659U, 0x3ca7696d3cc5e57cU, 0x3d908928bd173105U,
  0xbded08e23df48e2aU, 0x3da956413d394baaU, 0xbd79878ebd8600beU, 0x3dd1acda3cd60237U,
  0xbe1719ca3dfa00a9U, 0xbd9bcc223e0fca46U, 0x3de119413d1e13ebU, 0xba46a10a3df0637aU,
  0x3dd8f874bdcd27c6U, 0xbbdd333abb5e91cbU, 0x3a60ef9dbd204054U, 0x3dab69613d899b86U,
  0x3d6f97f93dbc6c6fU, 0xbe20b3d43d8a9408U, 0xbd714f423da03b73U, 0x3d84e99abd3cc1abU,
  0xbe8dae843c1babc6U, 0xbcadcab13d5444eaU, 0x3bb277eabcc272d8U, 0x3c0d6e04bdd51931U,
  0xbe481d3d3cc02780U, 0x3d1e27f6bbbb19a3U, 0xbd99b6893d83ae0eU, 0x3d118146be0efb05U,
  0xbd0d87e73acb34ceU, 0xbe0b4a413d3a339aU, 0x3d46c885bcac96f8U, 0xbc5eb670bbe4f800U,
  0x3de4468e3d7dcb86U, 0xbcad44533ced0612U, 0x3db8ab3abe1c5748U, 0xbd14e5b5bdab219fU,
  0x3d9cb8dbbdcd8789U, 0xbdfdc075bc5f5f97U, 0x3c96de213ccc12c9U, 0x3de172ae3d0c9468U,
  0xbe3695153e0c17f3U, 0x3d483a343d83d667U, 0x3d716c88bc3ba579U, 0x3bf7c7b4bca0b6f9U,
  0x3c164eb13d582a4aU, 0x3c6f32b7bc06f562U, 0x3d2f5e25bd2656f6U, 0xbda74aa33c198a3dU,
  0xbcd8d1c4bc9f5a1dU, 0xbd0a3ebebd56fc79U, 0x3c6640eabe25baa6U, 0xbe20cf3bbe0a7989U,
  0x3dfe8c6bbe09211bU, 0xbe0e88af3da870f7U, 0xbdad1a45bc005ec1U, 0x3d8ad0783dd24105U,
  0xbe5741af3e00fc90U, 0x3d83ee27bc2f1068U, 0xbda1e0f13dfcf5beU, 0xbe23bba03e0e0328U,
  0xbd87e8803d85c35fU, 0xbe1cebb3bd2b39f3U, 0x3d950c2bbd94ea1fU, 0x3d95eba23db026fdU,
  0x3e0478603e003870U, 0x3db33caabd91cc71U, 0xbd99386d3d5bbc45U, 0x3b5f474fbca79027U,
  0x3da0a8e23d954e5eU, 0xbe0987b33d45c402U, 0xbb7c6e4cbd9f5a80U, 0x3c53896ebd663ab0U,
  0xbd3f1c193d8094b4U, 0xbd8c5acd3c30b7ccU, 0x3dd9430cbcfc7420U, 0xbd7fe5983d13b487U,
  0xbd2d6db9bdd54d4dU, 0x3d9916703b4c6f79U, 0xbd9f9b93bd624c8dU, 0x3cd347ff3a70c5f1U,
  0x3c50849d3cbc43c1U, 0xbb940e283d1be62aU, 0x3cdc7ad23ae2b7b4U, 0x3e2d5e433de730c8U,
  0x3d1889e4bd4a268fU, 0xbbff137e3d2323e5U, 0xbddf37b6bc822ceaU, 0x3ddc021a3e16a05cU,
  0xbd0c86923d8c38b0U, 0xbcc622a03d2cca0bU, 0xbd8bcbf0bdf8d695U, 0xbd37ab1a3dae540aU,
  0x3ca722f7bd92d57cU, 0x3d31d05b3d0ebba5U, 0xbe2109cd3cef0348U, 0x3cf3c7253b7a1800U,
  0xbd2f5f98bcda6bceU, 0xbddee3503c8248d6U, 0xbd534c303cb44230U, 0x3dc5e4973d620396U,
  0xbd444c633d40202fU, 0xbd6a1fa23db070efU, 0xbdfe0d673d947bddU, 0x3cf234513dfd1f8eU,
  0xbe1921593cff9b5eU, 0xbe03bc363d3210fbU, 0xbe30d21a3b15f71dU, 0xbdaea18fbca92791U,
  0x3d0ed63fbc4e6ecfU, 0xbd90a7653cefaf68U, 0xbd9c28763c850aa0U, 0x3d1a00e5bd43fecdU,
  0xbd6b7780bd1a2fe1U, 0xbdd5e2433d1676cbU, 0xbd60394ebd9fd200U, 0x3dce9017bd534325U,
  0xbba8ea863daa52d9U, 0xbcf32beb3d3ecebaU, 0xbdb8980e3dc030c2U, 0xbddbe7953c4e189cU,
  0xbe177db03d6f4560U, 0xbcae26c6bc12a6caU, 0x3d115a0f3c40ec8aU, 0xbdcadf043d308744U,
  0xbc522137bd388268U, 0x3cc60aa5bda8f7e3U, 0xbbb14152bd0b2287U, 0x3ca82cf5bc9b1e12U,
  0x3d3ce5c13d71cf82U, 0xbd13c7213c08677bU, 0xbde3c7c63d7a8e95U, 0xbb2043233d601a9bU,
  0xbd04a2a73be04b1eU, 0xbe1e10c8bc294f55U, 0x3bfc9b413c55ab9bU, 0xbc480cfbbd7bb16fU,
  0xbdefc0ec3d486082U, 0xbd956e08ba975688U, 0xbd12efe5bb821323U, 0xbd85a6173d28fcdeU,
  0x3c177ce0bd0a5747U, 0x3c9208acbda6f98bU, 0xbc0f7f773c1eb35cU, 0x3c847cdebc10dd9fU,
  0x3d272efd3d85b30cU, 0xbd40bf0d3c771cd9U, 0xbe3fcd823dc3949aU, 0xbb95999fbd1ba2e9U,
  0xbd31ea7d3c2a78c0U, 0xbdb27c0f3d141023U, 0x3b1e7b41bbcd5c46U, 0xbceee96bbc981c3dU,
  0xbdf6f9893d3c1269U, 0xbcf6cf4cbd66368cU, 0xbc4f3f9abb902738U, 0xbd4086443d1eebb5U,
  0x3d907cc4bcdeacb6U, 0x3d00c6b5bc826ba8U, 0xbca581643d081da7U, 0xbcd0227a39eec3d2U,
  0x3d873f9abce7a7e4U, 0xbdee7cbdbc50b1e0U, 0xbdd0ad233d6e1492U, 0xbc57adc1bd1316caU,
  0xbc0ffc83bca5ef3fU, 0xbd04bbb2bd87418aU, 0xbc8fae77bb83e6e5U, 0xbd9de4febd28f185U,
  0x3c2717dc3dc55556U, 0xbcb1d2ec3d4ab8a1U, 0x3d54d3883e0893adU, 0xbd8edee63d519734U,
  0xbddccbe53d678d55U, 0x3e0e87d4bdaa7332U, 0xbe1d28193d8de24cU, 0x3d1924edbc6db34dU,
  0x3dcbf8943d99bb43U, 0x3d6b7d9abdcc9efaU, 0x3d6f2d173d972eeaU, 0xbb92ada83dcee35bU,
  0xbd0239b03da722e5U, 0x3d93704f3d175babU, 0x3deb3bc93d2d22a3U, 0xbda1cbc0be46bce3U,
  0xbc6ede04bc92f2dbU, 0x3c9f6b893d238842U, 0x3cd35f583df1f9f1U, 0x3d15ad073d627ef0U,
  0xbde7f6ce3d7040d0U, 0x3b152b18bde40480U, 0xbe4054913d55a0f8U, 0xbd7a0269bcdecf2fU,
  0xbdbb254cbc7b0343U, 0x3d3ff908bd928222U, 0x3cb12c8e3d7be0c5U, 0xbd1c8dd43d2890b6U,
  0x3d87e668bce67effU, 0x3cea2f56bb5f269aU, 0x3c3e323c3ce841efU, 0x3d6b89f0bdbf6311U,
  0x3db9313e3dd66ac7U, 0x3ceae0223d368b1cU, 0xbbd914093d2675caU, 0x3d4205c53d1a4537U,
  0xbe23f39a3df24593U, 0x3c6f868bbc3eae28U, 0xbe5241c93d3ffabeU, 0x3ae7101ebdc9d404U,
  0xbd5cbe65bce864bbU, 0x3d6159babdd04a67U, 0xbd3f1256bd2eeff5U, 0xbc9a4bc03cd93fe6U,
  0x3caf44c1bc9c4964U, 0xbc44b90bbd11d0f2U, 0xbcf7f0e13d5f92e9U, 0x3c07650fb947d826U,
  0x3db718953ddc2d8fU, 0xbdc8b470bd186105U, 0x3c7f01263b94dd01U, 0x3d22a59a3d4aa90bU,
  0xbd1e8aeb3de2b825U, 0xbdf18efd3bbfddd5U, 0xbdb38bb93c95b937U, 0xbd331dff3dcf3451U,
  0xbd9bac3c3dd17effU, 0x3d48d17fbb662bbbU, 0xbcd986913d94f4feU, 0xbc371d95bc987420U,
  0x3c64cb353e316a40U, 0x3d309a70bdd54817U, 0x3ae1fa88bd2de120U, 0xba22dd3c3db8033aU,
