/**
  ******************************************************************************
  * @file    combination_data_params.c
  * @author  AST Embedded Analytics Research Platform
  * @date    Wed Aug 23 14:12:33 2023
  * @brief   AI Tool Automatic Code Generator for Embedded NN computing
  ******************************************************************************
  * Copyright (c) 2023 STMicroelectronics.
  * All rights reserved.
  *
  * This software is licensed under terms that can be found in the LICENSE file
  * in the root directory of this software component.
  * If no LICENSE file comes with this software, it is provided AS-IS.
  ******************************************************************************
  */

#include "combination_data_params.h"


/**  Activations Section  ****************************************************/
ai_handle g_combination_activations_table[1 + 2] = {
  AI_HANDLE_PTR(AI_MAGIC_MARKER),
  AI_HANDLE_PTR(NULL),
  AI_HANDLE_PTR(AI_MAGIC_MARKER),
};




/**  Weights Section  ********************************************************/
AI_ALIGNED(32)
const ai_u64 s_combination_input_4_bias_array_u64[32] = {
  0x3dbeae9ebbe32620U, 0x3ea6c4a8be9a1ae2U, 0xbfac34a0bfaf2960U, 0xbf9e3f43bffb0510U,
  0xbf8bcd81bf4ce467U, 0x3e9be1053f8ac994U, 0xc0136e95c021484cU, 0xbf920ae5bf7dcd48U,
  0xc0352c49bf90d72dU, 0xbf86de11bd951ae5U, 0xbea7c67e3e9ca112U, 0xbf654f34bfb40fd4U,
  0xbf1458d7bf2f8546U, 0xbe1c33b53f5e9558U, 0xc0215bd7bfbb1c5fU, 0xbf296196bfd8de48U,
  0xc007bdb1bea30ff0U, 0xbef6636abe30fa45U, 0x3fbf9ce63f915752U, 0xc0015170bf47b2caU,
  0xbf021a6fbd4200f4U, 0x3e4d5d15bfb40660U, 0x3ea1c97dbee440b3U, 0xbf763d2ebeecf23bU,
  0x3fd53c4ac034388dU, 0x3f256d6abcd81a68U, 0xc0025bcabf97bf23U, 0x3f3e78b23f678e66U,
  0x3dcb5fbcbf2898e6U, 0xbf8327303e7f1194U, 0xc01a85ffbcbf0534U, 0xbfa52d7abfbe2333U,
};

AI_ALIGNED(32)
const ai_u64 s_combination_input_12_weights_array_u64[6144] = {
  0xbd0cc55ebe2935bcU, 0xbe104db4bd4bb8d6U, 0x3d4acd8b3c1e3452U, 0x3c6cd8a7bdd276bcU,
  0xbb9fcac7b78c065bU, 0x3d94d3d03d3cf4a8U, 0x3d1601953da78aa6U, 0x3d9e7ef4bc930b02U,
  0x3dde0622bdf03d54U, 0xbd9337f9bd32f4a3U, 0xbd884e04bdb2cee9U, 0xbcbb0cf9bd343c60U,
  0xbdf88809bdb59872U, 0xbd6bc2c9bcbbc6aaU, 0x3d12a8a9bdbe8316U, 0xbd2eb475bdb2d6eeU,
  0xbd8c040abde09a7aU, 0x3d5948bfbd63f85aU, 0xbd73a766bd61879fU, 0x3d847185bdf26d52U,
  0xbda435313c4dfa8fU, 0xbd74666b3d5d12b7U, 0x3d80f6dbbe30eed8U, 0xbdde9e76bd5c29bcU,
  0xbda167503d5bb198U, 0xbe130f65bd3161d8U, 0x3c97febe3d92933bU, 0xbd82fb2c3b300af9U,
  0xbde458473e139e85U, 0x3cb33455bda97abeU, 0x3d8da1e03cbbda9fU, 0x3d0978f2bcbc33b5U,
  0x3d871d893cd656acU, 0xbd4d7308bac6d468U, 0xbcf594563cd1002fU, 0x3d0cc7dbbce21e9fU,
  0x3d7316d23c81ef7bU, 0xbbbd21b73c62f8dbU, 0x3dc0daad3d813241U, 0xbcac2e063d4b6e69U,
  0x3d4897d03c9470a2U, 0x3d3710aa3ca4a2e0U, 0x3c2738f8bcd128fbU, 0xbdaaab3bbdc08626U,
  0xbc6c0327bd3dcf2aU, 0xbd8c3e253d118159U, 0x3d810546bd55307bU, 0x3d84b463bc30a6d2U,
  0xbd1c78fabca25d85U, 0xbc9ab2293ce270a1U, 0xbd15fd083b888cacU, 0xbda02e39be55508aU,
  0xbad25c2dbd72e43fU, 0x3be4ed5ebce88a5bU, 0x3cd577eabd8a5d9dU, 0xbdb1da1dbcd64ae4U,
  0xbc50897f3d2d8e68U, 0xbd8aadaf3d467237U, 0x3cb6b807bd55aba2U, 0xbc21c5d5bd9b67d9U,
  0xbd4cd096bcc146c6U, 0x3c12b5033be67aa3U, 0x3deb2b533d2ed24dU, 0xbd161c16bccd62c7U,
  0x3d9dcafb3d9ae2beU, 0xbde68a423d6aa9a3U, 0x3d946959bd2a8bdeU, 0x3d445c07bb584a6aU,
  0x3cc6e54a3d3db824U, 0x3d0244ef3dd334eaU, 0x3cbe981f3d0073fbU, 0x3d7ba2113dbc4fdbU,
  0xba2fe60e3da7aab6U, 0x3db8343d3db034d9U, 0xbc6eceec3d7d625dU, 0x3e063d7dbd604cd1U,
  0x3dca71063d16ec67U, 0x3d708d7e3d1624a0U, 0x3dbbaa0bbdbd75d2U, 0x3d08aec23d344287U,
  0xbdef6d393a7c863bU, 0xbc28d7f43d744efaU, 0x3d697a9cbd0ff8dbU, 0xbd68107ebd8ed8baU,
  0xbe40e81ebe02163fU, 0xbcf8873c3d45788cU, 0x3d7a165cbdb99ac1U, 0x3ceed81bbd585086U,
  0x3dbc38fbbd0d888cU, 0xbd720a1a3d3bbcfbU, 0x3b6ed29a3bf9ee5cU, 0xbd883959bd35faedU,
  0x3db48158bd25514aU, 0x3db9c0d33d84bbf1U, 0xbcfb5ed9bc6edcecU, 0x3e224675bca86547U,
  0x3cd6ba2b3c00256bU, 0x3c0a1c3a3d2d6bf2U, 0xbcb636b8bdb2de36U, 0x3d196afcbd2acbf2U,
  0xbc302f57bd4bdc5aU, 0xbcd830053c05fc62U, 0xbdae4cfb3be7e9c9U, 0xbcbe5ac53bd57d0fU,
  0x3c5788b53d0d74dbU, 0xbd94fe213d856628U, 0xbd74532a3cad4cefU, 0x3a6c9faa3adf225dU,
  0x3c2663c0bd29bb95U, 0xbc959dcebc7c3efcU, 0x3c641e1abb297464U, 0xbceaa1863ca28abdU,
  0x3d92c8e83d22090eU, 0xbd07c801bdcd48dfU, 0x3d101d6f3ca34aa0U, 0x3be60904bc1554b3U,
  0x3b922a593cb40abfU, 0x3b699154bce944d8U, 0xbdaa1b503a0de003U, 0x3d067513bdd75c32U,
  0xbb4d59ccbac5bb73U, 0xbd378a533dd485b0U, 0xbdb354f13c2927c6U, 0xbcc66f31bcec2234U,
  0xbd4e09fabca43caeU, 0xbcdd91883d073026U, 0xbd267a903db08768U, 0x3db800d13c87778eU,
  0xbd0577ac3c6ecbe5U, 0xbd27a5e0bc0ee6dbU, 0xbd5daeaabda003ddU, 0xbd02c252bbe4cffaU,
  0xbde65e4fbd354ee8U, 0x3c1371183bf03890U, 0xbd2f7f213cef19c8U, 0xbcfa7ce73af27349U,
  0xbb5ec1603d3c397aU, 0xbc1e27553d54c2cbU, 0xbcd2e5a93d60e8d8U, 0x3ce8427bbd9252bbU,
  0xbd2e58f1bda7f680U, 0xbceeb13fbd2f53afU, 0xbb7f4efcbc590666U, 0x3c0668f63d1c8203U,
  0x3d1037e2bcb23926U, 0xbcde54ecbe0ea6aeU, 0xbd015b343cb10959U, 0xbd43c5de3d25f407U,
  0x3c8866ca3c9f7e95U, 0x3c99f9aebccb6bbaU, 0xbe0c0d87bd81de65U, 0x3d7ab9d6bd69bf38U,
  0x3d0e7bbdbda523b6U, 0xbcc79ce93c00451aU, 0x3c9bd3ed3d54ca9cU, 0x3d236d813baa73d6U,
  0xbe0639163d2e4c9cU, 0xbcf9e9e3bb3bda7dU, 0xbdb40e6e3da2e073U, 0xbd0604babd68901dU,
  0xbd799dacbc579a4eU, 0xbc7e12b7bd161a12U, 0xbda5654bbc0623cdU, 0xbd81dd7c38d2f3d7U,
  0xbdc518f7bd8e925aU, 0xbe038e91bd71abf1U, 0x3ba910dc3c3a3cb8U, 0x3b0c4ed1bd1f0ec7U,
  0x3c5ed18cbd9b4fbdU, 0x3b8cc445bd7ac5afU, 0x3b5d80b3bc6f2407U, 0x3c9ea9af3afce86bU,
  0xbdd0a374bdc4d8c1U, 0xbd9f921ebd8a5242U, 0xbd20e71fbc87fc1cU, 0x3d65022f3c3179caU,
  0x3d9906e63c82cc00U, 0x3d28c7e6be3baa04U, 0xbd7ce3acbc860663U, 0x3be320a1bd0179a1U,
  0x3cd56cf23cc7ae3fU, 0x3d2140aebd0bd50aU, 0xbe0ec4c03c37d329U, 0x3c879e1fbd5b5211U,
  0xbc5cd437bbde141bU, 0x3d10c8a23d6f1281U, 0x3b62f19abc11ad1cU, 0x3d36620fbd0d4fa7U,
  0xbdde7b9dbb83ceeeU, 0x3ca72b533ca1b4adU, 0xbc91064e3c8de130U, 0xbddec001bc345863U,
  0xbcdc27b83c76bf26U, 0xbe2ce303bd36eb1aU, 0x3bd605a53cd14f26U, 0x3d1eb1d13da404d1U,
  0xbc3e9a59bd3eed37U, 0xbdf96816bd328650U, 0xbc74a1cabcd6744aU, 0xbd80c41bbd463db3U,
  0x3d9866983d336818U, 0xbcaceaf53ccd4e3cU, 0x3c273316bd82f3c5U, 0x3d2a2f9b3e17c36dU,
  0x3d3eca753d77b012U, 0x3c672c913c6967aaU, 0x3dfd78da3bb1e0a6U, 0x3c7fad903df3783dU,
  0x3d022944bd236751U, 0xbd6ec61dbd360a50U, 0x3d7cfe58bdd0b0efU, 0xbd1c47e53d86730bU,
  0xbca816c3be04f841U, 0x3c2929013d4cc6d5U, 0xbe13d831bd16e3f8U, 0x3df3c1e7bd9dbe7eU,
  0xbcc0be4abc7c0972U, 0xbd878ab6be1cd64eU, 0x3cbdad14be0ac5fbU, 0x3d1c4c6bbcd809caU,
  0x3da23636bd813e90U, 0x3c6cda5bbe147bbdU, 0x3b472569bd965ed6U, 0x3ddfd8a13d5a0cd2U,
  0x3d68b9a13ced17d9U, 0xbe08ba3d3d2fa188U, 0xba012cbd3d1a64c8U, 0x3d9b73843ce54075U,
  0x3bfaebcdbd4dad8fU, 0x3c3589493d9c8773U, 0xbd2a6ef93c43a056U, 0x3b9e2e29bda4d19fU,
  0x3d099f453c899f64U, 0x3d856b7c3c38b8bdU, 0x3d832a7b3c725088U, 0x3d2f7df13d01e027U,
  0x3e00aa223c8d0cd8U, 0x3d5602223be6ecccU, 0x3c345e85bc34537dU, 0x3cef4973bca2c95aU,
  0x3da76bedbcc8a22aU, 0xbd1c5702bda38070U, 0xbb995a49bd275833U, 0xbd35aee63d3779f8U,
  0xbce12b3dbdf344ddU, 0xbc69ad253c5049e0U, 0xbd6d1064bda4f778U, 0x3d4fed0dbc33049eU,
  0xbd93f8a83caafeb0U, 0xba37f489bd9a587fU, 0x3d81110c3cb91bfaU, 0x3d8f29cfbc0cac83U,
  0xbd54f79e3bd16f8cU, 0x3d752b34bd70cbe1U, 0xbc854d6bbd078e6bU, 0xbd129ec93dd71420U,
  0xbc269ddabc6310daU, 0xbd82d6f93d30d095U, 0xbc960ad43da6c713U, 0x3d59e1e9b9b841faU,
  0x3d30af54bd850eabU, 0xbd10a9c7bd8c84a7U, 0x3cd862113c1fc83cU, 0xbd251b86bda06606U,
  0xbc4c9c38bd276168U, 0x3c0b3b98bcf6dee8U, 0xbdcd860a3c7eb0c7U, 0xbd30e95cbd3698f3U,
  0x3c1e39dd3cf0563eU, 0xbbbc347ebd1b8c05U, 0x3d2e4a13bacfdc2cU, 0xbd2b55a63c0240daU,
  0x3cd77286bcf90729U, 0x3d1f518fbc8071beU, 0xbc8f5c5abd67b780U, 0xbd83ce69bdcf811aU,
  0x3b4b6ba8bdba2bd7U, 0x3d08ca03bcf5fbe7U, 0x3aa3eb853c1763d5U, 0xbbbd1ac3bcc34a21U,
  0xbcffcf623d156127U, 0x3bc86b81bc92fc0bU, 0xbb9eb060bc97b217U, 0x3db038f53ce60666U,
  0xbdd985bebd36b81bU, 0xbc6f60c0bd482396U, 0x3ce8b3163c958791U, 0xbdb55d7b3c899391U,
  0xbc786848bac5cb19U, 0xbd00a6f33e438f79U, 0x3da5f99abbf4b519U, 0xbcfd8135bd9a2dc2U,
  0x3e339d173c90d2daU, 0x3d760bc53c0fd853U, 0xbcf8b9683d8e6546U, 0x3deeceaabcd78e07U,
  0xbde04dca3cae0c33U, 0xbd5c48143dc3c401U, 0xbd18b34b3cdefde1U, 0x3c8228d03bab0ce6U,
  0x3e32a9e0bc34a40bU, 0x3d97a042bd2a95a5U, 0xbce09ef1be062ebfU, 0xbc1f7f5d3d1d4176U,
  0xbcebe82a3cffdadeU, 0xbd703cc63cbbe672U, 0x3ce06556bdb77864U, 0x3d0ff2f23ab07a53U,
  0xbba0b0ecbae8382bU, 0xbe06e444bde45641U, 0x3db024d13d2b5d59U, 0x3c71e0a13d6ed22dU,
  0x3bd866dabb211259U, 0xbd2b0da7bbdd3a40U, 0xbdcde89abcb7943fU, 0xbd509ab53cd2594aU,
  0x3cd8a82abca49e85U, 0x3c7469423c4c31d9U, 0x3cc3057b3b82d2bcU, 0x3dc01049bcb8a607U,
  0x3d0f65eb3bdcd5ebU, 0x3dcf5ee1bc0fc925U, 0x39c52cccbda2be54U, 0x3c918156be004f8eU,
  0x3d8fa5b23c6fe271U, 0x3daa89033da2d268U, 0x3bc2b6e1bdbbebd4U, 0xbb188035be12c705U,
  0xbd7454d4bd25615aU, 0xbe3e101c3d810f36U, 0xbb718d883da96d6aU, 0xbbe727e83d8a4424U,
  0x3d8519e6bd3b1799U, 0x3d8b94363d4f6374U, 0xbc5770443c8385c1U, 0xbd56a5e6bcaea878U,
  0xbc312c243d6c973dU, 0xbe1736ee3dc24489U, 0xbc7aa574bd9e4e6eU, 0x3dcedba83cee4fceU,
  0xbc4f55953d24b189U, 0xbd4406edbd79d351U, 0xbd530c343d9906ebU, 0x3ce36e10bd27d0daU,
  0x3d6b518abd16f015U, 0x3e1920febaf860bfU, 0x3c88d987bdcbfb9eU, 0x3d60eee7bca7313bU,
  0x39170cf23d120a82U, 0x3c2d6744bd2d9239U, 0x3cf78808be11ab6cU, 0x3b977aa03c0356d9U,
  0x3d6cedda3a9cf904U, 0x3d13aba6bc2f4bffU, 0xbd83dfe8bdf8f5a0U, 0xbd9126d9bde77039U,
  0x3cad5000bd071e6cU, 0xbccbe40a3c379a93U, 0x3d8fb3893cf3f3daU, 0xbb1d3a86bda205a7U,
  0xbdb742e63cb72310U, 0xbde5e05ebd9e3bd8U, 0xbb881afabb532ff5U, 0xbd9a30813db01b79U,
  0x3d58535fbdb79a09U, 0x3dc702c33cbb8d8dU, 0xbe24de95bc17f43eU, 0xbd158ba03d511390U,
  0xbce4bad33cf0a9e5U, 0xbd992aa23d0857adU, 0x3da530e3be7dfbc8U, 0x3b5d5d943d1c23ceU,
  0x3c3c0b3c3c94dfceU, 0xbd9f2ce0bc1c07acU, 0xbd4720363d02160fU, 0x3d81d53f3b8bffe6U,
  0x3da7e492be4a246dU, 0x3e4b4f433d9aed28U, 0x3ce99a9dbdbfbc8bU, 0x3d9a4eca3c6b44ecU,
  0x3bbe4b763d4096c2U, 0x3d3bc352bd2092cbU, 0x3bca2861be1771f0U, 0xbd3e2ec4bd8ce13bU,
  0xbd9aab6d3c01809dU, 0xbdac6a99bdeb2fbeU, 0xbd4fd8dabcbc2fa7U, 0x3d0314fabd96c4bcU,
  0x3c6a6b9fbd0ba8bcU, 0x3d114b60bdb5cb0fU, 0xbd97ce1fbe0dc854U, 0xbc3c73653ccc2989U,
  0xbd7c58a13d9ebb25U, 0x381fa4c33cf778d8U, 0xbceb34833d9b38e7U, 0x3d6b98913d47a690U,
  0xbc1a0f333d0d7bcfU, 0x3c95b4a53d93b172U, 0x3c243c08bd1e85e3U, 0xbdfcf3153d86f563U,
  0xbd03c3193c548319U, 0xbd8382263dff0576U, 0x3d65be963d84c2afU, 0xbdc3d907bd2b52fcU,
  0xbd269ae0bc9829e2U, 0xbc3fa224bc9e71daU, 0xbcd586f9be1ca65aU, 0x3c9da74fbddfd354U,
  0x3d677165bd9886fbU, 0xbd2eda933d42066aU, 0xbd3a1c923cc283fcU, 0x3a818b61bcd0c820U,
  0xbc95d17cbcfdd32dU, 0x3b377d923c6162e2U, 0xbc0b4a29bb75b579U, 0x3d9f3b01bd3d9323U,
  0xbbdb88bbb96c5f71U, 0x3bfd64233d1dc798U, 0xbd505ce43caebbceU, 0xbc823a8ebcc6f3c2U,
  0xbcbcaba4bd913ee5U, 0x3c0641b6bc05f8e5U, 0x3b59e6623d1272fcU, 0xbb0c9c72bd8fbb42U,
  0x3d8d7ae2bce8fe06U, 0xbd7727553b9cd8c4U, 0x3bbae2973d9d48efU, 0xbd5c52d6bd3270ddU,
  0xbab8778cbe16c246U, 0xbc9e80bcbd8f1dafU, 0xbd50fd3ab9b7016aU, 0xbc964f5fbc358598U,
  0xbc715784bd2cf964U, 0xbdf0252f3cd83856U, 0xbc352ab33d74e8f5U, 0xbe0ace5a3c825438U,
  0x3d5cbc733d3b5c67U, 0xbd656354391e5a81U, 0xbe0e0757bc4ccd2cU, 0x3c86713bbd59357eU,
  0x3d950cbabd32e9d4U, 0xbd7ad99fbd0ffdb5U, 0x3d1e27bfbca35afbU, 0xbcfeb0d2bdba7fdaU,
  0xbdcddc63bcc8aeabU, 0x3d222421baa95accU, 0x3d51516b3d73a4b7U, 0xbd16a9833d202ee8U,
  0x3b60b6fbbcdb6851U, 0x3dc488b03d7e154aU, 0xbd2c6a41bdea1fd0U, 0xbd26a2ddbdc4057dU,
  0x3cf555c5bc90639eU, 0xbe42e094be019c99U, 0x3d183c58bda913dfU, 0xbd265a543cef8f04U,
  0x3d558ff1bd2b041eU, 0xbcdcc6613d542f75U, 0xbdb6deb8bce2ab43U, 0xbd907496bd40fac5U,
  0xbcb622e3bd57b28aU, 0xbda7b330bd99b0c0U, 0x3bc5d5833d910ca1U, 0xbd8b281cbc0e9d8fU,
  0x3df2a629bd7fc752U, 0xbda4c021bbcfc3ffU, 0xbdd5b279bcd3c313U, 0xbb7d27a4bcbd1d2bU,
  0x3d32a8083d14a0b7U, 0xbdfaf9a23caf8b1bU, 0x3d6910a13c9647f9U, 0x3ca56d1cbd042da9U,
  0xbd04f0e7bd19e561U, 0xbda023c93d9f4126U, 0xbd1270b8bce7f04fU, 0xbcf06ef4bcf56bf2U,
  0xbd1f0338bcc87cd0U, 0x3ceb93bb3dd8d701U, 0x3da658ea3de5ffdbU, 0x3cf61aa33d810ab9U,
  0xbd8fa52dbc5b4e11U, 0xbe104e2ebc8160f4U, 0xbd53ff88bc447b0cU, 0xbc2404263d6896e5U,
  0xbd05dd5cbd59769dU, 0x3d8de0cf3dbd15b6U, 0xbac3edc9bdada32aU, 0x3c96c1c4bdae67b1U,
  0xbc75e7a03ca4c041U, 0xbd56a2e63d8082e4U, 0x3c5f4d173a333322U, 0xbc9a234a3d96e045U,
  0xbdc8b6f23b91f82aU, 0x3c27ea7bbd1c58e7U, 0x3cad2442bdbab38eU, 0xbd63f8883cf65568U,
  0x3dafa2303c238b50U, 0x3d0db1bfbda05f43U, 0xbcc2d2c239f990edU, 0x3c1c68253caaa611U,
  0xbd757759bd3d8dfaU, 0x3d1c90693d5f0218U, 0x3cb02295bd4bd305U, 0x3da74cb5bd5b45d6U,
  0x3d8b62bf3d161d1dU, 0xbd824e30bd4e7428U, 0x39f58f913d9e56c4U, 0xbd32b0f9bce09e5dU,
  0xbc84326e3cea4321U, 0x3b1c6dd3bd35ee9cU, 0xbdabf0773d3b1e20U, 0x3dfd0ae5bd5032bcU,
  0xbd963c763cf0a852U, 0xbb0d343a3bd06ac8U, 0xbde2bdc23cd33623U, 0x3d08e8e1bc9f1fd5U,
  0x3ce884893c006658U, 0x3ce398f1bca5e175U, 0x38296dd1bc29ec06U, 0x3acd9351bdd359beU,
  0xbcb3a489bc0c7d5fU, 0xbc8c18733dbc121cU, 0x3cbd040bbc5119a1U, 0x3b5cff56bd05aafdU,
  0xbd3c30b53dca44ceU, 0x3dc84fd1bc8b0457U, 0x3ce6289d3d922709U, 0x3bac018d3d1d6ed4U,
  0x3c8314cebd946cfbU, 0x3c8a0595bd89a2d3U, 0x3bb8b8983d521fb2U, 0xbd7707943cc7f732U,
  0xbdaf77593c200820U, 0xbd3ce0fdbd30a1a4U, 0xbc1270bdbca834e2U, 0x3db3e03cbd466193U,
  0x3c8291243dd9fd13U, 0xbd8a14113d43fd77U, 0xbda0af0fbd600456U, 0x3c949e603c317324U,
  0x3d17e08cbdd891e9U, 0xbcacb7a53ca47ef4U, 0x3c1562b53d1af8abU, 0xbc43e1393c34fef9U,
  0xbc63dc073d15e1e1U, 0xbde613fd3c065d96U, 0xbda373193d47e591U, 0xbc23036b3d5ae56aU,
  0xbd4e1d80bd14341bU, 0x3d0b3f92bb8edaa0U, 0xbd0f4db0bcb7abf5U, 0xbd6f3998be00df22U,
  0xbcc7a3abbda128d8U, 0xbdd96a543c8cf52bU, 0x3d18bd18bd353e1bU, 0xbd9c3e193d95e56dU,
  0xbd31066cbd6b01c4U, 0x3d047e44bcff342cU, 0x3cf882a43cd9ab5dU, 0xbdc20d45bdce3367U,
  0x3db7c9dabda2f721U, 0xbd643467bdbaf058U, 0xbbdfd9003d80ad93U, 0x3ce073a73d9b18f0U,
  0xbd73a84f3d3b11acU, 0x3ca4150bbd6a3fc4U, 0xbd8cfaf03d3834bdU, 0x3a9b100fbd966907U,
  0xbce3d7c53dc59e0dU, 0xba71ec22bd7c7ebfU, 0x3b488e963cfe7b85U, 0xbcf2bf4d3cb47b34U,
  0xbdbc3cb1bd021014U, 0x3d0ee24e3ba7a8a2U, 0xbd89464a3d845d2fU, 0xbdb4936abd7ecd74U,
  0xbd3a075bbd8bd391U, 0xbd691edcbca4a9f9U, 0x3d1d424cbc5facd5U, 0x3d2bb35cbd3df9ecU,
  0xbd8db981bd7710c0U, 0xbd7d0e04bd645c01U, 0xbd9c4d743dc430efU, 0x3a487b5d3d890e0bU,
  0x3d4b3c9abd104e30U, 0x3d804baa3cee468aU, 0xbd5d9b3abd2a290fU, 0xbd0bce40be08021bU,
  0x3d83f32d3c19c0bcU, 0xbdd365c5bbe15007U, 0xbd62fb4fbd981ffbU, 0x3c97049abbde524cU,
  0xbd0f73a2bd07b653U, 0x3b87f5acbe58f3e2U, 0x3c3e8398bde542ccU, 0x3a3f6074bd4924e8U,
  0x3cb6e3343b8e0c90U, 0xbb47ac83bda87530U, 0xbc3bbe24bcca392aU, 0xbcf6f1c83b0aff3cU,
  0xbd20f6c63cac2b1eU, 0xbba32d753c15c003U, 0xbda44babbca93a3aU, 0x3cc9d0083d64fdebU,
  0xbdbe8c43bc658d4bU, 0xbd7cda6d3cab673bU, 0xbd6618aebdcd4078U, 0xbe362b12bd969b05U,
  0xbc770778bcd60aaaU, 0xbd835cf23d340d30U, 0x3c251438bd3cd71eU, 0xbcf2fb88bcc40dafU,
  0xbd8706b6bd3ff465U, 0x3d02330d3c838a45U, 0xbd35061a3cf7cfaaU, 0x3cefcf973d0b5f30U,
  0xbcc1a86c3c70d316U, 0x3cf3de593dacd124U, 0xbd90b320bd310de2U, 0x3b06e0e9be016523U,
  0xbceb72293cc304f7U, 0xbb8635ea3d376f18U, 0xbbb60148bd9322d3U, 0x3d250e363c7b4760U,
  0xbbffc8b2bccde946U, 0x3b604a93bd833927U, 0xbcc56cc8bd605e3bU, 0xbd4018ebbdaab289U,
  0xbc7f2c32bd75f60dU, 0xbc26d4a0bd8ca387U, 0x3d393bb9bd4a4328U, 0x3c4d4cc53b1f4648U,
  0x3abcece0bcd9e57eU, 0x3d1658933cac148fU, 0xbe07c771bd0def33U, 0x3d28500f3cb66ea4U,
  0xbd392415bbedde63U, 0xbcf68f4d3cc33a20U, 0xbd61a0babdc7902fU, 0xbd6f4b3bbc0e8120U,
  0x3cceeca1bd00e745U, 0xbb287188bd1c2384U, 0xbd816209bc8daf9dU, 0xbce979e33c68336fU,
  0xbd22af163ca12a7fU, 0x3df2b8e4bc205866U, 0xbda91822385e3f01U, 0xbc106e973d649d68U,
  0x3c7838263d819d8eU, 0xbc0e1e953d464311U, 0xbd2e5e6b3d6f9cffU, 0x3d0a6fb3bdb19a2cU,
  0xbc9468ebbda8dd86U, 0x3bfe1fd1bd3956d7U, 0xbd04691fbd7ac74bU, 0x3d27025f3cf1a2ddU,
  0x3abfe3443c5be15dU, 0x3d4a033dbc47d484U, 0x3c734e53bcd23ac8U, 0xbc3db6c5bde747c9U,
  0xbd57560abd0069eaU, 0x3bd4faf3bd01aff3U, 0x3dca57873c471c14U, 0x3d789602bd656c6dU,
  0x3d505f003ad49cd8U, 0x3c910f873dafbecbU, 0xbc8e3a08bcb022feU, 0x3cff40c5bc11b874U,
  0xbd880cf53cf43c27U, 0xbcdad1873d4099f2U, 0xbd5a722bbdb132c9U, 0x3ca822afbcdc9836U,
  0x3d058ab9bd4c6e43U, 0x3c18f6ce3d17e52bU, 0x3ce7541cbd42c381U, 0xbcd5a735bc5aa71aU,
  0xbdce1985bd8015e5U, 0xbd2558693d20142eU, 0x3b0074593b4f0c2eU, 0xbcf6baabbcd20ed7U,
  0xbc808aafbd25a782U, 0xbd2fcb1abdda2108U, 0x3cab2e3fbe2c54ccU, 0x3c00dad2bd3979c7U,
  0xbc29db50bd18c25dU, 0xbcd6da323c073347U, 0x3b1272e7bc9c8a89U, 0xbd600261be16c313U,
  0xbd3659f0bd9d8d50U, 0xbc83ed82bc8fb692U, 0xbd709218bc3812cdU, 0xbdc09335bd7aa7b1U,
  0xbd0274ec3d2a0775U, 0xbd73ceb93d61d0d0U, 0x3d9eb823bdba6929U, 0xbde8b717bd3a87b7U,
  0xbd8d40a0bcc64955U, 0x3bd12428bcfcf697U, 0xbcb47aff3b7ca6d6U, 0x3d384aa8bb83c790U,
  0x3b77f112bc52b3f7U, 0x3b7eb599bcefd7aeU, 0x3c808639bd9ba468U, 0x3c47c9373ddfce68U,
  0x3c97cb7ebd3e740dU, 0xbd6be747bcd7e535U, 0x3d88882e39397d0fU, 0xbd89ec0cbd8e641cU,
  0xbd8e2e98bd6f5708U, 0xbc60637d3d2c938eU, 0x3d345524bd1bf099U, 0x3c4c12d63ca0643cU,
  0xbd1e0a69bc81d6b6U, 0xbd7c57e4bd62ecc2U, 0x3a8355f7bdef69f4U, 0xbd79aba9bdd155c2U,
  0x3d134f583cd11f96U, 0x3ac840a83d49b830U, 0x3c504867bd874f43U, 0xbca4fec2bd4a2779U,
  0xbd2505593c10e35eU, 0xbd1e51ce3dba9247U, 0xbd4453c53d908f47U, 0xbdd2f22bbdbfb9f3U,
  0xbdc9c3f73be960c8U, 0xbd310cb0bca1abc6U, 0x3d40ff87be0d5f2cU, 0xbdc8f5903d0f6bfcU,
  0xbd73ca293bfa4c3fU, 0xbd926d21bda63fa3U, 0xbc5818c23d4caf0dU, 0xbd767ef2bcb77226U,
  0x3da83df4bd19ab33U, 0x3cea56dcbdbbec78U, 0x3d0cd87eba680c93U, 0x3ccbcbf63d6f50f5U,
  0x3d47ef8dbcc9d3d6U, 0x3c3b98463c98ca95U, 0x3c4bec80bcf637adU, 0x3c510ed13d16be9eU,
  0xbcd90cbebcb5fdf0U, 0x3db7e97b3d744e35U, 0x3d240261bc8cef90U, 0x3d2d65c23d618563U,
  0xbd4904be3d8c3f5aU, 0x3d93f8b5bda1aea4U, 0x3d201134bd7fb434U, 0x3d362497bcdb58a7U,
  0x3cecc23abd1f2068U, 0x3c4903773cc6e695U, 0x3dac3b04bcbfc576U, 0xbdac2640bc7a95e9U,
  0xbdb4cacf3c5a1f0eU, 0xbc4514073dfda560U, 0x3d98f1b23ddcbc3bU, 0xbe04151ebdeb450bU,
  0xbd77a205bcc4dbf6U, 0xbc971d393d591737U, 0x3d254015bcb70f46U, 0x3db1c20abcaa2f19U,
  0x3d04773fbdf128b0U, 0xbd68d597be05b285U, 0x3ce3c158bc692642U, 0x3c34e6343d4611e0U,
  0x3b8e2fd9bd4fa4deU, 0xbce27254bd256635U, 0x3ce190783d8bb362U, 0x3cb152ea3d49d4a4U,
  0xbca95eb23d732d58U, 0xbca2f95cbd54490eU, 0xbddb2f1f3c4b7ba3U, 0x3d8a6062bca13214U,
  0x3d542b7ebd5b79f0U, 0x3d48cac03d59c90fU, 0xb7a18076bd783072U, 0x3c1fef31bd0c15dbU,
  0x3df967303ce2efe4U, 0x3c93a77cbda28454U, 0xbcd83bc8bd2695acU, 0x3c571d51bd4bb9ddU,
  0x3d63e8c1bd4f5fb0U, 0x3c83bc7a3d1dcbe2U, 0x3c4647173c4a989eU, 0x3c83fb0d3d8afc83U,
  0xbccbca763d598768U, 0xbdc04d303d96f241U, 0x3d3eb1233d87ef00U, 0xbcd0f4b3bd362d1fU,
  0xbd589905bd698c80U, 0x3c4541edbc896ae9U, 0xbd1d4b1abda8197aU, 0x3ce5997d3d02d1d4U,
  0x3d9979893b734caaU, 0x3cc4f193bd83ad61U, 0x3d95ece83d23f33dU, 0xbd59a08fbd5143abU,
  0xbcad33e23d38438cU, 0x3d37326dbda35fa1U, 0x3ce0ace7bd8d0068U, 0x3cc171ec3cd9e656U,
  0xbd926a9cbba3ce86U, 0x3dc18f4c3c4fda1dU, 0xbc9d5364bd239df4U, 0xbbc6d984bdbe6c33U,
  0x3bffdf70bd2f8369U, 0xbdb24eebbd1f94ceU, 0xbd017ce0bca5e12aU, 0x3c78195bbd844960U,
  0x3d89c4d0bc86705cU, 0x3c96cc84bd4eab2aU, 0xbadae169bdcaf97dU, 0xbd8fb7bcbd881b2bU,
  0xbbdd3eba3ce4d4caU, 0xbcd2f65abc3f119eU, 0x3cec53fdbd81038eU, 0xb9c4ac923d4aef8eU,
  0xbc54f0503cde8bf4U, 0xbe64d3b93d5d0af4U, 0x3d50da603c8ae5feU, 0x3c67e73f3c090e45U,
  0x3ac685d0bd5e4341U, 0xbd7b8ea0bcde1e23U, 0xbe26fea43abe980dU, 0x3d15988ebcac600dU,
  0xbcc457413b409700U, 0xbd098cfa3cc08574U, 0x3b8ab0663c72d86bU, 0xb89b1e5ebcf74762U,
  0xbc7c6c273cf93f59U, 0x3cebfdee3c4f6dc8U, 0x3d72c9593d2e8814U, 0xbc7b8f27bd214036U,
  0xbe0a0287bd3080bbU, 0x3cb814a23aa05e47U, 0xba07c78dbd1a21b4U, 0xbd8f1867bd4dc823U,
  0xbd8926883b1b3f92U, 0xbcbcd382bdd3ef22U, 0x3d646bb93d1d83aaU, 0x3cb04e4e3c7e0b82U,
  0x3d8542fa3c6d5981U, 0xbd14c19e3d18f0ccU, 0xbd828714be03fdfcU, 0xbcf1e576bca2fe22U,
  0xbd2cf4fe3c14a686U, 0xbd0f87e3bd4c59a0U, 0x3d1b58bbbdb9ad4bU, 0xbc96ee1bbb79d898U,
  0xbbc856debd21149cU, 0xbe0566d73c6e924dU, 0xbd1e9a98bd215170U, 0x3d43567bbccb7b68U,
  0xbbdd75ccbcf07c5dU, 0xbdabbdd3bd462a14U, 0xbd1059a0bd35942dU, 0xbcdf728d3afa2c98U,
  0xbce63306bc3b4bbbU, 0xbd91feb1bd936ff5U, 0x3d13dfb53bffc88bU, 0x3d79246abd928fbdU,
  0xbdc970c0bc7d8238U, 0xbcc5364ebcabd8dcU, 0x3d3271043b9f7284U, 0x3c9afa32bce66c96U,
  0x3c2f0447bccc98a3U, 0x3d19e3debd393e42U, 0xbb4426d2bcde07e0U, 0x3cd05ed9bd37d9bdU,
  0x3db63f0d3da3137fU, 0x3d9c2d85bd96bc5eU, 0xbb9a095ebd4c2c05U, 0x3c780c993b8b5ccaU,
  0xbcc20415bafc8c6bU, 0xbdc1f0353d0211efU, 0xbdacc9213d8af815U, 0xbbff84f7bce039bdU,
  0x3da70a91bd865012U, 0x3db1da79bd07a5cdU, 0xbcbe139cbd5a0996U, 0xbe0b7cbebcfced76U,
  0x3cc72198bcad786dU, 0xbcb25c9d3d3d34a6U, 0xbca60d79bd73e6cfU, 0x3cd749373d69ffc8U,
  0x3ce88631bcb5222cU, 0xbdc080a1bc5537e0U, 0xbc502f9e3c9f0959U, 0x3d70d543bd2a64ecU,
  0xbd1d25483b514d56U, 0x3a94e23fbbba9026U, 0xbd0d05723c916ff5U, 0xbcaa5cc3bc4246c3U,
  0xbd060f48bd393545U, 0x3d04a6823da87029U, 0x3d18432ebc9a130aU, 0x3dbbfc4f3da3cbb0U,
  0x3d0d0316bd6d5c3dU, 0x3deefa2fba76fb49U, 0x3b82d37f3c2bf602U, 0xbd98e9bcbcde996eU,
  0xbd29ba2e3d14a94cU, 0xbd4fcac6bc3bdcb8U, 0xbc628d17bb6a2d27U, 0x3c611d25bd9a877fU,
  0x3bc1b187bcd76d61U, 0xbdc14d1839fe0f57U, 0xbaaa1dd9bd7226c2U, 0xbd0d25dd3ba9d4b8U,
  0x3bab708dbd3202d4U, 0x3c9d53ef3cbc59f2U, 0xbc9b0c26bca2b936U, 0xbd56169ebce792b4U,
  0x3d1cd4a7bc46aa1eU, 0xbd5ee85c3c6f6b06U, 0xbc0ac284bbdb824eU, 0xbd087a613c899f46U,
  0x3c86d6d8bb8395abU, 0xbda91350bd7deefcU, 0xbd1b63243d3473b5U, 0x3cf662d6bc7338d2U,
  0x3cd272c5bd396c42U, 0x3c8349b8bc0542e2U, 0xbcfdef33bda63093U, 0x3c9be9373b18e7b7U,
  0xbd77cf86bac2f4e6U, 0x3baf4fb1bcedf2a9U, 0x3ccacecd3b357d23U, 0xbbb26fc03d0f1365U,
  0x3d6782eabcaf31ebU, 0x3d8b756a3b004f2bU, 0xbc55670abd9f364cU, 0xbd5bb534bd8345caU,
  0xbe15c9533c29d0beU, 0xbe305e14bcfbb7caU, 0x3d43c05b3d2ec2faU, 0x3d77c7c8bd3cb8dfU,
  0x3b35b995bdf351efU, 0xbdccfbc4bc8771b4U, 0xbd53d4f2bd8e30c1U, 0xbd21857cbcdfcb90U,
  0xbdd8d606bdda4697U, 0xbde8f05ebcaa8c05U, 0xbd7e3261bd9776efU, 0xbdbff888bd373682U,
  0x3c4b2569bcef9014U, 0xbc08b34dbd541f47U, 0x3c99ef19bd8c0bc2U, 0xbd280db9bcfbc016U,
  0x3d7946e63da0df6dU, 0xbc18276ebe22e35dU, 0xbdecb7f83d6ce951U, 0xbd8563893d7d8e7dU,
  0x3cedf13dbcee4b97U, 0xbc2b88fabdca6dfcU, 0x3c35243dbad0af0eU, 0x3ce23fb0bb0e982dU,
  0xbc17d65a3c29204bU, 0xbdc36ed2bc824935U, 0xbbb04368bd035369U, 0xbbdadf86bdaae244U,
  0x3c25688ebbd4dd3aU, 0xbdcf3883bd6196aaU, 0x3d2e42dabd836502U, 0xbd0b47b53d14bd4eU,
  0x3d9e25443b56f63cU, 0xbcc38c94bd9a835dU, 0xbbe75c2b3cb6e27aU, 0xbc2963413b211c17U,
  0x3e03b0953c0dfcf2U, 0x3cdaaddf3d98aabcU, 0xbd07323cbcd2fd04U, 0x3cc0af453db17eafU,
  0xbcac646fbd021576U, 0xbc40616c3c881408U, 0x3d3d200dbd842d84U, 0xbbe9d14c3cafa238U,
  0x3d610319bd09ad67U, 0xbd7ac24b3cac012aU, 0x3d5353f6be49dbc3U, 0x3d5e18dcbdab93ccU,
  0xbc4a8e383ad45418U, 0x3cfe2b9c3c3defccU, 0x3d8cf3e3bd673c55U, 0xbc3bcbec3c864647U,
  0xbde323e53da75211U, 0xbdc6521bbc958070U, 0xbc9b11eebafe84e5U, 0xbd91f9babd204e94U,
  0xbcb1fc103d82e55dU, 0xbcea3357bdb0f265U, 0x3c83322cbd84966bU, 0x3d023badbd07023eU,
  0xbc834eb73b00f3d0U, 0xbdbbfed2bc6f0650U, 0xbcde9c9abccac292U, 0x3ae3b1353dddbefbU,
  0x3cb909a33d38005cU, 0xbd091420bdc91c62U, 0xbd39abd13cc9fdbaU, 0x3d81c3793da3284cU,
  0x3df77595bce4f156U, 0x3d61bab33cd464b5U, 0xbd675ab83d41f015U, 0x3d13cc17bb4bdbcbU,
  0xbcd4cae3bd953c0fU, 0xbca8d8533c8b0dd4U, 0x3d9a688cbd9b7db1U, 0x3d33af813d0df098U,
  0xbc7d2791bcc36c47U, 0x3ce301e53cf90aaeU, 0x3d89ca12be133764U, 0x3d0de0b9bd50c177U,
  0x3bc91dc5bd8c6799U, 0x3d1873b13db4f659U, 0xbd2f0969bd8d4825U, 0xbc88a1f43cd468b7U,
  0xbd335a423db5ee10U, 0xbdd3c7883b9ff5a0U, 0x3c5a13243c3388f7U, 0xbdabbb90bdab6883U,
  0xbd5160613d8405b7U, 0xbc33c9b8bd9170fcU, 0x3d8dddd6bd4a669fU, 0x3cbaff173bf83668U,
  0xbd0c5f0a3cc95344U, 0xbcc51f6bbcbdd003U, 0xbd6dc39fbc17364fU, 0x3d85b4c83dbf8502U,
  0xbd5df0073d03131fU, 0xbca32ba5bd1937b5U, 0x3d4e1ba3bd1162b3U, 0xbd0524403cf1b306U,
  0x3d122677bb3f2c8eU, 0x3e0006a13d9359ebU, 0xbd3feb11bce341f1U, 0x3c78d765bd35015cU,
  0x3d52b46dbb54239fU, 0x3d7bc6f33d36e58fU, 0x3d127232bd00362cU, 0x3d8b749a3d984850U,
  0x3cc6f0ddbc98cd72U, 0x3c9592b7bca7b87eU, 0x3d1197cebe082900U, 0xbd47a965bb646c8aU,
  0x3aae44a1bddddf0bU, 0x3d7d88003c3abbe6U, 0x3baddffebd19d8edU, 0xbab834b5bcb966f4U,
  0xbc43f6f73d3a8fecU, 0xbdbd7e80bbc21152U, 0x3d071e7abd2a4c43U, 0xbd8a29a7bd7620c4U,
  0x3b1e0132bd0d9887U, 0x3c8e85723d7e4f62U, 0xbbdd96a53bd4e2efU, 0xbd623c423bd06177U,
  0x3dc2712e3d2e8ee3U, 0xbdd684d83d375fe8U, 0xbcd003eebd3cdb77U, 0x3c7b818a3cef62fdU,
  0x3d68c70e3d84227bU, 0xbcbba6d23de0a301U, 0xbd8f60bf3c891f0bU, 0x3d05e5e4bdcb6e4eU,
  0x3e1b5c25bcad5911U, 0xbd909cb0bcf6ddf4U, 0xbcdf18763ca9ae15U, 0x3d813415bad6d522U,
  0x3db3c0dabcbeda6aU, 0x3d9a6385bc98b0b9U, 0x3dd1de17bd55a51dU, 0xbd468c7f3dd2b234U,
  0x3da52183bb8935ecU, 0xbd0880d5bc6174f1U, 0x3d6a84f0bdb452f4U, 0x3b28852e3af24c61U,
  0xbcc315d4bde2e83dU, 0xbc890d30bc545bccU, 0xbe19ab283c72f45bU, 0x3db55933bc5cfb4fU,
  0x3d03b72c3db976ddU, 0xbccb919dbd568b3bU, 0xbd75cea1bc699940U, 0x3d5065f33dc12afeU,
  0x3c4542eb3cef1c05U, 0x3da35ebbbe011f2cU, 0x3c4b8c49bda5293bU, 0x3ddf2b0f3d273c8fU,
  0xbd40b279bd17e18eU, 0x3bfe65dbbc2eb4faU, 0x3cc32e06be2f7123U, 0xbd38daafbd51c789U,
  0x3d748c973c602e23U, 0xbc10cfbd3be4b585U, 0xbca781a2bd6ea946U, 0xbd46f38abc844c2aU,
  0x3dd1ece33de3d00dU, 0xbda2b22fbb6c3156U, 0xbe015c0d3da4a09cU, 0xbafd075a3cf79bdeU,
  0x3d846b603c298260U, 0xbbf48f1bbd246cb1U, 0x3d3464693cac6357U, 0xbd8de53b3da3adc8U,
  0x3df65761bbf2f116U, 0xbd7b5fa93d5d9008U, 0x3cf5d44fbe1bc0f3U, 0x3d82a00a3a75fdb2U,
  0xbd212da4bda35874U, 0xbd06de4abd630902U, 0xbd8acb113d4ace14U, 0xbc491b67bd63273aU,
  0xbc6493dabc8b83eeU, 0xbcc18b613cde759bU, 0xbca2d9e8bdcd6683U, 0x3c820ea63c76c234U,
  0xbdbb889e3d047ed7U, 0x3c2f547abdd06646U, 0x3cbf79b0bd4cd843U, 0x3d299e753d3c6845U,
  0xbd6f9bfabdae8c9fU, 0xbd89fa723cf01bdcU, 0xbd36d81ebdfd5ed3U, 0xbc7745323d810b72U,
  0x3c94a65dbc60e593U, 0xbe0a69773c95f942U, 0x3d5c9adcbd88b319U, 0x3b9f7cd7bd691dabU,
  0x3dbe4e12bcce75c7U, 0xbd075f283d8b4af6U, 0x3c077cb53c482793U, 0xbbfdc5ac3d008673U,
  0xbc87c0ba3c17499cU, 0xbcd28f6ebd64cc65U, 0xbd0e3071bd505265U, 0xbd58bf953d41ae16U,
  0x3cbf1fef3c986801U, 0x3d1a4532bdc25dceU, 0x3be29ac1be0f955bU, 0xbda0a9993ce34633U,
  0xbd5eb8dabd87d8feU, 0xbcb2db7d3d7b9179U, 0xbdee354e3d84bab5U, 0xbcd6728dbd64cbe6U,
  0xbd71e5a1ba82c814U, 0x3d7d485fbcff7bb0U, 0x3d915ded3d96b8bdU, 0x3c8255be3ce1d55eU,
  0xbdc38c3a3d6d98c4U, 0x3c4d274abe32f30dU, 0xbc6d80fdbe15ae6dU, 0x3c5edb9cbd28b0a2U,
  0xbdaafb693c9c361cU, 0x3dbf3de63daf3adfU, 0x3d755dc73c3efd28U, 0x3c6ca9183d1ccb5cU,
  0xbe04d18c3dfd6f7cU, 0xbb7a7fd83db2c1e0U, 0x3dd33facbd9d2b78U, 0xbd05a7c9bbabf386U,
  0xbb845f51bda26cedU, 0xbe15b9c03dcef7a9U, 0x3c79e33ebc9c6712U, 0x3d24a3483d889704U,
  0xbc4bc99b3e0f7b9bU, 0xb9bd1cc63d610744U, 0x3ca03d4a3d970717U, 0xbc8b2245bd22e818U,
  0x3c75b4f7bd0ff358U, 0x3e25c92fbd660291U, 0x3d02ddba3ce02a3bU, 0xbd356bbf3da8156bU,
  0xbc69859ebdeaee10U, 0x3c0519ad3dc9068dU, 0xbd25b5773d3901feU, 0xbd96da25bb410141U,
  0x3d1037023e07e2a2U, 0xbe1346b13d76a146U, 0xbc4d0c453dab44f5U, 0xbdfc114fbb7fd7d3U,
  0x3cf5516cbd4968dcU, 0x3d72ed6e3e04d838U, 0x3b83e75dbd91baafU, 0x3ce447db3bf37f95U,
  0x3d9870673d36b348U, 0x3d0e99cf3d2de5ffU, 0xbcfdad173c8c2d76U, 0x3daff742bca8cab0U,
  0xbb580656bcf2b1d9U, 0x3dafcf023d21a289U, 0x3d6f47e7bc97e959U, 0xbdbe79d13c819fe8U,
  0xbe0095fcbcf39c96U, 0x3c29bae33d8461afU, 0xbce74297bdbb84b3U, 0x3d124be1bcdf1657U,
  0xbd4fff803d5fc6f5U, 0x3e20073e3c988228U, 0xbdee617a3dbd1f77U, 0xbe066c70bd2fa4a7U,
  0xbd3985163d5775d3U, 0x3da9bc8abdce7703U, 0xbc8e6965bd646b67U, 0xbc75cbff3c8b3890U,
  0xbc34278dbd41b9f1U, 0x3ddcac383b940c03U, 0x3c0ea6513d181e28U, 0xbdfd5079bc9cf478U,
  0x3d98a6dd3dee6ab3U, 0xbd069f78bd2976b2U, 0x3cb36e64bbb431abU, 0xbd116717bdb51e3aU,
  0xbd1d1f17bcc9a4eaU, 0x3dd1075d3c85066aU, 0x3c8c327ebbb05221U, 0xbd9b27843d3d5d30U,
  0x3d888d70bd6737aeU, 0x3cd62fd23c0a837eU, 0x3d24750d3c8c913dU, 0xbc8883f2bcd80879U,
  0xbca240503caba1afU, 0x3dc68b89b984a3e5U, 0x3db5bcebbdb6e624U, 0xbde2e4543c06baf7U,
  0xbe24296a3da17dc5U, 0x3d8da2fabcc2ae2aU, 0xbdc4cf0c3af07952U, 0x3d04407a3d3e2229U,
  0xbd00e33c3bced1bbU, 0x3d2d399c3e0a7a0dU, 0xbd2477e73d104291U, 0xbd584517bd0be49dU,
  0xbc84767d3dbefe67U, 0x3d62aa843d5d39e8U, 0x3df309bbbcc5d847U, 0xbd916e30bd05d682U,
  0xbd1c82bbbd4967f5U, 0x3dc42c9ebb1f3569U, 0x3dc9621ebc1080bcU, 0x3db0c1afbdceca5cU,
  0x3dc5ff2bbc12e7c8U, 0xbd6385afbb7077b3U, 0xbdd0ccbbbe44a9dbU, 0xbd642668bc11f490U,
  0xbd93cca1be2dc939U, 0x3d21e52bbd7c1bb6U, 0xbd331c24bd818de8U, 0xbb64a37bbbe1d16dU,
  0xbd002c7dbca1ebe5U, 0xbde1f05cbc1fa457U, 0x3cdf3081bd9550bbU, 0xbd91cb52bd411267U,
  0x3d7defacbe1537e3U, 0x3c3fa6173c6c9d80U, 0x3d3b03e23aecf9b9U, 0xbe1f89673b9ad06dU,
  0xbbfe53263dc51bd4U, 0xbd467befbcc3b7f3U, 0xbd83d392bc564c83U, 0x3cdb0a1ebd4096d5U,
  0xbc4deb4cbd9c1201U, 0xbd2ae65cbcc28387U, 0xbd0b35413dc8d93fU, 0xbd2bcdba3d8428c6U,
  0xbdf5a24ebd686025U, 0x3c2f7e323e0d6bd4U, 0x3da31d2cbdaee344U, 0xbdc0f8b1bcc1e97dU,
  0xbe350853bd2fd767U, 0x3c9e87e53d1e8a89U, 0x3d061380be17ea6dU, 0xbd357a56bd0ee631U,
  0x3d243186bd6f004dU, 0x3cac74f6bd73a538U, 0xbd247df5bc310899U, 0x3c298992bd69bb24U,
  0x3d69a320bd4d5d2eU, 0x3d7429fabc39a971U, 0xbdb4c0a6bd8f2c8bU, 0xbd8004143bba325aU,
  0xbd04b77b3c7dee8cU, 0xbd5d3a36bd9c0e8dU, 0xbc5b05603e050710U, 0xbcf687d63d94f553U,
  0xbce44de4bc9d1f61U, 0x3d42c9e7bd7aa336U, 0xbc8ed10bbd605d69U, 0x3c6c0718bd524ce0U,
  0x3cfdd397bd18549eU, 0x3cfe9ab8bc88de60U, 0xbdbe22003c15bb69U, 0x3d7180133d9ccb19U,
  0xbd989c0fbda0bfa4U, 0xbd91b1c9bd482320U, 0x3d5763143dad1f48U, 0x3aec48433c947c16U,
  0xbce1c291bd150087U, 0xbd682b833dbf93caU, 0x3da898d23d59a58eU, 0x3bb24f5abd3aa276U,
  0xbd3e4fc53d8444f0U, 0x3cfd5d49bd9072a2U, 0xbdf63bc4bdd7f67fU, 0xbd9a1385bc1453cdU,
  0x3db1b649bd2eb04bU, 0xbcf19f58bd7a88acU, 0x3c08069bbcb19bb3U, 0xbcecef75bccdc3b4U,
  0x3d2c3423bdc83079U, 0x3df9aa5cb9988658U, 0xbb2820543d34f0ffU, 0x3ce918543cae190eU,
  0x3ce9021fbcdc60eaU, 0x3b9ef62c3d5b8694U, 0xbd5e6cb2bc1a7dc3U, 0x3c3e502bbd8d482fU,
  0xbc3f51c0bddda7afU, 0xbe1fa113bd9bf686U, 0x3c03d3393e01734eU, 0xbda3efb73e1d90fbU,
  0x3d5c8e83bd1eb708U, 0x3db80322bd0a978eU, 0xbd14d19abdbc2aa7U, 0x3dce3a6ebc4ce5b1U,
  0xbbaf36953dfdf8c3U, 0xbcd39510bd027a4cU, 0x3c235f673d502ae8U, 0x3e13ca8e3d7787b0U,
  0x3cd02cb53c9fa32dU, 0xbd58d990bc15acdeU, 0xbd12a8f53d862a55U, 0xbe00eb1abd896e41U,
  0x3d7f6405bdb9557bU, 0xbcd3c5b0bd9af2dfU, 0x3dd952673c68f858U, 0xbd99a15d3d0198deU,
  0xbdc92adbbd92b0acU, 0xbdbe2e7ebc982f33U, 0x3d75c972bd436f67U, 0x3ca2347ebcbae795U,
  0xbdc4f0483a7a81daU, 0x3d5126be3d8d88faU, 0xbb2453e83dc77421U, 0xbd3d44a53c75188cU,
  0xbb85a8263c5497caU, 0xbde887aabe13a63aU, 0x3ca64b9e3be6223bU, 0xbd182aefbd3b5e22U,
  0x3c7279f33d21104aU, 0x3d163986ba6471f7U, 0x3dc82dd4bd598c96U, 0xbd9c2a19bdf78b9dU,
  0xbdb9468a3dcbb42cU, 0xbc65eebfbdd83f6fU, 0x3ca1393ebc800dd9U, 0x3d91f1c8bd9bed37U,
  0x3d564925bdbf47bbU, 0x3c527fad3d3dc01aU, 0xbe317a1d3debbfb2U, 0xbc2e9affbc83cb76U,
  0xbdab9e683d030e6aU, 0xbd12fb9a3be91dc7U, 0x3d291e19bc818609U, 0x3e14fea6bd0fbbdaU,
  0xbdc02a343c651cc8U, 0x3dd5d13dbce97080U, 0x3af35824bb8b683aU, 0x3c0009313d78db26U,
  0x3d85a5e8be0ea799U, 0x3d9fbabfbd00d3f6U, 0x3dde2113bbd7318eU, 0xbd1bf469ba6bdcb5U,
  0x3ce05894bd865aadU, 0x3dd82207be168abdU, 0xbde6efb6bd05f474U, 0xbc0941c63d954e5eU,
  0x3d32e198ba431baeU, 0x3dcb885e3ca01b0dU, 0xbd63676c3dbaef15U, 0x3d012bf1bd94772fU,
  0x3d401255bdb8b495U, 0xbd367d7bbda325ddU, 0xbc7210f73d3d5236U, 0x3ce978b7bd5a5106U,
  0xbdae5c393cada4a3U, 0xbd8cf603bd985518U, 0xbda8570ebdfe308bU, 0xbcabc05ebd04e7c8U,
  0xbcfcf644bd46ac16U, 0xbb196ad13d9557a1U, 0xbe26c1bf3dd39b34U, 0x3cd8fc4abd2e0eabU,
  0xbd2c04813dc6157aU, 0xbd04eb493cffffcfU, 0xbca5706abdd05b35U, 0xbce0bfc53caba20cU,
  0x3cde0c75bb4429e9U, 0x3ad5c6f7bd8904a2U, 0xbd2404fc3dc97ab2U, 0x3c79fd653cd1923dU,
  0x3c1973a0be2e9654U, 0xbd362ea03c4765a7U, 0x3d2cfcb1bd7e22d8U, 0xbcf99c22bdaf7902U,
  0xbd58412cbbff1a0bU, 0x3db60e90bd2afb72U, 0x3b3cf3e8bb42d569U, 0xbd55e6033d3803c3U,
  0xbd379e89bcb06c96U, 0xbd837f5dbd82dbf6U, 0xbb90f15f3c04ff20U, 0x3cd11e46bcfa9ec8U,
  0x3d14e8e1bda62ae0U, 0x3c445b07bcabf62fU, 0xbd73ffffbd90bc82U, 0x3c8275353cb6c428U,
  0xbd2c0f1a3dd304c6U, 0x3d793ccb3d463e41U, 0xbc72607ebdaeba21U, 0xbc1afad2bd72edbaU,
  0x3d21e2b7bcaa61f4U, 0x3d948efdbd5bdca3U, 0x3c4cbcce3db1890dU, 0xbc4a01133db8042fU,
  0xbd3ed17ebd128bf7U, 0x3c0b28473e125f74U, 0x3d53e7e7bd3ecc5dU, 0x3e059c043d15466bU,
  0xbdf68cd83cf89a65U, 0xbc14154e3daf85d1U, 0x3dd42c4f3d8e1464U, 0x3d4365d93d066157U,
  0xbcea8c01be2bf147U, 0xbced3d813dab586dU, 0x3cfd67653c4eb3a2U, 0xbd9cf95f3c2d1576U,
  0x3d454dd9bc4929c0U, 0xbb4320b5bd505067U, 0x3af8bfefbd804e81U, 0x3d2968e53cc89662U,
  0x3c0fcd38bd9da877U, 0x3c1de025bd25bb86U, 0xbdbc9ec23d375135U, 0xbb3b6a2ebd5c5092U,
  0xbc09aee73ae8e92eU, 0xbe11ab2fbcf35b7eU, 0x3c0ee2393d23da6bU, 0xbd47493dbdb1960eU,
  0x3df3dbc5be0056ceU, 0x3c9b642c3ccbbd06U, 0xbc810081bcaaa920U, 0x3c31bcfa3d6384aaU,
  0xbc5e0fce3d76c032U, 0xbd14cbf93d8dca5aU, 0xbcf324fcbccb5eacU, 0x3d87990cbd171c58U,
  0xbd4793e7bbc2a0d5U, 0xbdfb7a15bd02e1e8U, 0xbcd170363d04d859U, 0xbdd985f03c04a572U,
  0x3cdb272f3ced1ae5U, 0x3dc9316a3d0ff86cU, 0xbd8b5934bd246e2bU, 0xbc0fc2e5bdb5e2fcU,
  0xbd409dc33c5ed6eaU, 0xbe204e263c6a08deU, 0xbd01e5d9bdbc46e2U, 0xbda5964bbccc6cc0U,
  0xbd8821f2bd9cb7e0U, 0xbc3ab30bbd94a109U, 0xbd29079f3e19bd94U, 0xbe04cc49bd0dd19dU,
  0x3a9dd694bdf4a377U, 0xbd642b183d4c6cd9U, 0xbd3b32ebbc3f3c89U, 0xbd2ad556bd22f7b9U,
  0x3c90d2623ce44724U, 0x3dbc9437bd6c2772U, 0x3bf3d691bcebd5e7U, 0xbba77c23bdad371cU,
  0xbce59d80bd848201U, 0xbe10609c3d7930cfU, 0xbcba3763bce14096U, 0x3bf7034c3ca8acdfU,
  0xbd1de1a13de4c2eeU, 0xbdd125c0bc559360U, 0x3d6a951fbc641052U, 0xbdd91a4fbdc1ef81U,
  0xbd633eabbe09b272U, 0xbdbf28ab3ced59f8U, 0xbe0cdf083d33b02bU, 0xbd25f7663ba16957U,
  0x3c4f97073d140d80U, 0xbb4d9464bc89d198U, 0x3cf274793d8deb52U, 0xbd8c8cdfbc983436U,
  0xbd7113f9bc8c3e91U, 0xbd6eb973bc60297fU, 0x3c81155f3d6a81d9U, 0xbde0a84f3ac9a8ebU,
  0xbd0c3a2cbe15b361U, 0x3ad47beabb9c5337U, 0x3ca044a43bd7b5d5U, 0x3cc249663d3b7b8eU,
  0xbc4d1d5abe1d3d51U, 0x3da052ab3dc044c0U, 0x3d2d99533c2fe677U, 0xbdc8c442bcd82cc5U,
  0x3d737cb03d2e12efU, 0xbdcc5e5f3d31dd39U, 0x3d0194b4bcbd6830U, 0xbd39d98abd9efb3bU,
  0xbcb856a9be0f1e8aU, 0xbdc8be05bcc78e98U, 0xbc1bef72bc2ba48cU, 0xbd933d60bbf46346U,
  0x3d25b43d3ddccb2bU, 0xbd6396aebd8e7dceU, 0xbcd0b18abc99b49bU, 0xbd1591d7bdc01b45U,
  0x3dee37efbdeef674U, 0xbd8998b23b98f8d9U, 0xbdbd17f63d2b71fbU, 0x3d6f8efa3bdc64c2U,
  0xbc5bbefa3dc28da8U, 0xbdda3d213dd24184U, 0x3ca907ab3db4a3d5U, 0xbae234ea3c448d04U,
  0x3c9aad643cb3e0c7U, 0x3e0e6b9d3db0320aU, 0xbdadb976bdb56f3cU, 0xbd7b2d743d07065aU,
  0x3d8d729ebd67a70cU, 0x3b9bfc4bbd8928faU, 0x3dada4b33d547778U, 0x3c8c54983deb75afU,
  0x3d477c513be8cc49U, 0xbe1712e3bcf2303fU, 0x3d41f35bbd16534aU, 0xbd565f853c0a8610U,
  0xbce932c3bceca033U, 0xbd82c584bdb87780U, 0xbccba43e3d8fd919U, 0x3d07484c3d8a0888U,
  0xbd1900f5bb1d50d1U, 0x3d7644bfbcf84ceeU, 0xbd9ae51bbcad07cdU, 0xbc102beabdd9269cU,
  0xbd8f33f53ba50a2dU, 0x3cc34a69bc796beeU, 0xbd04602cbcfe15cdU, 0xbace0fdabcea541cU,
  0xbe0abf08bcbe238cU, 0x3ceb1242bdf46186U, 0xbdb986e8bcef9f01U, 0x3d1d19aabd3c899dU,
  0xbd9b5a663c922ca4U, 0x3d050c12bd09c199U, 0x3d148a5f3c0045e5U, 0xbbb05d283c704081U,
  0xbd9747163d510d94U, 0xbd773035bd7c27d4U, 0x3c995ab4bc74c14aU, 0xbd4e1feabca8cbd3U,
  0xbd6235453a9bf5d5U, 0x3ccf0504bd8f75a0U, 0x3d3f256cbd8e0643U, 0xbdefc1b5bd4d23f7U,
  0x3c3dce9d3bec1e94U, 0xbde970c1bd2624e6U, 0x3aa9a6323d761360U, 0x3c8e8db43d199c95U,
  0xbb997b43bcdb3517U, 0x39dfbd54bd67cc22U, 0xbd303e1a3a183692U, 0x3cae58aabd569227U,
  0xbcd2c02b3cac509bU, 0xbcabb1d03c9a3f69U, 0xbd96b6cf3d038948U, 0xbc14a2c4bd94ab0eU,
  0xbd93f790bc2e3187U, 0xba8035f9bcad95f9U, 0x3d22c3d6baac56b5U, 0x3cf20ebdbcb3fa94U,
  0xbaf690efbd0d091cU, 0x3d2789d0bdc229bbU, 0xbd479960bdb7dbefU, 0x3d031792bcfb2b98U,
  0xbdc822d3bb87880dU, 0x3c812f77bc7dd124U, 0x3c89c337bb899fd0U, 0xbbcbd5773ca8bed9U,
  0xbd36f7d4b9d20ce2U, 0xbdb547383d26a072U, 0x3d2db4efbc4c09e6U, 0x3ce623453d439fdeU,
  0xbd90b4273d35b635U, 0xbc19305cbd5e8d6fU, 0xbd2e265bbdca5f75U, 0x3d00d3283d3df258U,
  0x3cb3e4623b951214U, 0xbe0e476abcf2e147U, 0xbd63908dbcc9243eU, 0x3a9de1cb3ca5d00aU,
  0xbd3e36d6bd5feb63U, 0x3d981d363d576d1aU, 0xbd22ed99bcd06bd0U, 0xbd933250bd33e34aU,
  0xbd3153fc3d82ea0eU, 0x3cc4671b3d88d372U, 0xbabff8163dc2ca27U, 0x3d3131e03e0a891aU,
  0xbd0999a9bc39069eU, 0x3deb8fbb3e024399U, 0xbcbd9d2bbd2d7158U, 0xb9d594933d704ba9U,
  0x3d3a66243d4ac199U, 0x3c890966bcddc758U, 0x3c61cf9abdca5aceU, 0x3d4b6e013b99914dU,
  0xbcd90545bb2b3717U, 0x3e00937e3d986f17U, 0xbb509fa33bcb045bU, 0x3cacba33bc9819c8U,
  0x3da733b4bd0a4e84U, 0xbcd08ed8bd2a1900U, 0x3d4d375abcadf629U, 0xbdc5e6283ca2de27U,
  0x3d8c261b3cc04ea0U, 0x3cc02e22bdec6927U, 0xbd17d280bc4e1e77U, 0x3d7b308d3b55e7adU,
  0xbd3ffe223d818713U, 0x3d03e7a53cb5abb7U, 0xbe3ba780bb6af10aU, 0x3cc6db1d3cffca65U,
  0xbc99faaabdf2ca9aU, 0xbd4894603dd45a75U, 0xbe11094dbdd2fe14U, 0x3ccb96d1bd3a9442U,
  0xbe4089193c11b7f6U, 0xbd3dcab4ba93fc7cU, 0x3d94db713c14a6d5U, 0x3a993d5fbd49243bU,
  0xbd5ea398bb55d1caU, 0x3de590fa3d6257dfU, 0xbdf3b349bd9e40d0U, 0x3ca63050bd635551U,
  0xbd135913bc505cddU, 0x3c849ab4bdf50296U, 0xbc12026a3df17c5aU, 0xbc4c4c433d3a192aU,
  0x3d958bc4bc6a2812U, 0x3d80ad2f3d6f77b0U, 0x3e19ca7abd10014dU, 0xbbbea33ebc83e283U,
  0xbd7529443d949fbeU, 0xbdc6659a3daa2694U, 0xbc9b03b43d83c751U, 0x3cdd726a3e0b78c9U,
  0xbc6d62cfbc52e7dcU, 0xbe3119353dc91e30U, 0xbe7ee82d3d8110bfU, 0xbdf7d2cbbde764ddU,
  0xbe2cc20a3dcb1de2U, 0x3d0bb2843cfe872cU, 0xbddc5faa3e325cf1U, 0xbbec1ece3e04b32fU,
  0xbde3b576be0fe703U, 0x3cc1288f3c80098dU, 0xbe278648bdfbd03aU, 0xbce90d7bbd6c504aU,
  0x3ca80cf3bd465e9fU, 0xbd0623afbd191f2bU, 0x3cf85673bd82f8d1U, 0xbd411c103c87f250U,
  0xbd1f5ed1bdb334f2U, 0xbd25c938bd6882caU, 0xbe122ed9bd89cbd2U, 0xbd17aeffbd71edbaU,
  0x3d8dfc213cccc137U, 0x3d318e8cbdf2f616U, 0xbd0358703dd6fe98U, 0xbd05e1033c1e4ee9U,
  0xbd31b8783cfcde01U, 0x3da9a906bca5b6f2U, 0x3dc73acebdae7668U, 0x3d0ab975bd1ac462U,
  0xbbd206633d326f4bU, 0xbe0d22103d48fb86U, 0xbde9ac80bb8da419U, 0xbceaa8ea3d5dfb5dU,
  0x3cd7be0f3d872e6aU, 0xbd5e17aa3d535293U, 0xbe36b544bda46099U, 0xbe82ee903bcfb603U,
  0xbddcb47bbc6ea64eU, 0x3dc34a523d443c3eU, 0xbda38643bbe2134eU, 0x3df1de4ebc861d65U,
  0x3bf42c94be15b002U, 0xbe3ce032bdfea4e0U, 0xbdf99a66bdad1483U, 0x3d01c2383bc5f52dU,
  0x3da8037c3c9c20aeU, 0xbdae8b07bd52d421U, 0xbda6936cbcbb30bfU, 0xbced2f23bc833bfeU,
  0xbd284847bd4a0eacU, 0xbcfdbfdebddbfea8U, 0xbd89e1713d323a48U, 0xbdc1b8833d3b5e81U,
  0x3dfa5883bd2e094cU, 0xbdf95a8d3d5a17bcU, 0xbd9bf4ef3d0e8dceU, 0x3d6775ee3d531e60U,
  0xbcbe90c83d2e84f1U, 0x3aeb94aa3dd15845U, 0x3b50bbea3cf029dbU, 0x3d88be233d578b71U,
  0xbd04366e3df2b7bfU, 0xbda8b7113d8d3f7cU, 0xbdbad38cbde01884U, 0x3d977387bc9219cdU,
  0xbd0ced66bb987d83U, 0xbe0c1cf4bda5805bU, 0xbd9da6d43d975756U, 0xbe25c30a3d918630U,
  0xbdb5a72ebc66d7a9U, 0x3cf2bbd5bcbc6427U, 0xbd4b6113bd830107U, 0x3df0398dbe1d875fU,
  0x3c7e3e32bdcff614U, 0xbe480fa23d71ab1cU, 0x3c5db9bcbc42d008U, 0x3d04b13e3d09bbc5U,
  0xbde626dbbd9a5ac8U, 0xbd3ad221bbe910e3U, 0x3d02c4ab3d377606U, 0x3e01b811bdebac77U,
  0xbdcbe70e3e190268U, 0x3d86d86a3d07437bU, 0xbe4612483d839adeU, 0xbd1615803cb17aaaU,
  0xbcbc10743cd7e3c2U, 0x3d4329aa3d6f5abbU, 0xbd40fa54bdccc8ceU, 0xbdbea03cbd32f58dU,
  0x3e156417bdaa54d3U, 0x3d910951bbf4f66bU, 0x3c9f3a3e3e20f160U, 0x3ca49f773d27cb9bU,
  0xbd5d137fbdcf5a54U, 0x3bffd1b2bc8ace9dU, 0x3cfcea69bd368880U, 0x3d23eeb8bd769608U,
  0x3d916869bcea7689U, 0xbd8b49ba3d130550U, 0xbd620a6cbe8fc0c4U, 0xbe3ecf3c3bbe1d07U,
  0xbca70091bd557e5bU, 0xbd89ad67bd64bf9bU, 0x3c7cff203d674ce7U, 0x3cc8fd2a3d7ddb79U,
  0xbd501b383d6f180aU, 0x3e00f77c3cec10e4U, 0x3e4191efbdb32770U, 0x3e0d502bbc286b81U,
  0xbd700482bbc93c78U, 0xbde651eabd7025f2U, 0xbda70a583d834f6fU, 0xbc9f7109bcd7ceb7U,
  0xbc299064bcbcd201U, 0xbcab13c8bcbb1231U, 0xbd5bc4d5bd5d72dfU, 0x3d56877abb1a4ff6U,
  0xbda5a525bcf43a16U, 0x3e3190233d26f98aU, 0xbd8237743d30bed2U, 0x3d1aa5a13dfc6240U,
  0x3c547ebb3c582672U, 0xbd7f8b433dddd0abU, 0x3e1136c6be09c85cU, 0xbdfc1a923e05fad4U,
  0xbc918085bdaeada6U, 0xbd85e73bbd4f3c18U, 0x3da906f83db100d8U, 0xbd7aacecbc7074ddU,
  0xbc841ffa3da7e06cU, 0xbbdd7cc8bde1212aU, 0xbd7763b8be02ef28U, 0x3dd52bb43b7c8605U,
  0xbabf4b6a3c1e55e0U, 0x3e16d8e43c1c6631U, 0xbe50f42bbcf6facdU, 0x3cbdf1d9bd40c772U,
  0x3d8e5ef7bb59917aU, 0x3da68b90bd985adcU, 0x3db35d6ebe464517U, 0x3d99d5f2be25f853U,
  0xbde1e9c8bd9717f2U, 0xbe1f5b713d8e0392U, 0x3ce639083d97aa4dU, 0xbcf9c2a83d4df5a1U,
  0xbd4adecf3cb3b3b3U, 0x3c34ee353c1449deU, 0x3d053cda3dd64a62U, 0xbd9a48953c8ac2c9U,
  0xba01d7253e0eecb6U, 0x3e2473773d635ea2U, 0xbd321db5bdbb84faU, 0xbdd9bee8bd2e83ceU,
  0xbd75e8fb3c832bc3U, 0xbe30541fbd2cbd04U, 0x3dad98c73e0077c2U, 0xbc0f57673cb2b6afU,
  0xbdb7fb853d30a614U, 0xbc1713e63d699703U, 0xbd39184f3ce88bbaU, 0x3d3c7f4d3cb8b406U,
  0x3de5063abdb7ab3aU, 0x3cd0317a3e142046U, 0xbcd293acbe3e23e3U, 0xbd76d9343d7dedc2U,
  0x3c79c8a6bde6fd0eU, 0xbd8c82423d0e2f74U, 0xbcdaa5f83e10977aU, 0x3ca194913db4955cU,
  0x3cb91f1a3da9d531U, 0x3db64d83bbab48fdU, 0x3d58a2b4bd934742U, 0x3dd593dcbd2394ddU,
  0xbc1321dd3c91f6c1U, 0x3d5b49b63dfddca9U, 0xbc26be893ca0b5ecU, 0x3c3f184fbd3ec390U,
  0xbda5938dbb0c24d0U, 0x3d58d9d63cd95a46U, 0x3d731ff1bdade58fU, 0x3d825096bd6f9469U,
  0x3d10262dbd59bda9U, 0x3cd2a75ebbeab385U, 0xbd91cb31bd028364U, 0x3d0b4a2cbda342dcU,
  0xbe388cbabc65b6a2U, 0xbcf37f34bc40a3e6U, 0xbbd1b1f13dacc302U, 0xbd8432753e08ab7fU,
  0xbdabf5043d88319cU, 0xbd5907f03d127725U, 0x3ca1fcc83d7d411bU, 0xbd2753bdbd16c672U,
  0xbd6729b4b83f3cb2U, 0xbd8b67823d01d566U, 0xbd9e19523d86e6efU, 0x3b20a750bd414717U,
  0xbd6a4c5bbca03112U, 0xbddd5a76bd3b3233U, 0xbdd537893d051393U, 0xbb9524413d25e2a0U,
  0x3960d390bda93f6fU, 0x3d10cac5bd1271a9U, 0x3db58dcebdc03653U, 0x3d22a27dbd91e7e3U,
  0xbdb56ca83d2e76a0U, 0x3d9877433d8712e7U, 0xbc3c88ffbdba8246U, 0xbc6090f1bc8c847fU,
  0x3d7e59053d710ee8U, 0x3d8cc613bb01c3e6U, 0xbd65aadabdc1621dU, 0xbd4ff2f93d315626U,
  0xbafc1921ba853eefU, 0xbcb24bdabcbee083U, 0x3d2420ec3a0b3d50U, 0xbc078dbdbd177221U,
  0xbda3a2d5bd4b5b08U, 0x3dbf3a583d891160U, 0xbd493ee5bdaafd5cU, 0xbcf938a53b9ca7b3U,
  0xbc3d673dbd89b164U, 0xbbc131543b99e5dfU, 0xbc812397bdb1b925U, 0x3c8b7b02392ea4afU,
  0x3c1dbb1abd8c8e31U, 0xbdbd089c3d2a3dbaU, 0xbdf81c57bd413460U, 0x3d10bae9bcb87935U,
  0xbd1b2e79bccef4d8U, 0xbdbf1f673b905380U, 0xbe4aedc6bc9e5bf0U, 0x3d0c000cbcb8dc3cU,
  0xbcaaccd6bce3e35fU, 0xbb602dbebd8ade8fU, 0x3c8f39d3be18ad2dU, 0xbceafad43cbb75afU,
  0xbd463d3ebcb302cbU, 0xbc68a1e73dc5137cU, 0xbda93a173cbb7295U, 0x3d468ef1be2c4e17U,
  0x3cbe8d303bf5641bU, 0x3c2dfb763da24b34U, 0xbbadd3fbbd3b4b06U, 0x3cf273f7bd593a10U,
  0xbd459a303d7f4907U, 0xbd87b851bcd6827fU, 0xbc859aae3c73f0f2U, 0xbdc52c2dbccd6ce7U,
  0xbdd80d6dbe0e82dcU, 0xbc8c0e913c3224b3U, 0xbd4d99a7bc889f43U, 0x3c26db79bc150258U,
  0x3d3ab60ebd3bf440U, 0xbc29fa49bd7cba93U, 0xbd2f99c9bda60badU, 0xbd24407bbd820599U,
  0xbcd667e0bc349e6dU, 0x3b56c7cb3ddb0b65U, 0xbe533decbbbe85a3U, 0x3d02613dbdaf9ef9U,
  0x3b4ffb01bd9e86bdU, 0xbda89f1ebd35c5a7U, 0xbb253d58bca5090cU, 0xbd5ac0d6bc56e51eU,
  0xbd323737bcf984dfU, 0x3d49da94bcb53e66U, 0x3c76b046bd12b875U, 0x3b45794fbc67638bU,
  0x3c47565dbd1a8361U, 0xbd93b4ec3d131e6fU, 0xbc589fcd3cbe0d77U, 0xbced7b003c09be06U,
  0xbdbf7888bd4b14ccU, 0xbd0e9bf5bc85cf98U, 0x3c4232313d0dc363U, 0x3c491cb1bd92e637U,
  0xbc088001bd853640U, 0xbb9c3f04be02fabfU, 0xbd2849e7bc447af7U, 0x3c4e986cbd0443dfU,
  0xbd8044863d528308U, 0x3d58f397bbe962d3U, 0x3b10bfdc3d34ed58U, 0xbd70bec7bd226be8U,
  0xbc6176a83d07634eU, 0x3d0106eebcb52952U, 0xbb06240bbaac0241U, 0x3d567c0fbba0b9a8U,
  0xbd2123813c3a03dfU, 0xbc9e1cc93c6240e4U, 0xbd0dff49bcf43b67U, 0xbd192c763cd9e3c9U,
  0xbb50bea7bd9fd2e7U, 0xbdac0057bd9199bcU, 0xbb255264bd80adc6U, 0x3bc807e0bcf6c361U,
  0x3b0867b1bd7c3bb1U, 0xbd962f1fbcebe60eU, 0xbbd225b33d1a2131U, 0xbd6b71a83d65fb18U,
  0x3c4731c8bd0530dbU, 0x3bfe7898bb88938eU, 0xbd209c48bc850eafU, 0xbc307773bc9adc3eU,
  0xbda65ae139293a3cU, 0xbdc46b0bbc2abd12U, 0xbba36a703c36457aU, 0x3d58589abc7d7957U,
  0x3c36538cbca6b257U, 0xbabba52cbe04355fU, 0xbd8d48cbbd8199c3U, 0xbcd99e0e3c9a1ff7U,
  0xbd473b893c45684eU, 0xbc2eb50bbd19174fU, 0x3c0c4762ba05fa15U, 0xbd07e5c0bd313efcU,
  0x3c12838e3ca05dfaU, 0x3d5f6f02bcd4e57aU, 0xbd2f7440bd252ac6U, 0xbcf86b553ca1cb4eU,
  0xbcebe031bc92005cU, 0xbcfa6bb3bcd86b4eU, 0xbd6467bcbd074cdcU, 0xbb6f3bf3bc254130U,
  0x3d6a20fabd8ae33dU, 0xbe20bfd3bd07f023U, 0x3c0ff7993d6242e9U, 0xbd6a433f3d857fd9U,
  0x3cc60e103d840f9eU, 0x3c415d4e3cdad364U, 0x3c415a783998d126U, 0x3cb08d403c82af82U,
  0x3befa5f23d3f59f4U, 0xbc501b773c6fef3fU, 0x3dba8200bcd70b74U, 0x3cd6ac23bc580c98U,
  0xbc7e2bbabd2f1c6dU, 0x3ca0b9913cca829aU, 0x3c87f3c63d2975ccU, 0x3c335207bd372f22U,
  0x3b876a4bbd185f57U, 0x3bf879cbbdc7ccdeU, 0xbd522cf13d454db7U, 0x3d6200f33c0d67dbU,
  0xbc23a933bb30afb7U, 0x3dab79b53d059c35U, 0xbca69a6dbd00e663U, 0xbd9d978cbc708a5bU,
  0x3c31601a3b2e688dU, 0x3d12f685bc8ec7b0U, 0x3d23cb8d3b977a0cU, 0x3bf45747bc6a3035U,
  0x3d55be0d3d1d6990U, 0xbb0038b2bd392ccaU, 0xbaf0f0bcbd0a573fU, 0x3d29e98bbb45062eU,
  0xbc836d99bde970deU, 0xbd34d09cbda4e0e0U, 0xbcf199ddbc8d9a15U, 0xbda2c5093d6a2392U,
  0x3c94cba3bcdaa63aU, 0x3d6e1f743d3196b3U, 0xbe01db75bcd24199U, 0xbdb58538bd776b6bU,
  0x3d0f633abd09c72eU, 0x3b3cced63d469ff5U, 0x3d5d618d3c86b238U, 0xbd4eca33bd6fb67aU,
  0x3c57700fbd8d6a16U, 0x3bfac0863c14afe5U, 0x3b3b23643cf878c2U, 0x3ceb9e903ca5f050U,
  0xbccdddc9bdda5f6fU, 0xbd18d38cbd22d6e7U, 0xbdc283a93cd2d265U, 0x3b5888c7bd45a423U,
  0xbdc5d9053cf2606bU, 0x3cf7611ebd196f68U, 0xbce943d93cb95976U, 0xbc4290bdbd8d15ceU,
  0x3d38b75b3d98800cU, 0x3cc65475bcc14461U, 0xbdbab421bd271fceU, 0x3cda0e6a3d787affU,
  0x3d969d31bcf17f57U, 0xbdc33a5e3d38e7e8U, 0xbdaaa13f3cbcfdc7U, 0xbd37f7d8bd98148bU,
  0xbc46cc89bddf9accU, 0xbd3de064be010b53U, 0xbd0e0f8dbccc6632U, 0xbd2902e5bc9e03feU,
  0xbb13902abd3e8e1fU, 0xbd355736bd376f24U, 0xbd7c2e213c5bc715U, 0xbde4ee673cf95698U,
  0x3c9775ecbd19d9a2U, 0xbcb7cd633c02c00eU, 0x3c11aeb9bbcc0cdcU, 0xbcc240163d6cb94cU,
  0x3ccd0393bd3ba3ccU, 0xbd50968fbda0dae7U, 0xbd6bd0d53caafe48U, 0x3bf39b2ebc66a973U,
  0xbd1ab8abbd5df511U, 0x3b3c6b713cb77f64U, 0xbdd8bbeb3c69771dU, 0xbbb5d32fbd9b524fU,
  0xbde6316f3d3b813dU, 0xbbb6ccf43d4dca4dU, 0x3be39108be083a71U, 0xbcc4f201be0842bdU,
  0xbccf9d273d96f4a0U, 0x3cf1bd02bbdcf943U, 0xbcbd7c763b0bbf01U, 0x3d80c8a23d3fa5e8U,
  0xbd71a150bd1afd5aU, 0xbd01425cbdc0f3f4U, 0xbd0203913cef3424U, 0x3dbef865bcfee99fU,
  0xbbd035b7bdb99d9fU, 0xbdd1e7c0bd8cd9c9U, 0xbcf3112f3c57d80bU, 0xbd47fe4f3dc401adU,
  0xbc8d3f343cacdcd9U, 0x3d9365f3bbdaeea7U, 0xbd05a719bdb3ab94U, 0xbcf1758ebd13ce14U,
  0xbd0942ccbd024ac5U, 0xbd41b2afbbacd564U, 0x3d7ba2e5bc3c1248U, 0xbd850c5f3d73b911U,
  0x3d3b33fc3c22ce30U, 0xbdbd15fbbd9c59fbU, 0x3d5646babd03d7f5U, 0x3d889cd4bcc424c0U,
  0x3b3986cbbe002710U, 0xbc694f8cbcb73720U, 0xbe0afababa50179fU, 0x3c35a9893d8ba20fU,
  0x3ca7aa1fbcf75e43U, 0xb850116c3d85150cU, 0x3d365656bdc2a3a3U, 0xbdb9d6cabd25201cU,
  0x3cf07fdebc642832U, 0x3c51bafe3cd00c05U, 0xbd3f91263d650fc6U, 0x3c6878cf3cf77ec1U,
  0xbcb0c76b3bd2d49fU, 0xbcb09940bd991f81U, 0xbd17c3723d53a016U, 0x3daf8c9b3c8eea49U,
  0xbb8537793d202be1U, 0xbcf71ada3c958974U, 0x3c83cc2d3ce111d9U, 0xbce36575bdb8cb81U,
  0xbe1f5aa1be2664a7U, 0xbcdcc295bc2a197fU, 0xbc89797e3b6a33e5U, 0x3b6cab8fbd5321b9U,
  0xbd8556d13b867edfU, 0xbdba29a8bdebc39eU, 0xbd28484239a7bf9dU, 0xbd23a4a93cbc3d7aU,
  0xbca670b7bcd15e21U, 0xbd6e1482bd8f4c9aU, 0xbdaff6273bca38e3U, 0xbc6b248ebd5cbcd5U,
  0xbd44d6aabc826b4dU, 0xbc0bf8b1bc76c46bU, 0x3c9fa23e3d22ae57U, 0x3d14a597bdaf844cU,
  0xbda292663c312b58U, 0xbd331c23bd6f3473U, 0xbe0bfea4bc9a4358U, 0xbd2eb61c3c2a4b67U,
  0x3d1ca42ebdea261cU, 0x3cc86b0fbd6f7225U, 0x3d66f3f33bd29299U, 0x3c9ccd8abd2fb1f2U,
  0xbd6649453cb20724U, 0x3ce586feb813ff86U, 0xbcf477dc3cab38eaU, 0xbcb81afd3d07fbe8U,
  0x3cd343c23d7767f5U, 0xbd912e7abd51e749U, 0x3d929e8e3ca124e1U, 0x3c03519cbd18dd3dU,
  0xbda01df4bdbe4364U, 0xbd78381bbd4523aeU, 0xbcca91483d8c8085U, 0x3b8a09023befbbc2U,
  0xbd96cc46bd155bbbU, 0xbd40bf9bbde52eceU, 0xbceaf179bd2d8b81U, 0xbda6d6193c31fcb2U,
  0x3d196e24bda35bf3U, 0x3d3fec04bd0ae40dU, 0x3bddc404bc8edeb0U, 0x3d3e1a51bda0e4b9U,
  0xbd2c7055ba4d84b4U, 0xbcafeef83cd282a5U, 0xbc959ad83d477ee0U, 0x3d15e7e5bcb9e7d0U,
  0xbd3f2b5a3da7225fU, 0xbb2fbce6bcc209d3U, 0xbdfa7b63bceab889U, 0xba94800f3b5b7608U,
  0x3d025bf0bd51266dU, 0xbc9d9933bc327540U, 0x3db24e313d11bbe6U, 0x3d88c780bd3c215bU,
  0xbdaef1c73cf7282dU, 0x3d6da4d1bc984593U, 0x3cd810043c2e8a21U, 0xbd91d54f3c6ce913U,
  0xbd1431e63d96bda8U, 0xbdd5c46bbc8671aaU, 0x3d805e103c9c074cU, 0x3d2f7c113d16086cU,
  0x3cc8e18bbde8c242U, 0xbd8d55eb3ccbcd0bU, 0xbacd1daf3d346d18U, 0xbb87ac663b3ff3ffU,
  0x3be800e1bc396facU, 0x3c7a18ffbe0ec4ebU, 0x3c37afb0bcf6e791U, 0xbd1ee96d3d50b54bU,
  0x3c4a6fcabd9b6c1aU, 0xbc0216133a6efa02U, 0xbc97b4e73d84b6e2U, 0x3d95c9053d33843eU,
  0xbd8880043be30f75U, 0xbcd8919e3d2a4b5aU, 0xbd7b07a2bb27a3cdU, 0x3cd469d2bd15d916U,
  0xbe08a1193d5eff88U, 0x3c1534c33db75400U, 0xbddc4217bd37d19cU, 0xbd0a5b8d3ba8819aU,
  0x3c25e562bccedaa7U, 0xbd088992bcc8b479U, 0x3d96035f3d8d5cb6U, 0xbcd8e541bd1dcd5eU,
  0x3d09fb303d5b689fU, 0x3c8ca3383c0b843bU, 0xba3b35123cb0fc71U, 0x3d1e6d80bd36a31aU,
  0xbd1207b8bddd591bU, 0xbda9c1c53c9cd6dcU, 0xbcef82063dedd9daU, 0xbdaee660bd5bbdd4U,
  0xbd30e527bd2ccc98U, 0xbd2bc8513c5a2c08U, 0xbb830a3f3dba10aaU, 0xbd0655173bff6e60U,
  0xbdd25b09bd5f2b55U, 0x3d0e3a90bd83f0cdU, 0xbcd3b281bd8aa036U, 0xbbecdd1e3d0aadcaU,
  0xbcaf5f143d78e59fU, 0xbdb9395c3bcb2d74U, 0xbe0ccad0bda3faf8U, 0x3e015774bd12c5e8U,
  0xbc143bc0bdc5802cU, 0x3d4bc5e73d82c0caU, 0xbd84ef583d9f2669U, 0x3d44ab873b33ec58U,
  0xbdb133d3bd7a76cbU, 0xbce4a0cdbac4ff19U, 0x3d0e60813d43cf4dU, 0xbc7ea6af3d42d22dU,
  0xbd3dd001be0a118dU, 0xbe01b649bdc96266U, 0x3d80b5bcbd361131U, 0x3c86ea883cdd3728U,
  0xbd785a6e3d3c8ee5U, 0xbdf5cb813cf18877U, 0xbdf01d1fbd809a43U, 0xbdbd2cd2bd4eb5abU,
  0xbcf92278bdc74f5fU, 0xbd14ba8b3c85385cU, 0xbd0fffcf3cc7b54dU, 0xbdefc965bcbc3f89U,
  0x3dbf822f3d96608eU, 0x3ca5cfd93c8b402bU, 0xbd84f324bd8ad713U, 0xbd3b5e78bab46b73U,
  0xbda6d605bd803af1U, 0x3d61aae83d708a65U, 0x3c2f4d603d336fbcU, 0xbdf523043d193addU,
  0xbd7380b13d0d9991U, 0xbd234f6e3d1f8022U, 0xbdc6d3f7bd85f78fU, 0x3d8fcd8cbc37987fU,
  0x3c1dd1de3c76a7ceU, 0x3e0bb94a3dd2a591U, 0xbdb1994d3de606bbU, 0x3d45b5f73ce8f0e6U,
  0xbde5c180bd714000U, 0xbd79cd6fbdbd05f2U, 0x3c70a4a53d8c46f4U, 0xbd8709e8bc5dc9a6U,
  0x3c9139bcbe0f8fdcU, 0x3c5e55e53bbeda78U, 0xbddb18fc3d39e7adU, 0x3d52384c3d9e8a5dU,
  0xbd9052013bdd4e96U, 0xbdb39a9a3ca5adcbU, 0xbe06dcdc3b7c4b13U, 0x3d9a5fc8bc22bd13U,
  0xbd04f86fbd400477U, 0xbdc274b7be21a337U, 0xbddbdee53c3d60a4U, 0xbbd4e6f13d9eff93U,
  0x3cc348813d3dafaaU, 0x3d3f7cb5bcccc3b6U, 0xbe0e35c8bd931d00U, 0xbd9251d5bd6416a4U,
  0xbdddca3c3d1f8122U, 0x3c19d9d03b3113f6U, 0x3dad2d033d2a4741U, 0x3d02f74ebcc3cfd3U,
  0xbd68050b3cd795f5U, 0xbb0d4801bd195de9U, 0x3c965926bd2a8a51U, 0x3c814da7bc8fadb5U,
  0x3d7a6d7d3d2269e9U, 0x3e04a2c4bd27f7f8U, 0xbd53530e3d001e4dU, 0x3ca0f2d43ac03ba8U,
  0xbc8f92e43c85fc7fU, 0xbd91690fbd2f41f1U, 0xbd17e9593d97d60bU, 0xbd9be4d8bd9d9852U,
  0x3c199388bd8e82a4U, 0xbd8ec07ebcc9b57dU, 0xbddcef173d839023U, 0x3b809a0d3dad6ff6U,
  0xbcb531403b978171U, 0xbc940f50bcd39201U, 0xbd5d41c4bdf19640U, 0x3c0202edbb528e15U,
  0x3d78bb0bbd3e6648U, 0xbe0357d3bcce3909U, 0x3de802d33cc44b2fU, 0x3dab82153cff656aU,
  0x3d493a163c30ce52U, 0x3d48c1433d4a96e4U, 0xbd2b08a03ca00611U, 0x3dcb7ce63c2577a2U,
  0x39cd9970bab80b67U, 0xbdc652a2bb441998U, 0x3d2aa7ae3dec0415U, 0x3d745020bcdabc07U,
  0xbcc684e6bd9c32f4U, 0x3d4e64aebd34e404U, 0x3ce7488c3bbeb653U, 0xbdd03b0d3cbee80fU,
  0x3d2bde88bd4bad1fU, 0xba7257913de6778aU, 0x3cba1915bc8d84caU, 0x3d0f7d133ca9ebf4U,
  0xbc895d153d9c4c99U, 0xbdfcd39ebc78b0cbU, 0x3da758003d887f39U, 0xbd41ba7e3c7b46fdU,
  0x3d5b4ad1bbe7c152U, 0x3cc4da40bcdf357cU, 0xbd283a4bbc0dffffU, 0xbd17b5da3ce06f0aU,
  0x3d0021d03de361a5U, 0x3d93cdddbe5f349bU, 0xbb67d1f7bdc5a3f2U, 0x3d5cbaabbd50d079U,
  0x3b3bb967bd9e2106U, 0x3d4382e13d8b7767U, 0x3ba5b7adbd4f4474U, 0xbcdef1febbad28fdU,
  0x3c291f53bd263c78U, 0x3d015b8c3d0a75d0U, 0x3d96863dbdb36e1dU, 0xb9d34ef1bd774c35U,
  0xbcbe5ce53cd40131U, 0xbdce7fe4bd08712bU, 0xbca771b23d81db1dU, 0x3bf6b4ce3d699767U,
  0xbdda83e33c72ccb7U, 0xbd739e0abcc1ba48U, 0x3db99fcc3d013287U, 0xbdf00f383d2e8933U,
  0xbd10075b3c23a9c8U, 0xbde02ddd3d683478U, 0xbd12102fbddc860bU, 0xbd190c35bc831a32U,
  0x3d373ad33c803033U, 0xbe5ce7a8bdab135fU, 0xbb64fad73ce01403U, 0xbc8379753d15ce64U,
  0xbd7b10e2be0c2edbU, 0xbd1e6a84bc1308e1U, 0xbd5a03e0bde14a8cU, 0x3d07d955bd4f2066U,
  0x3d0cf8a1bd855f46U, 0x3d8f0d51bc5b80eeU, 0x3d233933be299102U, 0x3d5b4d533d28c267U,
  0x3b36c78ebdccb55bU, 0xbd7316bcbd9abc72U, 0x3c6e9744bd427966U, 0x3d289790bc6e17c3U,
  0x3b66e455bc55ee60U, 0x3d9236983d96f0afU, 0x3bcf4239bda31c87U, 0x3bade95b3cc9011eU,
  0xbe0daf3b3d4fd7eeU, 0x3d2217c43ce27d83U, 0xbc595201bdff464eU, 0xbd3583693d9f4a73U,
  0x3cdd89fb3ca5605eU, 0x3e1ea1b1bda0a8cfU, 0x3da038a9bd844891U, 0xbda3d3e53c870633U,
  0xbdcf9e91bcd5b01cU, 0x3cfd9080bd008678U, 0xbc30515cbd82b804U, 0xbdceb4cbbc351f34U,
  0xbccce9eebde4ba69U, 0xbe259e973d81b0a7U, 0x3dce4d96bc799c2eU, 0x3ccedffd3ca60d48U,
  0xbdb411b53b3c0ffcU, 0xbb7f4bcdbe03ee0aU, 0xbd03eb3ebd90cf99U, 0xbd5bdf8b3d739cc2U,
  0x3d82b2843d470024U, 0xbc878b44bd81bf12U, 0xbd6a2148be7c7f40U, 0xbd1ac26bbe0256cbU,
  0xbdd90d9cbd7a10ecU, 0xbe1e76e03e1f3c9cU, 0x3d7490ee3c7a05dbU, 0xbc403e7b3d9021afU,
  0xbd9528843e267fe5U, 0x3dbeed2bbd9a8ca2U, 0x3ce304b53c2b158aU, 0x3e0e4815bd62399fU,
  0xbd7677173c20796fU, 0xbc8f25603d305c76U, 0xbd93611e3e1ab85fU, 0xbcf95a57bb32585cU,
  0x3d012d13bca96ebcU, 0xbd8759dbbd009757U, 0xbcbf5c92bd5ab9f1U, 0xbbd4471cbc245e07U,
  0x3d18f0dbbcd55940U, 0x3c0e80f0bcf4a247U, 0xbaac96573dc7cfffU, 0x3da77537bdfc04a4U,
  0xbdec9748bd1a8a28U, 0xbd718cfabd4148fdU, 0x3de2898c3c3ac410U, 0xbd048c5b3e11f1ecU,
  0x3caa44fd3cc6dba4U, 0xbd009ef9bdb5f1ebU, 0x3dcca6a33de75c62U, 0xbcba5f17bc6182ceU,
  0xbcb2e29b3da570b3U, 0xbd862a27bd8a563aU, 0xbdd0069c3d4f358aU, 0x3e13842d3d42d6a3U,
  0xbd934126bdc93fe7U, 0x3d030750bc3d14a8U, 0xbd074e85bd026aa3U, 0x3cdcb9babddd6a39U,
  0x3d9e6078bdd4a838U, 0xbcef0bf2bcbc7280U, 0x3d1c2123bc60c62eU, 0xbcfa93883c77c0f4U,
  0xbd1671c7bdc31b43U, 0xbd254dd2bba67725U, 0x3cba4327be096ba5U, 0xba813cb63c6a1c79U,
  0x3cd4c2633e1b7626U, 0x3debaec4bc692b51U, 0xbc1a8be4bd1192caU, 0xbc4732853db67c13U,
  0xbd8589b73d505b12U, 0xbcf3eb2c3d55e813U, 0x3ce2da883d50b37eU, 0xbdc3c5aa3d85e304U,
  0x3d616525bd86e7b6U, 0x3d0a13bc3d42c2a6U, 0xbe1a185d3c13bf18U, 0x3d515c08bc372b44U,
  0xbd8d2cdbbcff9c0eU, 0xbe186ba93d2ba18fU, 0x3c9c940abd81a144U, 0xbd1de806bc51bd7aU,
  0xbb8315e9bdbb342aU, 0xbda79b523d89598eU, 0x3cccbe61bba78c79U, 0xbdb495573caa80fdU,
  0xbc8df8d3bc745639U, 0xbe10d042be158ca2U, 0xbdade64d3d7d5d32U, 0x3ce206da3d67ca5bU,
  0xbdc1ea953ca74359U, 0x3d9c6a6fbc08ebe0U, 0xbb6ab4aebc594e81U, 0xbd719caa3dc4fdf9U,
  0xbd40ccd33c64bdc8U, 0x3d0b5d7c3dcdbb6dU, 0xbe00e520bd1bfc97U, 0xbcfe9f803d579a6cU,
  0x3d686368bd395f49U, 0xbd8c25503c11c329U, 0xbd33a3b5bc8e2ad8U, 0x3da964993bc23af1U,
  0xbd40e45fbcce4097U, 0x3c2b2b11bdf43af4U, 0x3bb47801bbe8d15fU, 0xbde764e33de61e58U,
  0xbe018105bdb9f765U, 0x3d3c82ba3cc1e2b4U, 0x3d058965be12f3a4U, 0xbd5b846c3db6896aU,
  0xbbeb2e273d353429U, 0xbdaea342bdcd5104U, 0x3c19a4e53aad0ae9U, 0xbdf63b5c3d1ca8a8U,
  0xbd398366bc192b90U, 0xbc09d127bd6e41e1U, 0xbdccbb36bdcf1c5cU, 0xbd844d85bde8b84dU,
  0xbd0a3f15bdab8645U, 0xbc8cb1ebbc0c739eU, 0xbc263c8d3cc5dc31U, 0xbdc097aebd3566b3U,
  0x3d4afbeb3c20c091U, 0x3d0107f3bbc81caaU, 0xbcd2038b3d28c7fdU, 0xbc91ff493c5c0e30U,
  0xbe4f79403cf22319U, 0x3c090b49bd120393U, 0x3c9b0242bdd54757U, 0xbd8feebcbccc4c44U,
  0x3c16d5643d13f33cU, 0x3b911c343c5d330aU, 0xbda93347bd9a9f0cU, 0x3d3d28fdbd660365U,
  0xbdc4d611be3c702eU, 0xbe020e1c3dccf717U, 0xbd40675ebaa0f444U, 0xbd8783f8bdc9a2d1U,
  0xbca4e88e3d1e0b52U, 0x3c0c23163d8868f1U, 0xba659f183d090826U, 0xbcf823863c3e24bfU,
  0x3c988350be14218fU, 0xbd1c7e46bd86ae7dU, 0xbcc32e9ebce3789bU, 0x3c5e4f6f3d3900e2U,
  0xbc286ec0bc9d8514U, 0xbe3b6c153cc33c9fU, 0xbdd35a1cbd1ae2fbU, 0xbdb4e64e3cddb134U,
  0x3d5b2f11be143b39U, 0xbc9624c5bc827541U, 0xbd7ded443dedd149U, 0xbdd72a0f3d571396U,
  0xbd4739863b288f63U, 0x3d873f19bd1360c3U, 0xbda3fa5b3bfea52fU, 0x3c9cbc5b3d68ea50U,
  0xbd1b81483cbd42bdU, 0x3ca6aac53cc3efe8U, 0xbbe535873cfd5fe7U, 0xbe02f6b83d9f7f50U,
  0x3d56dff5bcce0ea1U, 0xbd9c9ad2bce3f3adU, 0xbda095dcbdf5e8ceU, 0x3d8f23783c91fc14U,
  0xbdb7a43abdc6e5bbU, 0x3ccfdd123d89dc19U, 0xbdcbfb5e3d11b11eU, 0x3bcd5f80bd6e9eb7U,
  0xbd3d4c623d0b4d82U, 0xbc9f3a9d3c9e672bU, 0x3c9b6e8dbcfcb96aU, 0x3d235c82bc616f7dU,
  0xbceb4ffcbddbde29U, 0x3c5b53633bac0996U, 0x3d035706bcada089U, 0x3c76d3ce3d9753adU,
  0x3c9d62493bcc24f2U, 0xbe15fb2e3d094b39U, 0xbd87c1923cb1b81dU, 0xbd1f393ebd643fdcU,
  0x3d2f93a2bdb23dcaU, 0xbd97e320bd8d90e8U, 0xbc84fcf53ca7fe7eU, 0xbc9b5cfb3d92d079U,
  0xbd6e6decbdccd6b0U, 0x3c9895d6bc0ad558U, 0xbdc4e63cbdaea9bcU, 0xbd90acb63cf8c244U,
  0xbce31e08bda0722aU, 0xbd9d063abcdfc3e9U, 0x3d2c36d13b450b03U, 0xbb5a9b783e15c228U,
  0xbcd7a1ebbca16106U, 0xbbb9b242bbadb20cU, 0x3ab5618a3c6b67f3U, 0x3db192823cdc72beU,
  0x3a7d9d67bd180d80U, 0x3ce41f013d7e9e77U, 0xbdcb96443d371ffcU, 0xbc95d7e8bdc616a3U,
  0xbd9606703d29fe9dU, 0xbd1d20773e033071U, 0x3acbc424bd75a05aU, 0x3ca5e76e3c773cc1U,
  0x3b5d8a2fbe0c6129U, 0xbdf596593c035f3eU, 0xbd26c779bcd3b24aU, 0xbdc35a73bc48f4f5U,
  0xbbc55ce4bacdc488U, 0xbdb2d961bd2955b6U, 0xbd565b0cbd36aac2U, 0xbd1fd15d3d7159a0U,
  0x3d110616bd919ea1U, 0xbd9d741cbc1ac10eU, 0x3cec6e273d208111U, 0x3d2ac75f3cfd7dc3U,
  0xbd110353bdbba6f3U, 0xbbe7d02c3d8417d8U, 0xbd4304ddbc0febedU, 0xbce415d1bd6f9bebU,
  0x3ac4beaa3c9cfe07U, 0xbc9a836bbe292184U, 0xbc42821ebe088380U, 0x3deae24c3dc32445U,
  0xbc1211c53ca70346U, 0x3b07436d3d687a0aU, 0x3d3eb817bd97151bU, 0xbd5be4533ddf8474U,
  0xbc593b393d44a4f1U, 0x39cee0aabd5ce78dU, 0xbd4384393d921ef3U, 0xbd3cf0d2bdb10b53U,
  0xbd0ca7a63d32c435U, 0xbc59d6bd3c2589d0U, 0xbc3054d63c89d1dfU, 0x3d0a214f3b3c7439U,
  0x3cb93f92bcfb2144U, 0x3cebaabdbe58bc0dU, 0x3c8610c6bc47181eU, 0xbe2bfcc5bda4cefbU,
  0x3d4841f73d1c55b1U, 0xbdacdc7fbdb76c91U, 0xbd873b03bdaa83c9U, 0x3c1a9d58bdd0fd84U,
  0xbcd959f83d313eb6U, 0x3d69e9e83c8f5ca0U, 0x3d963d573e08e4deU, 0x3df95095bd2f5858U,
  0x3d713f003db9b9b1U, 0xbd3d0795bd9bd585U, 0xbd87c14d3e00538bU, 0xbdd7868f3b40615fU,
  0xbc4dca5e3caedbeeU, 0xbdd7f62bbd5b2a19U, 0xbcf71a53bdb54573U, 0x3c28ddf63da42458U,
  0xbd1c9cffbd03a003U, 0x3d331d5d3da6c76dU, 0x3da77b2ebcae6d94U, 0xbb4de61f3dc4a284U,
  0xbcba13993bfb47b4U, 0xbb85bc15bc1d7abfU, 0xbce012923db5d4a7U, 0xbc1e4ddfbd1aa4e3U,
  0x3ca4e1f13b39acccU, 0x3d909462bdd7ea46U, 0x3dcf1344bcdb85b8U, 0x3dab71183bfe976fU,
  0x3d037dd23d69999fU, 0x3c58da843cab04c0U, 0xbc1a7c66bd572ec0U, 0xbe455601bd28a74cU,
  0xbdd9f693bdd89630U, 0xbd9451763ca10c3cU, 0x3da780a0bdb7cd86U, 0xbdfab0a9bd90509cU,
  0xbadbcbeabdc68a3cU, 0x3d4ffbac3d3af04eU, 0x3dbdf8143d76ac51U, 0x3d4da28f3d6fe5e5U,
  0xbd91ffae3dd9d27aU, 0xbd190aa9bc9d2310U, 0xbdf5a3cc3d5cdd8eU, 0xbd986c6d3d9417f8U,
  0x3d68772dbccb3ad9U, 0xbad94ab83d27a927U, 0x3cef19dabd6c2efeU, 0x3dc90d433e29fecdU,
  0xbccdad6e3da9477eU, 0xbd92b813bd152e56U, 0x3dce64dfbc63676bU, 0x3d63a0af3da642fcU,
  0x3cd7e7233d0b75efU, 0x3cf2d13fbd54f2c9U, 0xbe02d5cdbb9ddad5U, 0x3dd79410bbfab4ebU,
  0x3d7157153d3db832U, 0xbdc6a853bc802d9aU, 0x3db0bdf13d89b462U, 0x3daa2618bd180d55U,
  0x3cc06c57bccc23b2U, 0xbd5ae073bdba7749U, 0xbc9b50b9bc25a0ecU, 0xbdc90a53bda39dd1U,
  0xbd4fb8debba2ed49U, 0xbe0e3b833d2f5d14U, 0x3da5d0e13d157ebfU, 0x3e34382e3c4d6902U,
  0xbd6ba12abe1032f3U, 0xbd519c0c3d4040d3U, 0xbb08e47e3da31f99U, 0x3d78d7163c1e6206U,
  0x3d0e357f3d4f8453U, 0x3c10725fbd9abe08U, 0xbd38ee653dcfb321U, 0xbcc74c823d818e48U,
  0x3d80c68a3d0ba88bU, 0x3d9aeeb9bd35d9a2U, 0xbd8b1bc83d98c0cfU, 0x3d007096bd6a411dU,
  0xbe04d4d3bce17b9bU, 0xbd316ec6bd16ed5aU, 0x3dbfee9fbd8741baU, 0x3de2a272bd34c2f8U,
  0x3c30964e3ccbce38U, 0xbc818afabdd9d21fU, 0xbd1d267cbdb3596eU, 0x38cad9c03c8f335fU,
  0xbc855712bdb94196U, 0x3d7ae542bdb8148dU, 0x3c1ddc923d6da95aU, 0xbd51c79b3d06ffb8U,
  0xbc1062e03cb601c0U, 0xbd95e26bbc7453dbU, 0x3db79ad63d033c06U, 0xbd72a743bd887f3fU,
  0xbdd97e3ebd80675dU, 0xbdde92c53d5e2924U, 0x3d823fe53d0138d5U, 0xbc12c45dbe4046f5U,
  0xbd3f63f2bdba3439U, 0xbdc5b7c2bdb3868cU, 0xbdbc468a3c54c926U, 0x3d8010aa3d2a223fU,
  0x3cdd7b3a3de2c9f1U, 0x3cf9e09e3d1a6b97U, 0xbe05f5383dc386acU, 0x3ddd680ebd8f5aa3U,
  0x3d87f817bd57a5c5U, 0xbd9473e13a798600U, 0x3d28db96bb5419eeU, 0x3cca0ac53db1deb8U,
  0xbdd817343e16484cU, 0x3cea47e63ccb461fU, 0x3cf5b676bd8f0b59U, 0x3d1eccd8bd3860dbU,
  0xbcd377e9bd66f8d4U, 0xbd0a6f35bd1c6971U, 0xbd50a0393dce4294U, 0xbc06f18d3daa0a83U,
  0x3dbc365d3d6c4245U, 0x3e22647b3d1a0124U, 0x3cb614eb3d6794ccU, 0x3cc14bfd3c9b53a3U,
  0xbd7120493d1ae32cU, 0x3cc9bb8dbdfa944fU, 0x3d7283c93dc1a022U, 0xbd253a72bd7b4e3bU,
  0x3cc64c3fbc312f79U, 0xbc63161fbd90a370U, 0x3d5fc489bd52aa45U, 0x3cee287ebdb8ec73U,
  0xbc839abe3c35c0b3U, 0xbd0580f63db20f81U, 0xbd9936993e1d75a1U, 0xbd10febfbd02ab34U,
  0x3c3ee8833dd69b28U, 0x3d3e95aabd8d5a9fU, 0xbc3a0e673dd1b040U, 0xbd72176c3c048acaU,
  0x3d3d217dbdacec6bU, 0x3d9cee9e3d218a35U, 0xbd76c6c4bcb78c0cU, 0xbc0e88cebceebde8U,
  0xbda63fe8bac25fd4U, 0x3cb5d1f63d81a50cU, 0x3dde9e09bc423c97U, 0x3dc5da8d3c9e5071U,
  0xbd4e6a01bd93dc7cU, 0xbbeb47fdbde64fe0U, 0xbdc3a8743d8bb000U, 0x3d9c5799bdd95782U,
  0xbd8fb3c43d4a1b9fU, 0x3e00d2c03ccd3be9U, 0x3d1732953d9fb900U, 0xbd8c09bbbdb97e61U,
  0xbddcd8a23db86e10U, 0xbc68af743d58930aU, 0xbd8ffb66bce8c49cU, 0x3cd2e9153d2f0981U,
  0xbd38826bbd7ec623U, 0x3c9c4fae3beda954U, 0x3d83eba13d70a15dU, 0x3d11b14fbdf80a0cU,
  0x3c4f91713d9787b7U, 0xbda1641bbdc21887U, 0xbd8d08ebbd3239e0U, 0x3cdf8680bdfff6a3U,
  0xbb9b2d7a3c046d4bU, 0x3c9257833d1d5d3aU, 0xbbb41f0bbaef79e6U, 0xbdb8b717bdf271e9U,
  0x3d936cc3bd806e9dU, 0xbdab6d0dbd5c4d2aU, 0xbcac053abccdf811U, 0xbd0a9d4cbdd817f0U,
  0xbe1e8c59be678f2cU, 0x3d88742f3d30daaeU, 0xbce132c43d8f0e02U, 0xbdf2639dbc56b77aU,
  0xbd9acd5abdf29c34U, 0xbd2b69523d36b58fU, 0x3c98f027bd559bc5U, 0xbd88e9cbbd8f9c4bU,
  0x3deb4d603d2c120fU, 0xba9d8f08bdf9c963U, 0x3d2a29aa3bcb7544U, 0x3d119fc23bc0f433U,
  0x3d19512e3dcd27bfU, 0xbcaf5b05bd3c1cb5U, 0x3d6a312dbd4639a6U, 0xbba39536bd577e58U,
  0xbd3482ce3d4ee8ceU, 0x3de9ae5cbe3005a6U, 0xbc5a9ef2bde58807U, 0xbde364c5bd8475dcU,
  0x3cd86f713c5098e9U, 0x3cc330c23dfd0cd7U, 0xbd246d3dbd5a8236U, 0x3ac12b71bda16116U,
  0xbbdcbe77bd9bb198U, 0xbdd7cc96bd6e488bU, 0x3d080b0a3e48b8bdU, 0x3d7b13153d73dd44U,
  0x3c21e8ed3ca33027U, 0x3d51f66f3c0b926eU, 0xbd6fee9fbdb38edbU, 0x3e0423f3bd9a43d9U,
  0xbe09a2efbbaed63bU, 0xbbd4b4a93da8d766U, 0xbd66d91e3df64262U, 0x3d81bab13d2a4ec7U,
  0xbd4e646c3cca77f6U, 0xbd431e31bd5d481dU, 0xbd15c3b5bd165918U, 0xbb3458cdbd607151U,
  0x3e033d03bc95b255U, 0x3da10a0abd58295dU, 0x3d5adcbe3d9a8096U, 0xbc6da875bd29996cU,
  0xbc1d99d73e181458U, 0x3cb50ffd3cd691baU, 0x3d6a8beebd7a623dU, 0x3c862769bd841c3fU,
  0x3d8405fdbcfbe95eU, 0x3d14c0e23c9929b5U, 0x3da5ffb8bd925b6bU, 0xbe2ce1ca3cea25aeU,
  0x3d4030dabbfefc4bU, 0xbd3335723dbd23ffU, 0x3daafa90bdead696U, 0x3cc4adf4bd90328dU,
  0xbc5c1cb63daec308U, 0x3dddb5623d12454cU, 0x3d15da5d3d035ca2U, 0x3e0958a63d71d636U,
  0x3dddc75dbd1d2733U, 0xbd1dce903d9c35c2U, 0xbcfdbaaebc72a45bU, 0x3d812f92be0c4c93U,
  0xbd2889563c7f2c09U, 0xbd8fd9243d97d054U, 0x3d5f34bc3c79845bU, 0x3b80f25f3d9a8b81U,
  0x3b084bef3da56ddbU, 0xbdb7502ebc23ebc8U, 0x3c8f17f3bbede268U, 0x3cd56e8f3cdc9817U,
  0x3dcdd0233cf6e419U, 0x3d27fa59bd1283a7U, 0x3d2384a83da8392fU, 0x3d984fd33daf1914U,
  0xbc7bd5603da1e73eU, 0x3bb3a0973da1f513U, 0xbd3369393db9e608U, 0x3cfbc1283bf61b49U,
  0x39863d303d9413eaU, 0x3dd2d2bfbbbb4f9aU, 0x3e0050753cd30345U, 0x3d01e70bbd64d8f5U,
  0xbdb69fecbd9913eeU, 0x3d8060963d5f1742U, 0xbdbf3020be065709U, 0x3d6be946be211abeU,
  0x3cc9b2833d2a8d78U, 0x3d53f420bdf43933U, 0x3be19234bc60e183U, 0x3d54c5b2bd4482e4U,
  0x3c4241333d69a939U, 0xbd9e09883dab4059U, 0xbca1b70a3d86316fU, 0xbd0a39fdbe041bafU,
  0xbdca2f853c662694U, 0x3dc2e7da3db3e907U, 0xbe3c74d8bd0b82b7U, 0x3d03535b3e0119f3U,
  0x3b1092193d7c1d7aU, 0xbe23afcdbba51d83U, 0x3da3dcd33d39d122U, 0xbde0ce513c58266eU,
  0x3b89e6cb3ca0bc24U, 0x3d3ac198bde7c4efU, 0x3d43ac163d806d90U, 0x3d0f888ebd4c5265U,
  0xbd24a4e8be559f10U, 0xbdfbec063df3e58fU, 0xbbb96de0bb05a1c2U, 0x3d954b8d3cbedb29U,
  0xbd8d297e3dae8ca6U, 0xbcbfc29e3e07f7cfU, 0xbd61a11f3cbe43faU, 0xbd5374f43c9a4499U,
  0xbbec96b1be203ca8U, 0x3d2daaf6bcbab050U, 0x3ba6c96fbdce9b7cU, 0x3d15068e3c4dd74eU,
  0xbd2e874abc76e3b5U, 0x3d54c1873d599e1bU, 0xbd50b901bdad48b7U, 0x3d4bb1bdbc25b2fbU,
  0x3d38c8c53d9c3115U, 0xbbf1ffc9bb154f4bU, 0xbd812fd83cc4e9fbU, 0xbe2ecd403d0fff83U,
  0xbe1d4849bd8ca3a0U, 0xbb0bb917bc036689U, 0xbcfca856bdac8671U, 0xbcabd9da3da5a848U,
  0xbbe1d49d3dad47e8U, 0x3d48d5513da52290U, 0xbd9586523d241cc9U, 0x3c8af1be3d20c92eU,
  0xbdd7a4353d3f3432U, 0xbd29555d3df13210U, 0x3c3c2af8bdec9d0bU, 0x3d07330b3d034722U,
  0xbd8b46e0bdb78465U, 0xbcda6fc93c8f93bdU, 0x3e09efcf3df8d033U, 0x3d0ac43c3d16c55cU,
  0xbd4f1df43dadb186U, 0x3c142ca8bd83cca6U, 0xbd07c2243cc4ad2aU, 0x3ce75d68bdb86b6dU,
  0x3c88b29cbd87a04dU, 0xbe551821bda20a5fU, 0x3d13ac1ebe0f2120U, 0xbc1dab393c6f96deU,
  0xb9229e34be0351adU, 0xbd8dd58b3d2c6a7eU, 0x3bdaf78fbd2e2032U, 0xbbcf3788bc3284fbU,
  0x3ca25acabd05bab3U, 0xbd9f750bbd91093cU, 0x3c647d69bd042718U, 0x3cb4cb393deb31dcU,
  0xbd570338bd9763b5U, 0x3b5b47b9bd881148U, 0xbd0880c1bc336dd3U, 0x3dffbd653d1b34e4U,
  0xbd344d02bcbd75e0U, 0xbd3b96e2bd592cc1U, 0xbca03c82bd4d2fbeU, 0xbd9876ee3d9bb49dU,
  0xbe098a43bd190698U, 0xbd86dc1438c70efeU, 0x3d10c492be1a6fd7U, 0xbd160fb1bd06e6f2U,
  0xbdb44867be12d8ebU, 0xbe101578bd5f35ffU, 0x3d6d6f4c391140bdU, 0xbbbe02203cd7d41bU,
  0xbc7a78fe3c9a8414U, 0x3d3953acbd0a0d88U, 0xbd42ed95bdbd7e21U, 0x3d93a706bce22906U,
  0xbc9a07d4bcea3abdU, 0xba700736bd195bf4U, 0x3c6b07e7bcc15438U, 0xbd7630503b873d1aU,
  0xbda436cfbbf7dc46U, 0xbca7601c3c4c70baU, 0xbd4f3b313c9accb1U, 0xbb0d84853d77b5e7U,
  0xbc25cf9bbdffcdcbU, 0xbd0fa8fd3da0aee7U, 0x3cf32933bd2cad4cU, 0xbd4f54aabe08932bU,
  0xbc9ce33a3d765235U, 0xbd2e0924bd550f22U, 0xbd663f223cfc1e48U, 0x3d478f90be32c505U,
  0x3cd9fc65bcae0380U, 0x3d4ad37bbd544b58U, 0x3d09f0f23b9037a3U, 0x3da07438bcb982acU,
  0x3ddebfc9bcb93991U, 0xbd97a5dcbd405547U, 0x3e2f01443cac6401U, 0xbd061dd63d2f9c32U,
  0xbc44180a3e079fe3U, 0xbd9ca88cbccfed4cU, 0xbddee8d7bbbfce3fU, 0xbba93eb03c455113U,
  0xbc538d833c316f4aU, 0xbd252bc4bd41c850U, 0xbd393080bda0f88cU, 0x3c134cdcbcbc17eeU,
  0x3ccaf5403d3efca0U, 0xbd1230a2bd6f145cU, 0xbc174abebdb9381dU, 0x399c2d503d1067d6U,
  0xbcd7c46abd8aaa12U, 0xbc2c55743cc12a97U, 0xbd9317d23cada35eU, 0xbc52abab3d5d2101U,
  0xbd6a6d0a3d5efdb4U, 0x3d96e9403da11b3bU, 0xbd12d8c6be172e33U, 0x3b892b78be3f749aU,
  0xbd3e8ca43c8566edU, 0x3d9feaa93c8ceee6U, 0x3c9d90a13d370a84U, 0xbd99680cbda00cf1U,
  0xbe014d7cbd337feeU, 0x3bb281c2bbc59f7aU, 0x3d968304bd6ee338U, 0xbc43431e3c44a40aU,
  0xbcc8e197bd22ba7fU, 0x3c9c9796bd476694U, 0x3cb3d7f6bd8e5356U, 0xbc584cbbbda14f3cU,
  0x3d367ccd3db18ba6U, 0xbc1d71773d7c49dbU, 0xbe026421bcb51516U, 0xbde904e8bd8eb0aaU,
  0x3d1ccddfbd05c171U, 0x39468f40bc125ec7U, 0xbce79113bdbed263U, 0xbd3e1a4739284ebbU,
  0x3d6ae3bfbd0dec24U, 0xbda0bb783c232f83U, 0x3d686f50bbb018d7U, 0xbc9e04143d078e28U,
  0x3a1180d3bdc52b4dU, 0x3dbe3d7e3ced6bc7U, 0xbd831bd8bdcd6062U, 0xbcd8a0b33daea3ceU,
  0xbcffff563dd6fdf6U, 0x3d77048a3cd538d8U, 0x3d48327d3dd05bbcU, 0x3d64c788be069af2U,
  0xbce522423c7f94fdU, 0xbc1719ac3dba2325U, 0xbaea265cbd0746d7U, 0xbc10041d3d3d1563U,
  0xbd8f4b833c62582cU, 0xbc41809e3d8a7aa1U, 0xba91801dbdeaa450U, 0x3cf72f51bbfb79f3U,
  0xbd1a722fbdc30961U, 0xbd91fe3ebd49e7dfU, 0x3df89a7bbd548a9cU, 0x3d503d0ebc1ceea8U,
  0x3d09f2ea3dbb18fbU, 0xbda74c583d7ed50cU, 0xbd13bee9be081084U, 0xbdeb7114bb7658e4U,
  0x3df520bbbdb05d5eU, 0x3c9bfba0bdaf96a7U, 0xbd54aec1be1adaffU, 0x3d9f1300bdb2e01cU,
  0x3cabbcae3c6fce90U, 0x3cc3f41d3d927d23U, 0x3ce35cf43c60b2b6U, 0xbb6c1796bcfbf28eU,
  0xbdd2e8a43cc37e4eU, 0xbcb7e9cdbbf63954U, 0x3d8421bd3e194ebfU, 0xbb4b06fd3d48a2b6U,
  0x3d9ddb4bbda45c45U, 0xbd938948bd0f2f94U, 0x3c0f5e4bbce13b2dU, 0xbd8472aebdd63e74U,
  0xbd64918e3db4a3d0U, 0xbd214fc03adc9efeU, 0x3b76b6d43d4c1453U, 0x3e0132e33cb319fbU,
  0xbc774f443d80ba9fU, 0x3d26c9053c985c85U, 0x3a414b90bc7dab9eU, 0xbdb19abdbcc315d3U,
  0x3bf630353dc93fe3U, 0xbd3f32efbc414de8U, 0x3d8356a4bddfb8f8U, 0xbdcfa7c33da42ebcU,
  0x3af063ae3d212b4bU, 0xbdb7ca643cf00e29U, 0xbb1207213d80bc67U, 0x3d61d1b53c8f4e0bU,
  0xbd8ad3583c5fa12bU, 0xbc4a30a03de1f034U, 0x3d719c9f3d2f0315U, 0xbdadbe8cbd55de58U,
  0x3b316091bcef194cU, 0xbd239f9ebd7967ecU, 0x3da5e587bd95b78aU, 0xbb85df1dbccb6bd1U,
  0xbd38db7e3da370a9U, 0xbcfe3ad03d24f62aU, 0xbd1f65d33ca598a6U, 0x3d176de23d9b71d2U,
  0x3b82b7ff3ce5035bU, 0xbcbe214a3d8c85b9U, 0x3d2fdf993c53d463U, 0xbdb50f30bb5ec5b7U,
  0xbd512713bd9c51f6U, 0xbd86df553ac4bb8cU, 0x3dd1f227bd00398fU, 0xbdda5a253c27a08bU,
  0x3d0c29633c613adaU, 0x3dd077513da953e4U, 0xbd95667ebcf7f5d3U, 0xbd43aeeebdd80a19U,
  0xbe00919f3cd0623cU, 0xbd406762bc890e66U, 0x3d4de692bdbded3dU, 0xbdb482d53d3f07a6U,
  0x3d255c45bd3cbce3U, 0xbc813b96bbd6566dU, 0xbc2e9d243deb3a21U, 0xbd5b15a23d8715a2U,
  0x3cf173c03d5c2b35U, 0x3da3ea1a3d9eb8e4U, 0xbd05fbe6bb48243eU, 0x3c2413553d8a231aU,
  0xbb6eca2bbd869a22U, 0xbdaa8647bd538faeU, 0x3d9af25bbd79ab15U, 0xbca815353c70e512U,
  0xbd07260ebdfe4b38U, 0xbc2d6b2e3da18131U, 0x3d278412bdc09841U, 0xbdc10db23cd11c99U,
  0xbc005cd2bcd9afcfU, 0x3dbe8eb83c083d65U, 0x3d1df4b33d1f4b7cU, 0x3d42f25cbde672b2U,
  0xbd2deaa83cb5f188U, 0xbd647707bcd3e407U, 0x3d2fb1d1bd379a8aU, 0xbdc21eca3cdde503U,
  0x3bb4cd513cccbc07U, 0x3dad6e353cb8b2f1U, 0xbcc185ae3aee1cd1U, 0xbe269f09bdc7716fU,
  0xbe49dc3abdb748f8U, 0xbb7dbd1dbd259803U, 0x3d7ae91dbd718218U, 0xbcc0ecafbde71645U,
  0xbc1ebb09bc10d444U, 0xbdb94949bd83fa8bU, 0xbd1b9ee13d1d4402U, 0xbc94531d3d5ada37U,
  0x3c89a44abdadfb21U, 0x3d7f7d10bb77c9c3U, 0xbb57c303bd95f334U, 0x3da5cebb3d20a79fU,
  0x3baf34aabc99008cU, 0x3da0ad6b3d8b5161U, 0x3c0b71c1bd94300fU, 0xbdf0d0093d3e93c2U,
  0xbe02d7eb3cb1a58aU, 0xbb991e4fbe19b100U, 0x3da0bbcfbd939895U, 0xbc1d427abc2b9228U,
  0x3d19d6c83d96ec5cU, 0x3cbc9e82bcf64c27U, 0xbd4bd63bbca6d242U, 0x3a88064b3cfb793cU,
  0xbd1435b5bdf9975aU, 0xbbc1205039ee6004U, 0xbde5d05e3c2d26cbU, 0xbe0ededd358a2dcbU,
  0xbd9af747bdcc2c17U, 0xbb4a21b93c575f2eU, 0xbdc2120a3d31324bU, 0xbc8a6f6b3d006b1fU,
  0x3d30e99a3d8aebafU, 0xbd807a413d95dbfcU, 0xbd77fc1e3d004657U, 0xbda22a193d206d70U,
  0xbd1fb4ab3c998ef0U, 0x3c81b91bbd22d40dU, 0x3d284e41bcbf06aaU, 0x3bca400bbd34f610U,
  0xbc3f13d13cb0d5f3U, 0xbd2257fb3d009e04U, 0xbdae7f063cd1898fU, 0xbc475a3f3b138ff2U,
  0xbc96d2ea3caaef43U, 0x3d57fb2b3dbb7661U, 0x3d9c51f9bc59d9d9U, 0xbd1a4b4bbd9d1bb4U,
  0xbd3167443b8116cfU, 0xbe06b01d3b37961fU, 0x3ce1acaebd9ffd44U, 0xbc9192973d39843aU,
  0xbaeb3682bcb66ba2U, 0x3c03e838bd1ccd75U, 0xbdcc43363d0ea92fU, 0xbdffdf5fbd3d2bffU,
  0x3d210677bd7b4d4fU, 0xbdb2f14abddaf207U, 0xbdee5aa0b9d18340U, 0xbde76a30bd0da1a9U,
  0xbc8d05fbbcda42b7U, 0xbdf70dc13da06334U, 0xbd7b3b0dbdc0d6feU, 0xbd33f0693d81c270U,
  0x3d19d9d93dd7a38bU, 0xbd9542ec3d1f912bU, 0x3c7772f6bcb23d3eU, 0xbdd6a822bccada3dU,
  0x3b0df3a2bd2d1ab0U, 0xbd6268f53c21e6f2U, 0x3ca54fa2bd63e56fU, 0x3ba93bae3c9fc7bdU,
  0x3c5015723d1d74a0U, 0x3c35b73bbd1ab728U, 0xbc750a50bd225661U, 0x3da9b8be3d8af0c7U,
  0xbb6d4f093d21ce09U, 0xbc9f0acf3b45c104U, 0x3a9451f33b1cf216U, 0x3c22071a3db46e26U,
  0x3de0f28cbdd0286bU, 0xbe19818eb94109cfU, 0xbb1129cb3c981513U, 0x3d5732563e2bc8ebU,
  0xbca79e933d064c2dU, 0x3e062d083ca26500U, 0xbc5b026dbd7b432bU, 0x3c216a0bbda93c8dU,
  0xbcbb00413d09ba96U, 0xbc30191c3d9f3bcaU, 0xbda0c6883d2e2466U, 0x3dcbfedabc801b18U,
  0xbd95a48e3d346804U, 0x3c91cb603da0d72eU, 0xbd574894bd91aeb4U, 0xbd81e79d3d8154e5U,
  0xbc0e51b6bc150853U, 0xbd42b5683d89a6caU, 0x3df22fbdbdd702beU, 0x3d3107893cf21576U,
  0xbd96387c3d59bcefU, 0xbde89b293d86c038U, 0xbd4e0583bd828852U, 0xbd8bb4c63d5187aeU,
  0x3cf517dabd1cdfafU, 0xbd54d7803ce64b39U, 0xbdd03168baa2d270U, 0xbd9b6f12bd87940bU,
  0xbc5b4fb23d83b836U, 0xbbbb04a8bd03d7e0U, 0xbcff401e3d57e7fcU, 0x3c3b0cc13d5a3e87U,
  0xbd8e22393dcc1c39U, 0x3c31e85cbd0e559cU, 0xbc782a4abd4f0a64U, 0xbd6c105c3d9d8deeU,
  0xbbbd7f153cd649b0U, 0x3b2d1b293d05ec15U, 0xbcf629413df7d342U, 0x3c78135b3c3f66b1U,
  0x3d66473dbd884964U, 0x3d8a093c3c8b91dbU, 0x3d420987bd967c8dU, 0xbd95f57839350e02U,
  0x3d9b75453d1a0935U, 0xbd8df9cfbd1489e8U, 0xbd9a6d613c7de77fU, 0x3c052c80bc257608U,
  0x3cb03b143c2d662aU, 0x3be492fcbbafcf5bU, 0xbcf0cec8bcc5f08dU, 0xbb8263c4bd831342U,
  0x3d86e5a93c8e3485U, 0xbdcb8d31bdd8e058U, 0xbd3bf0cebd1df321U, 0xbc82e3f7bd5d92c3U,
  0xbdd34adbbd3b31a7U, 0xbdbfc91abd14de3dU, 0xbd1107cc3d3008d9U, 0x3daac5093d4c3716U,
  0xbd85c8653c9a4070U, 0x3cd798283bc58649U, 0x3caec28cbdc32ccdU, 0x3b877356bc8d7f0eU,
  0xbe1b44a53c8ffc6dU, 0xbdfb3015bd3d4076U, 0x3d1f7f5bbd01b5fcU, 0xbcf71d0d3c9cbb49U,
  0xbcfb54c4bd388238U, 0xbd9b3075bc1afa71U, 0xbdb09d31bbc327d8U, 0x3ccc5c693c431ee6U,
  0xbd0c7221bd30c7a0U, 0xbd17eb943ce4eff2U, 0xbc87bba9bd941ac5U, 0xbdb369a0bc52d179U,
  0x3da03f8abcf1b6b2U, 0xbc83c7fbbd2776c7U, 0x3c2fc3263ca1ddcdU, 0x3c3625683d28be22U,
  0x3def39763d8b025aU, 0x3cce9ba5bc8cf4c9U, 0xbdedd9e8bbadb2aeU, 0xbc5c8a263bf0bcf5U,
  0xbc80ac5fbd938db0U, 0xbd0b3f843da26650U, 0xbcba5018bdbc9792U, 0xbca3da703d0afcbfU,
  0xbe10b88abcd89912U, 0xbdacd03f3ce1591bU, 0xbd5414f5bd0afae0U, 0xbb9859943da4e077U,
  0xbd25673a3ca71916U, 0xbd356c7f3cec4b03U, 0xbd10970bbe18b161U, 0x3bbc85b13d366dd9U,
  0xbe02015cbd741264U, 0xbe002bd7bda34227U, 0x3da108f93d46a943U, 0x3d2f75b83bfc5bcdU,
  0xbd46c887bd9b57e9U, 0xbdc05a44bd4e5380U, 0xbc587ea33cd9add8U, 0xbd60b35aba4fa321U,
  0xbcdbb6debc88e87dU, 0x3c0e48e43d22961dU, 0xbdaaec23bdc13b24U, 0xbd8f50debde42c43U,
  0x3d236b47ba9afb75U, 0xbb1df731bdb24824U, 0xbd4be393bbb23c7dU, 0xbcabd7aebd3ad945U,
  0x3d64c6393dace19fU, 0x3d388da43d17d18aU, 0xbe2201ca3b0e2cc2U, 0xbd3a4f6e3c962f51U,
  0x3d1c939cbd044df6U, 0x3ce7c70ebd1c2757U, 0xbc12b02bbd032a19U, 0x3da4f6673c6d875dU,
  0xbe178de83d3e2cb5U, 0xbde7a6f7bd51d81cU, 0xbbc98fbe3caf9dbcU, 0xbd86e45f3d3338d4U,
  0x3d7be98a3c29771dU, 0x3db2a418bcba95f6U, 0xbd8301683d022750U, 0xbcdffe4a3d07fabaU,
  0x3ca6dd58bcbd8232U, 0x3cbcddf8bdc4ff2bU, 0x3d0f0ad4bd199763U, 0xbcd5540dbc33b4c3U,
  0x3d3588573d66d89fU, 0xbca57b6f3d41357cU, 0xbca82bd3bca783d7U, 0x3d2589dd3c89441aU,
  0x3dd2d5c93c975a96U, 0x3c26c62abbb2c3c6U, 0x3d69e23fbd3005a1U, 0x3d92ac883d9b4b73U,
  0xbd81f75ebb8e2d26U, 0xbdf52a8b3d392f04U, 0xbc070b0dbd8f25daU, 0xbd49ff313b9e605bU,
  0x3a9a4eafbd130386U, 0xbce0970cbccbc171U, 0xbdb62361bd2f8f2bU, 0xba984090bce0df5eU,
  0x3cd4e4fdbb27a1ceU, 0x3daf12963c0f5e45U, 0x3db6997d3c0f296dU, 0x3c266e92bd9cc692U,
  0x3ce25ca03b824d7eU, 0x3c0ebc10bd8b84fcU, 0xbd85cf283ca9b1faU, 0x3cff4310bcd36c5dU,
  0xbd2170143d149317U, 0x3ae233ec3d1c270eU, 0xbda543fe3d663c03U, 0xbcd20f9abca246d7U,
  0x3d9750dabd00edcdU, 0x3d00cf51bdf58f60U, 0xbcc00d983c3bf6ffU, 0x3cdb9d7ebd9eeebcU,
  0x3d03daaf3c60b724U, 0x3cbece203d007a5fU, 0x3cc80932bdbd49f0U, 0xbc40d0583c4d8f47U,
  0x3d73d2193d9b0f7bU, 0xb8d419443d0b6976U, 0xbcea31b73a22f4b8U, 0x3d4fcfd93d1689bcU,
  0xbcd483c1bcb51d09U, 0xbe31475e3d933c0dU, 0xbc276a3ebd467f94U, 0x3b50712e39f99f8bU,
  0x3d4ca4e9bcbf07bfU, 0x3cc7420ebd205e21U, 0xbde6c1453c20ac07U, 0x3dc4f9a5b9e2b51fU,
  0xbd9b0549bba6fec1U, 0x3d8ede37bb166c41U, 0x3d18a69a3d450197U, 0xbd11f568bd482a88U,
  0x3ce42ebdbca01e67U, 0xbca19aa9bd7d17aeU, 0xbd8ba05c3d6e8ba8U, 0xbd225ea3bc48d703U,
  0xbdc2cc173c108c87U, 0xbdd36e483d101fffU, 0x3bd6b34a3dae3866U, 0xbc8f7b9dbd268614U,
  0xbd8bb8f4bd2a0ab2U, 0xbd862deabdf7aa28U, 0x3d8870cf3d5c386eU, 0x3c16c5e1bde72f06U,
  0x3d2777e5bce4cfcfU, 0xbc9d360fbdd3cd1fU, 0xbc153f77bd8134c5U, 0xbdc75d663c36757aU,
  0x3d29cd693d69830aU, 0xbd7ec63abd946d60U, 0x3c935f40bd5f9e9cU, 0x3d1c92013cb9162fU,
  0x3cdbe042bc8caa76U, 0xbe374ff93af52c78U, 0xbd7c1fc1bd3ebcacU, 0x3ca111183c8fe6d8U,
  0x3aaee49c3d185b73U, 0xbda98561bd964b68U, 0xbe1e0424bcf04263U, 0x3d41a12c3d74f38cU,
  0xbdb60531bc5fd2dfU, 0x3d12123abdcc8763U, 0x3dd308163d23cd51U, 0x3c42e441bb773154U,
  0xbb832e01bb9051e8U, 0xbbb13197be1ec228U, 0xbb70e13b3cde51d4U, 0xbd804a06baed0050U,
  0x3d65c8e0bcd5c544U, 0x3c83b9613c725cd0U, 0x3d44477b3d9d89c3U, 0x3dcd3bd13d8a4923U,
  0xbd038748bdaaccb5U, 0xbcada200be1694e3U, 0xbd333d453d9fbcc1U, 0xbcb519fcbc986bf3U,
  0x3e2f4b363dd43cc0U, 0x3cc733abbd39a1aeU, 0xbd2f80eb3c905ff4U, 0x3d3dd00f3d45992eU,
  0x3cd027333d4a70c9U, 0xbc6b47f7bd36275cU, 0x3e079467bc8ed9f4U, 0xbced998d3de436e6U,
  0x3d2b57e3bd032883U, 0xbc5035013d041d24U, 0xbd41517abe089070U, 0x3cdd6332bd9fbeb4U,
  0x3c84da5fbd846b17U, 0x3c90d9acbd262645U, 0x3d21fa883cf343b8U, 0x3dbb1fc1bda54691U,
  0xbd871505bce77804U, 0xbde7c2fb3c30e79eU, 0xbd790be3bc2b4c56U, 0x3ba16171bd780347U,
  0x3d6c2890bd3faa4bU, 0x3dc5551bbd844934U, 0x3dd8eccfbce4c6b8U, 0xbd0f0ab7bbd10697U,
  0x3cfc5fa33d4be9f7U, 0xbd91a51abdbef98cU, 0x3d20f76dbd1688feU, 0x3d9b5ca33d9c7844U,
  0x3d0d2cb7bda52fe7U, 0x3d066bfdbe15de7aU, 0xbd5a3299bdb2b02cU, 0xbcecb1073d4fa640U,
  0x3d72c6b83cf86e7aU, 0xbcd4389b3a8a8c14U, 0xbc7f99abbc7f882bU, 0x3d3ccb8d3dad7f09U,
  0x3d6a9d4f3d4f6f58U, 0x3c8dbbabbd516b16U, 0x3e142648bc3a2cb2U, 0xbd5ebe603aaa967bU,
  0x3d9a22cdbdab6997U, 0x3c36729a3d8e1fb5U, 0x3c66f9ebbc81453fU, 0x3b49dc0e3cd1e4d2U,
  0x3cb976f2bdb47c47U, 0xbd91ed7b3d8684beU, 0xbd690fed3ba501ccU, 0x3cf4cf91bdb4937bU,
  0xbd0765e73c95ec01U, 0xbd8c24a6be06204cU, 0xbc9ce9fdbb95e793U, 0xbd037f05bd1b4b0fU,
  0x3c6dfb0abc9bea15U, 0x3e04b726bc85e2a6U, 0x3d1bcbeb3c9685f1U, 0x3e37b7d93e01029cU,
  0xbd1788363d4a2c62U, 0xbbec82a2bdef316dU, 0xbd04ff353c347ee9U, 0x3d89e83bbd0c934dU,
  0x3dc0dd58bd2c45dfU, 0x3dab1a41bc5ed5e8U, 0xbd2047983d06c583U, 0xbdb926adbd033c8bU,
  0xbd182ee2bd411e42U, 0x3da415363c35aa6fU, 0xbd3441ed3c0c9412U, 0xbd359bc5bcf8a528U,
  0x3dbd70a1bc58dbcbU, 0x3e0c64dd3d78cad0U, 0x3d83ada73dd16bcaU, 0xbd90a86ebd79a3b0U,
  0x3d1afb1cbc737a0bU, 0xbadad53cbd39eac7U, 0x3ad892f63cd48380U, 0xbdc819ef3ce43be0U,
  0x3c533a91bd8aa094U, 0x3dafb006bcf00c67U, 0xbcc06c28bd0c7495U, 0xbd873cf3bd2b5dddU,
  0xbc78a2d73c5db909U, 0xbc433bdcbcb40f9bU, 0xbcc1b92b3c65a21fU, 0x3d7e84cabd979f1fU,
  0xbd3b8f50bd27683eU, 0x3db1e6e93df89e56U, 0xbd9706133cc4476dU, 0xbd93d4663e003293U,
  0x3cd60d0ebda37783U, 0xbd852623bd33e0ddU, 0xbd78f45a3cfa27ccU, 0xbd2a33a73cfed235U,
  0xbd4032bfbd8229baU, 0x3d3d3e6ebcca08d2U, 0xbc770963bbd39c5aU, 0xbca12b903aee4324U,
  0xbd31db8a3d565d06U, 0x3d0e6e1a3913700aU, 0x3cd9d091bd2593d4U, 0x3d174af5bdd4413bU,
  0xbdde4a4d3c206a43U, 0xbceec0453d426463U, 0x3d224177bd078dbdU, 0x3d18df5bbd0348c8U,
  0xbd8063b4bd17ef09U, 0x3d44ffe7bdd73d99U, 0xbd2ff4ee3cc5a047U, 0xbbaf82bbbd3aa0e0U,
  0xbd738e7a3cfe7a79U, 0x3cf5024ebcdcd911U, 0xbd0b06433d535fcfU, 0xbd984f67bd245725U,
  0x3c3b203fbd09a1baU, 0xbcf3d2eabd12e0e2U, 0xbd0794c13d978aa3U, 0xbcc750e43c3e29a9U,
  0xbd95b5863cf06c09U, 0xbd7b10bebbd72999U, 0xbdfc78403d50b5b4U, 0xbcc24f4abdc25a28U,
  0xbb8ba2c6bd8bed3bU, 0xbd814f1fbda3f7d4U, 0xbcf034f3bc8e9999U, 0xbc87c514bd23cc3bU,
  0xbce3e847bc5464f0U, 0xbd160219bd4e9fbcU, 0xbbb434aa3bbbb772U, 0xbb056b20bd9f8c00U,
  0x3d327c63bcad726dU, 0x3d014292bdb748c3U, 0xbcb961593c1e503cU, 0xbd6b428ebd2ce988U,
  0xbd186846bd7fcde6U, 0xbc48c3ae3bebec13U, 0x3d24cd723d21bcc0U, 0x3ce48b23bc25b5e8U,
  0xbbabb9373cb9877dU, 0xbd27487ebd2c1e59U, 0xbd71c1f63b06e481U, 0xbc329ef1bd16d823U,
  0xbdccb98f3ce2130bU, 0x3d057c4fbd626040U, 0xbe133fac3d40e2b2U, 0xbd29227abd8a5db8U,
  0xba3efcfcbcb3333bU, 0x3cc04c65bc73b22dU, 0x3ca8ec1e3d3496a7U, 0xbd014c423c169dc5U,
  0xbd17181abca6cf76U, 0x3b3f61bdbd24847cU, 0xbcdd91b33d16ea0fU, 0xbc4684983c127976U,
  0x3cc8bf1a3c04c5d9U, 0xbe2b39bfbd1cf339U, 0xbd5ab812bd2dcfd0U, 0x3bb10e003a6bbde4U,
  0x3c556bafbd6eefedU, 0x3bc9c6e43bd2ae5cU, 0x3c2735b63d30d04eU, 0xbd17a7b6bd16dc2aU,
  0x3d18ee2dbd013542U, 0x3c0d5ebfbd04f1aaU, 0x3d47b2223cc7a822U, 0x3d96b6afbd1b79cdU,
  0x3c8e01953c195079U, 0x3ba1b2703d8aabd0U, 0xbbaf9cfa3bf17965U, 0x3dd3b4753d2a54e9U,
  0xbcf988be3c52bc6aU, 0x3a650e64bdcdf529U, 0xbc863f213d4dd029U, 0x3d0ea46d3d2c5631U,
  0xbd420e32bc008243U, 0x3d855980bcccd08dU, 0xbd26c8f9bd24e7cdU, 0xbc223ab4bd495a32U,
  0x3d3402cdbd175163U, 0x3b6f325abd29ba18U, 0x3bce577b3d07e9a3U, 0x3c9581cd3c2c4addU,
  0xbd21a16b3cec252fU, 0xbd18837ebcd5410bU, 0xbd86cc593d23081cU, 0xbd961606bda69128U,
  0xbd8f66e13ce2e1baU, 0xbe63c806be8188c0U, 0xbdcca5463d28b1ffU, 0x3e235ba0be0a641fU,
  0x3db3abb2be2e8b3dU, 0x3bc0c6a9bd67857dU, 0x3d2a15263d4f179fU, 0xbde8c9ec3d7179ceU,
  0x3a1220053c6ff36dU, 0x3cdcbbd7be4ac8e2U, 0xbd7e0a8db9c869b5U, 0x3dd6a0da3c824041U,
  0xbe2656173d80289dU, 0xbd57bba1bc8f7446U, 0x3da07b613ce8a8f2U, 0xb9dcea6c3d6a8a35U,
  0xbe095727bd43160cU, 0xbcd528743cd01b1cU, 0x3dfc0efa3dabf4beU, 0xbddf1fd2be3a55b9U,
  0xbda129cabdeaa686U, 0x3dda665ebc56017dU, 0x3b76f322be0b9d69U, 0x3d82f24cbde59d5aU,
  0xbd864067bbdfd575U, 0x3d95c4eb3d85d3f7U, 0x3dabc3c3bddada5aU, 0x3db6a228bd46955fU,
  0xbcdf56643bdfe53cU, 0x3c05b28ebe1456ecU, 0xbe0c79dcbdf6301bU, 0xbe7cd63c3c951899U,
  0xbde424d9bd9e4b08U, 0x3d4843a13e1e3271U, 0xbd37bb5b3cd4f338U, 0x3e2e73f53d1055b0U,
  0xbdab7ff93b8f805aU, 0x3e0feaff3bb697dbU, 0x3da64c1d3da00ca1U, 0x3ddf11ddbc876e10U,
  0x3d7ed56c3d1b3a65U, 0xbda910093bcc5ca7U, 0x393166b63d32feb7U, 0x3e0bc298ba0ce204U,
  0xbd814c563c7c84e8U, 0xbe26d9cabd8d9092U, 0x3cf34cd5bd8dd1cfU, 0x3d4ee5f03e09003fU,
  0xbbd3db063d5e81eaU, 0x3d8465bcbe137b4aU, 0x3d824c46bc07c34aU, 0xbda43d70be095c21U,
  0xbc1096123d49f7dbU, 0x3cb62a56bcb56203U, 0x3db17bfabdb8a54aU, 0x3d8deecf3d2215c4U,
  0xbd689e38bdc0c28aU, 0xbe5262163d9d692aU, 0x3d3c00613d90136dU, 0x3e152f323b20db25U,
  0x3ac7a0ba3c69a3baU, 0x3e12d5a4bda41042U, 0x3d40eabc3dc3a00cU, 0x3d91440bbd478f0cU,
  0xbe002f1dbce3f59fU, 0x3a5c2cd03b5aba6cU, 0xbd33c96cbe384fcfU, 0x3d320bef3d5282a3U,
  0x3d1b8307bd051cc4U, 0x3d231f0a3bd7ff93U, 0x3db10b40be441af5U, 0x3da79684bcbe5e2eU,
  0xbdf2d98e3a13c825U, 0xbe024b4b3b46c8f6U, 0xbdb7c3503bfbaaa4U, 0xbd29ab6f3dea23cdU,
  0x3c93b3bfbc902022U, 0x3e07c12cbd9611dbU, 0x3e3b5e003de21b03U, 0xbd3d4d5a3d0c6598U,
  0x3c9c549f3d983a03U, 0xbc8dec043c848486U, 0xbd83adcabd1f8de2U, 0xbcc008b8bc12ab66U,
  0xbda33198bd1104b0U, 0xbe396065bcba09f9U, 0x3da13bb93cbca682U, 0x3aad8173bc2d89d9U,
  0x3c228ac03d23377cU, 0xbb1040fb3d7943d9U, 0xbcc27bc13cb1866aU, 0x3d4f8708bc0a8c42U,
  0xbe3ab6593ba03b2bU, 0xbc29dd5b3e2c5e48U, 0x3d84a132bc2952c3U, 0xbc4a198f3d1b2a97U,
  0xbbbd61b23c4eff44U, 0x3d68302e3d87f6ccU, 0xbc32a1543dccb39dU, 0x3d07996ebc60f2ceU,
  0xbdb3aba83c6144c4U, 0x3d6f7ef83cbe211aU, 0x3ce4f99e3d460d5eU, 0x3cf26e07bdfe1424U,
  0x3c85b5a5bd8f79d4U, 0xbd81588b3d828ae8U, 0x3d0c8db73d0e5df0U, 0xbc753a8a3e042e3aU,
  0x3c3dc0743d7e109aU, 0x3cf48f76bdde8e1eU, 0x3daac4303d5dc43cU, 0x3c43c3173d49e135U,
  0x3e0c5ee23d9407c4U, 0x3da727c5bd4fd258U, 0x3cd1efa2bd0627efU, 0xbd2fd3383b0c3ce4U,
  0x3d646746bd77d276U, 0xbcce412fbd95673fU, 0xbe01fb903e52c55eU, 0x3de349dd3dafc0d7U,
  0x3d28998b3d94d83bU, 0x3d1377b1bd1ed52dU, 0xbd1430193d862e1dU, 0xbc43aa89bcc6b12fU,
  0x3d934917bcd05b45U, 0xbc605ebb3d1a4c3cU, 0x3dec0a5fbd24896fU, 0x3d1bd7d73da6bfb3U,
  0xbd576137bb4fe624U, 0x3cc91d11ba2e1764U, 0x3cc585113c112516U, 0x3d7705b4bd886d2eU,
  0xbe15fd973cc450efU, 0x3c3a0eefbd0bd6b0U, 0xbcce129a3c050743U, 0x3cd0c71cbd0f2f0dU,
  0xbcee1835bdd36f87U, 0xbd306e733d1e0b9bU, 0xbde239e1bd9e42e2U, 0xbd4abac8bc2410f8U,
  0x3d8e8183bc6f3f8bU, 0xbc7f7c0b3aef6f1dU, 0x3daa2c2b3b10de0aU, 0xbdaa42fc3bc45207U,
  0xbd4cdd53bd45df8dU, 0x3d952b4dbe3e0904U, 0x3cb159e3bcd240e1U, 0x3b93772bbd2606f0U,
  0xbcef1df3bd0648b8U, 0x3c7f6f1cbe67b702U, 0xbdd56c6c3d34bb15U, 0x3d3f90bd3c8e23ffU,
  0xbd2eb3953d4f8761U, 0xbdc1bb7fbdefed75U, 0x3cc60cb43d1db28dU, 0x3c956bd7bc5a0a64U,
  0xbcf6a5ebbd3c39c9U, 0x3d4bda9d3d88cf16U, 0x3d502849ba20eb8fU, 0xbdfdd9d1bd3fed4cU,
  0xbca2dc31bca2f6f5U, 0xbd811169bcdcfd4cU, 0x3d50c8533c4f2483U, 0x3d879f14be067dbeU,
  0xbe5160a83c85b7e4U, 0xbd2e8fe0bb34e88cU, 0xbcd5612f3d7a02f6U, 0x3cec45fb3d4fd141U,
  0x3c8eb0a1bdf33eaeU, 0x3d109e19bd78423fU, 0xbcfa67a9bd435d4dU, 0xbc7ed1ffbde6c3daU,
  0xbd59fae33cd78c34U, 0xbca44a053cc8f73cU, 0x3c422129bde3cd76U, 0x3d618469bdec9a88U,
  0xbce95641bd1d8e90U, 0xbd0a4ec5be5cd8d9U, 0x39bf42083dad0d30U, 0xbdc5a79fbe1d6598U,
  0xbbcd96f0bcd4427fU, 0x3d967cb4be1382e2U, 0xbd21a3d03d734ea8U, 0xbd977adf3cd99f6bU,
  0xbd1a7648bcfb80ebU, 0xbcd5d83dbdf557f4U, 0xbb660bf5bd9cd8f0U, 0x3cd6fa833d000790U,
  0xbd89bf7dbd331280U, 0xbb93e743bbfd0d0bU, 0x3c8c5d4b3c9ad388U, 0xbe3cca85be1fa15aU,
  0xbca2884cbdc11351U, 0xbd110afa3e132afdU, 0xbcd292cbbd404748U, 0x3cdccb52bd76d92bU,
  0xbce4eefe3dbbd783U, 0x3db562ebbd4dcc70U, 0xbc8a40d0bd8c54baU, 0x3db8c9cbbda117c4U,
  0xba4481f7bd0d2924U, 0xbdeb98b13dbde375U, 0xbe225b053dfb6860U, 0xb9d1030abda9cdbbU,
  0x3d366d493d883f40U, 0xbc745122bd4ecb15U, 0x3cde4474bd5fe85aU, 0xbd9a04a7baad0955U,
  0xbcb19bbbbc610f31U, 0xbe2881b33c8797cdU, 0x3cd98f9abb2552d0U, 0x3da2a3663d8d44baU,
  0x3ab6d189bc62aed6U, 0xbd3108babd87cbccU, 0xbcee38ba3d84c153U, 0xbd87b37c3c26150cU,
  0x3aece0d83a3107b6U, 0xbd6b73253db771a9U, 0xbdabfbebbd29bea0U, 0x3c876412bb01a9efU,
  0xbdf6cc513d16f271U, 0xbd626821bd689bd3U, 0xbd64d2c7bd6b83cdU, 0x3df920563d498cccU,
  0xbcdcaf99bda8ef76U, 0xbc1c6e55bca1a0aaU, 0xbbcbb6cfbdd21513U, 0xbbf0e2d5bc50c64bU,
  0x3d05af3bbdbc978dU, 0x3d5da02fbd3eab8aU, 0x3d1ce058bdb939efU, 0xbc8c6eb53ca99adeU,
  0xbc8eecc63d570d7dU, 0x3d27c1e23cca50d7U, 0xbcd136e03c577b41U, 0x3cee2e6dbce78b89U,
  0xbd7735fa3da5ea4fU, 0x3d5690a3bc99bf6fU, 0xbc141b453cfb8ecbU, 0xbc512aa3bcadf60fU,
  0xbd46e5ecbbadff52U, 0xbd607cfabd82ff51U, 0x3ce17ee2bdb6a500U, 0x3d4cc76fbd097721U,
  0x3b987af7bc6d120bU, 0xbb91ec8fbbe71ab2U, 0x3c5564183dac1d9cU, 0xbcff9c7dbd7af058U,
  0x3d13fc11bd443827U, 0x3d6f5a88bba002d7U, 0x3d44e322bccc9cfbU, 0x3caf3c293d125217U,
  0x3c77eb8f3caae7d3U, 0xbe1295d23d5aeac5U, 0xbcc4b28cbe33634cU, 0xbd747fbabd2de7c7U,
  0xbc8744e7bd61a026U, 0xbe2c4872bcd127e9U, 0xbdb84ed93d2c33e8U, 0xbcfb72733c481695U,
  0xbe131d15b8e70fa9U, 0xbca954d23d2a1240U, 0x3c53f70ebda4c7f1U, 0xbd48497d3da946b9U,
  0xbd0b2b92bd724585U, 0x3d8074e43d12bf05U, 0x3d0d6b35bd11696bU, 0xbcc87562bd5e699dU,
  0xbd89276bbc2ba587U, 0xbd85b64e3d009918U, 0xbddecf44bdc4ef52U, 0x3cc394b8ba8edd0bU,
  0xbcad20da3c901e2cU, 0x3d6c6989be40b1a6U, 0xbc92b8153d19e115U, 0xbd2310f8bd140f34U,
  0xbd305e393ce2c464U, 0xbb3baea9bb95679cU, 0xbce91052bdc1f13dU, 0xbd9dd972bc0d80a4U,
  0x3d47278c3d35b086U, 0xbda495afbc96158fU, 0xbd0af2b93cb2374dU, 0xbd9e8f733dc36caaU,
  0x3bccfe703d4721d0U, 0xbdd885403d94793bU, 0xbdc0016fbe406258U, 0xbdbc86acbdda81c3U,
  0x3cc844e2bcf1974cU, 0xbd4ef7853bdefe09U, 0xbcb38974bc7f014bU, 0xbc87e2c23c306122U,
  0xbddf2b813d68a68bU, 0xbb98e48ebc1f55a2U, 0x3d233567bba41c65U, 0x3d37e9483cb137adU,
  0xbd877d5dbd2eb1c3U, 0x3daf14873d9c0747U, 0xbc031333bdcc140cU, 0x3c5f9cf1be03489dU,
  0xbc889df33d4a700aU, 0x3d4b2c65bc6dbc5dU, 0xbafb5032bdc458e5U, 0xbd2a851ebdcb3e27U,
  0xbcdcfe9ebd16bce9U, 0x3db83922bd86f50aU, 0x3cb2d475bd3cdac5U, 0xbd83b806bd849351U,
  0xbd0ef582bdc467f1U, 0x3cb32c843d5db013U, 0xbc3fc08bbdd37facU, 0xbd568f7c3d0958bcU,
  0x3c382d203d9c9a10U, 0xbdff706bbdec6c8bU, 0xbd3bddf4bd03b7b2U, 0x3d076fa8bc2ee22aU,
  0x3c0425ce3c538a35U, 0xbbdb6f363d83f654U, 0x3d8eedc4bd59441eU, 0xbc9b948cbd62e377U,
  0x3c3a8f063d5aa0a2U, 0xbd955d653cef1604U, 0xbd1728d33c84ba40U, 0x3c4d24933d504c11U,
  0xbdd7ae413d63255eU, 0x3dc72257bcc023b4U, 0x3d2c784dbd147401U, 0x3d57eb63bc551c83U,
  0x3d2c946c3c03abf4U, 0xbd722baf3d086cebU, 0xbdb43deb3d8e1ef8U, 0xbc1cf2bdbd67ea50U,
  0xbd6d29c8bcc947cfU, 0x3b6c4470bc428790U, 0x3d84e770bd54d6f2U, 0xbd29563ebd587993U,
  0x3cc4d5a43c244b3fU, 0xbb004ac1bccb27cdU, 0x39d9f6bbbd039e16U, 0x3b124608bd4c8eb1U,
  0x3d63cebabdff7dd2U, 0xbc8a1a4d3b86759dU, 0x3d5dd200bd62a0a2U, 0xbac9b183bc28264bU,
  0x3b869b713d1d0313U, 0xbd133faebdee045eU, 0xbd97e52c3d116185U, 0x3c8d921fbd1633a3U,
  0xbdcbf5ec3c07ea63U, 0x3c7573ffbd2604edU, 0x3c4282133d8cb405U, 0xbc5099713d5f948cU,
  0xbb33567e3d1f53fcU, 0x3ddfc72bbcb23a31U, 0xbd376c87be32d659U, 0x3bbf501abcd46345U,
  0xbd20fe5abce410bcU, 0xbd762166bd0b9e51U, 0x3d5b8637bdf72bbfU, 0xbcd2ed7a3db91c39U,
  0x3d0691673cde94baU, 0xbd4dcf3f3d2a5693U, 0xbe12452c3d0923b9U, 0x3d335bc13cfa71e6U,
  0x3c9c7a413bf284b0U, 0x3d80c67b3cafbe5cU, 0x3b9f1c1bbdb94360U, 0xbdba98bf3c47c166U,
  0x3d4e88c33b9ca12cU, 0xbcf4ace2baca5bf4U, 0x3d7f6c0e3d50d9d9U, 0xbd7ab3e8bca375b5U,
  0x3de23ea0bded3469U, 0xbdb4b125bc201392U, 0x3dc50cd6bd76223cU, 0x3d1c2ddcbe01da6bU,
  0x3d84f0dabdd9208fU, 0xbd8a83d33aba6339U, 0xbdc7c1a4bdb7f641U, 0x3b352903bda67d7cU,
  0xbdb975cbbdb796d2U, 0xba1a89613db1daa6U, 0x3bf823dc3ce486baU, 0x3dbc3eac3d732302U,
  0xbcbaeb8abd08214eU, 0x3cd824413cc4c0e9U, 0xbd26cb423da15d1eU, 0xbbd8268abd83e98dU,
  0xbda6b4393d980197U, 0x393c1aa8bca4d2a0U, 0xbc81b2473d542ab9U, 0xba36c5d4bd84109dU,
  0xbc38fc6abd17146aU, 0x3cb52d82bdd7bb35U, 0xbd8fc5993c073eacU, 0x3c8fa86ebd4f6238U,
  0x3cb22006bd77b779U, 0xbd5a13a3bd11ee55U, 0xbd545ced3d7b65aeU, 0x3c56d3e3bd93f113U,
  0xbd0bcb303d3a6137U, 0x3d400a5dbd7eadffU, 0xbd3aea433b087950U, 0xbd1feb9b3c437cd6U,
  0x3d7d7b133bf226c5U, 0x3d74e572be2378f3U, 0xbe3910713de6e3e2U, 0x3cf5d6d4bc81542fU,
  0x3cb658003e04df84U, 0xbd0ba00bbddb80a1U, 0x3b2b6fcfbccd93bdU, 0xbd8b78363b339239U,
  0xbd138905bce2848cU, 0x3c16097e3c9e4b5bU, 0xbd95bcb0bc5ed813U, 0xbe00aa47bc1fe888U,
  0xbba339443c50b653U, 0xbd2a8683bd4a38abU, 0x3a92ecd8bdc89f4bU, 0x3d07b7b8bd1d3199U,
  0xbe45b2ecbc8b713fU, 0xbdeee985bc1aa388U, 0xbd2c3274bbcaec43U, 0xbc9eb7a5bd59293aU,
  0xbd126a1fbd677bf3U, 0xbd5e8c80bda16946U, 0xbcf7e6f9bd2ea1daU, 0x3d8d78053d6d40ebU,
  0x3c99293ebba154f7U, 0xbd7528b7bae372c6U, 0xbd6fb7dfbd9c4538U, 0xbc355114bca637b3U,
  0xbaa0cc8c3be403f7U, 0xbd3ed1f9bd2d6983U, 0x3b9888743d3da3d4U, 0x3cae639f3d989065U,
  0xbb142b06bd4e8ab5U, 0x3dac7e9abde1a15fU, 0xbe5ff6643d35bbd4U, 0x3cdbefbc3cbc4745U,
  0x3b00cd583d3dab4fU, 0xbcfd948abe247201U, 0x3d304d8fbd452985U, 0xbdab4916bca91e8fU,
  0xbd87bbd1bd4246f4U, 0xbcf5b6f2bd666ce3U, 0xbdaa8194bd982d98U, 0xbd7e8c44bd0e06a4U,
  0x3ce31152bd1c8aedU, 0x3af3f79bbb94af3cU, 0xbbf0f579bc7a6adfU, 0xbc8e8cfabd3e43e3U,
  0x3d7397b5bd0cfb79U, 0xbd32f9f63c5fef33U, 0xbd4aa3803d315641U, 0x3c4999463d1482efU,
  0x3ce9df38bd696050U, 0xbc0e3562bc34084bU, 0xbbd799923d04f24dU, 0xbc2a41d7bd26a8ccU,
  0xbd382640bd26b8beU, 0x3cdf7ad43d3b2449U, 0xbd73b6f93bc0d11dU, 0x3d420ce7bd277082U,
  0x3d21a6763d5c1986U, 0xbd14967f3dc06c47U, 0xbc7fbec9bc9e605bU, 0x3d24012abd1abe39U,
  0xbdbc1e9c3d0e11c2U, 0x3d023102bd41dcefU, 0xbd13c37a3db26578U, 0xbc7c608e3d22a438U,
  0xbca5eb713ba96118U, 0x3c7c442a3d4657deU, 0x3d17fb0dbcc300cdU, 0xbd52c4f0bcef3ba6U,
  0xbd6d33e13ccf949dU, 0xbd539a90bda3ce0aU, 0x3c5ea0bfbd43789bU, 0x3d5c8541bb9be671U,
  0x3d11448a3a43825fU, 0xbda861f53cc893a3U, 0x3c902b923da1267bU, 0x3cb81ab63cb67c78U,
  0xbce34f513dae9206U, 0x3d32c7fd3d203f5dU, 0xb9b06c783dc423a9U, 0xbc5e8a633da2e913U,
  0xbcaae6a23c96a341U, 0x3c5cda1e3cadf700U, 0x3c3b60f8bd105c21U, 0x3cf4ae06bc8b728fU,
  0xbb392f353b0dfa82U, 0x3cad616dbd07fa7fU, 0x3dc226b13c4f2ef4U, 0x3d1adb6dbd84ebfbU,
  0xbbaf6809bdca6648U, 0x3c153a63bdccb5dcU, 0xbde0a6c8bdbcc90eU, 0x3ce221a1bd6cf10bU,
  0xbdf456523c08d0a4U, 0xbd964aaebdc7ea19U, 0x3d947fe8b84bdda4U, 0xbdc6e9d8bdd86837U,
  0xbdcd920f3df826bbU, 0xbd41fcd0bda174e7U, 0xbca216f43c0452ebU, 0xbd4d6810bd1035c9U,
  0xbb812679bd8c4252U, 0x3d91542fbc602280U, 0x3d32ec913cfa8dadU, 0x3cf151d93c86cb85U,
  0x3d83d59bbd5b6171U, 0xbe245fb4bd332ff0U, 0xbd1158d73d1e9d91U, 0x3c983ab73d9b0169U,
  0xbc19075e3d17cad4U, 0x3d7836463ca227c3U, 0xbd074e26baf814c9U, 0xbd2e94683d48b55eU,
  0xbd5fad6e3dbe93a5U, 0x3d852da43bd39470U, 0xb8d1d2813d237e77U, 0x3cebe4463d76ad02U,
  0xbcd9d94d3c3cd558U, 0xbbc7cc613d38e7adU, 0x3d85708ebd945f0fU, 0x3ca1ff103d7067b2U,
  0x3c82ae32bdc380f8U, 0x3cff2cedbd8b53c9U, 0xbdb58999bd930dc9U, 0xbc74ad233b7025f9U,
  0xbc6e0a563c9a1ee6U, 0xbd93d776bd8542edU, 0xbd68a7be3d2f1454U, 0xbd1a55a8be0d52beU,
  0x3d227110bd7517ceU, 0xbd5cb773bdda6b7eU, 0xbd5fc313bb6650b0U, 0xbc26a23bbca22248U,
  0xbd3fd3fabdcfb9dcU, 0xbda3776b3c0ae6f2U, 0xbc55d0b4bd87adeaU, 0x3dbc6dcabccec048U,
  0x3da85b9f3cf29e0fU, 0xbe1a4a4abe230818U, 0xbcb14ccf3d71a06aU, 0x3db1511cbca50e9cU,
  0xbd6946583d123b93U, 0x3d2f6cb13cccaccaU, 0xbde2f52cbe008b4cU, 0xbe005675bc8172dcU,
  0xbdf5e0a93d851b3fU, 0x3bfb6931bcf3e928U, 0xbc9eda873dc591fdU, 0x3d94845f3d286bb6U,
  0xbb936d343cd890b8U, 0x3df681aa3cffa138U, 0x3d1d28a9ba8b7510U, 0xbdb7a3933d0dd7e7U,
  0x3d2c4f083b83dc26U, 0xbc4a8937bd6dabe2U, 0xbd2223273d79599cU, 0xbd668b053cc7c125U,
  0xbd5864733d0f706cU, 0xbb5206b5bcc59794U, 0x3d5e1ee7bdae7374U, 0xba6bda61bd7d4a3dU,
  0x3b253340bd464015U, 0x3b9e8740be487b81U, 0x3bd34b083c1fd77dU, 0xbcb9f614bc667c71U,
  0xbc807c9f391e2fdcU, 0xbc791f7d3d06dc0eU, 0xbdd70ed33ba22934U, 0x3dbed2f3bc9058c5U,
  0xbd373aa8bb4cda6fU, 0xbd6beacabd06d6dcU, 0xbdfbedd3bdcba068U, 0x3ce46dd0bd1b8ab9U,
  0x3e05e68f3b957bf5U, 0x3c183b383c73e42cU, 0xbcd9cd8bba3bdee9U, 0xbd80f2a2bcfd4958U,
  0x3d2bbea93d838d35U, 0x3c9946d13de9329bU, 0x3a0f99923de8e30dU, 0x3ddb553f3b9b4715U,
  0xbc92ba763daa4d67U, 0x3d79e271bc56a339U, 0x3d25c5883d3b26c1U, 0x3d350d313d340eb7U,
  0x3cae9bb6bd1f1b96U, 0x3dc1886c3c264614U, 0x3d118dfa3c421489U, 0xbda61e1c3d1d85d7U,
  0x3dea6707bdc258ebU, 0x3c672973bc265ed9U, 0x3d899a9d3c956fafU, 0x3c742acbbcc3a508U,
  0xbccc6cc4bd12a79aU, 0x3d9fb28abc570598U, 0xbdea2072bcbb2618U, 0xbd9a40f63d8f5437U,
  0xbd543d26bda1c144U, 0x3d8468f53dd51e46U, 0x3ccbf27c39776bd4U, 0x3db7c536bd175595U,
  0xbb5cb1783c4df530U, 0xbda60cd7bdc29d32U, 0xbc74d1973df9c785U, 0xbd75660cbc260e32U,
  0x3d2fa1303c565042U, 0xbc30e5473d8ebb80U, 0x3b294daf3d13f980U, 0xbd3207bebdaf3b1eU,
  0x3db3a0e2bd47bb68U, 0xbd2b59bcbd9387bbU, 0x3cf49aeb3db809ceU, 0x3c33e1ca3d47a9a7U,
  0xbd1a4b92bdfb0425U, 0xbe517b82bde3be6dU, 0x3cbe0ccdbc84b6bcU, 0x3d600c493d21d3edU,
  0x3da2da9fbdb38e0aU, 0x3d6c39a5bd4adf68U, 0x3d7d71a53c83db1cU, 0x3d35c134bdd18b03U,
  0x3bdad719be163f15U, 0xbd4c171dbc0c0af6U, 0xbd3ddf2f3ca504faU, 0x3bc5798bbd4376f3U,
  0x3d445d7e3d428b59U, 0x3d9134d1bb335feaU, 0xbd4a9a753d99f02fU, 0xbdd677023d27c357U,
  0x3c6895a03cbb813aU, 0x3d1208c13dc43455U, 0x3b83acbfbd4bf226U, 0x3a244a05bd4a4d10U,
  0xbd1514b7bd056881U, 0xbd14216fbc814640U, 0xbdaac449bcf5473eU, 0xbdaf0366bd9bd0a2U,
  0x3e13dbaabcc23718U, 0xbdf99f37bdd3d5e9U, 0x3d6ce2fe3d77c82cU, 0xbe32f0033c12ef2dU,
  0x3d8adc3bbd585830U, 0xbdacb3a0bd88e66cU, 0x3d099a66bcc1c543U, 0xbdf2ec4c3e215376U,
  0xba763ed63df07305U, 0xbe6165d5be3d914eU, 0x3df833ed3de65945U, 0xbc835fb23b1246edU,
  0xbcd4d046bdd21a74U, 0x3ca7119ebceec8c3U, 0xbc8acaedbe118c59U, 0xbd9c3bfbbd050c29U,
  0xbb71ed44bda63bd2U, 0xbe18166c3d47a8a7U, 0xbd4fec7d3c56cc94U, 0x3bcfce3fbd032de1U,
  0xbdb3e77c3c2d977dU, 0x3d1c1c453db32a0eU, 0x3cc791b5bb860acbU, 0xbd919f7dbd650156U,
  0xbce39c13bdbe84fbU, 0x3d0436043c642e23U, 0x3e1f6b743c8ddbb3U, 0xbd159c5a3d693d69U,
  0x3e1108673d576442U, 0x3cf655b43d900273U, 0x3cea8b5dbcc9599bU, 0xbdfd736fbd662656U,
  0x3e17ee8ebc873df1U, 0x3cf342a03cdb67e0U, 0x3d03a3333d9e490cU, 0xbd0272bd3d82819cU,
  0xbe05ed103ce6ccfdU, 0xbd17412f3d810031U, 0x3d3ac8033d19cf19U, 0xbd1f00363be78739U,
  0x3cdc5af53d7a8c31U, 0xbc0402c0bd653ab0U, 0x3d24822cbcbd7611U, 0x3cee6c61bd1f57bdU,
  0x3d5195533cfc5adbU, 0xbd0f9b29bdcf4091U, 0x3da6d8e3bbafea9dU, 0x3cc30bc7bceeeb12U,
  0xbdf6f1bc3dab5ab2U, 0xbde3d230bd135b1eU, 0x3d3de983baa8c2a9U, 0x3ccdd1ddbd81b6faU,
  0x3ddd517cbdc8424aU, 0x3d876ed73e257011U, 0xbd961577bcd81148U, 0x3da48cd43dbc39eaU,
  0x3d5ef1033d4342deU, 0xbba74403be04e89fU, 0xbd2770a5bd785005U, 0x3de0f0833d864ba6U,
  0xbcd093debb7af4f3U, 0xbda5ab0bbe00edeeU, 0x3cee3e6ebd22fcfaU, 0xbdd108ac3dc4d06eU,
  0xbd7ba00e3c255334U, 0x3c8f6ab5bd2d1ea2U, 0xbd1d74bebe062252U, 0xbd27d55dbd181d2bU,
  0xbd748dd03cb18d7cU, 0xbd840d2a3d864960U, 0xbc8b88073d3982b8U, 0xbd91e7023d0ca427U,
  0xbda0420abdbb38a8U, 0xbd433836bd6d3729U, 0xbc5b71763c5cbc37U, 0xbe290742bcc816c0U,
  0x3d9f8dfbbd90b64fU, 0x3c33164d3d8afe6aU, 0x3d71cfa5bc56ca13U, 0x3de7b888bdac4518U,
  0xbd6d8d6f3d9b58d8U, 0xbdf935a13d9d766bU, 0x3d340775bd088be4U, 0x3c876a193d8ede15U,
  0x3d0d48acbdfb8237U, 0x3d99b8c1bcbd7dfdU, 0xbd40b7f5bc94636aU, 0xbd37d7303c522b32U,
  0xbc11b086bca77aabU, 0xbba0ebf7be0cf137U, 0xbdaa6929be730926U, 0x3d9dd1f73d6d0d6aU,
  0x3d201dd83bc0dc7cU, 0x3d5d7835bd65bcdaU, 0xbbd58da8bdd40f16U, 0xbd99e9aabd021ba7U,
  0xbdabeab6bd8d83ccU, 0xbd9b3921bd9db27dU, 0x3ddd01463d447a82U, 0xbcc218ccbd9af749U,
  0xbdfa2e33bdd49214U, 0xbe025521bd4c62f5U, 0x3da2ee87bdd22f62U, 0xbd22307f3d8acf25U,
  0x3c4482713dadced2U, 0xbe0cd52bbe039c67U, 0xbe0ebb103dfbe674U, 0x3d3e9a673c50df46U,
  0x3c1ea82cbd9417b0U, 0x3d8458e2bd8ff96bU, 0xbcce7070bdd3fef5U, 0x3b7ee75e3d0d54d7U,
  0x3dd2f7923d4d676fU, 0xbdc10537bd831be1U, 0xbc9a31793e018015U, 0xbc2b3397bd1535bdU,
  0x3cc96e8dbc0b75fdU, 0xbbb02cb9bd150518U, 0x3dc41285bcd3fdf2U, 0xbd856172bc840d60U,
  0x3cd191bebc9e750bU, 0x3d936bdabe0a4e1fU, 0x3d2f19d3bdf3777bU, 0xbd3d21c63ca36574U,
  0xbaf3eeb63cf1831cU, 0xbe28c47abd7cf00bU, 0xbc7c58ee3d37a8dcU, 0xbd06e15b3dd16e6cU,
  0x3c75e393bd29de73U, 0xbd1f20ddbd58d510U, 0xbda12699bc32f01fU, 0x3c1089b5bcf5e113U,
  0x3df94b9a3e006a52U, 0x3e443751bd40d186U, 0x3d47d754be79119aU, 0xbd8fafc4bd96a004U,
  0xbd34fe9ebcf546f5U, 0x3d2c9624bd6609a8U, 0x3d3c9a8f3dcde3eeU, 0xbc9d0dd33c353f25U,
  0xbd3bc5c2bd82e226U, 0x3dc963cb3df29a42U, 0xbdaff0ba3c4bb5dfU, 0x3dd574263dfb2f41U,
  0x3c2166c53c8ec3ceU, 0xbd67c2613c2b19b8U, 0xbc916295bd9ed693U, 0x3d271b7b3d393fccU,
  0xbdde9f2d3db579c6U, 0x3d3c2a3ebdd03163U, 0xbcb9acc4bc68c32bU, 0x3c71aafc3b9f3557U,
  0x3d6884533d8e836fU, 0xbc952a993d28309aU, 0xbdf31106bd65e03bU, 0xbd5a6cf13d6c6d07U,
  0xbdddaa133d185145U, 0xbdd6dfd1bdc4c052U, 0xbc771b0e3c74f6adU, 0xbd5789623e0147c0U,
  0xbe0617c9bdf3c49bU, 0xbd8dcac93ce9fa57U, 0xbe1642883cf795efU, 0x3d12466abd61c519U,
  0xbb7ffd6f3d6ece61U, 0x3d1de0843cf7f0b1U, 0x3dd444c7be1b5772U, 0xbd258a03be00a576U,
  0x3dd87c8b3a9d65b2U, 0xbc8bb21cbdd32404U, 0x3b4f12593de776ebU, 0xbbb583133d8bdb94U,
  0x3caece66bcedcc2aU, 0xbd00c737bb15365fU, 0xbd4bff273dab8dabU, 0xbdb2302c3dc094c1U,
  0xbd505d253db910c0U, 0x3cb83a38bcc3282cU, 0xbdb43d39bcc17e2fU, 0x3c14ad28bdb759afU,
  0xbe0ed7b53d0926dfU, 0x3c68263ebdffc931U, 0xbcc8386ebd954107U, 0x3d0584933cc80ab3U,
  0x3dd348323d4718f4U, 0x3c7e5124bdc44e26U, 0xbd42b73dbd36c444U, 0x3d32d8de3d800152U,
  0xbc3ed9be3e03a6a4U, 0x3c3d3dbfbc147628U, 0xbbffbcdf3d350a10U, 0x3bb17ea2bb70c403U,
  0x3dcfb94d3da444d4U, 0x3d9206433c4e1a2eU, 0xbdd6fce8bd1ab99fU, 0xbc0bfb633c6a91d6U,
  0x3d9bb042394fc9b1U, 0x3da6ea9a3dc71614U, 0xbd8956e5bbdbb823U, 0xbd55363dbe230b87U,
  0x3d3b3c9ebcab984eU, 0x3d861696bcbdb425U, 0x3c6907583dc5bd65U, 0x3c2534a13c273232U,
  0xbba6a79d3d2842d0U, 0xbc643a6a3dd3d341U, 0xbdadc8abbd8d968eU, 0x3d7c2ce83d22f652U,
  0xbe62a00e3dc779c0U, 0xbe25c141bdfd7bb4U, 0x3d120ccfbd8750a8U, 0xbd3a7f1ebdc3cda1U,
  0xbe6026bc3dc3730fU, 0x3d0f613b3d86047cU, 0xbe1f2e46bd8b6cc1U, 0xbd7313debc842896U,
  0xbc93c2e73ca13f1aU, 0xba5db81c3c62ea90U, 0xbbcec9343cf5f89bU, 0xbd7289453d980428U,
  0xbd6f00dbbd065927U, 0x3da407c33da3c00bU, 0x3d9f7343bbd2ab48U, 0x3d011782bda03e99U,
  0xbdbbf4c3bddd6609U, 0xbcd28c7ebdb40f5dU, 0x3dcb75783d7ed3d0U, 0x3b73c42c3d409cb4U,
  0xbd79e849bd6eb199U, 0xbdd12fa7be2d5b23U, 0xbd5eb260bc6e09e1U, 0xbd2f8dc93e042d4dU,
  0x3d130e76bc289447U, 0x3d5ba1723d37e689U, 0xbdaffb93bd38a6b2U, 0x3dd76997bdcb0aedU,
  0xbe348744bd6cc6d7U, 0xbda66a543bc35f8eU, 0x3c00decfbdbde78bU, 0xbc0b72ccbc4393e4U,
  0xbd4b7d653c4c6e37U, 0x3cb263383c8f284dU, 0x3d6de94d3dd1753aU, 0xbd9d70a63dc9d27cU,
  0xbdfb8d9dbdf2e07eU, 0xbc6160b43de1f6a5U, 0x3db09196bcdbae2cU, 0x3d7b42a7bc334eceU,
  0xbd806cb83d8cbcfbU, 0xbc38ac593d282969U, 0xbc9771173d92576dU, 0x3da464553c814794U,
  0xbe1ac5e33d202474U, 0xbdbd0a89bdaf8a73U, 0x3b84f7b2bbaeba2fU, 0xbc5b6a4fbd79e985U,
  0xbcef7678bcc81540U, 0xbb7007f9bc058debU, 0x3d3af3553d01adb4U, 0x3c05ee343c4a1a44U,
  0x3c592ffabd449db3U, 0x3c2fe4e8be230647U, 0x3c875ba4bcb2c565U, 0xbd7ee8023ccf599eU,
  0xbc0ac213bcc09c5aU, 0x3dda3e8d3d89db40U, 0xba01e72fbd7cc328U, 0x3c59e332bd5e813eU,
