/**
  ******************************************************************************
  * @file    combination_data_params.c
  * @author  AST Embedded Analytics Research Platform
  * @date    Mon Jan 15 20:31:17 2024
  * @brief   AI Tool Automatic Code Generator for Embedded NN computing
  ******************************************************************************
  * Copyright (c) 2024 STMicroelectronics.
  * All rights reserved.
  *
  * This software is licensed under terms that can be found in the LICENSE file
  * in the root directory of this software component.
  * If no LICENSE file comes with this software, it is provided AS-IS.
  ******************************************************************************
  */

#include "combination_data_params.h"


/**  Activations Section  ****************************************************/
ai_handle g_combination_activations_table[1 + 2] = {
  AI_HANDLE_PTR(AI_MAGIC_MARKER),
  AI_HANDLE_PTR(NULL),
  AI_HANDLE_PTR(AI_MAGIC_MARKER),
};




/**  Weights Section  ********************************************************/
AI_ALIGNED(32)
const ai_u64 s_combination_input_36_bias_array_u64[16] = {
  0x3d0151683ee9bd18U, 0x3d5cb4e4bd39b1f0U, 0x3f2612453ee89772U, 0x3c47c1a4bf82f14eU,
  0x3f0fbadfbe4e9976U, 0x3f4627ac3dca0824U, 0x3f8368aabe3f2250U, 0x3f79a0283effb7b2U,
  0xbf110f163e82f103U, 0x3f39d4c7bf2ab28cU, 0x3f018cc0bf6ad3b6U, 0x3f0fe403be688ba4U,
  0x3eb42ad83ec2354fU, 0x3e9ce7ed3ee5e667U, 0xbf56b43bbe022bd5U, 0xbca5b2003f5bdacdU,
};

AI_ALIGNED(32)
const ai_u64 s_combination_input_44_weights_array_u64[1536] = {
  0x3e061a55bd6a9a4eU, 0xbcb8f0853e3f7552U, 0xbd4d0844bdd66eccU, 0x3e2c477c3e536224U,
  0x3db395eb3e77a9b5U, 0xbc1b79c5bb1a7412U, 0xbe384b393e23ae3dU, 0xbc84c224bd3ac962U,
  0xbe44ee87bc837b81U, 0xbe293ccbbe2e72d2U, 0x3db771453e3d6f9fU, 0xbdf7076abe813f37U,
  0x3dd78ec2bcb1c59bU, 0x3e105e8bbe607fa9U, 0x3e4f95453e0ab25fU, 0xbd69c4fb3b87602dU,
  0x3e2a005cbe0bc4b1U, 0x3dd249193e317a3bU, 0x3b681673bcd818ffU, 0x3dcf48973de8c5c7U,
  0x3e281cfc3e0b5cd4U, 0x3e0c1f61bcea310eU, 0xbd5393d43b85490eU, 0xbdeb17053bc34a9dU,
  0xbd06d39cbc98b6c6U, 0xbdd630a0bdb5d9aaU, 0xbe1672123dc9d5e3U, 0x3c3c87bfbe896c75U,
  0x3e23aff4bd7d0ba3U, 0x3cfaf1c0bd159cceU, 0x3e5bb6393d68df61U, 0xbc8bff73bb839d29U,
  0xbd929b5abe385c2aU, 0x3e38fed73e2a0a18U, 0x3d86368d3d4af29cU, 0x3e254c0f3d3aeb65U,
  0x3cce892f3dd67cdeU, 0x3e81f987bc84013eU, 0x3d7675df3c178a14U, 0xbdce900fbdde6862U,
  0x3deb6b7abd95c067U, 0xbdeaa3363d82b6f3U, 0xbe5bfded3d32f380U, 0xbe04c15abe5a6e6eU,
  0x3dd9aacfbd0a48c0U, 0x3c0ec9e1bd12f198U, 0x3e7680e5bcdee336U, 0x3ddb4df8bce8b615U,
  0x3d6240e23d04149bU, 0x3e084e133e1bf387U, 0x3dc175cd3ca720f4U, 0xbdfed7263ec19b87U,
  0x3d377db53e0dfa3bU, 0xbe2119ea3e4aa1bfU, 0x3d65203abd1a4cecU, 0xbe0cb2823cd531e4U,
  0x3d452aa4bc9091e4U, 0xbcbe3921bd67e520U, 0x3e1cee853a3fe5b5U, 0xbcfe81cc3d11f5c5U,
  0xbd7c6957bd817c5bU, 0x3dda1169bc927997U, 0x3db47f5e3de51100U, 0x3e0616aa3e070e49U,
  0x3e004d62bcd38d4cU, 0x3e807f3a3dcd9551U, 0x3d771a993c4845b1U, 0xbdf2df1a3e59da70U,
  0x3d4f012a3e6318a8U, 0xbd973e963cd094c0U, 0x3ce1d35dbe131c27U, 0xbdb1a3333d184617U,
  0x3dc351733ce558adU, 0xbd36f52a3cd7a24cU, 0x3e25e8a93db77ad6U, 0xbba7b2a9bc2c8864U,
  0xbdeef283bd07fc76U, 0x3c5c16b43d025f6aU, 0x3ade5b0d3d80fb9dU, 0x3e178f2c3e837d9dU,
  0x3e1612613d71a98cU, 0x3e4fd8bcbda07d75U, 0x3dce7f93bda36254U, 0xbd3a980e3e29b48cU,
  0x3d1f88f73e156e99U, 0xbc34e0693d264b52U, 0xbc85c6acbe7f8272U, 0x3e0fd327bcaea62dU,
  0x3d9f36cdbcd0c9a4U, 0x3e0b72ca3de17607U, 0x3e020fa23dbb69cdU, 0xbd9998b8bd9a4f90U,
  0xbe4e552cbdc47792U, 0xbcbe043b3d074ac3U, 0xbc9972933de21ad2U, 0x3db716f33e8c83f0U,
  0x3e47d23abd58d030U, 0x3d0c5dd03ccd0b86U, 0xbe4278c73b75103bU, 0x3d5a22d3bdee8f9aU,
  0xbd53cbf43d601ed1U, 0x3e35eeb03df50f58U, 0xbe10a60d3d9b7b02U, 0x3e0606e9bd86a2f8U,
  0xbe3477e43d6dfa77U, 0x3d839e0ebe14848eU, 0xbc3688b13c8ecde7U, 0x3cf0ef55bdcb6b83U,
  0x3e9766573d948f31U, 0x3e9e5ce73dc65594U, 0xbdf7399fbdc74d21U, 0x3d1bc5c73d2344dfU,
  0x3e1c0f80bdb26c52U, 0x3df0974f3df124baU, 0xbe872f923e0f3928U, 0x3d2c33afbd224f39U,
  0xbd6e67f73de8b57dU, 0x3e5b3a3abd654b98U, 0xbd6031f13dd5c691U, 0xbc722b74bc8ea53aU,
  0xbc91a3413e1207e1U, 0x3bbe588fbe1906afU, 0x3ad866d4bcc12af6U, 0x3e1ceeb2bdbe2afcU,
  0x3da6ad1bbce6c5deU, 0x3df623a13e6ce412U, 0x3e32126ebd5b705dU, 0x3d474f5fbd34fbf1U,
  0xbd8c32d2bd779494U, 0x3ddd29a03e02ba51U, 0xbe5edb903dbedbf1U, 0x3ce118593d2dd046U,
  0xbe1028bf3e6ae5b6U, 0x3e8b3d8c3ca37308U, 0xbc7251ff3d969e90U, 0xbe205287bea03356U,
  0x3da426083e000f9dU, 0xbd5ec1f63d0a1ba3U, 0xbdfae11d3d6d32beU, 0xbbc0f413bce825f8U,
  0x3cab544c3d91b476U, 0x3e09dac63e666fc6U, 0x3e6cf971be2c3d64U, 0x3e22f1993d19c50aU,
  0x3c9d1b88bdb0a9fdU, 0x3ddc5334be3b9231U, 0x3db2d788be808576U, 0x3e2cbdc03de02f82U,
  0xbea2e7233e0a9844U, 0xbc289ec7bd6026d7U, 0xbdc7af2b3cf1736aU, 0xbd05652f3dab640dU,
  0x3cfea596be16ddd4U, 0xbe009735be8f5889U, 0x3d0a7468be1cbeadU, 0x3d681a09bd63c133U,
  0xbee0237fbe394a2cU, 0xbcf4f2483c18a277U, 0xbe22284a3e5d8648U, 0xbdda91b5bd6c1576U,
  0x3cd524d8bc8cfdb2U, 0x3dc016a9bd8302d6U, 0x3e339064be78e8ebU, 0x3dbe91d43d2f14d6U,
  0xbd6154003d8e5944U, 0xbdb8d2f33dbbd594U, 0xbd0500a6bdbc2d76U, 0xbd414acb3d5c4d0eU,
  0x3d7800bfbe728063U, 0xbdede7ccbe23062dU, 0xbce5186abdb4b220U, 0x3e38baa1bdda1f7aU,
  0xbe598873be192fafU, 0xbdcfda543c9a0f38U, 0xbe151f2a3e15372eU, 0x3c18fdd93cac3216U,
  0xbe028fc13dbbda10U, 0x3e005bd13cdff0e6U, 0x3e22362abd2fbd47U, 0xbc0733f1be077987U,
  0x3e38fe2a3d8eb198U, 0xbd84b5cd3e1ae4dbU, 0xbdba0909be1458c0U, 0xbe25a941bd0a2134U,
  0xbd72f676be25d302U, 0xbdb47171be02098bU, 0xbdbbe6f3be7902daU, 0x3d617bb5bd710ce6U,
  0xbd382bf5bd65c0ecU, 0xbda960a73d0a29d5U, 0xbe01ab633cc9d74eU, 0xbd5b855c3e36c3b2U,
  0x3dc09962be23ca68U, 0xbe96f3733c05577eU, 0x3b33013d3d4e28f3U, 0xbe5e6ed53dc24adaU,
  0xbd1f974dbe357d21U, 0x3d166d50be24bbc6U, 0xbdb2dbcc3e221121U, 0x3c6060613e1d5d6cU,
  0xbdf8a2ab3d414269U, 0xbb7daa3c3e2b5fd2U, 0x3e61e224be036ab9U, 0x3d4e29e53d86db6fU,
  0x3d9f051a3dca3740U, 0x3d2e9a96be8311d6U, 0xbc61926c3d307870U, 0xbdf1bf08be4d58d9U,
  0xbc12e532bdad52abU, 0xbe861e9dbcf23b9fU, 0x3d2098583ccf2b3cU, 0xbe3524a83d9b09f1U,
  0xbd0ed669be83220cU, 0x3d2f80ddbe2e0c1bU, 0x3d0a80233cd36e9eU, 0xbc20c6273dde116eU,
  0xbde224783c7ab605U, 0x3d8bd9bb3e03a25fU, 0x3e515c81bdf53765U, 0x3d6b8ed53cd73bfaU,
  0xbd077a073cfce995U, 0x3d19cbccbe2216e1U, 0xbd4b06eb3d8a367cU, 0xbdbba6273ca87d23U,
  0x3c6e1580be6b6abdU, 0xbe90347dbc76a865U, 0xbdab3148bbf37faeU, 0xbe9b47203e22fbdaU,
  0xbdb6919ebecab008U, 0x3d8bb53cbe7a175fU, 0xbd9614033dd7662eU, 0x3c7098ce3e1e1eccU,
  0xbdee515d3d1aba2bU, 0x3e1767563b992ccbU, 0x3e9207f4bd5958d5U, 0x3d9a40e33dc75466U,
  0xbdfa54a7bc0eed3fU, 0x3e13b2a6bdfc3cc0U, 0xbe2089133d2aa3beU, 0xbd46de563e069cb4U,
  0x3e03c0ecbce86fddU, 0xbcac66b6bd37dd99U, 0xbc78526d3dc20111U, 0xbdd45345be2879f2U,
  0xbe742f88bc90c615U, 0xbcd8ca5c3d8145ecU, 0x3e499e2a3cddbd5fU, 0x3cf008973a54bee9U,
  0xbe1309563dfdfc75U, 0x3d36c597bd256ba1U, 0x3e303de13d3d9827U, 0xbbdf3854be496ad3U,
  0xbd086c653e402896U, 0x3da55b3dbd4315fbU, 0x3d5a9c2f3e2c8486U, 0xbe4c057dbe83a6cbU,
  0xbd07928fbd6794c7U, 0xbd7d2463bd130220U, 0xbc54bc893d8e51aaU, 0x3d5570f6be3643d7U,
  0xbe86259fbd62d218U, 0xbcef3096bd802c30U, 0x3e26b297bca1cf4bU, 0xbd9937d83d25a732U,
  0xbe1e5bb43e118896U, 0x3d0467ea3c891357U, 0x3daf6d493c9ba837U, 0x3c0df532be0d83dcU,
  0xbd5c04333dbc9822U, 0x3c2944debd860fc7U, 0x3bb12d293dcb6e58U, 0xbe01cc29be26560aU,
  0xbd9f3899bd9f368fU, 0xbe14251abd5cd592U, 0xbe286e88bd209870U, 0xbc81ab63be4ffeabU,
  0xbea85691be647f4aU, 0xbe075dfcbde25190U, 0x3e1206583e0f6209U, 0xbc85b65cbd6354c1U,
  0xbda02ac13e11e549U, 0x3d17b26a3da0ab56U, 0x3e10277f3ac50cb3U, 0xbd83b292bdd29b7cU,
  0xbd1716093de171c7U, 0xbce69740be0399a6U, 0xbd6b97cf3b9d8be1U, 0xbe1e41d1bc8ca639U,
  0xbe52b905bd99a261U, 0x3e003489bda1da7eU, 0x3c2a2f2c3ce8f51eU, 0xbdae993b3ca9005eU,
  0xbda060debe1a38b8U, 0x3e309b4ebe9e2f3bU, 0xbc234f19be7cea9bU, 0x3e22066abc848b0aU,
  0xbe52363e3dd31a6dU, 0x3d8dd2a33db7920cU, 0x3dbc4593bcc30bcfU, 0x3e24c833be889126U,
  0x3db72657bd849cd3U, 0x3c408d343e41a0ccU, 0xbd5ab538be496480U, 0xbdd16489395ca9bfU,
  0xbd87f99ebd86bbfaU, 0xbcb59eb03cd142eaU, 0x3d32ac413d2eb70eU, 0xbe07cd013d541a67U,
  0xbdc7dae9bdd983c6U, 0x3d9cc322be811000U, 0x3d27adefbdea619bU, 0x3dafea823d62b416U,
  0xbe4ebe223be1c103U, 0x3d92e55e3d3a7637U, 0x3d86ba1fbc0576dbU, 0x3da47f85be849bedU,
  0x3dceccb9bdae426bU, 0x3d6d9303bc11ff5fU, 0xbe43849cbd9b35d1U, 0xbd632734bcf85ef6U,
  0xbd72365b3dedc9e7U, 0xbbb24c613d0d9606U, 0x3dc563ca3e2ce151U, 0xbe266df0bd3f73f4U,
  0x3d8a5eb7bdd85474U, 0x3cd1c579be51ed77U, 0xbd3fbe2cbdd2bff2U, 0x3e47534f3d92b6a5U,
  0xbe6a8189bdb0fb3aU, 0x3e81e561bdddde16U, 0x3e39dd5c3cc6a2a9U, 0x3c5f7cebbe9eca3aU,
  0x3dcaa1cdbd8f9c60U, 0x3d82c7ec3b6065efU, 0xbe412fc8bd161116U, 0x3c7f35f23c694ea9U,
  0xbda036183d0ed34dU, 0x3c9d3a50bd614164U, 0x3c88d6bc3db777a6U, 0xbe0185a13d9e140dU,
  0xbeac1938bd016bdaU, 0xbe42c8bbbc6159d6U, 0xbe8d37e9bdb915e2U, 0xbd66ca143da6dd3eU,
  0xbe69bce5bd1d9930U, 0x3ca9a730bc20a2f8U, 0x3cec666a3ba71465U, 0xbe9b1637be16f462U,
  0xbdc35376be9fb6f4U, 0x3d122f24be1df673U, 0xbd13b8bb3df4a39bU, 0xbe2107d83dbea889U,
  0xbc2415e73e22dc42U, 0xbcfdcfeebe3a5737U, 0x3c856662bc67fbd4U, 0xbdc8e422bad24ec9U,
  0xbe852e0ebc9f4fc7U, 0xbe9183393bd8554eU, 0xbe5f453dbd7dd3c7U, 0xbe154a0f3e213b13U,
  0x3bd2e932bcea7527U, 0xbd06a9f1bdd464f2U, 0x3d93d60d3d0af857U, 0xbe86d37cbd8a94bbU,
  0xbe831704be272b7dU, 0x3dd14a70bd2fbeffU, 0xbe00d8b43de4cfe8U, 0xbdac8e903dffc807U,
  0x3d0991883e01162bU, 0xbe1bf314be90aa55U, 0xbd40bad3bc1da20dU, 0xbd804d34bd067e20U,
  0xbd62aad63d9d6f43U, 0xbec6b1e83da580bbU, 0xbebd9deabc84d5e1U, 0xbe7d39723e478694U,
  0xbcafa5f7be477e8eU, 0x3bd36f31be9dca45U, 0x3d2fb9cb3bee1a2aU, 0xbebde60fbdcf4e7fU,
  0xbe6fe410be039441U, 0x3e7a0016be021923U, 0xbdd2944f3da63530U, 0xbd954c513e3bffa4U,
  0xbe21dfc23e26d405U, 0xbda95f8bbe0a91abU, 0xbe1ffa29bda62b83U, 0x3e9431173d9d32eeU,
  0x3c9f8c183dea0b4eU, 0xbdb507173dc9fb24U, 0xbddfa9333de3977aU, 0x3d83057f3e84f1b5U,
  0x3e3dab0fbdef6601U, 0x3e19e3d53ceac83cU, 0xbd918a533e1afd59U, 0xbe82da793da7cb7cU,
  0x3d8bd4563b36b925U, 0xbdb711fdbe2f50b9U, 0x3e69a0d7bd751d96U, 0x3ded03033d76313cU,
  0xbe20b513bc107832U, 0xbd84563bbe04f304U, 0xbbdc8c9fbd5ca763U, 0x3e233f743c9799cbU,
  0xbd262e02bd8bf171U, 0xbd899a633e175366U, 0x3d318effbc9f16acU, 0x3df5e3323def508eU,
  0x3e44dd3cbe101affU, 0x3d8280cc3dd75f24U, 0xbe37812a3e2dfd99U, 0xbdc77c5e3e06a0d6U,
  0x3d09a4d9be249e5aU, 0xbe70c913bde07a2aU, 0x3e3f17663c5eb392U, 0x3d87a60d3e0b5025U,
  0xbd6e0158be3baf1dU, 0xbcbcee00be533394U, 0xbd130f953d8c5442U, 0x3dc3caa3bc775838U,
  0xbe726aa13cf6c2b2U, 0xbe1f49e13d3972d1U, 0x3e8cc33bbc4d4e84U, 0x3d40511b3d45ffc3U,
  0x3e0ba883bc9fb344U, 0xbd8574503db13758U, 0xbe2dbcda3dbac347U, 0x3b79cf8e3e3417bfU,
  0x3c5a71ecbdae69b5U, 0xbe4cf7dc3d058099U, 0x3d2ad6b83cf675bcU, 0x3d2da1823e437eecU,
  0xbddfd21e3d68250aU, 0xbd048686bd63788cU, 0x3d0b035a3d678177U, 0xbd717bf3bd98374eU,
  0x3cc6ecb5bb4110a2U, 0x3d1a88153ce8136cU, 0x3d086694bdc7f2b3U, 0x3d8bd987bd949bc3U,
  0xbdaab3b13d08a610U, 0x3d6c106cbd96d4baU, 0x3ca0446fbdbbfa97U, 0x3d4cb293be02c47aU,
  0x3d283346bd9d1c8cU, 0xbcf4839ebb8dbea5U, 0xbdc82c04bd8aed99U, 0xbb4968c43da81478U,
  0xbbad9df53d86dc73U, 0xbd098300bd13471dU, 0x3cfd6985bc98e0e7U, 0xbcdb1618bde730adU,
  0x3cdd1694bccf393aU, 0x3b5a84723d0c3274U, 0x3d3359c5bd9d6f73U, 0x3da1d8dcbd1c6547U,
  0xbdfced6e3c905e61U, 0x3ca01a1cbd5235c7U, 0xba7631c2bcc47dbaU, 0xbc50d4f4be08037dU,
  0x3bec60cdbde3f7f7U, 0xbdc2dd25bc3f8b68U, 0xbdbeca9fbda4061eU, 0xbd10cf693d057993U,
  0x3bcc69893d929716U, 0x3c53da693b82373eU, 0x3cd796283bfdabf4U, 0xbc44c810bde4f707U,
  0x3c1fd5973a038175U, 0xbc3bd2db3d501868U, 0x3d419653bdd3f26bU, 0x3d98b255bcb79e23U,
  0xbe39422b3d64075bU, 0x3da56ef6bd827e95U, 0xbd4d0cebbd2bae60U, 0xbbdb5011be11b8e7U,
  0x3d511688bdbf30daU, 0xbdc1c4d63c1f2826U, 0xbe52eed4bc250b56U, 0xbda3dca33cbed946U,
  0xbe9e6c2c3e93f37dU, 0xbd4488d93d860186U, 0x3eb2926d3dcd4037U, 0x3e090402be2248f7U,
  0x3e99168abde0ce7eU, 0x3d5fe3fa3d37d1aaU, 0x3e4af5f7be2020ebU, 0xbca61295bf160d19U,
  0x3d9b0e5c3e6f4c09U, 0x3e42dd183dbbce1eU, 0x3e0e51b23e07267cU, 0x3e0f10a0be46da8bU,
  0xbda4ba233d7b7a89U, 0xbe1fe7603db1f966U, 0xbdb9d4593e5cf502U, 0x3e97b0823e539349U,
  0xbd925f04bd9d5a6bU, 0xbe04adfd3d898b6eU, 0xbe5dc4c83e672a44U, 0xbc4e766e3c929a9bU,
  0x3e224b983c5e17a4U, 0x3ceec292bc9838d3U, 0xbd9fa413bca58ae0U, 0xbdfa2e64be8c55efU,
  0xbdbd8bdb3d1aa1edU, 0x3dd0ea223c278a8dU, 0x3d4cf3ccbc656452U, 0xbe7be7a1bdd231c7U,
  0xbbf920eebdf3077bU, 0x3c3ec1383e37f273U, 0x3c5a1809bde021c4U, 0xbc95a4833e3ac78fU,
  0xbcb77036be677524U, 0xbe055bd43d0e6e4dU, 0xbf1668c43df7b9e9U, 0xbe92f9843e357e2aU,
  0xbdef356dbd0a8b5aU, 0x3e1f4d603c9376e7U, 0xbe6471653e857944U, 0x3d40886a3d6bfb48U,
  0xbdd03dc5bd99a158U, 0x3e2f3ec2bd9d7974U, 0x3db5c233bd872b30U, 0xbef98129bdadb97eU,
  0xbdec0d12bc0c60deU, 0x3ed73e2e3e49cfdfU, 0x3d0ff542be9f9b51U, 0xbe12e23d3e6c44d0U,
  0xbcb94d693caeb0b4U, 0x3c72b07a3d0386eaU, 0xbe8487943b95365aU, 0x3cf6c05f3d9156b4U,
  0xbdd0d4973d3f871aU, 0xbe18bf7a3e905675U, 0xbe5c58da3d9d594dU, 0xbd8aa071bdb241faU,
  0xbe97fda13e094747U, 0x3da3bd703c838f66U, 0x3d4b23e03e146569U, 0x3da1d6abbde9f984U,
  0xbdd6fe67bdf3cab7U, 0x3e61457d3cddb5b1U, 0x3da612fdbd3abb9cU, 0xbd4e4cd7bdda8beaU,
  0xbd71724b3de19909U, 0xbcb0a411bd338498U, 0xbe72951dbe8f41e4U, 0x3c574c493d8bb814U,
  0x3d2457bfbde44458U, 0xbe8ecc363d9b6ad8U, 0xbe8253fd3d2a1368U, 0xbd8723b1bc64ec9fU,
  0xbea2c3753e0155caU, 0x3d8385093e5c18d7U, 0x3c4351ae3e1864d5U, 0x3dc5e7e9be192a2dU,
  0xbe243cb4bc677f1eU, 0x3d3adc08be5c29d8U, 0xbda0edcdbe2801baU, 0xbd2cb9d8bdd57990U,
  0xbcc642c93e26f01dU, 0xbc838a3a3df2c191U, 0xbe2c5f2bbe0669e8U, 0x3cd9da853dd462e3U,
  0x3e008e6cbdf3528aU, 0xbeaa9c923dc4ad19U, 0xbe84d4c43dd0a5a6U, 0x3e2f1e403e182e82U,
  0xbea930bebd019099U, 0x3de4ffaf3da6ec70U, 0x3ddf40f53e1b2ea9U, 0xbd850557be814f39U,
  0xbe22dabcbc814820U, 0x3d99a01bbe4458aeU, 0xbe3b9749be802e60U, 0xbc95fb503e1d50d9U,
  0x3dc0738ebc0ae788U, 0x3d596d14be375f60U, 0x3d66dae6bdadd496U, 0xbc3923f53d9f4ce2U,
  0x3e064a85bddfd6c6U, 0xbe1d9f5cbdd40263U, 0x3bce3e1c3c91514aU, 0x3e1a063b3d2c9e2cU,
  0x3d90201cbe9c3249U, 0xbdb8775cbd9a5d79U, 0x3da4cfd6be89c741U, 0x3d6e2efdbe0975dcU,
  0xbd9b8ba7be564657U, 0xbeb90e28be5359fdU, 0xbbb33df5bdef12e2U, 0xbc8bbc123de1cbf6U,
  0x3d70185ebbf5bbacU, 0x3b69f6f7be2617a8U, 0x3dc0174e3e0049c5U, 0xbdf34cb53e0914c8U,
  0x3dbe594d3d35dacdU, 0xbda259c8bdc8244dU, 0x3cd001c3bd195808U, 0x3dbae752bd012113U,
  0x3ce37eeebe6cd2d0U, 0xbd24bfd3bdca9aebU, 0x3e0a85fcbe5fd8c4U, 0x3d8713debd0270d6U,
  0x3d7788d1be1b2279U, 0xbea43621bddbc569U, 0x3d8eaa16bca3bd85U, 0xbb3f47883dd7e14aU,
  0x3d418935bbc992ceU, 0x3b50c2aabdc572a8U, 0xbc8fa4dc3e30612eU, 0xbe3cee8b3e123c94U,
  0x3e0a41c93a1c00e0U, 0xbd82d466be958570U, 0xbc9fb38cbcd20a28U, 0x3d5ac755bd8d5b64U,
  0xbd7c67bebe6b9119U, 0xbb3b514d3d681599U, 0x3e0c333ebdefa4f6U, 0x3e0b37db3d565dbaU,
  0x3cd33791be3fababU, 0xbdcd5d40bd896d54U, 0x3d35bf13be1057c8U, 0x3d6bcdf73d3681daU,
  0x3e30d85b3ca11f80U, 0x3da707a4bd956b2cU, 0xbd0c76c8bd8937c8U, 0xbd4b94453c8492bcU,
  0xbad265983db96e57U, 0xbd1c9647be478ee9U, 0x3daaa4e83c21df59U, 0x3da63d54bde90b75U,
  0x3d09b4abbdfcb7bbU, 0x3e0dbf1d3c921ecbU, 0xbe4803e83cd33041U, 0xbda3fb6abe0981d3U,
  0x3c3f7aeb3ead6ba6U, 0xbdb765a4bde4e6deU, 0xbebffe363d21912aU, 0x3d36e178bd1aad1dU,
  0x3dfa87633c7d2616U, 0x3d71d1013c252afdU, 0xbdc0c6a23de1295eU, 0x3d272b58bd897c6dU,
  0x3d960e713d3786d2U, 0x3c11e6d1be231535U, 0x3dc2b5173e07e0c4U, 0x3dcb358cbde92140U,
  0x3dc83937be4b6c09U, 0x3e02f7b13d53a052U, 0xbe5ffcb73d4a0668U, 0xbe223e76be3926c3U,
  0x3ddf58283e94c0a8U, 0xbd105c7abe14148cU, 0xbe2b90cd3d824ac6U, 0xbc6d24473d7ad0f5U,
  0x3d2f8fcf3d656c33U, 0x3cdfb0c33d880de9U, 0xbe499419bd6cb3c9U, 0x3e03433fbdee4c78U,
  0x3c5ebe2f3db90d15U, 0x3a067abd3cb64572U, 0x3e216b1d3e1b80b8U, 0x3db4e169be094597U,
  0x3d9eea93be051767U, 0x3d9b22223dfe055fU, 0xbeb6b84cbbfe8de2U, 0xbe654d2fbe121b0fU,
  0x3e28317f3e628499U, 0xbb2e1f19bdd0515cU, 0xbd91e1c63d801becU, 0x3b166a033da418acU,
  0x3db801b4bdee6995U, 0x3e6353fe3d1f0d9eU, 0xbdfb59c13de99e45U, 0xbd8506bfbaafcb0fU,
  0xbd765601bd051499U, 0xbd5f7cb3bea1f4c1U, 0x3e3f43c6bdfea10bU, 0xbe54e87abe18c8a4U,
  0x3d1aad7dbddfdd95U, 0xbdc296ae3d6e8fd6U, 0xbe1ab8003d9f2084U, 0x3b83680dbcaa8a18U,
  0xbe5ae18a3e14f818U, 0xbdb5ed34bc744386U, 0xbdb3fb5fbd784aeeU, 0x3e582040be9b76acU,
  0x3cc94ff9bce3245fU, 0x3cdde1273d8799deU, 0x3e0bd0aa3d8c445fU, 0x3d4d228dbe0b3e04U,
  0x3e32b7e4bd73fc78U, 0xbe1c6076beb97177U, 0x3e59254bbe63e519U, 0xbd9eb14bbdc2f154U,
  0x3d6d726ebe14a852U, 0xbd949623bc35150eU, 0xbe2ec90e3de7a331U, 0x3de4744abe0e1382U,
  0x3d42cea73e59f60cU, 0xbdb383623b6e922aU, 0x3d6956053cbda0f2U, 0x3deef6b5beb1d321U,
  0x3d651d9c3e17617eU, 0xbbbb473d3db31351U, 0x3e76386cbd8161f8U, 0xbd233602bd2e2b1dU,
  0x3e56047ebe1f3a11U, 0xbe3d1afebe3ffd61U, 0x3e580c44be8acb99U, 0xbdc46459be39a369U,
  0xbd82bc08be72bd97U, 0xbd86dace3dfa7edcU, 0x3c1adc013d1cf096U, 0x3e26af11be977764U,
  0x3dc39d1b3e1552c7U, 0xbc034ecdbe08d858U, 0xbd9956e83c8ae5c2U, 0xbce9dff1be21bb60U,
  0xbe262d67bd5ca181U, 0xbe9d517a3d876b54U, 0x3d675b2dbe1ead70U, 0x3cd1c1c5bd80f1c1U,
  0x3d82bd4c3d82e315U, 0x3e3d65c03dd91128U, 0x3debdbba3dff38c9U, 0xbd3b9d963c795164U,
  0x3d1aa2fc3c0f5648U, 0x3e5821cdbd8b8de9U, 0xbc80b0bb3db86a96U, 0xbdb230f83df3b390U,
  0x3e7c18bcbe3eab06U, 0xbe0c699dbdbbcff7U, 0xbc86a229be6df737U, 0xbc885f2bbd92259fU,
  0xbe178e76bcf4bb20U, 0xbe7fdeec3d7ed628U, 0x3dceb146bd0b5c39U, 0x3d11ceb53c9f5173U,
  0x3dbc68dc3bf5e370U, 0x3e3ade183dc9204eU, 0x3e666fc43d629a1eU, 0x3d827d453d4e673aU,
  0x3bb89dc53d14b303U, 0x3e2ff381be03add8U, 0x3d8714973d72aee2U, 0x3d1b9e403dc56a52U,
  0x3e79c9ac3c52536bU, 0xbe5c37f2bd7a50ceU, 0xbdb78222be03fd65U, 0xbe0300b2bd9b1ed2U,
  0xbdd9a3f9bdbae041U, 0xbdcadf953d50f62dU, 0x3e22af713d0400adU, 0x3d26bd653c2cd9e5U,
  0x3c98d1aa3d7d2abaU, 0x3df457803e154276U, 0x3e667c78bd570c1aU, 0x3cbddb62bd9724a4U,
  0xbd1b84c43d9c6442U, 0x3d10caf1bea9619aU, 0x3d7c8f843de2a7daU, 0xbd9e8b5c3e1ddd52U,
  0x3e82b73539c0c7beU, 0xbe4de926bcb4a414U, 0xbde05cd4bceb4ae7U, 0xbd957aabbe1faefcU,
  0x3e203e6c3e2d6206U, 0x3db6f6c9be2d6c28U, 0xbd519539bec32584U, 0xbe68018fbd8f3015U,
  0xbdc32dd4bc2c24f7U, 0x3e99c3b3bd46406cU, 0x3e0feceabeb2da69U, 0x3ea4c013bdb047bdU,
  0xbe2263aa3ec420ecU, 0xbd280636be7600bfU, 0x3df63905bb9a0db9U, 0x3de57be4bdc73730U,
  0x3d9682ddbda028f5U, 0x3e0152e33eb82657U, 0xbd31865dbdd3ecebU, 0x3e05500ebe4e404fU,
  0x3e4c3b853cbb21c8U, 0xbbc3cc773ccc51b1U, 0xbe086257be60c4aeU, 0xbe56c2b9bd9b269bU,
  0x3bfa3485bd710ce1U, 0x3e24fc623c93d8d8U, 0x3dbd1932bdf42d2dU, 0x3e50f5743db94322U,
  0xbde005ad3e4c06faU, 0xbad1db4abe4623a0U, 0x3ceddea6bbed0dd0U, 0xbda309b0be09a27fU,
  0x3d1af740bd62ab10U, 0xbc9ad8f43d8648a3U, 0xbd35d58abd498975U, 0x3dfd0961be301f5cU,
  0x3db11b4d3e536463U, 0xbc19f1f43ddad430U, 0xbdc4636ebe51da7fU, 0xbe60947abdbf3571U,
  0x3da00d283ce27ba9U, 0x3debddeb3db576d8U, 0xbd6575eebcd53e30U, 0x3e9d5b4c3e1e0115U,
  0x3cbf01553d3e749fU, 0x3db48c47be6a2c3fU, 0x3dc7f977bd95c579U, 0x3cc110ffbe8e88cbU,
  0x3da15d92bd885929U, 0x3dbf16a03da947e5U, 0x3d195c38be32c49eU, 0x3e9ed2ed3c44aa8cU,
  0xbe970cdb3e1eb0f7U, 0x3c90075c3e3425f9U, 0x3d87e1c43e0b1801U, 0x3e7173fdbe454c47U,
  0x3b41f4bebe4f9cd8U, 0xbdee5da93cd1f7eeU, 0x3cd5b4c1bead1c1fU, 0xbbc088c1be21aec6U,
  0x3bbb46f2bdef928eU, 0x3dffa5be3ccd0a22U, 0xbdafac1e3d74e05eU, 0xbd36bc9fbe24e095U,
  0xbd9b7261bdf3c1b5U, 0xbe06978dbd4017f5U, 0xbdceda523d90acd5U, 0x3c85d3cd3e9eb479U,
  0xbde507e73d821a32U, 0xbcdca0df3e232007U, 0xbdcbe5ee3d737cdcU, 0x3d7b2bb8bdd234d3U,
  0xbd4cf1cdbe803b0eU, 0x3c2d3213bd336f37U, 0x3dde8cedbe66f9a7U, 0x3d668645bcfe6086U,
  0xbe23c6eebdb9b1e8U, 0x3d3d59613d453660U, 0xbbc3bc32bcc540e1U, 0xbc9dcfc3be17ae1eU,
  0x3d55ba25bde235c1U, 0x3ca32b6c3d9fb790U, 0xbdfdc29ebcc3876cU, 0xbdada3273e01e301U,
  0xbdbd50283e001fb9U, 0x3c5b910c3d98b1d4U, 0xbdd6eb5e3d5d5f98U, 0xbded71b1be178ba5U,
  0x3cd3e2d5bd200cc0U, 0xbd4081b0bd166702U, 0x3dfa192cbe8b4e67U, 0x3cc5103ebdc971b1U,
  0xbe9ee327bd3541eeU, 0x3e099568bd9c64f4U, 0xbcf9ce2fbde19097U, 0x3b2c0a2cbe5b25e0U,
  0x3cbb236c3c21e9b8U, 0x3e00f1aa3da02a6bU, 0xbbcf8f52bc24e611U, 0xbe8413223d4e945cU,
  0xbe4277ffbe673df7U, 0xbdbbc1fcbe1eedf6U, 0xbe68cfbb3c226defU, 0xbd27ed28bcc4b10aU,
  0xbe4dc7dc3cc0be8eU, 0x3c2fdd32be192ca9U, 0x3d5360c53ddf5ca4U, 0x3d8861d13e5f569dU,
  0x3d881684be18fe2cU, 0xbe135c1ebce7f2c2U, 0x3e2463443bf4775eU, 0x3db2f71cbe5ecb77U,
  0xbe431f883dd5207cU, 0xbd3cb00d3dcb1f63U, 0xbc5086163e122ff2U, 0xbb479616bdcb0d5eU,
  0xbe0f4359be603f95U, 0xbc124b1abe5db262U, 0xbe0b7712bd7e264eU, 0x3c39add8bd94e6a3U,
  0xbe52087ebddb350bU, 0x3db5cd01bd9b0bccU, 0x3d435d66bc9b3b26U, 0x3cdb9a383e27270eU,
  0x3d1111cbbde3eadbU, 0xbd32672ebce408a5U, 0x3e00bf52bcc5b54cU, 0xbb35c10fbd41180dU,
  0xbded4c233da4b696U, 0x3da25a273d99a110U, 0x3da3ee1f3d8cf8a6U, 0x3d030908bd09155bU,
  0xbe633a1bbe7d2bbbU, 0xbcc8a43ebe1b7ee1U, 0xbc9e7c3bbdceece1U, 0xbd17c714bd88856dU,
  0xbe880f58be03cf42U, 0x3dbaf21fbe87c1b1U, 0x3d8ff273bcae681bU, 0xbd2436713e20c6a9U,
  0x3ddf468fbdb02c48U, 0xbd0e1ee9bd00283cU, 0x3e05fc463ce0a971U, 0x3dfce987bd53f52aU,
  0xbe0ae37e3d9722ccU, 0x3dc46f9b3d41554dU, 0x3d8164ad3d010892U, 0xbd7445a0bdc34bc6U,
  0xbe084c413d9ae3f3U, 0x3d19bff83de5caf7U, 0xbcfc9f0abe0d5bfeU, 0xbd253780bde1cd17U,
  0x3da6e055bd8d8ac7U, 0x3c1ff329b81b4b6bU, 0x3d87d1c4bd5b2d7cU, 0xbca4d630bb1c9624U,
  0xbe25cd313c629b50U, 0x3c98807abd843e71U, 0xbd1ce921bda2eb47U, 0x3d8d5544bdc02640U,
  0xbd184f5a3d48c8f9U, 0x3cf082653d887875U, 0x3caec6c7be030a67U, 0xbdc68ff83de8134fU,
  0xbdced8df3cecd5ceU, 0x3d8ed8913d06a6ceU, 0x3bf8c166be0db930U, 0x3d0ebc52bdb21eadU,
  0x3dc7f4d8bde08c99U, 0xbc41c40fbcf7fd71U, 0x3da597c13d145dbaU, 0xbc5111733ce33de0U,
  0xbe2847493bbf8173U, 0xbb921590bc018a71U, 0xbaf0d448bd7eaf36U, 0x3dd25f50bd92c99dU,
  0xbb90b4943d433106U, 0xbd4638cf3d2b5798U, 0xbe04c9a9bd524bd9U, 0xbdbe493f3d580946U,
  0xbd6639603da383e5U, 0x3e0001a73d38af33U, 0x3d950dfbbddc8f5bU, 0x3d56a65cbcb37024U,
  0x3de51437bd7ec83cU, 0xbcff4eaabc37f13eU, 0x3d9e585abcb002caU, 0x3d3bb37fbdaa1622U,
  0xbe255e073dc5ddafU, 0xbcf5f10cbccd1573U, 0xbd96b474bd56260aU, 0x3dbc0354be15931cU,
  0x3d0c232fbcb52d01U, 0xbe02e3883dd216b0U, 0xbe005942bd70223aU, 0xbded06c73dc57758U,
  0x3daab2c93de11d00U, 0xbe816592bdf83269U, 0x3e4ff44ebe709c46U, 0x3cfdfc01be27f872U,
  0x3b65d8dabd9dbf0fU, 0x3c8c6dedbdabc2b2U, 0xbdadbea8be4e701dU, 0x3db0b2983d4c476eU,
  0xbd0f63243e0b840cU, 0x3e2afa533d112c0eU, 0x3ddb42c2be4a090aU, 0xbdd8ef1f3da67debU,
  0x3e6923c2bdbcf7b3U, 0x3c6293ecbdb48751U, 0xbe980d6a3e048fc0U, 0x3e64b4e9bda8d64dU,
  0x3db3b5293e6561fcU, 0xbe79ee02be26a580U, 0x3e4c77c4be14b211U, 0x3d902c1dbd8393d7U,
  0x3b9a7d3ebe2ed0beU, 0xbd4b71d6bc4f0fe6U, 0x3c3dc8c0bc676de7U, 0x3d7528253d455be9U,
  0xbd4d28533d42d24aU, 0x3e00dc70bde3f200U, 0x3de41803bd876dd2U, 0x3d8bbfb83ca8af24U,
  0x3db7f32ebe045328U, 0x3dcc9109bdb7dafeU, 0x3d1ad31f3e02f827U, 0x3e32be23bdc84677U,
  0x3e37fbd43e885da6U, 0xbe9435f5be8570f9U, 0x3e271a99be1cbc8dU, 0x3e2b7b8e3a046cb1U,
  0x3e90553cbe1ec67bU, 0xbe12ff343cb5eda5U, 0xbcf61d503dbfd69cU, 0x3d76b4553e0e52a2U,
  0xbd43e8a33da87483U, 0x3ca6915dbe80845dU, 0x3e0625e03da86233U, 0x3e057a86bd40bda1U,
  0x3d7b3175be36d626U, 0x3b10c873be3bb732U, 0x3e8b1c8a3e2a8e26U, 0x3e478135be049edcU,
  0x3dac537b3e0dffe4U, 0xbc4d736ebdf54e9aU, 0x3dac0523bd545e3aU, 0xbead469b3d80cf26U,
  0x3dcdfa45beae21afU, 0xbd0467c9beaa2088U, 0x3e128b68be0297c7U, 0x3e053b113d143113U,
  0xbc54d083bd00f431U, 0xbe05e5913e006f66U, 0x3d5c839fbe41a4f4U, 0x3dafc5bbbe0a84f5U,
  0xbe1508c33bebab57U, 0xbd5a42d7bce43ecaU, 0x3c831b723d96b8f6U, 0x3c5c19a2bd28bc4bU,
  0xba64bcec3d8b224bU, 0xbdc1db2bbe8a17f5U, 0x3d40f9e8baf7f5b1U, 0xbe26bed53d7d3637U,
  0x3dade345be89f4a1U, 0xbce6e861bdeb403bU, 0x3de98cd5bd8da6d6U, 0x3e15e401bc28ca89U,
  0xbd4dbe9bbaef0ab2U, 0xbdf2c8cb3dd5fd8bU, 0x3c9db37fbdec3942U, 0x3dddb9efbdc070ebU,
  0xbe1160a9bcf71c5bU, 0xbdc49e5cbd7ec7ceU, 0x3dc1b5963d87590aU, 0x3d80f6373dbb2d27U,
  0x3de07cd53c2931baU, 0xbdc9a7efbdc41070U, 0xbd1eb5253ccb5c41U, 0xbe67c2163e04596eU,
  0x3e0af88bbecfbc05U, 0xb91ce41abdf96350U, 0x3d85fa7bbc54a85aU, 0x3c568819bda697caU,
  0xbd04885dbd527498U, 0xbe1f6e6b3dfef3d5U, 0xbd69fd17be10b99cU, 0x3e3562ebbe154e1bU,
  0xbe04d6abbe12a9a4U, 0xbe130cf6bd644257U, 0xbd1c3fbebd897164U, 0x3d0b2ab83c32ac11U,
  0x3d35eb46be10175fU, 0x3e11678abd73c6a0U, 0xbe1dde7b3e68ac75U, 0x3d0e36933e408a87U,
  0x3c58d5f0bddf4395U, 0xbd39943bbdc612eaU, 0xbd75d148bbb831d5U, 0xbe96a0cbbcb36d2fU,
  0xbcc8e8c93e09af41U, 0xbe0d7f93bd8a0794U, 0xbe2f16563e452a40U, 0xbdd17d873e0af682U,
  0xbbe38ba0bdb286f5U, 0x3c3f18a0bdbf49a6U, 0x3d2cc2a4bd7370a4U, 0xbce2609ebcac76a7U,
  0xbe1d30e7be19a015U, 0x3e21f1423dbbd868U, 0xbd8257153e413808U, 0x3c7c17843da0fcf7U,
  0xbe0a06ffbda56799U, 0x3bf9f7f0bda0a616U, 0x3d3e912fbcb4fc04U, 0xbe95ac4cbd042515U,
  0xbcc753ab3dc0f591U, 0xbe312ca03c50d969U, 0xbe151a183e2fedd8U, 0x3d06e0043d93525bU,
  0x3dd4095cbdc18093U, 0xbd370186bc600fa2U, 0x3c5f3494bcb618a2U, 0xbdd25b8abd73e6bcU,
  0xbe42ab45bd821e01U, 0x3dfba1633e04d4b0U, 0xbbf80aa73da774a5U, 0x3de20dde3e55d1b0U,
  0xbe54d365bd2e6062U, 0xbcd06a91bdb873a4U, 0x3ca860da3ca992f5U, 0xbe7d7c43bd10b7b3U,
  0x3cf501a43d51b4a8U, 0xbd020d5c3d0241e3U, 0xbd572ea73e62d0b6U, 0x3dc42a5c3c8aa867U,
  0x3de9b8e4bd011416U, 0xbc9b356e3c025463U, 0xbd33ee823d7050d0U, 0xbdc7380ebe2d1796U,
  0x3c8fca613c82e105U, 0xbc2279b83b94f70cU, 0x3e416f4c3d21114fU, 0x3c6837bebce4247eU,
  0xbd019bd5bdc887e9U, 0xbea982943d51427eU, 0xbe6236f13cf2ab2cU, 0xbefb42463e872278U,
  0x3cd2acfb3dced98bU, 0xbe808269bd4f3778U, 0x3dab9ce23e1f213dU, 0x3d5682b6bdc057b4U,
  0xbd9ab509be00a9baU, 0xbd9178b5bea5af79U, 0xbced6b703e2f2d5cU, 0x3db6eb623dff0ba5U,
  0x3d90a9e7be06b8c5U, 0xbe17aea6bdb2293bU, 0x3daa4c1d3e05181eU, 0xbc54d4eb3d3077f0U,
  0x3d6e27f3bdd932b7U, 0xbe901018bce77825U, 0xbe2e15e33c2f5181U, 0xbecf062c3e07cef7U,
  0x3d9ae7d03dd1a18fU, 0xbe661ad93d44261eU, 0x3d13ec503e09a752U, 0x3d44a903bbc9ac17U,
  0xbda22917bbeeef8cU, 0x3d83d851be01f0e5U, 0xbdded0773e73e455U, 0x3dda49c83e080ca8U,
  0x3d5d4061be55c18aU, 0xbe3d4de8be13c985U, 0xbe5415a93db4a0bfU, 0xbdb7044d3cda3e91U,
  0x3dfec8a4bd270ad6U, 0xbe956738bdacae68U, 0xbe91dc9d3dd3ad8bU, 0xbea6460b3e7ea75aU,
  0xbc95ce273e4de5f5U, 0xbe998bb3bd732cffU, 0x3e0a8cce3e203c73U, 0xbd0642533dc310aeU,
  0xbde91600bd01fc45U, 0x3e2e092a3dbe17b6U, 0xbb2d3da63e8c48eeU, 0x3d38dd423d9c4fecU,
  0xbe8e60f5bd6585f5U, 0xbe202435bd6199a7U, 0xbdad756c3d000496U, 0x3d1323e83e2bfea5U,
  0x3ca868b1bd64ff01U, 0x3dc53732bdab2689U, 0x3d4d4e1d3df61d5eU, 0x3dc611c73e8a1a75U,
  0xbd9f36b9be3580eaU, 0x3db760b7bde45239U, 0x3db38e723db24ff4U, 0x3a7142ffbdc81d1bU,
  0x3d9956c3bd39d76bU, 0xbd37c26cbd0db69fU, 0xbcde2a2cbd6436ccU, 0xbde6a38c3dc0d425U,
  0xbdb0d912bddc43f8U, 0xbd8cef71be4260b7U, 0xbc4a5771be3f4f70U, 0x3d1195b93e1bc6faU,
  0x3b68381f3d306de3U, 0x3e142de9be01f766U, 0x3e1078033da0e93dU, 0x3d81fb7a3e393c84U,
  0xbde19661be048474U, 0x3ce33af0bba5637cU, 0x3dc89b343d302a04U, 0x3c90a737bd8abd02U,
  0x3dbc513f3d4aa698U, 0xbc98b2dfbc38db3fU, 0xbda86a2abd83276eU, 0xbe0095e13d06db04U,
  0xbc938592be0854bcU, 0xbdaf65b7be554e72U, 0x3dfd0ee1be295a89U, 0xbda433d0ba2113feU,
  0xbce784943dc37223U, 0x3e04dc1abe3a83bdU, 0x3dd9646e3da74e51U, 0xbc2737d03d4c95a4U,
  0xbda1b1a2be02bb3fU, 0xbd01e80ebd8c1b24U, 0x3df5391ebdaed769U, 0x3dd73cb1bd995542U,
  0x3c4aa1933da4d970U, 0xbbc80ba73dd10616U, 0xbdfce80dbd113facU, 0xbded9f20bdcf6eb5U,
  0x3dad5ed63c9218eeU, 0xbd6dcdb4bb6f4771U, 0xbe60fb14bd34c12aU, 0xbd8e500abe848c00U,
  0x3e1f8dfabdecffb3U, 0x3e3e4dbe3e3dd718U, 0xbeaba45e3c993e93U, 0x3e02442a3d61b25aU,
  0xbe8fb57f3cd5525eU, 0xbe48e6d73ce0ad73U, 0xbe2227c5bdf8a3d9U, 0x3d85b1cc3e05687dU,
  0x3e1ae5c43ea1918fU, 0x3e72b4f83e8c82d2U, 0xbd343e9b3d2ab1c0U, 0xbe44a7893d78ec63U,
  0xb988c70bbdd4db5bU, 0x3c1934963db5ed39U, 0xbe66f2133df3e0f9U, 0xbcfe9a6d3c90ee18U,
  0x3dffb4f03cd142e2U, 0x3e026183bba77b04U, 0xbd870d203cbfca88U, 0xbd9d10ca3db3b117U,
  0xbe89a8883cb66b7dU, 0xbe0da4a4bd679da5U, 0xbd566cab3af3226bU, 0x3e4557633e095d00U,
  0x3e4022ad3e098251U, 0x3dcbdb933e544b5aU, 0x3e248584bc97454aU, 0xbde6c50b3e0b0b44U,
  0xbcb6f79abe7a5751U, 0x3d383f7e3e659849U, 0xbe6369663e202d4eU, 0x3da00dfa3e136842U,
  0xbcce54de3df8adb6U, 0x3dd91a563da7bec8U, 0x3de87a4b3e1530d0U, 0xbe4b48f9bca49b6aU,
  0xbd7d178b3b5a00a5U, 0xbe6dfbbebc863db2U, 0xbe70637d3e26192fU, 0x3e4c90f73e58eea9U,
  0x3e3d5c163d83ea0eU, 0x3d9f52533e5ac62cU, 0x3e47d3a93a21c4c0U, 0x3e109d8e3e1b83c9U,
  0xbe72f04a3d3dea80U, 0xbbd1df0bbc14d657U, 0x3d803e67bea7799eU, 0x3d83906bbe193ae9U,
  0x3e501f1e3a5d9d30U, 0x3cbcdf743ded585aU, 0x3de6a9ca3d3dd852U, 0x3db237cb3d155f56U,
  0xbccba0e6bb6baeaaU, 0xbe26e8bcbe9da378U, 0x3d2a51c63d36f668U, 0x3e35a3c3bd6d8c81U,
  0x3d1845eb3df65d7aU, 0xbc3a00843e6d6081U, 0xbccc2b6fbe1b35baU, 0xbd351f0a3e5b6a11U,
  0xbe13a05cbdbf3b46U, 0x3d4efdd53d335479U, 0x3d870113bec6db34U, 0x3cd2bd05be07eb23U,
  0x3d8ffbb13cc8e58dU, 0x3d88ca7e3c8d6a94U, 0x3e0036e63d1b88d3U, 0x3c19775ebc9e565bU,
  0x3d1f5fe93cb544fdU, 0xbe3b572cbe9ea965U, 0x3db87e743d199cf3U, 0x3d0bbe11bd42a54cU,
  0x3c48bad63ded7020U, 0xbcb9a7a53e302b55U, 0xbda867d7bd44b63fU, 0xbe21b13b3cb27cc9U,
  0xbdda4556be02838fU, 0x3b222964bc836c6aU, 0x3d5b585ebed1b27cU, 0xba645fa0bdc1b225U,
  0xbcbf779b3c33fd38U, 0x3e211463bdd2aa0eU, 0x3ce237543e235665U, 0x3d6a3bc83d8c7da7U,
  0x3c5216e03cbf0143U, 0xbe393a1cbe9ead8dU, 0xbdac07183d2c414aU, 0x3d86cbdabcbe9174U,
  0x3d36b11a3dfc865aU, 0xbb90e7253e511b5cU, 0xbe03bb2f3c7c17d7U, 0xbd9f35aabd3eece7U,
  0x3df61f283e2ab12eU, 0x3db644c23dcbc6c9U, 0x3de50239be6e456aU, 0x3d64def53e62c64fU,
  0x3d484c033e06fe7aU, 0x3d058947bd9e7604U, 0xbdfdf96dbe6d6cb9U, 0x3d43c6793d16d656U,
  0x3d0a575fbdb83362U, 0x3e3d89fcbe18cadaU, 0x3d3557613cc8da86U, 0xbaccf1683da47b73U,
  0x3e682a813c53093cU, 0xbda994fabdaee96fU, 0x3c8a73793df5c608U, 0xbd1bfc463dca5b7fU,
  0xb99b78e23d83e4beU, 0x3cdc6c583cf2e3d8U, 0x3e5bface3e15f0bcU, 0x3e2529e23e0efe90U,
  0xbd220d353bb35758U, 0x3d68bebebcd30300U, 0xbdb28d093ce97ea3U, 0x3dc3485bb84e46f8U,
  0x3dcb0f90be0554cbU, 0xbd84649fbda5332bU, 0xbc0f1efcbd281bd2U, 0xbe458b0bbc879c0cU,
  0x3e286d5b3e10c020U, 0xbd80a441be0fef0fU, 0x3e2b52303e4adf9eU, 0xbe32a07f3d66eed7U,
  0xbd62da0fbd1f3bddU, 0xbd0d2debbd687524U, 0x3e7f034bbcfa3ff0U, 0x3e50a2213ccd6b27U,
  0xbd135392be154fbcU, 0x3da85bbd3db32479U, 0xbcc33eab3ddb89c6U, 0xbdc9fcc0bd1a61e7U,
  0xbbe0abb4be33b459U, 0xbe282386bd64ac9bU, 0xbdc9d940bce5b1bcU, 0xbecb8c983d4913dbU,
  0x3e83f0193e1b2e09U, 0xbd7cd039bea1b3dfU, 0x3ddebcd03e1e3b13U, 0xbe670268bdf949c9U,
  0x3e6259083df50e15U, 0x3dcca3543e8605bdU, 0x3ddc377d3bcd893cU, 0xbd718dc8bddb1f50U,
  0xbd80fbd23d9ec802U, 0xbd2b95cdbe418560U, 0xbdebad25be09160bU, 0xbdf7f198be758603U,
  0xbe63e7cf3e5addfaU, 0x3e6d95113bc2b536U, 0xbde91132bdd40d5bU, 0x3e17ae59bd9baec4U,
  0x3e1be0bebe1e7fd4U, 0x3e0cd6f8be1d6750U, 0xbe382281bd8f7692U, 0xbd935eefbdfb0bb3U,
  0x3ceb5eb73e374718U, 0x3e693bb03df35cc6U, 0x3d85c2a73c3d6581U, 0x3dadfe9fbe38122eU,
  0xbde1e12d3e241c2aU, 0xbda22b38bc80d756U, 0xbe3d6a053c50308fU, 0xbe17ae6abe545040U,
  0xbe80901d3e172ae8U, 0x3e37a39c3c3dcb98U, 0x3ae96183bdcc6a3fU, 0x3e6718bfbd2483a6U,
  0x3d215218be05fae6U, 0x3e1ee7afbd24b4b2U, 0xbe53e83c3d0416f5U, 0xbcae7ee7be31df9dU,
  0xbe21015c3e65747bU, 0x3e667c8e3d8c6f29U, 0x3d889ef9bd92a782U, 0x3e8e1e1dbe11eeb9U,
  0x3dfed3753e0575b4U, 0xbdebf0ca3e26e49cU, 0xbe3354613d2b7c78U, 0xbd76ea3ebe78e0efU,
  0xbd6739443db85d5fU, 0x3de0eadb3df84448U, 0x3c805b09bde65c0fU, 0x3d71f57fbcf468a2U,
  0x3d246e88bc58a122U, 0x3d2f903abdc383d6U, 0xbcc8ae0abd869e64U, 0x3d8931ce3d2affb3U,
  0xbe81a8133d98526aU, 0xbe7b43e33e013d38U, 0x3dcd15af3e10f813U, 0x3d1f44ac3bd470e3U,
  0x3de97efe3d65dacdU, 0xbebaa9d53e504547U, 0xbe237693be095490U, 0x3d0feedf3e4ca257U,
  0xbdbe177fbe96df3fU, 0xbd8c011f3e4d7b12U, 0xbd2bf2fe3e7558acU, 0xbd411d09be819999U,
  0x3d451b32be262e02U, 0xbee7fc54be31cd6dU, 0xbc1042973d2687a3U, 0x3de2793a3e19209dU,
  0xbd1f2c9a3e1f630eU, 0xbe4cfae03daa4e83U, 0xbc18de4b3d9f6168U, 0xbda46e1bbd9d58b4U,
  0x3d8206e4bc59b4dcU, 0xbe1fc55e3cac27f0U, 0xbdfe3400bdd982f5U, 0xbd430e993e414b55U,
  0xbdee92acbd5bda75U, 0xbbdd18073ddaad35U, 0xbe47329a3e0d4ec0U, 0xbdb4f9b3be466355U,
  0x3d524ebdbe7ae6f5U, 0xbe90822b3d844d00U, 0x3d8f08973d8eb97fU, 0x3d4ce4683e124ff6U,
  0xbe655468bc2bdd18U, 0x3c6d47c0bdc586d1U, 0xbe4e66023e7b04a5U, 0xbe02a08fbe0bcac7U,
  0xbe373d883d998ab8U, 0xbe09dec7bda33495U, 0xba366b03bd15daf4U, 0x3c5b9d243ea87e49U,
  0xbe8128943c679b25U, 0xbe6abc05be0a0bc2U, 0xbeec04563dcd522dU, 0xbec254d1be447f01U,
  0x3c63a4d9bde2224fU, 0xbe0430833ba891dcU, 0x3e0780f3bc3370a2U, 0xbda5410c3e77a0c9U,
  0x3d894f98be48e91eU, 0xbbd001db3d2834efU, 0xbc931eabbb358898U, 0xbdcc029c3e78f047U,
  0xbdcf99453e32a62aU, 0xbdd17fe1bd98f56dU, 0x3e03134f3e08f568U, 0xbe16f7d43d41b7fcU,
  0x3d08cbe9be20f891U, 0x3c84cdc9bd464a4aU, 0x3dd73d613e82a2b3U, 0xbc8200083bb698c7U,
  0x3c395a233e15f588U, 0x3d649dc0be05d71dU, 0xbd3fcab23de13963U, 0x3e8bd5283cfeb637U,
  0x3e0a006abd44992fU, 0x3cdcfb92bd49a34fU, 0x3e2e0df43e37bea9U, 0xbdb416d53e85c180U,
  0xbd8d48c23d9423d2U, 0xbda185fb3d9da92eU, 0x3dcd95ae3dbb4325U, 0x3d92b1c5bc090b11U,
  0x3d88c6f2bde7c297U, 0x3d8f7a0b3ce0f525U, 0x3dd0c382bb96a320U, 0xbd3087313d684036U,
  0xbccfee7e3e2cf9a9U, 0x3d909ca43d38c03eU, 0xbdcb6f173e211904U, 0x3e76c2b73c165838U,
  0x3e0410213e856ddaU, 0x3cbf45f1bdecaed9U, 0x3da81ac33e47d8dcU, 0x3d8f807d3ea1a37eU,
  0xbe40fec63e06c485U, 0xbd84020a3e34ed53U, 0x3d98523b3ddc412dU, 0x3e3e3ebebddb61a7U,
  0x3ddb7716be1979a9U, 0x3d8a6ec23dd88f0aU, 0x3e4943a0bcdf6ef3U, 0xbe8a6a66bdc11282U,
  0xbd9fbaaa3d8e1469U, 0x3ded04613aed9591U, 0x3cd591aa3e043c1aU, 0x3e1e0e943decb8f5U,
  0xbe42a708bc86845dU, 0xbe1999a33cdf956cU, 0x3e66880f3e8e9009U, 0xbd8b679ebd0abf6fU,
  0x3dd10244bd6027a7U, 0x3e04f051be04d758U, 0x3e1585e2be7bfa56U, 0xbbb28265bd879fb3U,
  0xbd76a2e6bdfd0392U, 0x3dad75e7bcf315efU, 0x3e33a9a0bcced2f3U, 0x3e151ae83d42c1f0U,
  0x3c81dca7bd508004U, 0xbdb9f8e2be4fd04eU, 0xbd49c7bdbdb77c70U, 0xbdb6ffaebe053e82U,
  0xbe980ee7bdb79f5bU, 0xbdf21b87bc1502d6U, 0x3d807b333d9799d5U, 0x3c403658bd9612a5U,
  0x3d7e318ebd368e2cU, 0x3d415171be107d38U, 0x3c93832dbe0e609bU, 0xbe2d9f91be26c38eU,
  0xbc831a22be180b53U, 0x3d763e333d7e73b6U, 0x3e016d203d9453b0U, 0x3d9292f63d83ac9aU,
  0x3bbe679cbcc7926aU, 0x3beb623dbe72e2f0U, 0x3cd7a0e73be76934U, 0x3cd9b942be8449c0U,
  0xbea7e3d1be6c6135U, 0xbd317e03bd7b252bU, 0xbdb302c63e1a3423U, 0x3dc23a22bd3ec6ccU,
  0x3d0dac46bd3f1805U, 0x3c4fe964be9950c9U, 0xbcb5c91abdecc829U, 0xbe8abee9bd8dc286U,
  0x3b75fbaebebd2f90U, 0x3e25e64b3e58df76U, 0x3e40faf43d38bbe4U, 0x3e0ffa443cc1ef43U,
  0xbd7bda7dbdfd0e66U, 0x3c8e9f80bec06818U, 0x3c121ef0bd524097U, 0x3d018362be65172cU,
};

AI_ALIGNED(32)
const ai_u64 s_combination_input_44_bias_array_u64[16] = {
  0xbf904c48bec74384U, 0x3ec9c571bf44a2a4U, 0x3f0e0b2d3ecaaeaaU, 0x3f8ad0d03e8b4684U,
  0x3ea056f8bf06359fU, 0x3eef7608be9aba48U, 0xbe6e04ee3f0ac2a4U, 0xbe9fcc2c3e878446U,
  0x3ed897f4bd8fc798U, 0xbd1c67403f0da4a6U, 0x3ed90ac03cce3b05U, 0x3e07d734bc83c324U,
  0xbf4fec09be2f8db0U, 0xbebd991d3d11a330U, 0x3ed5700fbd869fdaU, 0x3ebb7f00bf9ee0e1U,
};

AI_ALIGNED(32)
const ai_u64 s_combination_onnxAdd_127_weights_array_u64[1536] = {
  0xbd970800bdbac7b9U, 0x3d8d3fe1bd67cfa6U, 0x3da2ddbb3cb3956fU, 0x3c5977cdbbd20f48U,
  0xbd3eed07bc2976d4U, 0xbc877aa83ce2966dU, 0xbc9b51b43d254399U, 0xbcec1e03bc71988bU,
  0xbda9d8933c4639d5U, 0x3b77c6243dd77a31U, 0x3da2ebbf3cf7e641U, 0x3d8b0abebd9fde41U,
  0xbd9f301e3ca2c166U, 0x3b34f7cb3d52392aU, 0x3adf7d11bdc12fc8U, 0x3d615207bde82dd5U,
  0xbddccfc8bdc83d51U, 0x3b83780dbde1e72cU, 0x3d40e79c3ae670b9U, 0xbd24a461bd051db1U,
  0xbca62865bcccdd8fU, 0xbc495bf53d27658dU, 0xbd1e67cfbd15f280U, 0x3b8da293bb50095fU,
  0xbd18e8edbd63ea2eU, 0xbd2169f13ccf1bb1U, 0x3c7f57ddbb819384U, 0x3d4bca8ebd54dcd2U,
  0xbdbc4e493c8965e3U, 0xbdb52c8f3ca0f0f9U, 0x3cec7c48bdd59999U, 0x3d32d26bbe317423U,
  0xbd4df50dbccc8fa5U, 0xbdfbae33bd615fccU, 0x3d5026ed3c98936fU, 0x3b4369a0bbdcee54U,
  0xbc69a198bcc6fbf3U, 0xbb9092e93d9e8f6dU, 0xbca61276bd948ecfU, 0x3bb8f131bc3b3e32U,
  0xbb002841bcd62149U, 0xbd174de73d855932U, 0x3caab891bdb02b69U, 0x3d2cd4e33d3c70b9U,
  0x3cc5df043b443a1fU, 0xbd54b64c3d182f99U, 0x3d30a4c1be031925U, 0xbc20a224bde09105U,
  0xbcae7908bc8b267eU, 0xbd85a86dbd2d5bfaU, 0xbdde6748be0cb9ebU, 0xbdffcd7b3e05fa09U,
  0x3dd004e43c035686U, 0xbd8759393daecba2U, 0x3d0a2fbabd0b2009U, 0x3d8da7b6bd0bcf32U,
  0x3d9c6a703e60331cU, 0x3dc77826bcc6da90U, 0x3ce21475bc227b51U, 0xbd58a7123d4b5e9fU,
  0xbd2138853db9d6e7U, 0x3d061f733e7a2441U, 0xbd2598cc3d4062eeU, 0xbe54fe32bd1bc0d8U,
  0xbd624e75bd01165aU, 0x3d4c23ecbd80ee1dU, 0xbd565c55bddc5dbdU, 0x3b204d2a3db45e03U,
  0x3db7d5e03d25604dU, 0x3c467504bd0ebb54U, 0x3cb27f8cbcb6241aU, 0x3d733479bcab01f8U,
  0x3ccc51ff3d40f765U, 0x3dfab038bb5bd7b0U, 0x3b61850fbc900bafU, 0xbc068b9e3d867da8U,
  0xbda5083c3e15a283U, 0x3b8ce1973d9d44a1U, 0xbd2bfdce3ceaaf8dU, 0xbe513e383d5ee623U,
  0x3c252618bd74a007U, 0x3e0f419f3a53d977U, 0xbd277246be429d37U, 0xbd43b4563de40494U,
  0x3e38228f3d326c77U, 0x3cd77df8bda531f0U, 0xbca427bdbd7a309fU, 0x3d97de803d29a3faU,
  0x3c588f343e1835feU, 0x3e3b979ebc383d1aU, 0x3d1421f03da5a123U, 0x3d56a41b3bb6cd73U,
  0xbdb805763e21fc1bU, 0xbdb45e003e06cc36U, 0xbbba543d3dcf49b6U, 0xbe6ffe3a3cdaa598U,
  0x3ad2e591bde93c60U, 0x3d13b376bd619b98U, 0xbd40b377bcd5bd47U, 0x3d1075263c1ed7a3U,
  0xbbd4e09e3c90d18fU, 0xbd130abdbda3678fU, 0x3d30ec333d3d9a7bU, 0x3d51c656bd81f1edU,
  0xbd21c9fcbcbbd8f1U, 0xbca8b0a33d07a34bU, 0xbb63afc2bd494effU, 0xbd01529fbd7b5636U,
  0x3c967b1bbca7f56aU, 0xbd083a263cee0c24U, 0x3baaf3e2bd97fd69U, 0x3c6fb2f3bd2c2922U,
  0xbc132f64bdde1c31U, 0x3cf101cdbd9cf6adU, 0xbda16d55bc124f03U, 0x3caa4909bc6017bfU,
  0xbcc35f703c8352d1U, 0xbca3d0ecbce969a2U, 0x3d59a6163d30f44fU, 0x3d763764bbc57a27U,
  0xbc1b24dbbd96e46bU, 0xbd8f08ff3abd72c1U, 0xbc9ca33ebcb179f8U, 0xbdaf21cdbcd2a192U,
  0xbc44b37abbc6530fU, 0xbc510327bd0a3aaeU, 0xbc1f9389bd1e72f4U, 0x3ca07153bcb190ceU,
  0x3c4b7264bd35ef6fU, 0xbc1acdbbbc8ed8adU, 0xbd17d096bce03e5fU, 0x3cf903c4bd23aebbU,
  0x3ce0ec843c40944dU, 0x3c92c29ebbf273b0U, 0x3d95d5a03c57bfd1U, 0x3d7be605bd9ae2fcU,
  0x3d43e1f9bd85eab6U, 0xbdc1bb9bbd0c6472U, 0xbc80503abd88df22U, 0xbdbfa05abd98f9bbU,
  0xbd5b9b92bc9179d4U, 0xbce3d399bca20963U, 0xbc750ff9bd1176faU, 0x3c6e5cb4bd316cd5U,
  0x3d3905543b8a1a5fU, 0x3d74d72cbdd41555U, 0x3d3f82bcbbb67583U, 0x3ba73d56bd371888U,
  0xbd3f72903c1f8be3U, 0x3cfca952bdff9640U, 0x3da674913e0664c9U, 0xbcabc6ba3cf0e13bU,
  0xbd5459e7be06f522U, 0xbb2e8c573cda9035U, 0xbc0059b53db8ad47U, 0x3db493913d6f9a8bU,
  0xbda9a0e13dcb9df2U, 0x3cfc9ec2bdefd5bbU, 0x3cb2aaf13d83aa53U, 0xbd9b022e3d37c340U,
  0xba3e240dbb8d6788U, 0x3ce76bacbb982624U, 0x3d1421fdbc473cecU, 0x3d157fc0bd8d9facU,
  0xbd4d25abbc5cfa4aU, 0xbd4ba74ebd2b536bU, 0x3d815acc3e1fd052U, 0xbc66687abccf29f1U,
  0xbde6c8e1bd9c42c4U, 0xbcea23a5bd8fc4b6U, 0xbc05a3813dae2461U, 0x3d5e36c83c9051b8U,
  0x3cffdc383d3093a8U, 0x3d416130bd1ecd61U, 0x3d98b2863d34e442U, 0xbc9964223bb00c83U,
  0xbb0e66203d7f13e0U, 0xbdcdfeaf3db5f691U, 0xb98b8885bc8f320dU, 0x3c8025dabe05921dU,
  0xbe03b3253d64c34cU, 0xbd8cf21a3b2756abU, 0x3d171be03d9d2b06U, 0x3be36fc93b8d99a5U,
  0xbe7d679ebd0015b2U, 0xbe219847bbe5e024U, 0xbd6c6a363d9b76a2U, 0x3d3a82913da9be9dU,
  0x3da491ac3d1c3517U, 0x3d463e80bc248199U, 0x3d20a3b0bd8b17b2U, 0xbcb52042bb4d45deU,
  0xbcef3652bca2cba9U, 0x3cabfe463c8615afU, 0x3cbff42f3d5fdd60U, 0x3d3d01053d9ce2cbU,
  0x3d82dfe7ba38d6a6U, 0x3da28f94bc1aaefeU, 0xbc8d7c703da2f1adU, 0xbdd92d7c3d6b93a7U,
  0xbcde93533d9528ccU, 0x3c6f577bbdaa6cffU, 0x3e0f9ecc3dcd8580U, 0xbb811fc1bded1a40U,
  0xbd854de33cac07a2U, 0xbda8b8853c00b751U, 0x3d0c83333c05f020U, 0x3d6015fdbd897c31U,
  0xbd78de22bd331ab1U, 0x3b55fb303d5e7121U, 0x3c2f88b43d8ba0abU, 0x3d0251b33d9b2975U,
  0x3d9c1f81bd40c826U, 0x3d397001bc79bc97U, 0xbd55e0de3d9a352cU, 0xbd90ef123d647fbbU,
  0xbcb8acaabc0fe992U, 0x3c953fbbbda2b5c6U, 0x3ddf12473ddd2aebU, 0xbc9fb0c5bd4bdf12U,
  0xbd131a943d04df9cU, 0xbde20377bd1855e5U, 0x3d0d87393cd61b07U, 0x3c70783fbd8a36adU,
  0xbd83b33bbc601254U, 0x3acb97d13dc5b9ddU, 0x3c5cf9053d295784U, 0xbd36933f3dc0a3bdU,
  0x3d25077fbdc3b9f2U, 0x3dc6b0febcfda9a6U, 0x3d905cdf3d97feecU, 0xbdc839b53d842beeU,
  0x3ba5840f3d633b30U, 0x3ac43c2cbde17d99U, 0x3dc5a0a73dbd5912U, 0xbdbf9e1abcb84644U,
  0x3c8bef6f3ba89532U, 0xbdf1b0f7bd5bcc99U, 0x3d1313c13d65c8c1U, 0x3d10c756bd9f9743U,
  0xbdcd6a98bd4f9116U, 0x3d1950a3bd2f5d4fU, 0xbd4b66233c07293cU, 0xbd18f02fbd1b3ccbU,
  0xbd59d8febd1c3a93U, 0xbdfc118f3cc54e26U, 0x3cda0df33c880ab5U, 0x399fcea5bd3574f9U,
  0x3d4cc7e63da10490U, 0xbd2a5456bd346925U, 0xbc3b632c3d47d238U, 0xbd45e2f1bdb4d466U,
  0xbd2be8d7bcaca60fU, 0xbc07a3953c17f937U, 0xbd9d168d3cd34945U, 0x3d5a8e03be0b59b4U,
  0xbd659144bd370aaaU, 0x3d16f7b8bd2c8978U, 0xbd0be7b13c9fd615U, 0x3d07a33abd2f636aU,
  0xbd8af6523bb96718U, 0xbd02ff28bc261b67U, 0xbd4b8bf8bbe4557fU, 0x3cbe69313d07f4ebU,
  0xbc2491223d1eb16dU, 0xbd06c495bbf485e4U, 0xbd69a2813bd15308U, 0xbb977df7bd9cd1e2U,
  0xbd3120473c77de4aU, 0x3ce35ff33bc60e21U, 0xbdcb2de0bbad5420U, 0x3d410026bd9deab7U,
  0xbd8ff405bc17c7c5U, 0x3caa4ca8bc08e3e1U, 0xbd1e4ed83ba33f19U, 0x3c6f6a48bd1e59cdU,
  0xbd9856ea3caed0e7U, 0xbd5e4c9f3d0194b4U, 0xbcee43b43d2b633eU, 0x3d1114c53d54ec14U,
  0xbc17f7143cce87beU, 0xbd49e93fbd6f23b5U, 0xb84ca341bc9c0f02U, 0x3d382341bd30e4faU,
  0x3cbb3ac8bc93663bU, 0xbd657158bbb7a2b7U, 0xbd359f4abc70248aU, 0x3d5456b4bc922341U,
  0xbe0182a7bda8d1a3U, 0xbc6e1d3b3d2ec224U, 0x3cb56950bd1bb2b6U, 0x3bcab0973d3d2addU,
  0x3c138607bd69f69aU, 0xbd5171d43ce32aacU, 0x3d2ecda0bccb1954U, 0xbd1dc38a3be37d7aU,
  0xbd1163783d638730U, 0x3d35d5c73d5a1407U, 0x3cb283a6bd1ae0e8U, 0xbd0cd59cbdb870e2U,
  0xbc3de9323d6e2d53U, 0xbdc389c43d1e3b3cU, 0xbd8d2fad3d167751U, 0xb9dd0d8abd58b429U,
  0xbe3cce44bd8a374fU, 0xba85f753bcca755cU, 0xbd1286e6bd652c7fU, 0x3bbc86153c4e8a7bU,
  0xbd93ffadbc366de0U, 0x3c88b4db3d58bd6eU, 0x3c4fbf2abde31374U, 0xbd0825f93c4e777fU,
  0xbd4d5d48bc0b32d6U, 0xbd65a279bcaf8dd6U, 0xbdaae5c4bc107a4eU, 0xbd0ac514bd0edb7eU,
  0xbcb9f49cbd142413U, 0xbc516215bbcf1c9aU, 0xbc0ce7613d56fbf9U, 0xbd1e5300bc3835deU,
  0xbe742aed3baf281eU, 0xbca26e20bd0eae68U, 0xbd5fdc6ebcb8c797U, 0xbc102897bce6bbcdU,
  0xbd2a2136bd44d753U, 0x3da18d683d197f79U, 0xbc01756fbddf20beU, 0xb9261ca2bd6b612dU,
  0xbd9a6d19bcc55834U, 0xbd7cc184bc7bb99aU, 0xbdee51ff3c1ecb84U, 0xbd88223dbc87966aU,
  0xbc1150573c6397eeU, 0x3cc3c9843c8d5d8bU, 0xbca083903d0d7b2bU, 0xbd8223febd4100acU,
  0x3c31140b398e86d8U, 0x3d92dfb93c9a5605U, 0xbd8173b2bde70849U, 0x3cb59e13bd0b61b6U,
  0xbd63c2adbd4b0144U, 0x3d18dcb7bd1c9a89U, 0x3cd9ec3bbcc6a532U, 0xbc0c1eb6bbf83160U,
  0xbd39fcd3bca6ac7aU, 0xbb04e486bdc01a36U, 0x3caf918d39faeed9U, 0xbdc44d94bcc5982eU,
  0xbcf241323c351cf6U, 0xbc057ab1bd1a90d1U, 0xbdc3cd913d9ed02fU, 0xbdc767b5bc3e06ffU,
  0xbcae6ce43c711443U, 0x3d305f7abbb3778fU, 0xbd5afe3dbda0030cU, 0xbbfac4d0bd61253dU,
  0xbd8f1dab3bdbf552U, 0xbcc87e1c3c0bd359U, 0x3d1edbcabba2a65fU, 0xbccc37dc3b0ae675U,
  0xbc254072bd2df27fU, 0xbd7f7440bd68edcdU, 0x3ce4299fbc6bdf40U, 0xbd7eb46dbce143ecU,
  0xbd38395f3bebaa56U, 0x3cc87b95bdce5076U, 0xbd10ce4d3d898771U, 0xbd9e2eddbd1b64deU,
  0xbcd959243b987c3aU, 0x3d3d5a1ebd52501eU, 0xbd109b0ebda6ce9cU, 0xbc9d7224bd381c12U,
  0xbd868677bc824231U, 0xbc9f3649bd25076aU, 0x3d0f4ccc3c55c3d4U, 0x3c86e791bcd3d759U,
  0xbbeb533bbd9bf728U, 0xbd15891bbc989699U, 0x3c64f0013ab7a963U, 0xbd1f4ba2bbc954d1U,
  0xbcd82e6e3d18d3b1U, 0x3d244dabbd4fc4abU, 0xbda18d54bb03aa45U, 0xbd15006abd67db8bU,
  0xbdda7842bdd8fdecU, 0x3ce20665be052662U, 0xbda593edbdbb9ef3U, 0x3cfa57d23c9a249fU,
  0x3dc2b88f3d69213dU, 0x3a9adcd83d564df0U, 0x3cbcd779bc2d9469U, 0x3d60a6a23d925117U,
  0x3dd17408bdabf0f6U, 0x3dc2ee96bdad5865U, 0x3c9d4b2fbd131f7cU, 0x3d43e604bc50881dU,
  0xbd2787abbd21b25fU, 0xbd0f18cc3d86c3bdU, 0x3d8a0b1cbd3f175eU, 0x3cd1c09cbc97bafeU,
  0xbdfa7b26bdba1adeU, 0xbb18230bbd76897bU, 0xbd763b9dbe05be05U, 0x3c9e7a503bcfe11fU,
  0x3d3a491e3b16d94dU, 0x3cad12423d82b46aU, 0x3d11c3d13b18891aU, 0x3dbccff13cd0402dU,
  0x3da392c5bd29dea5U, 0x3d79c9eebdcaa7c7U, 0xbc8ed25bbd4fea95U, 0x3d43f955bc8e3dd4U,
  0x3b14ae5bbcf1d83aU, 0xbd8905633c036ab9U, 0x3d5d0bfabc676de0U, 0x3d1178ccbc5f0ef4U,
  0xbde26997bd4b731dU, 0x3cbf03703c349b04U, 0xbbc06dbebd5d3657U, 0x3d34cd6b3d72dd08U,
  0x3d9bda35bcd65dc4U, 0x3db0fc193db598a0U, 0xbb9aa980ba81cfc8U, 0x3da3613c3cf4a3e5U,
  0x3e27b794bcefca52U, 0x3df9f92cbd4b99fbU, 0xbb0d722ebdb44df0U, 0x3d23d6823b66ed69U,
  0x3cdb9863bcdf4829U, 0xbd95dc8d3d05a1a3U, 0x3da14457bd7bb65fU, 0x3ba76fe13c827a2dU,
  0x3bd995dbbd25c8c9U, 0x3d6b6af83cd02a9cU, 0x3dc1847abd2ae4f4U, 0x3d8f6a8f3cc3c1bdU,
  0x3e08be073c778115U, 0xbc3487753b45e5c8U, 0xbc3fd9fcbdceac90U, 0x3db03c2dbcb36771U,
  0xbd0e6c153deed415U, 0x3b8d2460bcda22a6U, 0x3d28f961bc244a8cU, 0x3bc82b0ebd08a571U,
  0xbc43c3e93ccb3186U, 0xbdba58233c3991eeU, 0xbe4c0f6e3d796c06U, 0xbb8c60a23a117d35U,
  0xbc1bad91bde6589fU, 0x3cd09c0fbc9a9715U, 0x3d32f1e1bd5e1cffU, 0x3d720c34bc99a05cU,
  0x3d721684bdb252fcU, 0x3cc1fbeabd0e30bbU, 0xbd5bd802bd3bc31cU, 0x3d1469b6bd06dd62U,
  0xbd4329b03c2b5009U, 0x3c10bf92bcc909b6U, 0xb9a6787dbcef86e0U, 0x3c84ab60bd158695U,
  0xbc95538bbce4e785U, 0xbdc8fcd33c51e72bU, 0xbdb2185fbc8bb608U, 0xbd6fa1fdbcc4bd82U,
  0xbc407f44bddf17deU, 0x3d80e68bbd4559feU, 0x3db12ba8bca3a97dU, 0x3ddbee4f3ace44d8U,
  0x3de86f11bdf376caU, 0x3d976d7ebdc3f70eU, 0x3cb28b2ebd35e97cU, 0x3da497e9bdbb4718U,
  0x3d7376543d173c46U, 0x3d3a7c03bc3dcaf5U, 0xbcdb1741bd0b00e7U, 0xbd1f5bdcbd79f869U,
  0xbd274073bd4f7bc9U, 0xbc75450a3d4a769aU, 0xbd9d5155bcb76e2eU, 0xbd827557bd385cbbU,
  0xbda346f4bd974ca2U, 0x3d8c5333bddbb5afU, 0x3c54ba643d2cc72aU, 0xbe1edff73db509e7U,
  0xbc88a4e03ddf6a88U, 0xbc665544bdc6a2fbU, 0xbd93978a3d08be36U, 0x3e101393be04f543U,
  0xbd88a826bab80178U, 0x3db510fa3e38a38cU, 0x3cec5639bd07ab20U, 0x3d0c02d13d5cb620U,
  0x3d00a5073e7924d3U, 0x3db95b503d4e50a2U, 0x3b8452fbbe1f93d6U, 0x3c80dfdf3d53552bU,
  0xbd0b9eacbd0783c6U, 0xbd081482bbeff290U, 0x3da9ba993deeff53U, 0xbe19a8773db736d6U,
  0x3d34b5fbbc79c097U, 0xbd053f843bd7b1e7U, 0xbcdcf1fa3da0c250U, 0x3d91afa2bdedb314U,
  0xbbd099eb3d76b691U, 0x3cdae4283e061e5cU, 0x3d874b94bcda9950U, 0xbda59baf3c442ae6U,
  0x3d23ceac3e42a7e2U, 0x3cfde44b3e3bf13bU, 0xbde63a7cbdc4a637U, 0x3d0157b43c26a668U,
  0x3c5f5174bad56c13U, 0xbd934cf7bb820339U, 0x3e1bb6313e1e1c5cU, 0xbe2f60ab3de79528U,
  0xbcf114f3bd08bf38U, 0xbba1c3943dabd09eU, 0x3d8c495dba45e003U, 0x3d056ab2bd82e2a3U,
  0xbd4da7543bb5918dU, 0xbd9053103e041562U, 0x3d7aed96bc46c5bbU, 0xbddfe0d63d31f6dbU,
  0x3d35e5f43e3cfee0U, 0xbd5eae6d3dc5f566U, 0xbde5927dbd0b9803U, 0x3cf6d6a93cf5beacU,
  0xbcb68939bcdedaadU, 0x3be61b7abd5f9f55U, 0x3d1040f93c2b0f9bU, 0xbd9adf22bd83b1c0U,
  0xbc1ddcae3bf9e6e5U, 0xbc32527bbd8d35b9U, 0x3d5f830cbafed0b3U, 0x3d1ec1ec3c887f2cU,
  0xbd6ce248bd03d29cU, 0xba3a0d2f3cb80b65U, 0x3cfeb61f3cf3707eU, 0xbbf4be51bd2d5780U,
  0xbde01cf9bcc6d89cU, 0xbbe8e031bd9d80c0U, 0xbcb589603bf5a1d8U, 0x3b9fa4d9bc8c5fbcU,
  0xbc7d56eabd8b17f4U, 0x3cccccbdbd0e3e31U, 0x3a71433a3c5e48e0U, 0xbceb2475bd741bebU,
  0xbccc27c4bd0d0a24U, 0xbd68bc5dbca3b0a4U, 0x3d5f05bfbcc1a9e9U, 0x3d95aa71bc6e76faU,
  0xbcb8c8b7bc43c53eU, 0xbd1994043d51462cU, 0x3c6911a33d781719U, 0xbc31d542bd2ac923U,
  0xbda92f2bbbe44ba4U, 0xb943886bbd23295bU, 0xbc039af1bcd19d0eU, 0x3c42aec8bd2d17cbU,
  0xbb93ac10bcd994fcU, 0xbd6ec28ebd7c7fd7U, 0xbc56bb583c36d937U, 0xbd4ff44dbd66ebe4U,
  0xbd46d7ab3b0b8c74U, 0xbdf1c8a1bd46ec3bU, 0x3d88e9103ba12fc9U, 0x3d5bdd65bd3a8956U,
  0xbcb112e5bce863c0U, 0xbd3758673d8c55cbU, 0x3b78aa4a3dde6febU, 0x3d0abfa7bd4abb0cU,
  0xbdc259a6bd1d9e81U, 0xbc930d06bc86e8e1U, 0xbc37e9c5bdd15bc6U, 0xbc320708bcc78953U,
  0x3d3367903badb331U, 0x3da5e9083bfebacbU, 0x3e07f54f3dbd194fU, 0xbc525d653e065e55U,
  0x3d9435ccbd78f513U, 0x3ce4e3f43de2b276U, 0x3d54330abc360a65U, 0xbd9847d33d93fcc1U,
  0x3dc03c203dab5724U, 0x3d9e2ecc3d872da7U, 0x3e2cba35bdc8b8f7U, 0xbd4cb422bd4aa814U,
  0x3d7ed3433d3411bcU, 0xbaffaa873d1f309cU, 0xbdd01a93bc87791dU, 0xbc575ce2bcd7c52aU,
  0x3d5ae739bce02853U, 0x3c023d66bd4af545U, 0x3d6284003d86ea9eU, 0x37a383503da90a6aU,
  0x3d58739ebcf9bf37U, 0x3d25c4213d933abaU, 0x3c7080c53d01f7e5U, 0xbd92821c3d6778bfU,
  0x3d2bffb83c023426U, 0x3db8d9c13d3eee35U, 0x3e2c7872bdca46f8U, 0xbcf8e8833d05cc5fU,
  0x3d9fc7483dc154b4U, 0xbc9ea1b33d3d5ddcU, 0xbd895704bde754ffU, 0xbd4fbef63a601a62U,
  0x3cd0b4e43cae3ffeU, 0xbb201ee8bdd75a1cU, 0x3c2dbdcd3d4dac6aU, 0xbd0e23d33e42caf5U,
  0x3e0dd975bcc831c1U, 0x3d48a5c93d9a362aU, 0xbccfc5f43d5f1305U, 0xbdf26d713c7c5457U,
  0x3dfb0bfe3d2e72f0U, 0x3dbcb0aabbae34f2U, 0x3e2db1afbd987bfbU, 0xbda932983d7583c7U,
  0xbbb57ccf3dc16168U, 0xbc982bb23dc4f826U, 0xbdc63940be1c7de4U, 0xbdba79f13c8e861fU,
  0xbd894815bc754f32U, 0x3d39b54cbc5a604fU, 0x3d123e63bd61a065U, 0xbc32c2c63d18d7daU,
  0x3cacec5fbc9e4d95U, 0xba5b0ac93dd70673U, 0xbcfc0e34bc00a78cU, 0xbd88f04d3d40543cU,
  0x3c6620bc3d30749cU, 0x3cfa57003d0de1d7U, 0x3cb72f2dbd04e018U, 0xbd05e57bbcbf11d7U,
  0xbd0d5d7f3c8302ecU, 0xbda9770c3d07689eU, 0x3cdc20acbd8bbb7aU, 0xbc5d8925bd843083U,
  0xbdc205f33ba4c9e6U, 0x3cd3550dba391b9dU, 0x3bb4edf4bd190e85U, 0x3a683ca2bba791f2U,
  0xbca7e2193c56db76U, 0xbc4b024e3dbc8215U, 0xbbbf680ebd17ba4dU, 0xbd9cc7aa3ca9a767U,
  0x3b8c297a3c603e87U, 0xbaadaa793d335a2cU, 0xbcc151afbd596bf1U, 0xbcd3d2ddbd2940c6U,
  0xbcbfdd173bb8f98eU, 0xbd97f2923c7d9c90U, 0x3ad4b554bd220bd9U, 0xbd09f4cbbd942c93U,
  0xbd8033d7bd31676fU, 0x3d427ed33d6846a9U, 0xbc55f2fabce5b416U, 0x3d113d8fbc2f6cfbU,
  0x3c1bd3703c5c2bdeU, 0xbc9f7f003d615397U, 0xbd16ed84bc1b9b1bU, 0xbd95151a3d22881bU,
  0x3c827baa3c634c9dU, 0x3c50604c3d4d0cecU, 0xbd132a6cbc6894f8U, 0xbc88fd4ebd8b36e7U,
  0x3cbb3806bc43203cU, 0xbdc252283ca25be3U, 0xbcfea029bcfbb860U, 0xbd46eb70bd676de1U,
  0xbdaa078fbc8a0e93U, 0xbce4b14bbc04a6edU, 0xbd25ec333c2d31d1U, 0xbcb9424a3c9dc381U,
  0x3d3b7df8bd65c025U, 0x3bb6a58cbcc0bfd3U, 0xbadae3933d356208U, 0x3cd95ed4bd6290dcU,
  0x3db1c2e4bd5dfa64U, 0x3d74b0b0bc290c9fU, 0xbcd5b9223c8a1765U, 0xbd812c6bbd84a00cU,
  0xbd1d43a13d465ff1U, 0xbc2fa8673d1b97c0U, 0x3ccfd1a63c9dcbb6U, 0xbb98f42abb5da484U,
  0xbd5f5730bc37d4b3U, 0xbc2600d4bc81e18fU, 0xbc439fb93c8dc499U, 0xbcecc3be3d1c60b4U,
  0x3d253670bd7b278aU, 0x3b4e65d0bd0bb6caU, 0xbc171b963cfe4115U, 0x3cdbf846bd598385U,
  0x3d47a79ebbcc9b9fU, 0x3d950b46bbaadae5U, 0x3b2194ff3c3ab4dcU, 0xbd460cb8bd6ce361U,
  0xbc7b71043d314aa9U, 0xbce7a4703d4c2e02U, 0xbc8e7c4c3ccfa2b2U, 0x3c96ad3ebcaa87bfU,
  0xbd607c04bd9deae2U, 0xbc85ccc5bcef2287U, 0xbd019a2b3c6efd61U, 0xbcc8d3463d02a50dU,
  0x3d00f09bbd81a340U, 0x3cfc7550bd2892e8U, 0xbb4abbbe3d475eb8U, 0x3cb65a4fbd2f1f16U,
  0x3d51443dbcf6d3b7U, 0x3cddd34abc7fcc2eU, 0xbc3f8d1c3b3ce273U, 0xbd49e950bc73c340U,
  0x3b453498b8dbee3cU, 0xbd2cead43d0605e9U, 0x3cb8352f3cf5a06aU, 0x3b8f30dabc84cc01U,
  0x3c7381883d1ebdf7U, 0xbc50f0f43c0b9b40U, 0xbbbdbc5ebcc8331eU, 0xbd49a13d3c0bcaa3U,
  0x3cc7a7bd3d068e0eU, 0xbd62b2633d8612c6U, 0xbcc01e363cb193c1U, 0x3d3f59b6bd3cc95bU,
  0x3d8737273c7d0fcbU, 0x3d3009d2bbc8064cU, 0x3cc952dfbd75b76aU, 0xbcbcf4233cdd7908U,
  0xbc7ff3bd3ba2d1bcU, 0x3cbaf4083dac15c2U, 0xbb9012f4bd1cba35U, 0xbcb6fe2cbc59962bU,
  0x3cd08f4d3c96d335U, 0xbce175613bc6ca03U, 0xbc8f47c7bc4c0ea6U, 0xbbab713a3cccf2edU,
  0x3c00747a3d076995U, 0xbb04ec8a3d87bf9cU, 0xbcae74e9bd3011e5U, 0x3c34a205bc9770ddU,
  0x3d3b77b73cbb70d8U, 0xbc00b2713c74b65cU, 0xbcc04715bd6e69ddU, 0xba9559623c7d8b26U,
  0x3beb574e3b1db67aU, 0x3cb88aa83d049fefU, 0x36963d59b8e3290aU, 0xbcf82e933c886b75U,
  0x3c7865183d38558bU, 0x3ce994073d1ec58eU, 0xbbec01d23ca562f7U, 0x3cc686533c572907U,
  0x3c2eb8a63d1abda8U, 0x3bcf14bb3c379c28U, 0xbc9ecd63bd217d94U, 0x3d0583363bce46ddU,
  0x3c10a6253bbdc9a4U, 0xbd1347903cba6eeaU, 0xbd1b46283ba82f8dU, 0x3b7026ab3d0c6db0U,
  0x3ccdc1c93bd2d2cdU, 0x3cd0e4463b20edc8U, 0x3c0147ce3bd24150U, 0xbd7fbceb3c9a2fd8U,
  0xbde06b2c3ca4a023U, 0xbde86b813c99a212U, 0x3c7084da3d0636abU, 0xbdfdc0cd3d0a16ebU,
  0xbd6fe859bd105eacU, 0xbd1cc2923b6f527eU, 0x3db42c09bc9923e2U, 0x3d2d21cc3d3c5823U,
  0xbcf18b2f3cee6fe3U, 0x3cc116b03c8fefa8U, 0xbae4b02bbc3c79f6U, 0xbe0a7c0bbcfda0ffU,
  0x3c8a3b9abcb3e59fU, 0x3c1498fabd3a7bafU, 0xbdd1f4b73d13b088U, 0xbd0fb713be08a48eU,
  0xbd74dce63c9bfe83U, 0xbd05e5623d40ee5dU, 0x3b85069c3cf747a3U, 0xbd690637b9a8dd96U,
  0xbcc14ee6bc066bd8U, 0xbccbe476bc84cc7aU, 0x3cf0d2963c749f60U, 0x3cb34111bd70f70cU,
  0xbd6511343cb83cd6U, 0x3c8b47f2bc79c191U, 0xbb09de11bc84dc8bU, 0xbddab8eb3d81b6ddU,
  0x3d122458bd8d4a64U, 0x3db2a2bebd205df1U, 0xbd7924733d95d46cU, 0xbcc9fc27bdbe19e7U,
  0xbcc2b60c3c1cbec1U, 0xbc89a6bf3d77072fU, 0xbcb6cfbd3d9ca65dU, 0xbc5480c0bbc2d8b9U,
  0xbacd8b6fbcdcda3cU, 0xba2083843d04c860U, 0x3c0eec0b3cf27dc5U, 0x3d9a22e8bdc27139U,
  0xbb76147d3d367d82U, 0x3bd9fe75bd52bfffU, 0xbcc8c3893d78cb05U, 0xbd5e1ac83e02b5e7U,
  0x3d3e515ebd94f886U, 0x3d956859bd4e9095U, 0x3c090a783dd988f9U, 0xbd804d8dbcd2479bU,
  0xbd731950bdb44a48U, 0xbdca677d3d577dfdU, 0x3dac1df73bb2049eU, 0xbd0a1a0d3cfd31f5U,
  0xbd23ac0abd991e4bU, 0x3c8ca3833cfb1eb8U, 0xbdd984603ca9b617U, 0xbcc30066bdac2d73U,
  0x3d920d72bd33ffc7U, 0x3d16bce63b89d69aU, 0xbc6d19febd450d0aU, 0xbd40b24abdddf0a4U,
  0x3da6fd553c86a5c5U, 0xbd845adebd57dd63U, 0xbc1f83463b9f7090U, 0xbc8c99a3bdc97a0dU,
  0xbd329feabc6c35f9U, 0xbd41ac333d68299fU, 0x3dc5c4593d652d51U, 0xbc775957bbe36866U,
  0xbcfc9f41bc92fd8eU, 0x3d4d0ccc3cb07787U, 0xbcd3bde93c4e9f06U, 0x3ce3757ebd75bb41U,
  0x3c80e741bd938fcfU, 0xbc0e02543d39fff4U, 0xba94adf3bdfa6e7dU, 0xbd7850b9bc758688U,
  0x3da163e73cef658fU, 0xbcc55d6abdcc4bfcU, 0x3c308cc5bc97515cU, 0x3cef3949bb321844U,
  0xbac94889bd0dbbd9U, 0xbda0167d3ce18c78U, 0x3de2685d3d80d86dU, 0x3cd8e82c3d370a85U,
  0xbd3921d73d223d63U, 0x3db6b8bd3dc21710U, 0xbd2469b9bcf1991fU, 0xbbea2673bd962094U,
  0x3c81af5abd5c3710U, 0x3aeedf373d61f9fcU, 0xbc4c30cfbe1554f9U, 0xbd6e18fc3c021e48U,
  0x3d0f77763cf77e5cU, 0xbd41e711bdc5bd8fU, 0x3bd5a49a3ce1bbeeU, 0x3cd6f1863a979c1dU,
  0xbdaa93f5bdfb000fU, 0x3c38dd99bce6d633U, 0xbd0d72073dabb738U, 0xbd18d0d43b20e8b0U,
  0xbcb1c993bd763bcdU, 0xbdccb6453c580af1U, 0x3ccf646b3dbb8e6bU, 0xbc60bf05bc9f4dd6U,
  0xbe14dee23d5851c8U, 0xbce3935fbc851ecfU, 0x3dc536383db4121eU, 0x3d3e3b893dc26c6eU,
  0x3dac7ed8bc2d68b6U, 0xbda64d7abcb2d6f3U, 0x3c7033a5bc5e7d97U, 0x3d682165be26c128U,
  0xbcbfe447be1e99baU, 0x3c7c0a9dbdbe98c8U, 0xbd6320903d0a2ad9U, 0xbcc934f8bc6fddc0U,
  0xbd37320dbcbd1649U, 0xbda80059bba5c7a2U, 0x3d8388683da4b5aaU, 0xbd50f705bc6e991fU,
  0xbd51d3a13d27a689U, 0xbd1908ff3ce06de3U, 0x3d83c2293d3d399cU, 0x3d26d3683d79e21fU,
  0x3965bc673cbfdcacU, 0xbcdccf8dbd1c42ceU, 0xbc9c94f53ba23785U, 0x3cc38d05bdfbea02U,
  0xbcdfc450be07eba5U, 0xbcb86ad5bd17e40bU, 0xbd07f84b3d4cab12U, 0xbd73f45fbd5804abU,
  0xbd88773dbbd9123aU, 0xbdec7b9a3cdfeaa6U, 0xbd0812e93d815703U, 0xbd86c63a3d2f1b76U,
  0xbd61887a3c765d85U, 0xbd0334593d83f8acU, 0x3dc33ea63d00678eU, 0x3d9d31103dd29112U,
  0x3d39a6163d8675d7U, 0xbd97a8b0bc93fb09U, 0xbdbe697cbca56cbaU, 0x3d5ae562be11deb4U,
  0xbd474560bda37e8eU, 0xbd2affb83c370cd6U, 0x3caed9a1bab81506U, 0x3d2d73f33cf235b4U,
  0x3cc8fa44bd4e9686U, 0xbb42c6f8bb4c1d5fU, 0xbd7cd335bd0c535fU, 0x3d362dedbdacce4cU,
  0x3c81e9223cbb9979U, 0xbb15c593bc269a30U, 0xbccfe0783cba04e2U, 0x3c304c22bde6c379U,
  0xbda4650f3aa275deU, 0xbd9c0ca8bc4e6ba6U, 0x3b309e7a3d8767c1U, 0xbd311247bd56f959U,
  0xbd47c8edbdc499b3U, 0xbc6ffde83c9114a3U, 0x3c86d929bbc66c42U, 0x3d1d1d5fbbabda91U,
  0x3cab3a22bd872d9bU, 0xbc3c3fedbcd886cfU, 0xbd21a1a43a5def26U, 0x3c6ee3debd8191ffU,
  0xbd391f8cbae8aaabU, 0xbc9778abbbe75a57U, 0xbcdf0abc3a98a8ceU, 0x3d259301bdacab8dU,
  0xbd6b8fd7bd4449aeU, 0xbddf377abc7eaef9U, 0x3d06fb313d076510U, 0xbcf74efebd58a216U,
  0xbd35498dbdba27cdU, 0x3c11596abc1ec79dU, 0x3d30ddf63cd402f7U, 0x3d4a7fa6bbc7980dU,
  0xbbe84308bcf0c4adU, 0x3cf22bb8bcb175c8U, 0x3b0d57cdbc8c4742U, 0x3d08c58bbd4a4e93U,
  0xbca2ff6f3c7a67f6U, 0xbc2ff554bc98fa25U, 0xbd5b96b93b12b39dU, 0x3d9a4395bc8fadacU,
  0xbd1054d5bb96961dU, 0xbd7f3a493c24c791U, 0x3db4f4213c990599U, 0xbd0bcd0cbd5eaf0dU,
  0x3ca4c2ecbd5c9d85U, 0xbd5555693d305661U, 0x3a81542939c46376U, 0xbd60e4663d0b9e2dU,
  0x3d6503f2bd85d23dU, 0xbbbe53a7bd85950cU, 0x3ce6a2aa3c488472U, 0x3d2ae648bc232e19U,
  0x3c8fd247bd00cb03U, 0x3cd0ac9ebcac84cdU, 0x3c2dcac13d50a7b3U, 0xbca3ffacbd74e609U,
  0xbd74f0ff3d48e0aaU, 0xbad671db3ab67070U, 0xbd578d293b9c1edbU, 0x3d7c4d12bc157679U,
  0xbcfe9cea38bfe14bU, 0xbd21684f3c0f2eb7U, 0xbc9b7b283c00f75aU, 0xbd7ce5163d3edfafU,
  0x3d2f9ce8bd75f4e3U, 0xbd7241dcbd98f157U, 0x3ca88f413c90066dU, 0x3d4a5ebebcfdecd7U,
  0x3becc854bcd19862U, 0x3ca503663aea992fU, 0x3cdbe7ef3d505c9fU, 0xbbd40a80bd662c6bU,
  0xbd23dac03d893e41U, 0xbc26951c3ca68bc5U, 0xbd485aa4bc03c52eU, 0x3ce8f8ca3a73355aU,
  0xbd1fa66d3d2a20bdU, 0xbd233a393d17fbd8U, 0xbce73fcfbc0ca3d9U, 0xbdbb681f3d4dc0b9U,
  0x3d965636bd8b088bU, 0xbda651c1bdefd82eU, 0x3bfcc4183d1cf22eU, 0x3daa5853bd318780U,
  0xbd4e806abc02afa7U, 0x3cb0707abcb5d690U, 0x3d436d3b3d8bec0aU, 0xbdac47ccbd732093U,
  0xbd7d9c4e3d81c074U, 0x3d26b2533d125c82U, 0xbd8c19f33cb882b4U, 0x3cd8dd5ebc56c9fbU,
  0xbc826e11bdbc2253U, 0xbd32711abdd0125dU, 0x3d4472c93d236f37U, 0x3d883aa03d8aa821U,
  0x3d6857aabe086745U, 0xbc83581cbc3a66b9U, 0x3c28b0703d08597cU, 0xbbc6232a3d5f3301U,
  0x3d3e027ebd74079bU, 0xbc95dfdfbc32876fU, 0x3d29289fbd2d93cdU, 0xbd6666d83ca12a5bU,
  0xbdddf7ba3c401eadU, 0xbd74d02b3a21bec8U, 0xbd5540fd3c17a685U, 0x3dcf98e2bd49cad4U,
  0xbd3570dfbdaf353cU, 0xbdd165f9bd3eec85U, 0x3c4471673cbb1fe6U, 0x3d075ff53cd1e361U,
  0x3d1adb51bdc76723U, 0xbbb5fb35bd9617a9U, 0x3d50abd3bc91c9baU, 0xbca312803d0b39c8U,
  0x3cf45d88bd837c5bU, 0xbd1518e5bd2705c7U, 0x3bf7f44fbd04c763U, 0xbd794e2abc4ca401U,
  0xbbe1de1fbcc671a2U, 0xbd9f1916bd60c33dU, 0x3c840893bca22e67U, 0x3db3f0f6bcb76582U,
  0xbc538e1ebdb5266aU, 0xbd91c3d2bc0ca42cU, 0x3d09702c3cfd4329U, 0xbd75a4883d8655d5U,
  0x3d27e40abd8733b6U, 0xbd40dac0bdcb3d71U, 0x3d2ec5be3d0c5cefU, 0xbce2c0ed3d432493U,
  0x3d9f02ccbd5a5959U, 0xbc8a52103cdfa5d6U, 0x3cb80c6bbd9e7683U, 0xbdbd90acbd30139dU,
  0xbcb0d4ea3bd8dcaeU, 0xbd280ea1bd9f7e9aU, 0xbcab5c40bd33a60fU, 0x3dc4422cbd6b5baeU,
  0x3d8c363fbb4bd4caU, 0x3cef31d33cf7d726U, 0xbdb771223d22460dU, 0x3bbb61243cda90e4U,
  0x3c78f5dbbb213932U, 0x3d3aa60dbb807885U, 0xbd92b12b3d9bc66bU, 0x3cfc256abdec1494U,
  0xbd1b22f03a7ec479U, 0xbd507485bdf1b653U, 0x3cfa679bbc028177U, 0xbd3e831a3d41e9b3U,
  0x3d216cd7bcbf8281U, 0x3ca9b07bbdb27b4eU, 0xbb566357bd79e5e6U, 0xbcad1595bbb60bfeU,
  0x3d35a663bbaf4864U, 0x3d8da6d9bb2fce1dU, 0xbdc3ebed3d195d1fU, 0x3d07095a3d1cd896U,
  0x3cbebfadbc931e77U, 0x3d335cb83d088513U, 0xbdab9a713d53ac6fU, 0x3c5a6b91bdaaf062U,
  0x3d2b84cd3cddc534U, 0xbd00a979bd57dfc6U, 0x3cefbf7e3c0a602eU, 0xbc3aad633d0708d3U,
  0x3c8185d53cb0127bU, 0x3c827983bd8e9f00U, 0x3b993bafbceb9c66U, 0xbd38082d3beb72c9U,
  0x3d7045613caf094cU, 0x3ca8fe18bb41361eU, 0xbe1121ddbce065abU, 0x3d1230023cc659f8U,
  0x3ca9cd03bd281e6cU, 0x3d7db28f3bf751d9U, 0xbd82a5143db56cf6U, 0xbc1778f3bd92925cU,
  0x3cb50a073cae00a1U, 0xbd428831bd216c2aU, 0x3d1720803d3d2c0dU, 0xbcdeafd63a136dfeU,
  0x3c09a8313d5210ffU, 0xbbf4dcfcbd004fa8U, 0x3c22601bbcd8ca7cU, 0xbc0a891a3c3f6a48U,
  0x3d7b0e2abd73b8f2U, 0xbdad063abd885f6cU, 0x3d94e83cbddee792U, 0x3c8ef545bdc85243U,
  0x3caa171bbda9dbdbU, 0xbc1761cc3dbd9338U, 0x3d4a80c2bd1f15e0U, 0xbd4dee0b3db0bec1U,
  0x3d992476bcd3ea3aU, 0xbcd8818f3cd3e6f6U, 0xbd1ba139bdcee5d0U, 0x3dade6993ccb2fd8U,
  0xbcdb72ac3ca5c71aU, 0xbc32a9da3d48294dU, 0xbc06f6eebdcc607eU, 0xbc46fb983d623fe1U,
  0x3d7f69efbd628c28U, 0xbdb4fca5bbf03f6eU, 0x3d74ca17bde2f9c2U, 0x3c1c913dbdbbde27U,
  0x39790645bd477773U, 0x3d0e2a763d191d1fU, 0x3d5f3e7bbc9de17dU, 0xbd2f65f63d02d03aU,
  0x3d0f13e7bb242d8cU, 0xbd7f75bcbbfc13ffU, 0xbd310087bdbee260U, 0x3de40b263ce88feaU,
  0xbd39762ebcf592b4U, 0xbcba22693d0b69f2U, 0x3b6213c7be0026dfU, 0x3d6a498a3d8baf8cU,
  0x3d87d1b6bda5bebcU, 0xbe29ea17bd8eeeddU, 0x3d0551d1bdbb73b8U, 0x3db54969bd815875U,
  0x3c0f90b0bdc531a8U, 0x3cf35e163daa1363U, 0x3d19d3bebe03ac36U, 0x3b430b7f3d57e84bU,
  0x3b034045bbc13e01U, 0xbce5a447bc7106f2U, 0xbbe33e2abdbd09a8U, 0x3e16bd30bb51615bU,
  0xbb94fb1fbc91c0c3U, 0xbd29fd0ebd14be62U, 0x3d2a1692bdbeac9eU, 0x3db0d2c83dcf4d34U,
  0x3d822462bd6a24c0U, 0xbe936f3abd348c56U, 0x3d8f69b93d667462U, 0x3cad9aa03e3c62efU,
  0x3e02614abe20e307U, 0x3d6b2da03ca77168U, 0xbd4a5312be2c3a5fU, 0x3cf2e38cbddadfb7U,
  0xbd5a337c3e5c7d97U, 0xbc872851b9dd6eabU, 0xbc870da93d3e40f3U, 0xbb390d713d1160daU,
  0xbdbc147e3e05f54bU, 0xbce826a2bd22f7d6U, 0xbde24ec43aaf089cU, 0x3dfcc9393dc36646U,
  0x3ce0f0b8bd9f6ddbU, 0xbdf35e2abdc06fc9U, 0x3c96efac3bf713d9U, 0x3d88fd023e2ac7b8U,
  0x3d1fb11abd940176U, 0x3db351043c53a4dbU, 0xbdcdd327bd2927a9U, 0x3d0bf01abd8e5a0fU,
  0xbc494aec3e0869bdU, 0xbd9dee98bd2e5865U, 0xbdb950903d8f399fU, 0xbd3581cdb9a4bcc8U,
  0xbda5bbab3d27be7cU, 0x3d6db05dbd75cd5dU, 0x3c9529d43cc35ea8U, 0x3daee7463c687f03U,
  0x3d5e29c639dd8450U, 0xbdb11420bd259b4cU, 0xbcf62f423e073b57U, 0x3d5d01293e7278cbU,
  0x3c85cc1c3d110911U, 0x3e03de6b3d59a82eU, 0xbde0c7543db020cfU, 0x3d3e0bccbdb1cdb2U,
  0x3dbe62713dfdab2cU, 0xbd7130cebc5fa228U, 0xbde5f8393e244251U, 0x3c825c93bdbbdffdU,
  0xbd8d37073d4851dfU, 0x3c98c27fbdba96c1U, 0x3e08994a3d970ce1U, 0x3d690902bd2dee28U,
  0x3c09f84abd29d6f1U, 0x3dbcdba3bd15f6e1U, 0x3c9e039fbb919bbeU, 0x3d9be2f0bdde54e8U,
  0xbd5582acbc71e241U, 0x3dc3e4d9b8105ed2U, 0xbde087043b876456U, 0x3cf26a3cbd6eaf66U,
  0xbdb9e543be012230U, 0xbd158addbdbedb65U, 0x3d30655e3d108615U, 0x3dc091983ccf23a6U,
  0xbc8327093cea7140U, 0x3d03a15abd82221cU, 0x3da2e37e3d64b86cU, 0xbdb905d2bd1e0f55U,
  0xbca7a2b4bc893c2fU, 0x3d33e922bcc739dbU, 0x3cb6808d3d9ad60bU, 0x3e03b0e2bd8d8410U,
  0xbd201a80bc7c7f83U, 0x3d88eed43d804699U, 0xbdc049c93c906ea1U, 0xbbcfeefebda82505U,
  0xbcda9540bd7dd878U, 0xbb980398bd66d5a7U, 0x3cc167a7bbc2a183U, 0x3d98aa9f3cec1c2fU,
  0xbd3a4e6e3d11c497U, 0x3d22184ebd64fc62U, 0x3d3bd1953d2125c0U, 0xbccab0d0bd296ba9U,
  0x3c4c5e7cbca52a2fU, 0x3d313d33bc57faefU, 0x3d072c6c3dd1b5d4U, 0x3ddc2e1abd64e52eU,
  0xbbe770a4bd977237U, 0x3d8413be3ddecc7eU, 0xbda5c727bcd50f45U, 0xbd9a2efebdd50f8fU,
  0xbc46693bbda84f2eU, 0xbcb5f775bd4345b9U, 0xbbe1af883d452cddU, 0x3d94bab1bb51f9ebU,
  0xbd1df38d3ca4f693U, 0x3c06d5ebbd4b6595U, 0x3d75920b3d80e129U, 0xbd6a8b6bbc220106U,
  0xbbc3acdd3cbf9a45U, 0xbc406cfc3d98e39cU, 0xbc0966e5bc5527c3U, 0xbdea6587bc3b93e5U,
  0xbdae32c2bdc80f7aU, 0x3c9ae8de3d174278U, 0x3d3a92adbc889543U, 0xbcf3a12fbcb7f7c1U,
  0x3caaaf5c3d765571U, 0xbda564debdcc055bU, 0xbd1142ae3c4cc1e7U, 0xbd955647bcb51be9U,
  0x3d158fccbd91ee84U, 0xbbaca295ba5bebbbU, 0xbd801d5f3d5739fcU, 0x3ce900fabd0d2c30U,
  0x3d14ea143d97b5a3U, 0xbc5857973d812bf3U, 0xbd4ae3e3bd0756edU, 0xbdc0f40cbc78905eU,
  0xbd460755bdb98e81U, 0x3ce983713d235551U, 0x3d00782f3d68e867U, 0x3c322d0d3c1258c5U,
  0x3c278ec3bd1f98dbU, 0xbd69d91ebdbff0adU, 0xbc604f6dbd3ca945U, 0xbd82c1e33d099edeU,
  0x3d26c9acbda2403cU, 0xbb600854bcae1e29U, 0xbda8a19d3cf3df94U, 0x3d7a3e1abb1c066aU,
  0x3c30db023d7aadfeU, 0xbae2d6be3d337b08U, 0xbd4d6563bb1dcf04U, 0xbdcc9923bd293266U,
  0xbd4eb92dbcab0089U, 0x3ceae8403d8bee7aU, 0x3d50b5ea3d6199f8U, 0xbc33b9283dacfc39U,
  0xbd4e39cabbef4f87U, 0xbd822e3cbd4d8aecU, 0x3c9def2cbd573b59U, 0xbd0824943cd37ffdU,
  0x3d205275bd30bca3U, 0x3d3561d33c61c3feU, 0xbe03fdc4bc201961U, 0x3d06e3b83cf7bc9bU,
  0xbcedbcb2bc912768U, 0x3c821369bd71d0a9U, 0x3c95ed22bc29942dU, 0xbba7389abd91f583U,
  0x3b1005b33c733b03U, 0x3c078bcebd8b9fc3U, 0x3ba3a845bd9f7aeeU, 0x3c7891c93c805d4bU,
  0xbcbd0541bd7b3f36U, 0x3d45c8d03d3a2e13U, 0xbd8ecb8f3cd5447cU, 0x3d13388e3c44f334U,
  0xbaaea6843c95fc8aU, 0xbc682654bc156b01U, 0x3cf324653d900f63U, 0x3bbc20ee3c7d8035U,
  0xbca71e3b3bad4a0dU, 0x3cf32d28bceea93fU, 0xbcce8bdabd5381e0U, 0x3c3b89fdbdbf7a93U,
  0x39d4faa73d15041aU, 0x3c87a4d5bc3d1de8U, 0x3bdeab19bd154edeU, 0x3c6b94febc10cc47U,
  0xbc0c94e1bdafefbbU, 0x3c69c4683c7f38f9U, 0xbd2691773d51609eU, 0x3ce1e5c43cc4ad6bU,
  0xba9425bfbc7f4a16U, 0x3c766f6cbd853c87U, 0x3d4302803d69737eU, 0xbc1065eb3c8ed7a0U,
  0xbc2fb6f03c255e67U, 0x3ca50abfbcd9ae62U, 0xbccfd658bd89ce3cU, 0xbccdd8d9bd9d63c1U,
  0x3abb4e0a3d80fd71U, 0xbd2ee7e83cdfe6d6U, 0xbbd715ddbcb3bea8U, 0x3d06ef24bc39eed6U,
  0x3d1c047cbd56c906U, 0x3cfbcb9ebd057675U, 0xbd2492633d43514bU, 0x3d2c97673d8ac306U,
  0x3c177b91bcafd187U, 0x3d0d574ebcebaf86U, 0x3d841dc43b9e90f6U, 0x3c66b3de3d1d7612U,
  0xbd81aea6bd735c82U, 0xbbbc9a823c3c7b44U, 0xba6a3abe3d181c7aU, 0xbc1fc27e3c765525U,
  0x3c4e02ea3cead7a0U, 0xbd6ca4d4bc9946d3U, 0x3cf98a073c6fddbeU, 0x3d10294dbd9dcba9U,
  0xbd7982273d2e1507U, 0xbcd3a852bd8c5b34U, 0x3c820cf63ccaee9bU, 0x3c458858bda4b844U,
  0x3bbf311d39fdd22aU, 0xbb47506d3cac597fU, 0xbca13e803ce67a42U, 0x3c2e2654bcdb6d9fU,
  0xbd97d5cabcaa6779U, 0x3d1afe663c8a42f7U, 0x3caa49963c9e43eeU, 0xbbec8ce7bca92cf5U,
  0x3c86d5a6bc938b78U, 0xbd984a14bd772646U, 0xbc44802a3c4d0ed0U, 0x3d080989bd741efaU,
  0xbd3a51673d3581fcU, 0x3cd01ce7bd0263d7U, 0x3cbcdbba3d4c92d5U, 0x3cbd7113bd787c86U,
  0x3d8222ee3caf2c96U, 0xbc6fbbf53d53b982U, 0xbd35d2333bc37d95U, 0xbc1dec40bdaa56fbU,
  0xbdbfbbcabd16976eU, 0x3cdd88483d236aa8U, 0x3c86a670bbe2cb83U, 0xbc9e3354bd018ee4U,
  0xbaea8d24bcfdf8bdU, 0xbe071a06bdb3e9a3U, 0xbcff90aebb407c1bU, 0x3d3891afbd3adf10U,
  0xbce3ab283d103230U, 0x3cbedc41bd14be7dU, 0x3c87ab7a3d20e018U, 0x3c11bc88bd55509cU,
  0x3d8e7a2a3bc9c9b9U, 0xbbd376393d32a6a5U, 0xbd8e9bdb3b216b9aU, 0x3ce5a427be11cdc0U,
  0x3c7b8f273cee1d91U, 0xbd8cd7063a0cfdb4U, 0x3ddd5ac23d6fc135U, 0xbd2af0d1be3b8308U,
  0xbe29f0f4bc712321U, 0x3e316059be08ab81U, 0x3dec11babdb4272bU, 0x3dbb85c13d607615U,
  0xbe2c4f29bdfd0956U, 0x3d81dbec3cdad52cU, 0xbe8376b0bd2852afU, 0xbabd79bf3cf7a927U,
  0x3cf9c21bbc08b8a1U, 0x3b91435cbcb00d5aU, 0xbd47217b3e050aa1U, 0xbd0aac483cab831dU,
  0xbcab2147bd43af46U, 0xbd415f31bdbf6f72U, 0x3d9786133cbb96c8U, 0xbd47a71ebda935b1U,
  0xbdc7c7b7bc69898fU, 0x3de7cdcabd591ddeU, 0x3dc59744be0536deU, 0x3d1d5d3f3d1314beU,
  0xbd0c2eb8bdf12097U, 0x3dcb01993d4ad104U, 0xbe6a1e54bd80d510U, 0x3c2bdc873d0290b4U,
  0x3ceaca933d0869d7U, 0x3d0567793becac39U, 0xbdaa40593c68480aU, 0xbd8f473fbc3a9404U,
  0xbd9bbce9bd42f625U, 0xbe15c70bbe0f0ed8U, 0x3dceff463d96cc1dU, 0xbc2dcaacbdc7ac5bU,
  0xbdcb8740bd552585U, 0x3d86c8cd3dd46209U, 0x3ddc405bbddeb243U, 0x3d2e6c42bd5fa9cdU,
  0xbb9a9710be1fc426U, 0x3d8148b93da3309aU, 0xbe6c99cabcfd9bceU, 0x3d7a63683d4cde5eU,
  0x3bfdd1873c3811fbU, 0x3d04d3c73d386b0bU, 0xbdfe1fba3d1da159U, 0xbe250f3bbcf737e9U,
  0xbdbfd0613cb107dbU, 0xbc7339553c6810a0U, 0x3d4d00e8bc8f62eeU, 0xbdaf540fbd37f3b3U,
  0xbd5b8a50bd85afaeU, 0x380da5433d7b83c0U, 0xbd3be9c83d452c6dU, 0xbd8490e8bc57ff52U,
  0xbd38aea73d363473U, 0x3c3466d3bd9b0b98U, 0x3d4811973d0dd5cfU, 0x3c0a64753d98c3c6U,
  0x3dcab0c9bd6af02dU, 0xbdb54cd63bbedcdeU, 0xbe0ccde03ce9f22eU, 0x3dab0ebcbe0e6fd9U,
  0xbcc76170bce0f3afU, 0xbd04c87c3dc77629U, 0x3ca81253bdaa2723U, 0xbdcff713bd707a25U,
  0xbd29d033bd826880U, 0xbc42d9ea3b684b3bU, 0xbdfc1e5b3d6e02daU, 0xbd96786a3b05183dU,
  0x3cb204833d64d72cU, 0xbc7e3f7cbba3aa36U, 0xbc318de5bcc61794U, 0xbd58927b3dbd9ecfU,
  0x3db5852abd84fa3aU, 0xbd975507bc125348U, 0xbd01b8ac3d8dfc35U, 0x3d199aebbe431f99U,
  0xbbdcf44a3ca3ccf1U, 0xbd762a8b3dbd4922U, 0xbd0b8ca5bd9ca419U, 0xbdd047fcbb9d7346U,
  0xbce7f8eebd22728aU, 0x3cc9a1ce3c357f10U, 0xbdd7cd2c3c670011U, 0xbd82a4d4bc6b5d04U,
  0xbd2038a43c230bbaU, 0x3c97c6debc9fc8b3U, 0x3d7b6ca23d136912U, 0xbda093093da70f2aU,
  0x3e0deeb63b975e91U, 0xbdc32fb3bcee5a2aU, 0xbd3653d2bb20d88fU, 0x3d0e4241bdbfa0c4U,
  0xbcc88d63bd05bbebU, 0xb9a3a0b0bc2fdca0U, 0xbd88bfcbbd4a0f9fU, 0x3d888290bd2f7e1aU,
  0x3b757a3fbd369171U, 0x3db7df263cad17f6U, 0xbdf0c38bbcc67302U, 0xbd36e31abcfe7b95U,
  0x3ca86f0abde4e69eU, 0x3d689ed9bdae0f2fU, 0x3d17f340bd3593d3U, 0xbba2e80cbc20ebf3U,
  0x3d16f9d2bcfac2efU, 0xbcaccfd4bd550b96U, 0x3d0544b63d1c0165U, 0xbcd38d7dbd7f3ee4U,
  0xbbfd5e7bbd05719bU, 0xbbfbb7673bf72f4eU, 0xbcbbdbaa3be95399U, 0x3da4705a3c20001eU,
  0xbce62b3fbbfa8284U, 0x3d664101bbebba41U, 0xbdf8f5debd5ee1b7U, 0xbd55ad2cbd6ab6faU,
  0x3c60d9c3bdad3770U, 0x3cf793ea3ab86ab1U, 0x3ca0b241bd52605bU, 0xbbe0b5b73c6b8c32U,
  0x3c19f56bbd7c93b0U, 0x3c2b96abbdc8b218U, 0x3c0b80263bdb329cU, 0xbdaa4bd4bd311420U,
  0x3b054932bca8107aU, 0x3d0c932d3d25994eU, 0xba25a6b9bb5486ccU, 0x3df0fd44bb77fca6U,
  0xbd90a006bd370876U, 0x3d70c3953c732382U, 0xbdfc3e8cbd862473U, 0xbdd5878dbc90f9d6U,
  0x3c5e9169bdc1b42fU, 0xbd75309bbb82bde0U, 0xbb3f898ebd7e91d5U, 0x3ca781d3bc12ec1fU,
  0xbc00b7fdbdb010ffU, 0xbd4b2252bd59e15eU, 0xbcb38ceebcb0aa42U, 0xbdb9608bbd805ce4U,
};

AI_ALIGNED(32)
const ai_u64 s_combination_onnxAdd_127_bias_array_u64[16] = {
  0xbefcaa0a3e2dbe68U, 0xbea818513e308606U, 0xbe4a071ebed636c0U, 0x3e27fc543e93cfe0U,
  0xbe4f0aacbe7b6ab0U, 0x3dc27ad4bf2ae1feU, 0x3d165810bf449b20U, 0xbee404fabde16830U,
  0xbe1cb102bd9a4d62U, 0x3d3e1388bc05f4a0U, 0x3da4da78be91dc14U, 0xbd1486dcbe814f16U,
  0xbe93747abf1c2f9dU, 0xbe5de3a33b897380U, 0x3da7a7e4bdc02c28U, 0x3c82d6103d7ec198U,
};

AI_ALIGNED(32)
const ai_u64 s_combination_input_60_weights_array_u64[1536] = {
  0xbb96eb81bdf90b04U, 0x3e329240bd4c2ca4U, 0x3d8daa853e01cc35U, 0xbdfc1dec3cd349a7U,
  0xbb92f116bec4389aU, 0x3e3fc51fbca674ffU, 0x3e56e7a2be0710a3U, 0x3e2c7018bd653c0cU,
  0x3c42c65c3e0f4e48U, 0x3d7380e13e372c8eU, 0x3d5928663e7994fbU, 0x3dde203abc8b7bb4U,
  0xbc4a35f93e4ac7f5U, 0x3da5f42a3d810688U, 0x3ddd559fbce9b11cU, 0x3db667f6bc6930fbU,
  0xbc260f44bd85dd41U, 0x3db60ddabe0bdb25U, 0x3dbd4f713d9ffb3dU, 0xbdce19073dcb837fU,
  0xbe178d0dbe88cf21U, 0x3d8febfcbda11fdcU, 0x3e8e3cd1bd531416U, 0x3da087583d415c0dU,
  0x3cac7f2c3e353bfeU, 0xbd5737163dd6ce2fU, 0xbd8d8b8d3dfb5539U, 0x3ca74e763e01e215U,
  0x3d8f2f4f3e130133U, 0x3d6337c7be12cd74U, 0xbdbbb55e3d24c02cU, 0x3d9c2523bcb5eb5aU,
  0xbd530e9abe1b9f19U, 0x3d8acdd2be3e0511U, 0xbd2036cc3e3b6ab6U, 0xbd4260293e1a351eU,
  0xbdc306abbec55c2cU, 0x3cf32c1dbdf83dadU, 0x3e73e35abc58318dU, 0x3e1baa373e058b86U,
  0xbc8d682c3dad382bU, 0x3d106aa73e096aceU, 0xbd4126c2bd0f567cU, 0x3dbeaba83e484542U,
  0x3de02cd43e20e79dU, 0x3d78392dbe2985f1U, 0xbc9ae023bcf7cef6U, 0x3d89b1f4bc885a0dU,
  0xbc81e693bd45489fU, 0xbda75b98bebe6881U, 0xbe885b413d8234f8U, 0x3d6af3c4bd48029fU,
  0x3e483036bb15233eU, 0xbda07ffabdef09ebU, 0x3d92e87a3c8853f4U, 0x3c7b68c4bd16f044U,
  0xbc32e54bbd88f126U, 0xbe80f01ebd1048efU, 0xbd95c832bc95a959U, 0xbbf868c4bec4bef3U,
  0xbe158c98bd4723e1U, 0xbc366e00beb364e3U, 0xbe1f25913e0418fcU, 0xbe80cef93c734cb3U,
  0xbbf8f1fc3ce2c33dU, 0xbdb69a1ebea1f9fcU, 0xbe216cd13d788562U, 0x3c6a17f5be28f476U,
  0x3e919dd83c223af9U, 0x3c0367babccd4d89U, 0x3d4120893de2fff7U, 0xbb907f593c3fcbdfU,
  0x3d29f317bd9335a1U, 0xbe5f52083d522f86U, 0xbdcc67e0bd9e63d8U, 0xbbf15104be86a259U,
  0xbd965309bd8f58bbU, 0x3b812404be6419d1U, 0xbc9180143d52a9afU, 0xbe819a023cbd3c05U,
  0x3d73672a3de91917U, 0xbd419012be95653aU, 0xbe0cef2a3df1c66dU, 0xbb30f525be6cbd99U,
  0x3ecfc8363d3fb719U, 0x3b980be33d58a588U, 0xbde1445b3db486ebU, 0xbdcb34c73d40f107U,
  0x3c1370b1bcfffc6bU, 0xbe0b62453c0bb42fU, 0xbddb1c773cbff499U, 0xbe37e222be4c6d86U,
  0xbcd1317ebdaea614U, 0xbd21b974be0cef28U, 0xbdfe0ed33e2e9a83U, 0xbeb9183d3dc8abf4U,
  0x3c8a5097bb59fc09U, 0x3d227237be04689cU, 0xbb70fce93cd20e2bU, 0xbdfdfd3e3d360ac5U,
  0xbe0398a0bea3f019U, 0xbd4908f73d1ff959U, 0x3d6ea9f73d7f424bU, 0xbe017d583dc9d259U,
  0xbe1d90c1be883715U, 0xbd3338843cffe343U, 0x3cfc4ab03ca4ecaaU, 0xbd92a3ffbde788d2U,
  0x3d26d23e3e17f3f1U, 0xbdb33c39be7f85c3U, 0x3e1ca948bd99132bU, 0x3d3e2fd2be669bb0U,
  0x3cc34e08bd30cf49U, 0x3d811ab8be0effdbU, 0x3dc4b7b63c603353U, 0xbe3fd27bbcc737cdU,
  0xbe196c74be606743U, 0x38c10ff63c369096U, 0x3df2712e3cf09255U, 0xbba0748f3d9c8d6eU,
  0xbd43b1a7be92f279U, 0xbc038d2c3cd82620U, 0x3d8b947ebdd5db6dU, 0xbd95ac63bd2a9f7aU,
  0xbbaea30c3e5fd15cU, 0xbdf925bcbe93cd00U, 0x3ddea64cbde2f32cU, 0xbc33b8e4be427111U,
  0xbcf5754abc04675dU, 0x3e20afa7be54ecf8U, 0x3dd28b92bdc9ba61U, 0xbebb4fdabd14540bU,
  0xbe835ffdbe68ce9eU, 0x3b9699a13de5af1fU, 0x3e5749913d6954faU, 0x3c145c643e35b791U,
  0x3c3ef9c0beb25c9bU, 0x3d3888523d90b182U, 0x3d8c5949bda79bc2U, 0xbdcbd9413c8f956aU,
  0xbd96a3463eac5191U, 0xbdfa078cbe8edcfaU, 0x3dd06522be5ccc80U, 0x3d367ccabe74720bU,
  0xbcf017a53e8d6ebcU, 0xbd4ed8bc3e023c03U, 0x3d460a0f3e5ce800U, 0x3d899404bdb09b00U,
  0x3d39c13abe501638U, 0xbe0325cebe22cab7U, 0x3e58cd05bc2ce074U, 0x3e605c5ebe7b8a70U,
  0x3e82a5eb3e5afd0fU, 0x3d8a151c3d88f397U, 0xbe08d5b9bd559aa3U, 0xbd137cb53d0a8540U,
  0xbe8c87cd3e05090bU, 0x3d81accd3dd92ad5U, 0xbedf187b3c289623U, 0x3d3cf3bc3da1e896U,
  0xbe78ac803cb40749U, 0x3db2073e3e63d3a5U, 0x3e369a183e5bf6deU, 0x3e604a8abd9995eeU,
  0xbc8dc976be31169eU, 0xbd2e1e06be0c78e3U, 0x3cc7bf65be50e343U, 0x3e5cbc48be4cc7bcU,
  0xbd19f7943e5d3e91U, 0x3e2518043e402410U, 0xbdf500463dcf47bfU, 0x3e0bad3abda810c9U,
  0xbddf42653e67d6ebU, 0xbd4eeee13e82a4d4U, 0xbe1fe011be294b8bU, 0x3e237322bcefec8eU,
  0xbd3dc03f3e3528e1U, 0xbcd987d73e9929adU, 0x3dcb858c3e29a6dfU, 0xba8c5ba23c9314fcU,
  0xbd88a250bd4836fbU, 0x3db8c227bd9c1f19U, 0x3d66e4b5be739445U, 0xbdfd10ed3d51da14U,
  0xbe0e86bb3e6d084cU, 0x3e8a28743e61d5daU, 0xbe913219bdbe1504U, 0x3dd34df13caba8a2U,
  0xbe2838993eacfc3cU, 0xbdb3d60a3e39b419U, 0xbdd1236fbe6d5b1eU, 0x3e21636b3d84b2e7U,
  0xbcec1704bd7c9dc5U, 0xbdd90476ba96fcf5U, 0xbdc6c7d8bc8222daU, 0xbda7c283be339d48U,
  0x3afae210bcc38e8bU, 0xbe1494d93d2b0bd9U, 0xbdaa32e63a265680U, 0xbdd3279d3d8fd0b7U,
  0xbd725093be5a6cefU, 0xbd03e5113d4cd0f9U, 0xbbbf5b033de2a549U, 0xbd22aa0bbe4adc0aU,
  0x3cf106db3d8a8ed8U, 0xbdb01022be21103aU, 0xbd1b6e953de32a71U, 0x3c88a72fbdb88a9eU,
  0xbc3b53ad3c1b04e3U, 0xbe077eb9bc11412bU, 0xbd8c3ad8bd538203U, 0xbe57a32fbe39a60aU,
  0x3d8ad420bd606aceU, 0xbdf06af83d45b2faU, 0xbcddef313cc63ad6U, 0xbdac39e33e0e44efU,
  0xbdaac168be530197U, 0xbd08b52e3d8bfd34U, 0xbd00b3b83de95d30U, 0xbd68be72be5cdf19U,
  0x3d1459b23d9e26b3U, 0xbe185d7abe55c017U, 0x3c64481a3d865492U, 0xbd9e363abdd2ecb9U,
  0x3d54bf603d8cfc45U, 0xbdb513cf3c90d679U, 0xbc18fdfebd84424eU, 0xbe2b187dbda85e34U,
  0x3e188afdbe091ec8U, 0xbe2103ad3da44352U, 0xbd75105cbd07cad4U, 0xbdddefa33d8dde05U,
  0xbd7a8056be21887dU, 0x3c2a7faa3d125353U, 0xbdc754053e125403U, 0xbd786925be47292cU,
  0x3ccceb873d140f20U, 0xbe28f784be671af3U, 0xbd2f66ff3e337c31U, 0xbd83363c3c9ca028U,
  0x3d7dcdafbe213892U, 0xbcedc85b3e362afeU, 0x3ddb91e7bdb407abU, 0xbdbd807dbd3da738U,
  0xbe2452723dcb9f00U, 0xbcc0df843e34df7fU, 0xbe16a56f3d430402U, 0xbd3659753e50eff0U,
  0xbda04b4ebe0f7658U, 0x3ba1e570bcd04ae7U, 0xbe58922a3e83796fU, 0x3d81017f3db7cbafU,
  0xbe14631c3d206187U, 0x3e0365d13e3f6a0bU, 0xbdff8b333e167bceU, 0xbd69c653be8af522U,
  0x3d332db4bc48fff0U, 0x3d0a1eec3d6e9fc1U, 0xbd6322d5be1d93a8U, 0xbe53f10d3d743c30U,
  0xbda4f85cbd21fa0dU, 0xbdfbb3403d4a189dU, 0x3d6030083d299449U, 0x3e04f3663e7f2a8aU,
  0xbe2f5e86be6f9a62U, 0x3cbb57db3bcc80aaU, 0xbe90eb203e8c2830U, 0x3d864f623c31e0f7U,
  0xbe0e66e03de51a51U, 0x3d2c46803e3838b5U, 0xbe03f5d23e7f7d6bU, 0xbd5a67d4be2fe4e0U,
  0x3e0342f43d7c63beU, 0xbc7eaf8e3d3bd97dU, 0xbc921d83be8259a2U, 0xbe4cb7d63d331fb2U,
  0x3d9b0edabe545221U, 0xbe31e6203e52adf7U, 0x3e37354bbd2f3546U, 0x3e5f730f3d4cf825U,
  0xbe36725cbe35b873U, 0xbc60d4393d883ca5U, 0xbeafe1be3de20292U, 0x3c9de109bc42cd53U,
  0xbdef66d03e17e195U, 0x3d9543263e0f0b4cU, 0xbd0064233eb4f0fbU, 0xbe3e1846be34717cU,
  0x3e12a3e6bd740957U, 0xbda691e4bc95e322U, 0xbdd411513d49df18U, 0xbd9df4a43e33db32U,
  0xbe357f3d3e673148U, 0xbd9d6bdfbda6dbb1U, 0xbe4457b33bd5b9c2U, 0xbd2b406d3e6b5075U,
  0x39297dab3e817c20U, 0xbe41d2e0bef1d6a6U, 0x3d804d623de97bccU, 0xbe2950bdbc6494c7U,
  0xbd8331f43d92ffb3U, 0xbde9f4a4bec30b67U, 0xbe8c1838be8c33ceU, 0xbdcac874bdbd13fbU,
  0x3d8c447f3dbef069U, 0x3d13886fbad7c545U, 0xbd4682933da09662U, 0xbdb882003e3a07cfU,
  0xbe4871423de63598U, 0xbd84e0e9bd6b607eU, 0xbdc6997abd3d3be1U, 0xbd8ea4b43e589d12U,
  0xbda62d2b3df4766eU, 0xbe4eacdcbefbae20U, 0xbd1f262abd77ff7dU, 0xbc630eb1bd939b11U,
  0xbde4770bbcabac88U, 0xbd2aef78bec2fcb6U, 0xbe32d399be69b264U, 0xbdd6a1cdbdd6310eU,
  0x3dbb18ef3dbdb606U, 0x3d89febcbce3ae1eU, 0xbb3fd94dbc778d5fU, 0xbd93a73e3e7c5febU,
  0xbe09feb83e85f9e8U, 0x3c1da1083c703e0aU, 0x3d5745babd758f0bU, 0xbe3f8afd3ebd2d25U,
  0xbdb43a8c3dd236c0U, 0xbe20cdbebf18d22bU, 0xbdb3f73b3d57e863U, 0x3e0ee8a73da3917eU,
  0xbde87bcfbe9ddfb8U, 0xbdc0dd4cbec1ba65U, 0xbe2076c6beadac68U, 0xbd8fd3b7be56f3f6U,
  0x3d5f8918be49f275U, 0x3dec38bc3e144cdaU, 0xbeb0502ebeb228eaU, 0xbe7e7bd5bda1aa6cU,
  0xbc6ed78b3d7ac4d1U, 0x3e081a98bd76c789U, 0x3e222ee1bed0ce96U, 0x3db83da53e527993U,
  0x3d1ca717be187929U, 0xbc15d848be17d3f3U, 0xbe8d40a7be02b0a9U, 0x3d7067d8be04d1e4U,
  0xbe5f85e93e305a55U, 0x3d937318bd3228ddU, 0x3e318d693e2ec830U, 0x3e1e94243dcf5eb4U,
  0x3d31fad1be18dc3cU, 0x3da773febdfe13c8U, 0xbe8597c0be987739U, 0xbd1e8f5fbd4a18bbU,
  0xbd8705543d81246bU, 0x3d15f4c83c6a7926U, 0x3e40ac0fbe8ba3b9U, 0x3d73ff6f3deb276fU,
  0x3defa233be3a9398U, 0xbdf3e6a4bddb6c75U, 0xbebb36e4be282ac5U, 0x3ccc5fd1be3c0113U,
  0xbdaae85f3df12a9fU, 0xbe4204d0bda055e6U, 0x3dbe3ae43e0bd3f4U, 0x3e12b9173db3629eU,
  0x3e107958bd0bfe1fU, 0xbd255bf9be1ff196U, 0xbe8795dcbebef708U, 0xbd97c47f3d6160d2U,
  0x3d6f8b363d34b61bU, 0x3d98a69f3e1e7137U, 0x3e93bd68be8eee0fU, 0xbb3f8f4d3e54ef4fU,
  0x3e11ec16bda09fc6U, 0xbc84bf5dbe807cf8U, 0xbec4966bbe2f04b4U, 0x3d50bf1dbe8920d3U,
  0xbddcd1093e172529U, 0xbed31c61be52a3cdU, 0x3e7a3f783e8488ceU, 0x3e188583bda3f8f8U,
  0x3cf44465bd52f86cU, 0xbc5e45e93d53b832U, 0x3cdfbccfbdcccb66U, 0x3c9c4f5ebe0105f8U,
  0xbc36628e3caac72bU, 0x3d8920c8bc0aa4c7U, 0xbe5f0f9fbda9f1b8U, 0xbe17e77b3e6202cfU,
  0xbd5a1c7abe63f406U, 0xbc3af9ab3d432590U, 0x3d2fb78a3d08c114U, 0xbcdbef11be6b7638U,
  0x3dd1d6393d361d60U, 0xbe05cacdbd9d9f84U, 0xbdc6412f3de81638U, 0xbde0dd46be8fbbf9U,
  0xbc490fa93c0bc1feU, 0xbb76afb2bd887075U, 0x3d954e64bceb81a0U, 0xbd94c4d6bdfe0348U,
  0xbaa635bdbcaad39bU, 0xbcbaa8d93db67701U, 0xbe167c84bc4340c6U, 0xbe3c26df3e43316eU,
  0xbe333178be97cd68U, 0xbc71d5d13dbef3a8U, 0x3d2522e53dd5d3a1U, 0xbd9dbcfcbe77a709U,
  0x3d8065453d9a5531U, 0xbe3c39c9bdd56519U, 0xbe20f9283dfb6ad3U, 0xbe01f32dbe35a973U,
  0x3d649782bc25c1a6U, 0x3e0dabf43bb1bbf0U, 0x3e7b1eaabd980847U, 0xbe3604a2bd30b42aU,
  0x3e0dd3d5bd1afbebU, 0x3d4cc263baf8b769U, 0xbdf8e860bd47f2efU, 0xbe67763a3df39ae0U,
  0xbe74ea58be46fa54U, 0x3d92d4f83d1b94a0U, 0x3d52a2d43d7d739bU, 0xbe0470fbbe32a78cU,
  0x3d0186a13dd5a907U, 0xbe1cec2abca33068U, 0xbda1e6633e769787U, 0xbdf787b9be70eb30U,
  0x3e00e50dbd85a5baU, 0x3d8cb9053e850ad6U, 0xbeca3b8a3ccfff60U, 0xbeb36c85be97fe3eU,
  0x3dc1658d3e04d6bbU, 0x3bf311dd3d71ad91U, 0xbe996aaebea52e5bU, 0xbd804160bca240beU,
  0xbe8ea3f93e617993U, 0x3ca15f53be3dd793U, 0xbe8a86aa3e477fc7U, 0x3d75a656bda56397U,
  0xbe8170f13bfd02b8U, 0x3e8804dabdf34dfdU, 0x3dcbde6dbdd6a837U, 0x3e7fe1613e05e6fcU,
  0xbd0ca6acbd8d8ebfU, 0x3cc28ff63dc90732U, 0xbec99bd93e192182U, 0xbeb5970dbe2caae1U,
  0xbdc82c873da0bbfeU, 0x3d68b31c3e3b79fbU, 0xbe849f48be5532a2U, 0xbe30d7b0bcc7f72fU,
  0xbe1b0cd33d9fb40dU, 0x3cca4024be36b37fU, 0xbe870d2e3e6655c9U, 0xbd4963fcbe0d9e83U,
  0xbe1fb5ed3dbbc1b8U, 0x3e5b0ecbbe3ee31dU, 0xbdac6fe53c8b9f2dU, 0x3e89c8a83d88cd66U,
  0x3d509ae8bd804cf1U, 0xbd871c013d9f55d0U, 0xbe4f94873d7c800cU, 0xbed53955be0ac988U,
  0x3dd53a29bd416f4dU, 0xbc17c3573c2cfe7bU, 0xbdcffe323baddc5bU, 0xbd63dd843e57409fU,
  0xbe3de37b3db21c04U, 0x3bd5fbffbe80291bU, 0xbd0b7bb9bd5c8298U, 0x3d023215be248768U,
  0xbc9473c23d0fc510U, 0x3ca1fafcbe63ad69U, 0xbe067bd73e1954c7U, 0x3e72e6cb3e0b12efU,
  0x3e089321bf09a7acU, 0x3dc300953e974f1aU, 0xbea40c02bdb175c6U, 0xbcbc77c9bda16085U,
  0xbe9a29493d01e133U, 0xbd8003c53df4a70eU, 0xbec021c3be572796U, 0xbc12709a3e25000dU,
  0x3f14b7483c51770bU, 0x3e7637dbbe0e22d4U, 0xbd8e00313d6b6547U, 0x3e4357143d930644U,
  0x3df92f6a3e83823aU, 0x3e1f09d73ce2b809U, 0xbd579f4c3dea15f3U, 0x3e93affe3e6a7789U,
  0x3df42ac9be78ce0eU, 0xbe98fba8be0b7d59U, 0xbdf7882b3e77dc1fU, 0xbc15c4f7bdda5805U,
  0xbde3c6273d0a0c4dU, 0xbe9d52363e498c9fU, 0xbe9962c5bc50574aU, 0xbe0381b23ea2cebdU,
  0x3ed9ae98be00af9fU, 0x3d93aa63bd9c4ee1U, 0xbcdb26453e93086fU, 0x3d86f5aa3ddb88b1U,
  0x3ddee6db3d96a903U, 0x3da195ba3de4def0U, 0xbc9aa7863e2b1691U, 0x3d73c8da3def3326U,
  0x3e0130c4be941e63U, 0xbddb37cdbe4047b0U, 0xbe38d7843ee3e5a4U, 0xbcc67864be102e42U,
  0x3d3e1a5e3e5b7a66U, 0xbea9761f3d758640U, 0x3dc5a80abe81a65eU, 0xbe0a00353ecbcd12U,
  0x3eae3282be175f66U, 0xbba12bbbbd614a14U, 0x3bc0273f3d1129a5U, 0xbd11571f3deb75a9U,
  0xbd5546ac3e1952b9U, 0xbe3b8024bdeadf5aU, 0xbdb093ef3e9029c1U, 0x3da010aebd21f145U,
  0xbda629063e863665U, 0xbe1e53963e4d2a3dU, 0xbe00ec7abe0f635eU, 0x3e7b4a543e3f7771U,
  0x3e5dbf1ebcb4e13aU, 0x3c4364aabe0bdf72U, 0x3d7ab1f9bd82af59U, 0xbdefcd50be6b58a9U,
  0xbdd65e94bdbad6d1U, 0x3e5d7ae3bce3774fU, 0xbdfefab8bc51ba79U, 0xbd9937febd66304dU,
  0xbeacf7e33dee4cfbU, 0xbc31f0f6bdff4ecdU, 0xbe0ea2fc3dd90df5U, 0xbd13d5eebd493b4cU,
  0x3c1c96293e945282U, 0xbbfa125e3dede584U, 0x3e013a703c263592U, 0x3e66034dbb7d1342U,
  0x3e22ff153d984383U, 0x3de10090bdd2b619U, 0x3debe5c7bd212e2fU, 0xbe21f3e3bdf75a00U,
  0x3db80e51be22afa0U, 0x3e278366bdefd1ccU, 0xbd2c3fcdbccb6d5fU, 0xbc8006a5b969b39cU,
  0xbe2349533d6b70e2U, 0xbde6ee8bbe3724a4U, 0xbda4b1293dfebafeU, 0x3d8e21bebd42cd12U,
  0x3dcb53343d7dc11cU, 0xbe19eedebd7b1361U, 0x3dee9c7e3d95ec5eU, 0x3e4ff99b3bd02f7bU,
  0x3e9d77203e16197fU, 0x3e1abcb8be176bb4U, 0x3ce561abbe35f32fU, 0xbe2d35cbbcc8b87eU,
  0x3c2a347bbe495954U, 0x3ea8b3fcbde9f3c6U, 0xbe26925fbd8fbcd5U, 0x3dc11d8abd43b86bU,
  0xbd33d8083d46550fU, 0xbe5054e1be2be854U, 0xbe698dc03e12166fU, 0x3de11e70be1c0e82U,
  0x3e5458b3be5518deU, 0xbe85cd89bed3807bU, 0xbeaa9996be5279a1U, 0xbe86885f3e000edeU,
  0x3e282c13bdd1962aU, 0xbe228e493e16f246U, 0xbe388960be834183U, 0x3e0a8857bb03c71eU,
  0xbd26ccaa3dfaaa7bU, 0x3e6bad80be9085caU, 0xbf2f2eb1be776797U, 0xbd1de2abbe187083U,
  0xbd78fdd23d6e30cfU, 0xbea52e5d3d825210U, 0x3ccf46d4be2c20f4U, 0xbbdcb276be18e9ddU,
  0x3d3fc4dfbe583df6U, 0xbe66d5d6be25911dU, 0x3d266275beaa2ebfU, 0xbece8fcebcfe0e81U,
  0xbd8b1df6bea02a2fU, 0xbe3a0ffc3c0d0bc7U, 0xbe5526ee3d396a76U, 0x3e4f28d5bde36bcaU,
  0x3e2282823e524c7eU, 0x3d731dc3be192412U, 0xbf204a03be495f73U, 0x3db3e699bd0c7084U,
  0xbe0232a4bcfb7cd3U, 0xbe2ddb7bbda67b0aU, 0xbc014223be2f1122U, 0x3d0ea8a3be3725e6U,
  0x3d1eb7fcbecea282U, 0xbd2f79b2be524afaU, 0x3e750c03beec95e0U, 0xbf0962c4bd758979U,
  0xbb8122a6be9b6f4fU, 0xbe93399f3e116462U, 0xbea28f6a3d975656U, 0x3e8ca1993df5dadcU,
  0x3e3b56e63e587ecdU, 0x3e27619ebd8a0ed5U, 0xbf278475bd29147cU, 0x3cd9f1bc3e740242U,
  0xbd99285ebc8e3f58U, 0x3dd2afabbe5d9c53U, 0xbe0dd4babd764b7bU, 0xbe8175e5be02c1c5U,
  0xbd833a9fbe4110bcU, 0x3d8c4ae93cb51d4eU, 0x3cd5e574bdcdd419U, 0xbe3cc507bf00e093U,
  0x3e02d5073ea2b99bU, 0x3d666dbcbe3ba8fbU, 0xbe47f526bda50ae6U, 0xbe1445b63bda3844U,
  0xbe96e076be265e65U, 0xbdb312abbf1374d5U, 0xbdd2f1f7bda53e7eU, 0xbd8c45a93e16a16cU,
  0x3e4612023e55c5bbU, 0x3e049f843d2bb0e1U, 0x3e8c6867bcc28dc9U, 0x3e518f603c90f739U,
  0x3d89a8e0be3e8e17U, 0x3c3b75e13e254997U, 0x3da5f214bdaf0ad1U, 0xbd082045beb3cbb6U,
  0x3e42715e3e637277U, 0x3df3ed1abe92d2c2U, 0xbea86266be47edecU, 0xbde4311bbd9564feU,
  0x3d8ccc23bcddbc2eU, 0xbd5a6d0dbeab8a55U, 0x3ca629e03e41a05dU, 0xbe12f8863da49f37U,
  0x3e2b496a3dd2f571U, 0x3e1afcd23d8e842dU, 0x3e56f823be7247d8U, 0x3e8bb7013e3c4d42U,
  0x3e31358dbe87c893U, 0xbd298cde3e9aee8eU, 0x3e50b75c3d257311U, 0x3e710ae0beb9a22dU,
  0x3c9e99093e8fd1a7U, 0x3c778042be151168U, 0xbe236d48be0793b8U, 0xbe892c85be024633U,
  0x3d18ee40bdf78c0cU, 0xbd48dafdbe7983aaU, 0x3dbe08ff3de494eaU, 0xbe18c969bbd60550U,
  0x3e3d5d8f3da6fe9aU, 0x3d42f5cc3e53c380U, 0x3d5adf1ebf1df08aU, 0x3e455fc13e704057U,
  0xbbc8a553bd5eb11fU, 0x3df393c63d3ae3e8U, 0xbe6b78aebaa4695bU, 0xbdf225ec3e567560U,
  0x3ec543d4bd0d7e4cU, 0xbe586d96be2b0400U, 0xbd0776c5be419d7cU, 0x3e377434be9191eeU,
  0xbc0124c2be5f0e1dU, 0x3dc762fdbdef79afU, 0x3cee6bfd3c859bc1U, 0x3d02194dbe5055b7U,
  0xbe888fac3dba05deU, 0xbd3a20e53d5be85aU, 0xbd0620f53beb195fU, 0xbe0c41e9bda0a63aU,
  0x3d8cae733c4d428eU, 0xbd1187f5bde823a9U, 0xbdff90cc3d8a8ce4U, 0xbde32fa93dcc7e27U,
  0x3ea0b7e3bc776e17U, 0xbea32064bcc1f9a0U, 0x3e06a42fbc2a3281U, 0x3e28ccdfbe795e85U,
  0x3e5507c8bdb64a2eU, 0xba344818be718711U, 0xbc50da0f3cdf1159U, 0xbc8984d3be8693dbU,
  0xbda4cc373de542d8U, 0xbe3b32a8bac03fbfU, 0xbda66a613e42903aU, 0xbe3e68debd61991fU,
  0x3e42c8cc3ce27cb2U, 0x3c0ffbe2beae29a7U, 0xbbf464e9bd01d58eU, 0x3c1928fe3c0a6b33U,
  0x3ed97769bd15edbaU, 0xbeb51176bd337d73U, 0x3dd0c1aabdd40f62U, 0x3e17ad30bd970796U,
  0x3dd744b0bd14084cU, 0xbccff027be96f4d2U, 0xbcc8406fbd0c71e0U, 0xbe16af10be729153U,
  0xbe6d561f3d959c25U, 0xbdc40c003c73267eU, 0xbd9c94993e3e6248U, 0xbe5fdb1b3dc854a7U,
  0xbce03c1bbe42b54bU, 0xbe6a1452be6756e0U, 0xbe7824b33d058a7dU, 0xbe2ef9ce3eba45d3U,
  0xbea2f955bd00ad96U, 0xbe0392bf3d3d1e0fU, 0x3e918230be2bf7c1U, 0x3e79a3aebd5fac31U,
  0x3e6afa1bbe9dca4eU, 0xbdb664b1be893875U, 0xbde6f3debde2fff9U, 0xbbecd0c23d275a71U,
  0x3e022daaba9bc930U, 0x3c702e44be82bbe4U, 0xbe7f85543db846c7U, 0xbd9f6e2abcad4435U,
  0xbd5fb58bbe6a1750U, 0xbe70caeebd68a11eU, 0xbe5905063d080d8bU, 0xbe01d8bd3e42a1b2U,
  0xbebfb4c9bd5e35c8U, 0xbdf2858bbd3cf06eU, 0x3d9afa20be22d5d4U, 0x3d74c900bd8dcb6dU,
  0x3e50efe1be867ca7U, 0xbd48770abe61c36fU, 0xbda0bd7cbdafa4b4U, 0x3ca4bcfe3d8504e5U,
  0xbbb398053c3e87f3U, 0x3dafadb4be0ced99U, 0xbe965aca3d9dd13aU, 0x3e16b966bd1a62e1U,
  0xbe8099e4be6be2b7U, 0xbe6902e8bd082837U, 0xbe199a513c345847U, 0xbe501f7d3e349b40U,
  0xbe85d835bc3fecf8U, 0xbe174babbe9c5dbdU, 0x3d07ca56be30f157U, 0x3d78d827bdd5e7a0U,
  0x3e551f0bbe4a6ac1U, 0x3cca5f56be83eaefU, 0xbd15f3f13c81a196U, 0x3e2e58a13d804b4aU,
  0xbdee4fbdbdb62d3eU, 0x3e4329e7bc1ea603U, 0xbe7dd92a3e30dc10U, 0x3e43c0d3bd94582aU,
  0x3e3210ab3e11b764U, 0x3d89e3ee3e144bd6U, 0xbd945deabd89386eU, 0xbeada816bcc5570cU,
  0xbe832374bda5d0c6U, 0xbec80df2bdb1c3d8U, 0x3e03f88b3d4b9499U, 0xbe05b6c3be3955c5U,
  0xbdc2b2a83d364db9U, 0xbe5e50ff3e3ef885U, 0xbe1f73ca3e529e9eU, 0xbe273caf3d963b55U,
  0xbe27cd85be22a0a3U, 0xbddc657bbd90aa6bU, 0x3d41546b3c0bb2fbU, 0x3e3e9d1e3e03b68aU,
  0xbcb4e9fabc8d0cd0U, 0x3c88d4e63d893887U, 0x3c93e1c1bee86b3eU, 0xbe537ffabd0edaccU,
  0xbeda3a50bcd0e826U, 0xbd9440f6bca4051bU, 0xbcfa2248be13e3bdU, 0xbcf99e58be780515U,
  0x3db679d4bdb921f2U, 0xbe7f567d3db5c98fU, 0xbdeac7083dde267aU, 0x3ca7595fbdee1aa2U,
  0xbebfeb85bd8d6141U, 0xbd970bddbd3a259aU, 0x3d018d303e6d7884U, 0x3e1a5bff3cf57975U,
  0xbe95d04bbd931988U, 0xbcc6be923e639875U, 0x3e84429abf092a6aU, 0xbea28630bd08765dU,
  0xbeb39350be0b08c7U, 0xbe0590f2bdda83fcU, 0xbe11294fbdcfe8a7U, 0x3d9bd3bfbe57e8a7U,
  0x3e8deeee3e1eb9b2U, 0xbf0915543c8e21c6U, 0xbd869c793d7e374dU, 0x3d97fe1bbdbda187U,
  0xbe4f8521bd8f1399U, 0x3d4d6ea1bd9c48b9U, 0xbe2c3ecc3ec2e262U, 0x3d63d8733d588fceU,
  0xbdbaccc5be4ee84cU, 0xbd0de40ebe8cdbd0U, 0xbcf8cc14be0e49e9U, 0xbe3cb383be2c6307U,
  0x3d8b6b5e3e29a9c5U, 0x3dc7ef82be0b7e46U, 0xbee19335be1b5ae2U, 0xbe4ef84fbc537679U,
  0xbdef9a64bcf1c438U, 0xbb71f1d93ca6873bU, 0xbdc4454c3e251a2bU, 0xbeb26e99bee37df8U,
  0xbc954cacbe083e5aU, 0xbe2024c03e1de51eU, 0xbda12d043e46e34eU, 0xbe82f695bc75bb51U,
  0xbd46385fbe73c4a8U, 0xbdad8133be3607a6U, 0x3d55dabebe160bf6U, 0xbde0f6a03c7cf48cU,
  0xbdbff8ebbd1784e4U, 0x3da662bbbd78a5c8U, 0xbe22ebeabde2cf57U, 0xbe1c37dabdb16fccU,
  0x3bf49cc93ab0a215U, 0xbe4e0a473de37333U, 0xbd05d5543e6640e7U, 0xbea45410beba3d81U,
  0x3d5388a1bc697aadU, 0xbcce0df93d943aafU, 0x3b9019723b7bc41bU, 0xbe7d7cd5bd4370dcU,
  0xbe1a0b54be3d739bU, 0x3c9911e5bd0820beU, 0x3d861df4bdfe198aU, 0xbbaaa3dabe0b964cU,
  0xbe8266cabd00a086U, 0x3d8375333de8c9f2U, 0xbe94f8fcbcc3ea42U, 0xbe5b418c3cf2b9b6U,
  0x3e2edf92bdc0a49fU, 0xbe44f0073e3f79d1U, 0xbdae7bb83e94d017U, 0xbea33c65be0ab676U,
  0x3d392c20bd417addU, 0xbba93421bd7fb09dU, 0xbe62fd2a3d067f21U, 0xbeb289ebbd9efee6U,
  0xbd65ef65bd0d61d5U, 0xbe42a1ac3d24c2abU, 0x3ccffc6dbecbada1U, 0x3e4461953e551a22U,
  0x3e5cb5053e3f3184U, 0x3e34bc6d3b833e05U, 0x3d5b1c81bcdd470eU, 0xbd8de1de3d694628U,
  0x3e1297dbba68f839U, 0x3e67cf00bb51b41aU, 0xbe07ffb43e3159a4U, 0xbe05b37dbe6112d6U,
  0xbe8cc9f63dd3eaa8U, 0xbc0909c83e38ee6aU, 0x3cc427663e407d42U, 0xbe9dce4bbd098b08U,
  0x3c0438dabe33690dU, 0xbd9dd70a3d260677U, 0xbd6a3987be92833fU, 0x3dce63723e570cb2U,
  0x3e08d1863e2a1bc5U, 0x3e1beb323d59f14dU, 0xbe3e85ba3dcab7b8U, 0xbe5e0338bcd21c5bU,
  0x3e2e1f70bc8c2751U, 0x3df8a58b3d0ab4d8U, 0xbdc775b03da5592eU, 0x3d78fedbbe07fca0U,
  0xbe9945463d6eedfaU, 0x3d94e9713e14224aU, 0x3cd14094bcf991b8U, 0xbe94e4f2bdec7d27U,
  0x3ca99f1c3df9a097U, 0xbe6016fa3d583d91U, 0xbceaddf6be7a6953U, 0x3e3316ce3e1438b4U,
  0x3d1db6953e6a0ec0U, 0x3e67d6b53dc52fd1U, 0xbe36f9633d942d4eU, 0xbe89b421ba4a5947U,
  0x3d409f5c3bbb88f4U, 0x3e96d2343d54f5f9U, 0xbe2dbd093e387ac0U, 0x3d8fe7babd4e2348U,
  0xbe3379a3be0039eeU, 0x3da5264d3e666a63U, 0x3c830460bd947251U, 0xbd92b7a53d6df56fU,
  0xbd251d463e3ef9f8U, 0x3df355fd3e66d459U, 0x3c2077b53e00b3aeU, 0xbd89d98fbb8d94c2U,
  0xbe2a576bbd8cbbabU, 0x3e198b1e3e2af059U, 0x3d8c5b763d82b658U, 0x3e25dcb8bc353493U,
  0xbd85ca853da7e020U, 0x3bf8d15cbcb78ba9U, 0x3db617e03e376706U, 0xbc93066e3e351e19U,
  0xbd811569bb9d4fb5U, 0x3e0245fd3d3708f9U, 0x3d9e7bc0bce7aff6U, 0x3da700633dd1944dU,
  0x3d13cf463dcfe675U, 0x3dd124d93e27a593U, 0x3ca4d4803e29ba93U, 0xbdd10b423c356950U,
  0xbdc657043cf39ffbU, 0x3e26149b3e4820fdU, 0x3d3060793e755e1cU, 0x3dff40f73df9017bU,
  0xbc713d003ce3602eU, 0xbcf913f5bd0e18a5U, 0x3e37ef3d3e241d36U, 0x3cb206463cf4b955U,
  0xbc586a44bccf3c2dU, 0x3d0109ba3d250e5bU, 0x3e27ddb43aef9e9eU, 0x3ca785f93dfaea6dU,
  0x3bbce63c3cc5e035U, 0x3d9781393dad399cU, 0x3c4775d83e03ff6cU, 0xbdbf597a3c0e3d2aU,
  0xbdbe5615bc688973U, 0x3ce5995b3e05abffU, 0x3dc89d1c3e716c49U, 0x3e5e17933dc2df93U,
  0x3d7e29b0bd34eb3aU, 0xbe0203b7bdc6bcceU, 0x3def22f4bda6393fU, 0x3d85a818bd714a4aU,
  0x3c18d305bd165e99U, 0x3c827c8e3da41e39U, 0x3e1f3701bda46865U, 0x3da4c9923df47f64U,
  0xbcb89d0fbd6f1f7aU, 0x3d2a41bd3e2f93c6U, 0x3dfa6cf33d9ae812U, 0xbda82e4b3de8e6c5U,
  0x3b8adbf23d0828f7U, 0x3e879a64bdbdb119U, 0xbde651f5bdfe81ecU, 0xbe30fe8f3f0c29cfU,
  0xbe63ca97be68536dU, 0x3e10c6c93c799711U, 0x3d8b2eaabd3186fcU, 0xbe5660dc3c8fdb03U,
  0x3d2e4fccbcd4b4a4U, 0x3d395d9f3e53be50U, 0xbe49d6d13ef69027U, 0x3dc2069dbee0f24eU,
  0x3d4325d7be0f3f22U, 0x3de3d1c63de3df48U, 0xbebbfe7bbb422f5dU, 0xbe80d9543da9ac7cU,
  0xb88320773d16ee1bU, 0x3e124a073d9b586fU, 0xbe7ceed4bd8f4f59U, 0xbe3a58e13f19b425U,
  0xbe670bbfbea98cedU, 0x3cd672503c9568bdU, 0xbdc78f01bdd581fbU, 0x3d2f5cedbda104b6U,
  0xbc4f125f3d32a254U, 0x3ddc35273da6d49fU, 0xbdf08ea83e8b3042U, 0x3d92957bbe91edf2U,
  0x3dfaf0223bf12a1cU, 0x3e0a819e3e55ab49U, 0xbf133fffbe0da6e8U, 0xbeb3fc293e8c6714U,
  0xbd3f5e76bd169818U, 0x3e53278d3c35c040U, 0xbeabf185bc4fa64eU, 0xbc808ed53f1d1ef7U,
  0xbe872c0dbee7137eU, 0x3ddac71abd05e282U, 0xbeb3c05fbd2cbd03U, 0x3dc90f40bd35b5ceU,
  0xbd80dc8f3d6157b8U, 0x3e95afa6bdc50aecU, 0x3c8203bc3e8a1c8aU, 0x3eb6e378be2cb928U,
  0x3d8a92a4bec74937U, 0x3d049a123d88e8d0U, 0x3e70163f3de9565fU, 0x3e52874bbe61d0f2U,
  0x3d26b2623dacfcaeU, 0x3eb1da2a3d955a82U, 0xbe2a20a73e1ac4b4U, 0x3d811bca3bd8fdd2U,
  0xbe0e3aabbe302df3U, 0xbe2dd3e3bcb541acU, 0x3e0b65a2bd9b3f1fU, 0x3e41fc9a3e1ae7d4U,
  0x3e5e0d573e5cd41eU, 0x3d69f008bdb13dd2U, 0x3dd1db473dee05b2U, 0xbd8d9f96be32d611U,
  0x3ddd3682bec3bc67U, 0x3dec8516be2ced5dU, 0x3dd4e25c3e1f0584U, 0x3e0101f4be1ab3f1U,
  0xbdad7e003e22c10eU, 0x3df543c63c151262U, 0x3c418dbf3dd02e48U, 0x3c2c855ebc7e1820U,
  0x3d8e8904be4408aeU, 0xbe4f59a43e0d9a5bU, 0x3cf955663ca1d04aU, 0x3dee33a23d80279bU,
  0x3d621f6a3e07feefU, 0x3e1077cb3c93f1fdU, 0x3c20a6f9bd14014aU, 0xbd968fbbbe08a8a6U,
  0x3d899d33bedfb37dU, 0x3ddd3945bebff7c9U, 0x3ddf1e543e5568feU, 0x3e45fa40bea3e536U,
  0x3d269ed93c9aea12U, 0x3e37ff323c37a3a3U, 0x3de510263d75675cU, 0x3e369ad03b52d97dU,
  0x3e029664bcb6544cU, 0xbe61e6733db0a6d1U, 0x3dde36633ae30438U, 0x3d3026923dfd4d2bU,
  0x3cf701b63dea120fU, 0x3e0895b73bf12381U, 0x3e022f2fbe215d21U, 0xbe2f30adbdcfb3ecU,
  0x3e0eb35abea05e4bU, 0x3cf514b23dbda294U, 0x3c975fa03e1a6587U, 0x3c917cdbbc8d656bU,
  0xbe2700c33e608be9U, 0x3d3b0081be8b9f0fU, 0x3da821b4bde03f93U, 0x3da7856f3eafacbdU,
  0x3e49257bbe7235b1U, 0xbdb4bcc9bf211712U, 0x3e3a95dd3e6bb0c1U, 0x3e42a0a03e383e3dU,
  0xbe2064243d619314U, 0xbc29fb75ba455673U, 0x3e170c71bc9bcecfU, 0x3d1d849b3d4442bfU,
  0x3de24ac7bd5aba3fU, 0xbd0e98053dd747a0U, 0xbc0791953e758da7U, 0xbd08fee73d5d78beU,
  0xbdf6036a3e441105U, 0x3ddf4de8be8aa2f3U, 0x3e526ce1bd91a882U, 0x3c7d19b83d9b7c08U,
  0xbcae0224be1e93d2U, 0xbd874dd7bef0c226U, 0x3e1a93a83d94f57fU, 0x3bb2020e3d1c9a34U,
  0xbe1e6bc93d660b98U, 0xbdfdacf13e2a32eaU, 0x3bd753dbbdee3812U, 0x3d8d79c23d64a24dU,
  0x3dbb78a9beb040cdU, 0xbd65e2afbca47ad1U, 0x3d4f35cd3e215672U, 0x3d4433fe3e5dca0bU,
  0xbe03b1053e367fafU, 0xbddad5e6be430025U, 0x3eb34255bd3088edU, 0x3ccd39dc3cd96e47U,
  0x3d977e55be2115adU, 0x3dbad488bf1cc3adU, 0xbd36d0a6bda7ded1U, 0x3d07017abca02a82U,
  0xbe58d5403dac22f4U, 0xbe4dc27d3e19ae77U, 0xbda5907dbe59e4c7U, 0xbe0bd62f3d91675bU,
  0x3e0e30093cb71207U, 0x3c05144e3e420b7bU, 0xbd88112bbdb1da95U, 0x3d076b7ebcaae2b2U,
  0xbe3229a7bd04fef9U, 0x3dbebace3eaa2659U, 0x3dd053d23d8f0f59U, 0x3ddd5ed7bb817497U,
  0xbe883cc63e7406d3U, 0xbec17e95be1d916fU, 0x3dc9351c3ea046d4U, 0xbcacabc13d3a48ceU,
  0x3d8de1b5bbd32364U, 0x3d1be873be922e8eU, 0xbd2da9c1be53ad30U, 0xbdc01321bcee6ce9U,
  0x3cb28f803bec7f55U, 0x3e41bdfabd9ba145U, 0xbdd32251be813fcfU, 0x3cc9caa43e174197U,
  0xbe64230fbddcdc24U, 0xbd325e603e86f422U, 0xbc9dc64c3c236b20U, 0xbbceee143dcb4e0aU,
  0xbd8f46f03e1fea87U, 0xbe7dc071bd97d9faU, 0x3dd7997f3ecf560dU, 0xbdaafa023dd53215U,
  0x3d25b87e3d02fb2bU, 0x3e0c52d8be7a2055U, 0x3dbe8273bdffe0cfU, 0x3d9978f73e43aaf0U,
  0xbdeada84be0aa3f7U, 0x3e2a73c23d0602a0U, 0xbc899307beffbad6U, 0x3c4506743e346b2bU,
  0xbe74e01abea443e4U, 0x3e4a78343dc76930U, 0xbdff73d3bdb5dbcdU, 0x3dff7e563e0caeaeU,
  0xbbd5d44c3e22bd97U, 0xbea86c50be6cf32eU, 0x3e4f0aac3df0d303U, 0x3e0d07703d146cf9U,
  0xbd4397943cdf96efU, 0x3e670e03be7bafe6U, 0xbc9ad9a23c56cce6U, 0xbe2c89933e46f5a2U,
  0xbc458c0d3c2cc44aU, 0xbd9b80933d3a4e52U, 0xbdf5da97be450c7bU, 0xbed5db913d56f17fU,
  0x3d91b040bccbd5fdU, 0x3e7c171c3dfe41c4U, 0x3eea7ebdbe3bd26aU, 0x3e5a9d0e3db825a2U,
  0x3e43bcc2be020840U, 0xbe4470f5be0291ffU, 0xbe841bbfbe340688U, 0x3e079a54bd779997U,
  0xbe3aff82ba913606U, 0x3e481416be53347dU, 0x3d3253ad3d94cab0U, 0xbe75331fbd94aeaeU,
  0xbc364b98bde5638aU, 0xbe126b02bc32f913U, 0xbba8c94dbdf11069U, 0xbe869f573dbd4573U,
  0xbd9e2e2dbcd8ae80U, 0x3e30d39cbe189e76U, 0x3e036835be5f9d9fU, 0x3e3e296abcbc344cU,
  0x3e13edac3df2370eU, 0xbc21b0f3bd651986U, 0xbe9336f2bdf329deU, 0x3e2f6ce43d214ba9U,
  0xbd8748b63d53284fU, 0x3dd42725bdbe6de7U, 0x3cfa31b43d494ef8U, 0x3e027f243e352aabU,
  0xbe36d9e6be883ee7U, 0xbdecd57f3e165b50U, 0x3de2b5ffbd6b6093U, 0xbe7a9c1c3d5cfd5cU,
  0xbbfeb7ffbe3c0c55U, 0x3e803a64bdbac179U, 0x3da57156bde3c5b7U, 0x3e907aa2bcb52d05U,
  0x3e443cb53e1d360eU, 0x3d9379e83dcc17b6U, 0xbeb6339ebdc8a757U, 0x3d5d87823d2765ccU,
  0x3e6738873ddcba75U, 0x3dc8b94abd00ed8aU, 0x3dcd52ccbd76712bU, 0x3d49c8773d4231e3U,
  0xbce75b0ebd7a396cU, 0xba077486bea2a6eaU, 0xbe95011e3db040bcU, 0xbde49212be296b2aU,
  0x3d8f234c3da6b5ebU, 0xbe31611fbe18d579U, 0x3da72dc13df59d58U, 0x3ac3d4a83db3bf3aU,
  0xbd17d540be2114f0U, 0xbe388428bcfb9d1cU, 0x3da144a13e0dc583U, 0x3dab2d05beea7340U,
  0xbe7c014a3b3366b6U, 0xbdb537eabbc36b3aU, 0xbc922eeb3cc71a8cU, 0xbdff115cbde6e35bU,
  0xbd3fc45bbc8e647eU, 0xbb1696b2bea1a640U, 0xbe363c263cf63250U, 0xbe1af56bbe89994aU,
  0x3dd053963e01407eU, 0xbd9a3dcdbd8cb009U, 0x3d89115f3dc611abU, 0xbe124d4e3dbf70ddU,
  0xbdc95e8ebdb432faU, 0xbdf3dc713d722d27U, 0xbcad6cab3dd5d36dU, 0x3d9aafb8beac5a35U,
  0xbd97c7a93d0f719fU, 0xbe21d216bc788984U, 0x3ac3c2883cf054d1U, 0xbe3abb8fbe2ca390U,
  0xbd9ce1343c92b93bU, 0x3de3eda9be5ce40dU, 0xbe37a5703e00adf8U, 0xbe934feebec0413dU,
  0x3de44d6c3d4aeac6U, 0xbdef4368bdd775eeU, 0x3abdedf73dbf46c1U, 0xbe3108ab3e210f1cU,
  0xbe1c8206bd4d0109U, 0xbe352e1e3ded7295U, 0x3e1a4df83e4a48f2U, 0x3cc85283bea514b5U,
  0xbc8c40b13cfce533U, 0xbe1af449bc8c53a3U, 0x3c8e0a433d0fb2aeU, 0xbe4189503b4cdac2U,
  0x3d731452bceca78fU, 0xbe5e03acbde4aaa2U, 0xbe0d9f2fbc61e0cbU, 0x3c13123ebdcfa6b0U,
  0xbddd7d60bc0e350eU, 0x3d4f33693dbeac6fU, 0xbe340a313cc301c2U, 0xbe8007b03dd290e2U,
  0xbdb55c9d3c96365bU, 0xbd5d64643d00873aU, 0x3d04ee833cfc13d6U, 0xbe7a3f11bdb1c03dU,
  0xbbe86d23bd6a8db4U, 0xbdf08ed63ca4318aU, 0xbe7452613d87e537U, 0xbded033abd02ba29U,
  0x3d5eff6bbca0892cU, 0xbe319ff1be26ed0fU, 0xbdaf3998bc82310aU, 0xbd8c33373d3ca761U,
  0xbda84f94bc866a58U, 0xbb9a90473d01be8bU, 0xbe25de743c7a090cU, 0xbe4016373de8bcc0U,
  0xbe40ce5b3d50de1cU, 0xbd9948d23d8291a3U, 0xbc5b7ed93dc9bc08U, 0xbe3b8691be1bcb50U,
  0xbd81baa3bcd0605eU, 0xbdfc7315bdc1ff14U, 0xbe06663ebc4b0eeeU, 0xbe6ef34ebe28f7f3U,
  0xbc7b5c4ebcc6cd21U, 0xbdb97903bd0696d1U, 0xbd75e7f33c51bb65U, 0xbd0f55d83de3815bU,
  0xbdba5babbc246affU, 0xbd37fa093dc12b74U, 0xbe053bd13dabc408U, 0xbe6d93ef3dd1274fU,
  0xbe5f4454bccedad0U, 0x3c78f48e3dbc023aU, 0xbcf4e3f8bcb3d47fU, 0xbe7f95cbbd9a4ec1U,
  0xbb85ef863b61b84eU, 0xbe310b78bd93156bU, 0xbddac37e3d584404U, 0xbe0cae22be1db9f9U,
  0x3e8200b43e58cbd3U, 0x3e3d7496bb9f1e9fU, 0xbe027e9dbde73ebeU, 0xbe6f58863bc1ff10U,
  0x3e990e683e083a6cU, 0x3d327da93e6f638dU, 0xbca41d013c65653dU, 0xbe9952ee3d7cb7a4U,
  0xbe9698723df41188U, 0xbe141bdabd1bf5b1U, 0x3c26abfbbc83fbe6U, 0xbd1bb867bc470f61U,
  0xbe89e8fdbe17f19bU, 0x3d506f7bbe736658U, 0x3cdea1e03d8d756eU, 0xbe041702bd945bb0U,
  0x3c1de3b43ddf9f43U, 0x3dec5a5f3d3bde08U, 0xbdf0e337bd6da63fU, 0xbe3623103e0eb905U,
  0x3de90e003e0d2900U, 0xbd5f918e3db96c3dU, 0x3b9a9cfcbca7d0c5U, 0xbe9fedc13e43f76bU,
  0xbe380e243e16d857U, 0xbddc5fcfbdb53ee6U, 0x3d1f77c3be13bba5U, 0xbd45c0a6bc0217a3U,
  0xbe968693be815f6aU, 0x3d2cafcabe9c11c8U, 0x3d023bf43dc6c41eU, 0x3de0a0803d9c996cU,
  0x3e190ece3d1cadd6U, 0x3e20c15a3dbd0730U, 0xbe03ee98bdf25d35U, 0xbda4e6933e79345cU,
  0x3e11de1f3e570e5cU, 0xbcae64bcbd2253cfU, 0xbc8fa45bbdaf0aeaU, 0xbdebe97e3e73477dU,
  0xbe146452bd2cabebU, 0xbe185c3fbe762d1aU, 0x3d7a94debe21dd4fU, 0xbc86e32abd43ae35U,
  0xbe81089cbe6b1648U, 0x3d370a4fbe8aacf7U, 0xbda6b1093e22828eU, 0x3e7380723dd6bdc1U,
  0x3daf272b3dcafaf5U, 0x3e3c2f643d9c59e6U, 0xbc4aa0e03dc687c6U, 0xbd4561693db82cbaU,
  0x3d6c28263e372cc8U, 0xbe4e52853ddcf550U, 0xbcd6b93c3e5e8b46U, 0x3d92895339ff0616U,
  0x3d85c0053e28e69bU, 0x3e6dc6853c810219U, 0x3da07e2e3d9c22c4U, 0x3def804a3e4949c2U,
  0xbe26174c3c994812U, 0x3d159bc33d47d9eeU, 0x3c04dcf13dbcd108U, 0xbdef57953e2903efU,
  0x3e0aed853e85a536U, 0x3e28df1d3df2e7a3U, 0x3d88be823e16527eU, 0x3d61392c3ced05f9U,
  0x3da0489a3defd9a7U, 0xbdfa72043de13f2fU, 0x3cc6b7f53e96814eU, 0x3b42e4023d80c2cdU,
  0xbcfa5b4f3cb2e701U, 0x3e079c09bc97f0c0U, 0x3e216c1d3db894d6U, 0x3e07a3b03e3939f5U,
  0xbcb1cee73c0449e6U, 0x3ba8d6003ba83920U, 0x3d7c67bd3df64327U, 0x3d8468913d7eeb4bU,
  0x3d83222c3d138056U, 0x3d3b17513de39dfdU, 0xbc8cae1b3e2d6496U, 0x3cde93163da25cc8U,
  0x3e15117d3d89931dU, 0xbe8de5973ccc5c77U, 0x3d22636c3e6c4b3fU, 0x3d947de73d89edb0U,
  0xbda20eb23da659f9U, 0x3e350077bdf7802cU, 0x3e185359bb4c8aa1U, 0x3da756813cb594d4U,
  0x3d663d6fbb775499U, 0xbd96dd443d506204U, 0x3e08a4213dc5f8f6U, 0x3d7ec50b3de166edU,
  0xbca6a07abd632048U, 0xbdcc28273cd9f443U, 0xbe796dbbbdcc2e87U, 0x3b80d836be2cec12U,
  0xbe09c2d73e3d69c8U, 0xbdb50cb93cc15437U, 0xbe5614a6bd258963U, 0xbe41a1a73da00cddU,
  0x3c9f0821bd8dbe87U, 0x3da3b5023e036855U, 0x3d88fe84bdd48591U, 0xbe429e3fbe04974fU,
  0x3d7d01f9bcc69976U, 0xbe0a4e343cf2d7c3U, 0xbe8fdb46bb0f96b0U, 0xbd1028673d2739caU,
  0x3cfdf9f03d934d77U, 0xbddeb829bdf76c42U, 0xbe7b5cabbca8c095U, 0xbd235eebbe0d81ddU,
  0xbd9e0af23d8b00b6U, 0xbe052e503dc352c7U, 0xbe2c73f43d1bdcf8U, 0xbe1b36e33e441f1dU,
  0xbda1ecfbbe0b5278U, 0x3d9582573dbd6b40U, 0x3cdc35c8bca70a31U, 0xbe1d8803bdad298cU,
  0x3d48addd3d35af7eU, 0xbd69c80abe1abf64U, 0xbe8a2e09bd62e2b2U, 0xbdc6289abc80d3faU,
  0x3d174e3b3df18948U, 0xbd8e43473cc02fefU, 0xbe6ffa5dbd2ffcb7U, 0x3d53806fbdde52c1U,
  0xbd6063c7bcc42a32U, 0xbe0fbbf43dad8345U, 0xbde14e503d61bd4cU, 0xbe38cf473e0f185fU,
  0xbdd40d09be852626U, 0x3d86271b3d781b4cU, 0x3d8a2effbd249e8bU, 0xbe3ad25abc24d996U,
  0x3dc2239c3db0e6a2U, 0xbdce3109be083684U, 0xbe5f17623c70067eU, 0xbc947e35bdcc5641U,
  0x3c74bcf9b8dc3f2dU, 0x3e091af83e2952cfU, 0x3d3790cfbd1e18ebU, 0xbdb580063d0be863U,
  0xbc35cf7b3e10925cU, 0xbcefd24f3cada779U, 0xbbc42a643d260982U, 0x3e3f35adbceabd75U,
  0x3da0dd2e3e41e995U, 0x3e093ed6bdafea98U, 0x3d9e4efbbc343373U, 0x3d97dd693e210e16U,
  0xbdea0d4d3d1b2c0bU, 0x3d15ea683d44078bU, 0xbd30c2f5bd477598U, 0xbcf511843e31c8cdU,
