/**
  ******************************************************************************
  * @file    combination_data_params.c
  * @author  AST Embedded Analytics Research Platform
  * @date    Wed Aug 23 19:26:33 2023
  * @brief   AI Tool Automatic Code Generator for Embedded NN computing
  ******************************************************************************
  * Copyright (c) 2023 STMicroelectronics.
  * All rights reserved.
  *
  * This software is licensed under terms that can be found in the LICENSE file
  * in the root directory of this software component.
  * If no LICENSE file comes with this software, it is provided AS-IS.
  ******************************************************************************
  */

#include "combination_data_params.h"


/**  Activations Section  ****************************************************/
ai_handle g_combination_activations_table[1 + 2] = {
  AI_HANDLE_PTR(AI_MAGIC_MARKER),
  AI_HANDLE_PTR(NULL),
  AI_HANDLE_PTR(AI_MAGIC_MARKER),
};




/**  Weights Section  ********************************************************/
AI_ALIGNED(32)
const ai_u64 s_combination_input_4_bias_array_u64[32] = {
  0x414a5e7cbfecd5c5U, 0xc0e479074167fb1bU, 0xc0e6371e4122968dU, 0x402a0df6c11ec517U,
  0xc156b98fc0e1f372U, 0x408207c4c07627b4U, 0xc131b4b840a817c4U, 0xc0e5ab274074d126U,
  0xc149ab74c11cd136U, 0xc12e8c084187c791U, 0x3f04cc533fc9ae36U, 0xc19c8b07407cf0eeU,
  0xc041ad01c1407bd8U, 0xc07f0337c12f7a46U, 0xc02e225fc11f3f7eU, 0xc106353e405a747eU,
  0xc011e5cec063f6f5U, 0xc12f2b96c1570d42U, 0xc076a6893f5fe8d1U, 0xc0ab78553ffeddd4U,
  0xc138361cc13e8ebfU, 0xc0054346c10ffe41U, 0xbeac71bf41005f12U, 0xc07a7388bfb4e662U,
  0x4126ce49c14126bdU, 0x4073c86fc0dcd387U, 0xc0a1268240aa434fU, 0xc1c72ed33f26e4a8U,
  0xc07d8c94c136bbf5U, 0xbf511c51c136ea41U, 0xc0a5082bc11a5fcbU, 0x40a78cc43fc7ecc1U,
};

AI_ALIGNED(32)
const ai_u64 s_combination_input_12_weights_array_u64[6144] = {
  0xbac293c73e0b29daU, 0x3d1ec2db3d1d0506U, 0xbb4070a4bce4c99bU, 0xbd961f70bd04fa07U,
  0xbd6d3ac13d875959U, 0x3d15239bbdc47787U, 0xbb9ddc68be2435f1U, 0xbdc0175f3d2d63c9U,
  0x3d5d7142bdd1bd24U, 0x3cc18b3ebd3ed98cU, 0xbe44ba60bb4076bfU, 0x3c13e7d73d0d676cU,
  0x3c98e9d53db9d9faU, 0x3d11c45cbccf6190U, 0x3d75a344bcf58d7eU, 0x3d3e6f93bd3a07bcU,
  0xbdedb9893b84676aU, 0x3dc8550e3d13e073U, 0x3bb5c50cbca95cd2U, 0x3d4ccef7bced2510U,
  0x3d9847453ccf8892U, 0xbd84c5453d24144cU, 0xbe16760bbe192476U, 0x3d1feae13c8c99c8U,
  0x3c93f6943d9e508fU, 0xbd0c95a4bd8b939fU, 0x3c6a86e9be278ad7U, 0xbd1a9b0fbd2b906cU,
  0x3deda6ea3d1b49e1U, 0xbc800fef3db3d1daU, 0xbcebb293bdbbcae2U, 0x3d0cd3073da663e5U,
  0xbe3026be3d2babb4U, 0xbd3b5591bcf458a9U, 0x3c3fccd4bc9272cfU, 0x3b4b5d6fbdbe8a44U,
  0xbd97a8033c90730eU, 0xbe0385c0be17a8e5U, 0x3bdae9dfbd280109U, 0x3d06027b3e37201fU,
  0x3d35ec11bd8a97e2U, 0x3b9ca14bbe84c134U, 0xbe846888bd3d3610U, 0x3c7314653ccbdad5U,
  0xbca24e253d712102U, 0xbe23067a3c390c12U, 0xbe276673bd9458a8U, 0xbd2413c1bd9c99c9U,
  0xbc9db74abb8b5b51U, 0x3df07594bc5f2468U, 0xbd2a695c3d9b2714U, 0x3c354fa93a5d8fb8U,
  0x3d796f7dbe4e2f80U, 0xba7821483d9f252bU, 0x3c88203ebe09cb72U, 0x3c0180f5bd7297e3U,
  0xbd6613a13d93b707U, 0xbcbb8d49bd27f025U, 0x3d7cc92cbd98338fU, 0x3c8836ffbd970845U,
  0x3c81b06bbd5b6571U, 0xbc57de4a3dd88f04U, 0xbc373eacbcf4604aU, 0xbea85db4ba5f02ffU,
  0xbd638d2abe09d4d8U, 0xbde7dc9bbd0cce96U, 0x3dccd963bcde0ef3U, 0xbdcd41c9bd911d97U,
  0xbcbd74813cbf44a3U, 0xbe29fa16bc310425U, 0xbd01bf1cbd7b3addU, 0xbd89d6b53dd2e5a3U,
  0xbcdca8acbd43f38fU, 0x3b2cf394bccb7befU, 0xbdc81831bc2dcf84U, 0x3d8ab2a23cb974f8U,
  0x3df73f313cbedb7dU, 0xbe487a8b3d6a866dU, 0x3c5be2f9bc138092U, 0xbd29bfe1bdb9d294U,
  0x3d95d1cebd0ae2f6U, 0x3de744753d873f32U, 0xbd885f51bd172233U, 0xbc6db4463dd0f3a1U,
  0x3cef8f1cbe068540U, 0xbdcb55dc3d0f8448U, 0x3cc06602bdb2aedbU, 0xbdd9c94bbca690a2U,
  0xbda219803bc3f4f4U, 0xbd9d0a2f3cb4769bU, 0x3b047830be1a3b3eU, 0xbd9b9217be28bb21U,
  0x3d948d67bdbf3eadU, 0x3cf678ab3d3cafa4U, 0x3d0eabbdbda5d6b4U, 0xbe27db63bb8b8f82U,
  0x3c33cb2e3cf57798U, 0xbc146bde3ddeb3efU, 0xbe5488e33daab1b9U, 0x3c4ec142bdd6a7bfU,
  0xbe3b59113d9da34cU, 0x3dfde7ed3d9fb233U, 0xbc804fd93d3f4af0U, 0x3ce958d03d0ae193U,
  0xbe61b8e7be486170U, 0xbdcd4a273be8f868U, 0x3dad703abd0fd377U, 0xbd6705853e200b1bU,
  0x3c943922bd667255U, 0x3cc22fcfbe022813U, 0x3db9ab42bd313531U, 0x3d0f13a83d140846U,
  0xbe9b89e0bdca47e1U, 0xbd9e6258be1a364fU, 0xbcbd5e783e03ed9cU, 0x3c59c835bccdb9faU,
  0x3d223c743d762c92U, 0x3d8b57e5be31cae7U, 0x3c28d6603cbea245U, 0x3d545f3a3c376d70U,
  0xbd3dc3ad3c76e367U, 0x3bb40360bd531f79U, 0x3cc7b95c3cdd30f5U, 0x3c81943a3d208e8dU,
  0xbd8ac8b0bd578ecbU, 0x3d02ffa73d83ddbcU, 0xbe8a8bd0bdbb338fU, 0xbc803812bdc4e305U,
  0xbdab219cbc7a0adaU, 0x3b4e0ad73c43b453U, 0xbe399b273d941e10U, 0x3dc304473d2aadf2U,
  0xba77abdf3ceb52e9U, 0x3d31eaec3e4a5b5dU, 0x3c0276fdbc28f334U, 0x3d77c696bcfaa4fbU,
  0xbd9a6b7cbd1a278dU, 0xbe868d0e3d11470dU, 0x3d97f3ecbc83f851U, 0xbe56831f3d5ab5b2U,
  0xbd707daebcdaabf7U, 0x3db4176cbe09523eU, 0xbdb90039bdf81453U, 0x3d172ab93c5b87daU,
  0xbe15fd29bc83f567U, 0xbdb51db1bed5443eU, 0xbdba24eb3e0912feU, 0x3d99c01abdd4ad46U,
  0xbdee2fa4be9517f8U, 0x3d5c2aa9bde53a7bU, 0x3d86234c3dd9ca2bU, 0x3cdbb05f3d2b4be9U,
  0xbd1a1cfa3cf5dbb6U, 0x3b649d433b6b5cc6U, 0x3d89972c3d1ebd17U, 0xbda56462bd4fe894U,
  0x3cd016ebbe15a16cU, 0x3c0209a0bc934b61U, 0xbe811f96be35b7fdU, 0xbc4c9e5b3db1d545U,
  0xbcc8af963caed190U, 0x3d92a5bfbd8d2d5eU, 0xbdc7a8f93b931dc1U, 0x3d7dab523d1f0f9eU,
  0x3d3dff6e3e0dda8cU, 0xbd4d05493dfe45c8U, 0x3a185cca3c8d4b2eU, 0x3c2eefdebe2b2666U,
  0x3c956f683cf250f7U, 0xbdb5ece1bde98297U, 0x3d944e56bdc9d463U, 0xbdb1dacf3ce9a76bU,
  0x3d1559edbda931a4U, 0x3e0a433e3cd86044U, 0xbdb09bd9bd32904bU, 0x3dd20f39bc26e9fcU,
  0xbd2694c93d2712e1U, 0x3d8b8b80bd272cacU, 0xbd77c7fcbb33f9e8U, 0x3d80b3febda5f7c3U,
  0xbd3ad9a6bcf84e53U, 0xbc46d4633b9e9d55U, 0xbdbe84ca3db45b91U, 0x3dc357bbbcae1785U,
  0xbda89d333cc2458fU, 0xbd820a06bcc7758eU, 0xbcc150673d22f065U, 0xbc473296be067d04U,
  0xbceb46bdbd087c85U, 0xbc2e61bc3d1c9f8dU, 0xbdcfe6673d04be2bU, 0x3cf7e9fe3dcd7975U,
  0x3d558562be0050a7U, 0x3d94b1653d3b2d88U, 0x3d575d223bae54ffU, 0xbd052adc3d4bd8aeU,
  0xbd87295dbd282a1fU, 0x3d66ee393be71ef8U, 0x3ca293c93da0bd42U, 0x3d330c0f3db07693U,
  0xbdb6ccf4bc9354fcU, 0xbcced020bc58907dU, 0x3b100c533c828396U, 0xbd2959c4bd87501fU,
  0x3cb627d93cd9a095U, 0xbdf4231d3caa0a52U, 0xbd4abef2be949d67U, 0xbe09f76f3d315fc1U,
  0xbd3dfaa43bcc460eU, 0x3d4298ddbdc480c2U, 0xbd5072de3d437f1aU, 0xbdf1aebcbd71f3ceU,
  0xbd061545bc6826b1U, 0xbced31b1bd50ff09U, 0x3df8f26d3e341673U, 0x3c68597fbc17272fU,
  0x3d5b175c3d7cf92fU, 0xbc0994e03d350982U, 0xbd48e4973cafda46U, 0xbe0043f93d8d384bU,
  0x3d3969a2be1a42aaU, 0xbd417027bd0ca81bU, 0xbd4586bebd7fb480U, 0xbdac7cabbda88986U,
  0x3dbab175bd6009faU, 0x3d8502623d043a53U, 0xbce1c042bcd02c36U, 0xbd2e5d4a3d76d49dU,
  0xbd9fbb73bd5c1f8bU, 0xbcd8c8c6bd232023U, 0xbd95b3eebd98edb4U, 0xbe72084b3e08d671U,
  0xbdd9c6f6be29beb0U, 0xbd817c893d4a6d14U, 0xbcb0d3993db27a5aU, 0x3d15696d3d817230U,
  0x3d5d7156bc10cc1cU, 0xbd9b498b3c6703a6U, 0x3d067d48bd86fcc4U, 0xbe3c9f22bdb0f29dU,
  0xbdc77f46bd0740a6U, 0x3da1aaf8bcabf8a8U, 0xbdba7396bcb7a112U, 0xbe3aeb9bbdabc99aU,
  0xbd3cd1433d04baaeU, 0xbd8849f9be24e806U, 0x3db3cd193b95f753U, 0xbd3329333c8f91f9U,
  0xbd4681793d3b81e4U, 0x3c8d2ca1bc91ee53U, 0xbdd8eb10bccaac27U, 0xbde5b1b33b1a160aU,
  0xbc040ab2bd132512U, 0xbbd237eabe038ed7U, 0xbd33f07abd69fee1U, 0x3d5b2e3b3c20fb1cU,
  0x3d2f3eb93d774b6dU, 0xbd1fb01fbc9f6176U, 0xbe815438ba86c081U, 0x3d8ab3bf3ccf5d5eU,
  0xbdc80d9ebe611d38U, 0x3c7f63ed3c8cbcd1U, 0x3dfa44a7bd39bce7U, 0x3c763ba73de0754eU,
  0xbe474cb5bc337bf5U, 0xbeb538d43d90d431U, 0x3ce04d743e089774U, 0x3d171a9fbee4d6aaU,
  0xbe929c7c3d75688cU, 0xbd924e973c6493fdU, 0xbd832f453d53a353U, 0xbd738bc4be070166U,
  0xbdc30bbc3d44216eU, 0x3d3f1b4dbbfe5d4aU, 0xbd5cdc44bca19514U, 0xbe35670dbd84dad1U,
  0xbdf101e83c2f2bbbU, 0xbd334830bd9894bdU, 0x3d344e963d8ea293U, 0x3d7f965ebcf982c2U,
  0xbc16827f3d6e04c0U, 0x3d6109f7bdfc46b7U, 0x3dfb2039bcfbc5e7U, 0xbc3b7a6bbd4f60f0U,
  0xbc9c68583de41302U, 0x3c497983bd7bb735U, 0xbc599eb6bd4d44c2U, 0x3b4cbbc63d53f094U,
  0xbe0e4101bde036adU, 0xbc5adbe1bd04ddcfU, 0xbd2d033bbd791d87U, 0xbd933d4c3caecd79U,
  0x3d05ebadbd0d2c47U, 0xbec4aaa2bcd2d46cU, 0x3cdb925dbb38dde7U, 0xbd894c293d057e36U,
  0xbd18a6bc3d1aefe8U, 0xbd957f27bdada476U, 0xbd03f8a3bdb40694U, 0x3c0c0e55bd9093a1U,
  0x3d17149c3d9f080dU, 0xbdb17790bcf43e1bU, 0xbd8229c4bb8556ceU, 0x3d36fbafbd12c1f5U,
  0xbd1c12f9bd0a1a77U, 0xbce0553abdf82f05U, 0xbd6f5bc0bdb35d77U, 0x3d70e1b43cc91d0dU,
  0x3d8862e03d31f44bU, 0x3c91692cbe093addU, 0x3d8ca1703c3c5c06U, 0xbe48ce07be30a348U,
  0xbcd14f0a3d911110U, 0xbb2a069a3da9d543U, 0xbd1a7f99bcccb3aeU, 0x3c910b72be899584U,
  0x3dbc82ec3df5f201U, 0x3ce69fb33c405df5U, 0x3db2b06d3c3566e7U, 0xbdfceec9bd3525efU,
  0xbe091381bcc5f6eaU, 0xbcf2c262be081b12U, 0xbd718f6bbdb4dffcU, 0xbbb79cf03cef28c5U,
  0xbc688b743bc49dfbU, 0xbebb44f63c566b92U, 0x3d2d1a67bcd4511aU, 0x3dbb30213d0eb38cU,
  0x3b41f9263ce0b543U, 0x38c0e34cbdacf91aU, 0xbdd88a673dc69972U, 0x3c2ed077bdc1c218U,
  0xbd88bbc23d2f1fa7U, 0xbdb7e05abd155e79U, 0xbe760be1bdb3c4adU, 0x3da0288a3be77b5aU,
  0x3bc22b03bbaba039U, 0xbdae143ebdd6243bU, 0xbdb1af47be1095feU, 0x3db48d83bd136790U,
  0xbc3534e33cdb5256U, 0x3d8fd90b3cb4b340U, 0x3b51dce8bd64821eU, 0xbd99ada4be6fb2eaU,
  0x3dde40cc3d439d6fU, 0x3c7521973dafc740U, 0x3da442d3bc483510U, 0x3d3856e7bac74c06U,
  0x3c136cf23daa1b60U, 0x3cdbfba63d4aac9dU, 0x3dd4efbfba81544dU, 0xbdcb75803da500bbU,
  0xbc458fe2bcf0d66dU, 0x3da53232bdbf2302U, 0xbd6bf58ebd1a46eeU, 0x3d53f3fc3d5a97a0U,
  0x3cde672f3d06d86eU, 0xbead5272bcb522d9U, 0x3d1a2d54bbad04e3U, 0x3d5a7f9d3ccb2713U,
  0x3b5e68133dcc9c7dU, 0x3d0c6b113d7ddd0dU, 0xbe2d3a113e155edeU, 0x3d31fa1e3d426940U,
  0xbd86a620bd57819eU, 0xbd228154bd40f19eU, 0xbe3fef5ebdb6f11cU, 0x3cb1fdf8bce2561dU,
  0x3c4876b33d517442U, 0x3d8afe75bcac8c1cU, 0xbe0fa42fbddc650dU, 0x3e0e79a0bdd0a6dcU,
  0xbd1b5172bdadfe58U, 0x3d7a571d3db168a1U, 0xbcb1337fbc241ed2U, 0xbd2ad682be8e67b2U,
  0x3db16e2a3d9e4c36U, 0x3d48727b3d91e852U, 0x3db3c3a0bd0decf8U, 0xbe0c1732bd03abebU,
  0xbd9db001bd9998dbU, 0xbaeb9d343dcbb6eeU, 0x3d781379bd16a6beU, 0x3c50879e3e0ec9efU,
  0x3cf0c57ebe1c1589U, 0x3da34fcd3e1d27b2U, 0xbe87e183be18f997U, 0x3c170c5bbe08c395U,
  0x3d8521e0be53a6dcU, 0x3cedfd903c6d524eU, 0x3d027bcdbda56657U, 0x3d0956cabc9ada2dU,
  0x3dde4948bc02416aU, 0xbef62328bd0d028dU, 0xbd1cd211bd34e792U, 0xbd1853883e177ad0U,
  0xbd39055ebdef193cU, 0xbd4000b03d33c0e5U, 0x3d898479bdde6756U, 0xbe8eb67dbe738b16U,
  0xbd0ab33ebe023e93U, 0x3d22911bbe1b5b49U, 0xbd38946c3e33882aU, 0xbe8d791abd1a9473U,
  0xbe880067be1fa1ceU, 0x3d5f340dbead5a59U, 0x3d7318e1bcd72928U, 0xbec1ad023d896d91U,
  0x3d69723b3c056a32U, 0x3d403e37bdd2cfd2U, 0x3d019b333da659e9U, 0x3b44f43dbe41ebf2U,
  0xbe81008cbe65b71bU, 0x3b8e5a9bbdb186e9U, 0xbe1057f2bd3db124U, 0xbe20aa60be9b2053U,
  0xbca7eeecbe40a460U, 0x3e2124793d93d920U, 0xbcfd9056be185276U, 0x3dcd121f3d4f1241U,
  0x3e56a6a4be0967faU, 0x3cf427593e64044bU, 0xbd4b18643d914f86U, 0xbb778c943d626ac7U,
  0x3d5ffa413db256c3U, 0xbe7f2ef33e2cff9aU, 0x3cf124cdbdaa244aU, 0xbde34fd6be06fe2dU,
  0xbce1c552bcd23692U, 0x3da015fe3df29015U, 0x3d5ccefebd8bdbacU, 0xbceceb753d8b1cd8U,
  0x3dc16d55bdb5faf0U, 0x3d9cda66bde4144dU, 0xb9c7174bbcab32f3U, 0xbe6e89dfbda3cec7U,
  0xbd2cfd6a3d968221U, 0x3dd176d9be9ef085U, 0x3cfc4d193bb65828U, 0x3d48a0743d3d28bbU,
  0x3dc37b91bd1a3523U, 0x3e1528123d04146fU, 0x3d5d48103dc00dabU, 0xbd8fc133bcb071d8U,
  0x3d9c1f043d36a27dU, 0xbd483b9abe01e16cU, 0x3c41b1dd3d046001U, 0x3de429ec3d0c5a82U,
  0xbe830cf8bc14f276U, 0xba4c125ebe874184U, 0xbde37c7bbd1bc803U, 0x3d15dcd73c165d72U,
  0x3d83e49fbd91be9aU, 0xbd32be3f3b999511U, 0x3d37f20d3d3a1e6aU, 0xbcec9be33cc8fc03U,
  0xbce31198bd09d065U, 0xbd11e471bd0deb03U, 0xbdbe01283e6559b1U, 0x3ced0a3abe0e36aaU,
  0xbd0f10913ce2f7e0U, 0x3cfd663b3e17d150U, 0xbe1f2d36bdd2b5ebU, 0xbb466823bd907227U,
  0x3cdeea4e3d7a6135U, 0x3d49efcb3bb0a0baU, 0x3d4b91babe4a5206U, 0xbd8c626fbe29e929U,
  0x3df8a3133d63d170U, 0xbd5d90453d7951d9U, 0xbe767eb6bcf5d019U, 0x3e716e31bdaa3f1bU,
  0x3e149d793d736f36U, 0x3daff7df3cb3f400U, 0xbdb31963bc8bdbd4U, 0x3d9711773d3f40b7U,
  0xbe12546d3e347546U, 0xbd47b1c33dce63c9U, 0x3c23039f3dfb1ac8U, 0xbe7cb711bd254829U,
  0xbd3260dd3d7e4d85U, 0x3db7d022bd800737U, 0xbe26d1f8bd0dedefU, 0xbd65794d3dab93c6U,
  0x3ddd3048bd1208e3U, 0xbd8646cb3c96ae8cU, 0x3c960b9cbd784e06U, 0xbe0c2e23be594872U,
  0x3c090b513def6338U, 0x3c27364fbcd92cf1U, 0xbdc7d1d23d5c02d5U, 0x3d96a967bd0c7083U,
  0xbdf85859bdf74972U, 0x3ddbe488be190d7fU, 0x3d6b80bcbceb313bU, 0xbc44f8babdcc3c67U,
  0xbc15436dbda0e2caU, 0xbe70de253b1fdf05U, 0x3d2893c23ded55fbU, 0xbc9e8b933dbbb5f6U,
  0xbdd9f7be3e0f76d8U, 0xbe5ac0cbbc9d7b92U, 0xbca9059dbd8f4596U, 0x3cdf7464bd3d871dU,
  0xbd842b1d3d384d01U, 0x3cb40c59bd85c1a4U, 0xbdd495bf3c32e575U, 0xbc29357e3d394809U,
  0xbdce105a3dd684afU, 0x3d2acf1abe013264U, 0x3ce2b2963d1db9a8U, 0x3d402c783dd00cfcU,
  0xbc82035a3d40f4beU, 0x3da759863d8ca421U, 0xbd54ad00bc85bae5U, 0xbda782843d61bf86U,
  0x3d8103233cab3658U, 0xbc545495bbb6eb68U, 0x3d4ae0c33d038a28U, 0xbd3f9f7fbdb87458U,
  0x3c9f89f63db47f4eU, 0xbdd684b9bc5467c1U, 0xbaf8a391bc08b99dU, 0xbbe1dec7bd9a723eU,
  0xbe3726d7bcf023abU, 0x3d5ad3f5be55930dU, 0x3be93619bd6e0029U, 0xbc602c453c17c98dU,
  0x3d0b4b683d50aa3dU, 0xbe349b3ebdf7ec62U, 0x3dc0b9443d80c207U, 0xbdc089cc3d0cdc7fU,
  0xbd3eb56ebb86d589U, 0xbd5e8b2d3b199a7dU, 0x3d922db2bdad2dc2U, 0xbc071264bd8d91c2U,
  0x3cf5d9af3cb32c92U, 0x3c97e711bdcbf9cfU, 0xbcf3bde43d1a5a49U, 0x3c957b893d9a1a25U,
  0xbd8a86023da94df2U, 0xbd123717bdc142bdU, 0xbd5514413ccd0367U, 0xbb3115cb3d0ef82bU,
  0xbdce6531bd55fb3bU, 0x3dfa45603ba62e09U, 0x3d47a119bbe87e0eU, 0xbd26fead3d996094U,
  0x3dc88cc63d2bac5fU, 0x3c8e048abc9ca328U, 0xbb76f842bd868824U, 0xbd17591ebdd614f3U,
  0x3d44cdd13da1f67dU, 0x3cb5320abdf65b3fU, 0xbd3b688cbd73fe5aU, 0xbd8e41233d6dd583U,
  0xbdc954abbd233877U, 0x3d8e17bcbdafaa1bU, 0xbd3f4d86bd591fd5U, 0x3b97c02dbbaaab49U,
  0x3d9184bb3c381fb6U, 0xbe748d3d39980b39U, 0x3da8891e3c24a7daU, 0xbde52a16bcbbc127U,
  0xbda27a56bc040b8aU, 0x3cf277a93d396571U, 0x3cff9099bd48ce47U, 0xbd028f99bcc8b617U,
  0x3ce34d4bbdbb04c1U, 0x3c9b2498bdfa1a72U, 0xbe0baa2a3d808879U, 0x3d1e1c0a3de44f75U,
  0xbe041cb43c9601e1U, 0x3c6d0e91bbfa28ceU, 0xbd18cfa3bc9cf963U, 0xbce68d6bbce07ba3U,
  0x3cf142e43da57f27U, 0xbea5353fbd912d9fU, 0xbc3ecacabd22d8d9U, 0xbd93467cbdeba125U,
  0xbdf7a2473c963fecU, 0xbd686a343cb69b0aU, 0xbe1b6a323e09e886U, 0xbde258d43d24eb80U,
  0xbd58cbdbbd6f648fU, 0x3bb3ee023cd066a3U, 0xbc242e833da1025cU, 0xbe1108323d31007fU,
  0xbd904aadbdefe751U, 0xbc9d091dbdc97fd8U, 0xbe0c09c33d042ca9U, 0x3d4eafb43d234a2cU,
  0xbc3f049e3c8de82eU, 0xbe6d62e23c07fb62U, 0xbd0a11e7bdd7443aU, 0xbc0e163ebe06a896U,
  0xbd888867be2f424eU, 0x3d3e2281bb665242U, 0xbe43018b3c8a8b0bU, 0xbccc553fbd86d7f2U,
  0xbd5c0d88be1a11dcU, 0xbe1b56ecbdd5b28bU, 0x3d507c99bd56f2d2U, 0xbe09c6a0bbe1ba3eU,
  0x3d57dcde3d251e0eU, 0x3d9f487abcca816dU, 0x3cc7e177bee59c3dU, 0x3d9047143d5fc8b2U,
  0xbcd4fb86bde3a646U, 0xbd8469e83d2038a5U, 0x3e002866bd5d9faeU, 0x3d244acd3d3236c9U,
  0x3e13f2d0bc542384U, 0x3cb619bcbd29d36fU, 0xbe1a861abbb6c9f8U, 0xbde5fe6b3e1406c2U,
  0xbe4dfa75be4e6ef7U, 0x3da804a63b58f34fU, 0x3d7fb5183cfbc5ccU, 0xbdf94664bc623f6bU,
  0x3dd45613bdaa7961U, 0xbca933763d9bf6e5U, 0xbd047c503d45feb3U, 0xbd806ef23daa8575U,
  0xbcc287e9bcedcb7cU, 0xbb6b615dbdb8b432U, 0xb8e524833cc127aeU, 0xbd4209b4bc773330U,
  0x3df0bd46bd09758eU, 0x3d5857febd1aba30U, 0xbc587c093d8742e6U, 0xbe2c3f8e3d03600fU,
  0xbda11696be06df49U, 0xbc4f00f83cefbf7eU, 0x3d23adfcbd839b21U, 0xbdd9b68c3cdb7969U,
  0x3d54c561bd7828d6U, 0xbe4e9536bdfe964bU, 0x3b8d5b7fbea43c74U, 0x3de0d7c8bdfb60e6U,
  0x3e0d3222bddf259aU, 0xbdb0f8653b67cf66U, 0xbdb79a6dbd9ff0a2U, 0x3dec03febcd4a2aaU,
  0x3de38ef83d99c1ecU, 0x3d154078bdf71c40U, 0x3d913713baffdd7eU, 0xbc93418a3dcbed14U,
  0x3c5543e3bea96abdU, 0x3c236598bdee422cU, 0xbe23bcfbbd5e2f33U, 0x3e144d733d0d2570U,
  0x3bd49da8bd414060U, 0xbe35c4893c68bc88U, 0x3bc57c0bbd6eec43U, 0xbc9cc368be141e1bU,
  0xbc9d0c063d5d6092U, 0xbd8864173d5f3047U, 0x3e2353283da97aa2U, 0xbd0cd3153da90cfbU,
  0xbd8ce42d3d3c8edbU, 0x3d17ddd73d36cdf9U, 0x3de309febb3c545aU, 0xbdf35ce53dade89bU,
  0xbdae6c49bd4df36eU, 0x3e2dd2dbbdcf54caU, 0xbb865617bc2cfce7U, 0x3c261bb43cc4b378U,
  0xbe638c25bda1de29U, 0x3ddda6a4bdac14e2U, 0x3d987eb23d5c9269U, 0xbe069360beed10e4U,
  0xbdda927abc87581aU, 0x3d4b4953bc9d8eb7U, 0xbeb2c203bd310267U, 0xbcf2ec8bbdaf088dU,
  0x3da13c09bc12f60dU, 0x3e064cca3d8f3455U, 0xbd9208cebe40e46dU, 0x3d86c5b9bd995170U,
  0x3d5b458c3c5c94ddU, 0xbdf083b3be1b5f5cU, 0xbde1d71f3cf6d661U, 0x3d95dd9f3e056184U,
  0x3c2643623c917091U, 0x3db89abb3cab6320U, 0x3d309dbfbd83aa3aU, 0x3c59ca69be23ec8cU,
  0xbca244f3be4ac978U, 0xbd0b11fbbe45089fU, 0x3d05c00a3de0126eU, 0xbe10161bbda0e80eU,
  0xbd889e46bdac1053U, 0xbdfc3144bda0225cU, 0xbcb303fabdda28ceU, 0xbd0adc5a3d1d6f11U,
  0xbdc6e958bdb1e448U, 0x3d81903cbce88972U, 0xbe841c7dbd659debU, 0x3d02f9643c25a82eU,
  0xbdac09eabe0ab232U, 0x3d67038cbceb0628U, 0xbd16a90ebcf1508bU, 0xbda87fd1be1b017aU,
  0xbe9d603b3bd7a08fU, 0x3ccc4baabe559a4bU, 0xbe2fbead3cf3b0eeU, 0xbd98a855bdf01735U,
  0x3d6c66b93b1e4f3cU, 0xbbcbfad83dffdc3eU, 0x3d964e5f3cd468f8U, 0x3d2a51e0be0ee176U,
  0x3d56f4fc3cd28923U, 0xbd87c7ea3b3891e4U, 0x3c85d3063db4ee01U, 0xbdd1c1f5be205228U,
  0xbe2dcfe9bd0e50b2U, 0x3d8dd6fcbda3b3beU, 0xbddd4c0bbca047baU, 0x3d7489e6bdbc9925U,
  0x3ddf2d13bdcefe47U, 0xbea2ca0cbd9cc1bbU, 0x3c71d4643d4f7037U, 0xbb845ff9bd7a8186U,
  0xbe54f6d8bc7b9bd3U, 0xbdc1fd4a3c00793dU, 0xbd949e13bd8d8077U, 0x3d3881c9bd751584U,
  0xbda37edc3ae19f5bU, 0x3be08ccfbd63c933U, 0x3dd572f4bcf9c7ecU, 0x3d1c0638bc80c085U,
  0xbd06795f3c132052U, 0x3dbcc22cbd3a010eU, 0xbcd45d77be1a91bdU, 0xbdd163903cabc5acU,
  0xbe619d803cd3149fU, 0xbceb7059be05bc26U, 0x3da6b7a73c6780b5U, 0xbd024ea93d0dc876U,
  0x3dc09a1cbd246ba6U, 0xbd66b9313d55dcb4U, 0xbd089a6d3ce2e9d2U, 0x3d047285be4d9b2dU,
  0x3d176a223da0b02aU, 0x3d609d473d3a5589U, 0x3df7232f3bcff29bU, 0xbe63bd0b3bd5d4e3U,
  0x3cb242d9be0634a2U, 0x3c4883b4bd230bb2U, 0xbe9dc71bbda40c9eU, 0xbd05e9593d613abfU,
  0x3df26825bbb0923fU, 0x3c10f0b3be540c29U, 0x3d46de76bdd9e306U, 0x3d92511e3d19895fU,
  0x3d3b45dbbd86832eU, 0x3ab6165b3ddc8ce6U, 0xbe25a26cbd8de3bfU, 0x3e136696bdc0de7bU,
  0x3de532ef3c91dc61U, 0xbcb3f0593e085bdbU, 0x3c6b2afc3da87f13U, 0xb9e852023da15f4aU,
  0xbc8e949f3c894e97U, 0xbc2060babd16a75eU, 0x3d8c432dbc81bb6dU, 0xbd86ab2f3e348c04U,
  0x3d06f8ae3da3255cU, 0xbdf16ee63cd6302eU, 0x3deba7abbca4b7baU, 0x3a9b5dd73c22356eU,
  0xbe9094d23cbdcbbcU, 0xbd9000e4ba8d81f5U, 0xbcdc1c18bdb67f85U, 0xbdc7dabb3b937534U,
  0xbe216e51bd630e4bU, 0x3dcba3d1bdeefaf9U, 0x3e12fcf73d6fa6daU, 0x3ce64be43cfd45e8U,
  0xbc8aca37bcbb4c96U, 0xbdc6af8bbd18595cU, 0x3da7faa9bcdb4846U, 0xbe675ca43d8b1086U,
  0xbe1ecfb13d0b9d02U, 0x3d0eafcdbda3a811U, 0x3d97d5953e3534feU, 0x3ca450c2bc98d65dU,
  0x3db650ed3d813cb1U, 0x3e1b3e7e3c96f938U, 0xb968cf34be502857U, 0xbdabce1abd62ee2eU,
  0xbdf8714abd458bc6U, 0xbcae033dbda44806U, 0xbc10663fbdd20387U, 0xbdb69aee3d82fc7eU,
  0xbd292c54bcca0d89U, 0xbd22f1783d5954d2U, 0x3cb2c9dabcf086f5U, 0x3dd2d97dbd8188fbU,
  0x3da5303d3ca481ebU, 0xbd88d92d3d92b98aU, 0x3d7e15ea3c50f1e9U, 0xbd2e751bbcaed6d2U,
  0xbe70c80fbd374088U, 0xbdba43273d1e3414U, 0xbe01696a3d96685dU, 0xbe2aee033caebecfU,
  0xbdb1d9ebbdb35858U, 0xbd504b473d60bd6bU, 0x3da45676bc314cb8U, 0x3d2d796d3d7d087dU,
  0x3d84e2ccbd5aaed9U, 0xbd9fe4d1bb9b51f2U, 0x3db33854bdda9746U, 0xbdf285023c269672U,
  0xbe264a543cd00490U, 0x3cb0bf05bcc3cdf4U, 0x3d68b40c3e4693bdU, 0xba5891593cc5fe95U,
  0x3c6a172b3ccd64efU, 0x3da23ec1bd90b219U, 0xbc1788d4bdc5231fU, 0xbe0fa24abe21b4b3U,
  0xbe0e0cb93c4b9eafU, 0x3c2b0122bda44fc6U, 0x3c9e6642bd30f5baU, 0xbe024192bcde01beU,
  0xbc8bfe75bcd40f60U, 0x3db5e5983cb3707eU, 0xbdb718cebdda59a6U, 0x3d6fee7abcb89796U,
  0x3d647f8c3cdce0bcU, 0xbceb104a3cde1341U, 0xbbe6bdd23c9371f0U, 0xbd96ef20bb16f6b0U,
  0xbdf2efbfbcf1f3dfU, 0xbc896931bd79ab8aU, 0xbd19bd0a3e1657daU, 0xbdc6198c3e2c2a24U,
  0xbe207d793c9051e5U, 0xbe1cee123e1f48a2U, 0xbbd53f92bdc7e0d1U, 0x3c8382a0bdb3f415U,
  0x3d98f579bd061a25U, 0x3d14b812bd229824U, 0x3debe219be06eb59U, 0xbdc35953bbedb0f6U,
  0xbbbb5ed43db97962U, 0x3d5fc7d6bd80b69fU, 0x3d803c603d9ae8acU, 0x3d63cbc03d4c39f4U,
  0x3d84e6fd3cecfac1U, 0x3bdde0b6be22a86aU, 0x3d14315b3babd694U, 0x3cca7a85be03713bU,
  0xbd844fe53d1676ffU, 0x3dba8841bbbc9886U, 0x3dce5eab3ac0c4cbU, 0xbdfa70e4bb50b93aU,
  0x3c639b463d2743cfU, 0x3da4d13c3d3d1a1fU, 0xbd25385dbd452d92U, 0x3d17931f3dbe7374U,
  0xbdd7aecb3c338922U, 0x3d99aa8dbc49c06bU, 0x3ce69e86bc1e750dU, 0xbad9c708be047d10U,
  0xbe5475d5bbfb60eeU, 0xbdf255c1bc5b5231U, 0x3d153f0abe0d007fU, 0x3df026ba3dbdb1a7U,
  0xbd3e2d383d245fbfU, 0xbe1cf269bcd892bcU, 0x3d5ba080bda16f14U, 0xbd6f9d30bdf11e40U,
  0xbd4f026b3c186adfU, 0x3d30981bbcbfa2faU, 0x3d25b0603cb19902U, 0x3d0564043d6df4d4U,
  0xbdcf5cedbd27bbfeU, 0x3b965244bc6704bbU, 0x3d9107b23ce8ec83U, 0x3cdaee26bb5eb403U,
  0xbd0a50fcbdaed982U, 0xbd867ca73c12e1aaU, 0x397c8b29bda34ab4U, 0xbd16c1bfbe434388U,
  0xbc8ac4d93da64e25U, 0x3ca693acbd4785d2U, 0x3c906bc73d2f62e0U, 0x3d31f9aabe511f81U,
  0xbd0efda43d52306cU, 0xbd0413e73dd7b0ebU, 0xbdc936133dcf83caU, 0xbd081119bd014649U,
  0x3cca693fbcbd9f79U, 0x3d21c6943b73266aU, 0x3d074878bb71714fU, 0xbd7f7e19bdd9843cU,
  0xbe01a7dfbd39fbd2U, 0xbd4d5ababbdcd621U, 0xbdccef7cbe284c0aU, 0x3d6d7b4d3df8cbccU,
  0xbd9544bd3cb5e9e6U, 0xbe330f06bc864484U, 0x3d5bbbb73d6d608dU, 0xbe16c04abccb61b2U,
  0xbabd2647bca74801U, 0x3c22b67639a106a8U, 0x3d346d84bc7e6b1eU, 0x3c5b0ecf3cf7f39dU,
  0xbda65a65bdf172b8U, 0x3d2bf731bda0e50fU, 0x3c98015d3c0dc5b9U, 0x3d4103963c2df0d9U,
  0xbc8bf427be3cb55fU, 0xbd4d9335be58118eU, 0x3d056c26bd43f4beU, 0xbcec22bdbdebefb0U,
  0xbbc175853cc1a7c7U, 0xbd3ec3293cf45854U, 0x3cf0c9f9bcc23eefU, 0xbc70f440bea1a0bfU,
  0x3d4005b3bd14a797U, 0x3b3a0eae3d6b9216U, 0xbd0a216f3d75099aU, 0xbd5cbf78bda01144U,
  0x3b57c3e53d126705U, 0xbc83adf03d17036fU, 0x3b6608cbbbcdeb7bU, 0xbdb0bd96bd50da13U,
  0xbd4742a2bca5c3aeU, 0xbd706ac43b623c14U, 0xbe139d13be0e65f7U, 0x3c7a50883de55231U,
  0xbd7e63393d5727e5U, 0xbe7eb6b23d5704d2U, 0x3dbedc283d94be25U, 0xbd9e6f73bdb90cd0U,
  0x3b3f4d753ca92d1cU, 0x3cd19b7c3d64d4efU, 0x3d6d45c93d35fe50U, 0xbc705a44bd15a95fU,
  0x3ccb9abdbdc3af79U, 0x3db2dcda3c9a8546U, 0x3d3299f5bad59450U, 0x3dbbc2863c35b014U,
  0x3c37d315bd96ac84U, 0xbd8535eebe98a150U, 0x3cb0ea2fbd96b059U, 0xbce6c252bc415051U,
  0x3bbbec9dbd320553U, 0xbd4e96333d54b6adU, 0x3d621decbd571107U, 0xbc4223c5be8644e8U,
  0x3d4550d6bc79d88eU, 0x3d4d85ae3c42d465U, 0x3d7a9f793da2b73eU, 0xbc2499d1be18b880U,
  0xbd6e1252bcb18acfU, 0x3b6dfd59bd6baddbU, 0x3d9aee93bdba5377U, 0xbd831c5f3ddfdaffU,
  0x3d48d5663db50000U, 0xbe5398383d93e2fdU, 0x3cbea22fbe0b73e0U, 0x3d5f698a3cd4b53eU,
  0x3c9280c6bc18ce0fU, 0x3d7040b23d134448U, 0xbd4df49c3cead330U, 0x3cbd3e9bbd2ec2cbU,
  0x3cb90ceabdc46decU, 0xbdb22c66bcc14485U, 0xbe0ff270bc9b59c7U, 0xbbc4213f3be1d77fU,
  0x3dbc5c073c939086U, 0xbb8ac88cbd205255U, 0xbdcd5721bde1ff24U, 0xbbc73d41bd9d3d79U,
  0xbcfae59b3d0a4e4fU, 0x3d6c10623dc0142aU, 0xbc86d8bbbdc94888U, 0xbd72d520bd9e88d8U,
  0xbe475af33b05c19dU, 0xbc9431633c927159U, 0x3d1937823d49600bU, 0xbcc35e89bcda93a4U,
  0xbd2df35f3c2c9567U, 0x3d055bea3caeb184U, 0xbcf1d81ebd5b0961U, 0xbca647933d2933bfU,
  0x3d4f4bf0bd20d553U, 0x3c5d4a95bd00cb55U, 0x3d12374dbd1460bfU, 0xbd92e59d3d979372U,
  0x3cda092a3d97c12fU, 0xbdb211cd3d242da6U, 0x3cb025c8ba040e36U, 0x3d03427dbd709a82U,
  0x3d055093bd000f49U, 0x3df580b93d6c915fU, 0xbd58189d3d5dc8e1U, 0x3cc425a93d3c8f34U,
  0x3cf16216be132b4dU, 0xbdbcedfebd328071U, 0xbc87debdbd2e4d54U, 0x3d8c5c5b3d220440U,
  0x3cad19533c761468U, 0x3d8523ec3d2e832eU, 0xbdf8ed55bd74b53dU, 0xbc6f59f23c2d1f13U,
  0xbcac3a81bc0163c2U, 0xbca2cce13dbfce87U, 0xbc7845b8bd02a6a2U, 0xbd917a09bd3522e9U,
  0xbd7ff1913c3e5b0eU, 0xbc98c3cbbb162997U, 0x3d5a94b03bee26a2U, 0xbdadd1173ca56e21U,
  0xbd86c7c5bd7d6bc5U, 0xbc593f8f3d8c48a6U, 0xbc396ba7bc652f35U, 0x3b6878a63db18539U,
  0x3dca8fb7bdb6c76eU, 0x3d29a0de3cb010f5U, 0x3da4cd2e3bec4c89U, 0xbd95149e3d8bff03U,
  0x3baebeb73dd8b4dcU, 0xbd1d29b03c6a041bU, 0x3c62c0afbb6f0266U, 0x3bf21a38bd8b4527U,
  0x3cb4da4dbd7a4945U, 0x3de0c7653da89e02U, 0xbd6c7e913d168321U, 0x3bce294a3c9bfb8fU,
  0x3d208f79be18bac1U, 0xbdbfe8e6bd06f70dU, 0x3d2eb8babd54b5c4U, 0xbc8809523d4c9498U,
  0x3d2c41f4bd1ecd52U, 0x3dc79c42bbaa9f21U, 0xbe2f0d203d4c64f0U, 0x3c6609fe3c9325faU,
  0xbd20e3793cd15a0bU, 0xbda5f2293d8ec071U, 0x3d47eaddbd3c0a6dU, 0xbd929780bceb096fU,
  0xbced8e84bc5659f6U, 0x3c333dd13c87ede1U, 0xbcc3eb5e3d08aeb6U, 0xbdc28bf1bc5dc76eU,
  0xbda73028bd6c935aU, 0xbd54afeabd822cf2U, 0xbc33d958bd0fb18fU, 0x3b160c05bd0ee8f2U,
  0xbd81e0783da5660dU, 0xbe05061e3c732582U, 0xbda960c63c0f8865U, 0xbdd8437abdd577bbU,
  0xbd92a90fbda62aa0U, 0xbd3c7e5ebe127d90U, 0x3d8073d73ca3cca7U, 0xbe249b47be35afecU,
  0x3d635c3abda7f13fU, 0x3c38e36dbd0c3ab2U, 0xbc9aeeebbd0b2a15U, 0xbd49e11ebcd08722U,
  0xbcbdadadbdaec7e4U, 0xbbd7b9d3bd847525U, 0xbd82e3283d9b5cdfU, 0x3d5982703d3af071U,
  0xbe1176efbdcea52eU, 0xbe67d4803da58427U, 0xbdc9ad313deb2b88U, 0x3cf87e27bccd87e0U,
  0x3a9483edbd9694b8U, 0xbd204b183c610cabU, 0x3d027cbfbca83885U, 0xbcff6023bd221a1eU,
  0xbcae9cd73c8b85e3U, 0xbd83c1f6bc131e22U, 0xbc3e623a3d5fd373U, 0xbd5894a53cef1b1eU,
  0xbbb3718fbbbe11f9U, 0x3dbbf883bd157c48U, 0x3ddd45dfbe71775fU, 0xbb03160c3d6bf1beU,
  0xbdfac3c3bc972f4dU, 0xbe2b5fc73cbe479cU, 0xbd73111f3d11aa6eU, 0xbdc8a750bd59aa97U,
  0xbcaa9189bdb5c291U, 0xbc8038fe3c91205bU, 0x3d10369bbbf8319fU, 0xbd252d0bbcbcbddcU,
  0xbdd4312ebd5373c2U, 0xbdd38c613d922dc8U, 0x3a8c5d74bd8f5cc6U, 0xbe36665ebdf18773U,
  0xbdc9f20abde95a23U, 0x3c7ef2d6bd83d8cfU, 0xbe34e90e3cd15b8aU, 0x3d856ae43d699ad9U,
  0xbc5ad6f9bb6cbb9cU, 0xbe42a632bdd583bfU, 0xbd5a4d763d2b5ba2U, 0xbd6006a2bd43bff5U,
  0xbc69e9d9be123199U, 0x3cc6436a3d1f3c00U, 0x3d4f830a3ac11c2dU, 0xbcf8f90e3cb51957U,
  0xbbf2ba47bcf7e783U, 0xbdec63e13d13f70fU, 0x3c887b9abd16a374U, 0x3cdf10973c18c11aU,
  0x3d95fbb63d3138c3U, 0x3d3abec7bd27b2eeU, 0xbd6c3f79bea02098U, 0xbc011b363e1cd9eeU,
  0x3ccc68b53d58a7a7U, 0xbdc116773cdc3ff6U, 0x3d33162cbd121c1cU, 0xbe05612abd5be346U,
  0xbc626f563d4a6662U, 0x3d0de72d3b9a9ffdU, 0xbcba7581bdd1db50U, 0x3d960610bddc4b92U,
  0xbc8257bdbd3e953bU, 0x3c707a123da9cd86U, 0x3ca64cc5be1f96a5U, 0xbde38e7b3c47ba18U,
  0x3d2abc68be12a640U, 0xbc4549bc3d2c6308U, 0xbddf06d9bd64a1bfU, 0x3cb261543d693e46U,
  0xbd0563313d922b2dU, 0x3c643c9b3d3b44bdU, 0xbd82243dbd95c78cU, 0xbd9d6a3ebc891693U,
  0xbca00303bdc80397U, 0x3cb5967e3d959ad2U, 0x3d410455bdb60a26U, 0x3cc8696f3da1fd5dU,
  0xbde0934fbe4f0b3cU, 0xbd98ae9bbb3a5776U, 0x3d4a06013d2d4a1cU, 0xbdde19ba3bdae358U,
  0x3c37937bba8d8f1cU, 0x3daad810bcf50fffU, 0x3d736ebf3c2a300cU, 0x3d519e483da65f90U,
  0xbdeda395bd22de16U, 0xbcd9dc113d6407fdU, 0xbe1b63e2bc8756dcU, 0x3c939fc63ceb7de2U,
  0x3bd664f9bd11de3eU, 0x3c93f352bda106a4U, 0xbc9af9d3bc5c977aU, 0x3de1dd683dfee2b0U,
  0xbd794935bc6f56b1U, 0xbc64f8dbbdbc7bd8U, 0xbc47032bbcc72484U, 0x3c3118acbd4ec5caU,
  0xbd9ad2943db5db0bU, 0x3d155e6b3daa1264U, 0xbc7cc3debddc2188U, 0x3d3356353d478a6eU,
  0xbc7d4a173d76a653U, 0x3c9f1a0bba21339bU, 0x3bedb944bd44631eU, 0x3d1a46eabd966356U,
  0x3d15d6f73d0042b8U, 0xbd1d8f15be033316U, 0xbdc997f4bd81b5fdU, 0x3d5095583b4fbd35U,
  0xbd0f9e41bd8bb303U, 0xbd87241c3d54f21fU, 0xbe0cf0e03d83dda1U, 0xbd24b743b8d8252aU,
  0xbc0d75c53d240e64U, 0xbe8bff733da352f3U, 0xbdcac7dabcda653dU, 0xbd47de79bcaa9ea3U,
  0xbe0c6e96bc353443U, 0x3d0c2668bc859c5bU, 0xbe10128cbd90d5c4U, 0x3d375f0abcb36d9fU,
  0xbd547b163bab2a07U, 0x3da6e5fb3c54a3c9U, 0x3b413795bdfcd591U, 0x3cb1b0a53ca0f2d3U,
  0xbdeac636be58f35eU, 0x3db2e285bd7d2c9fU, 0xbceb04ebbdd4fb0eU, 0x3d0c5ced3c3c1c5fU,
  0xbc9069f13d8b9fd0U, 0x3d165e2fbca70799U, 0x3d5affc03da4d0e6U, 0x3d7757a73d893511U,
  0x3c86c44abb52296bU, 0xbd05716fbd48a73bU, 0xbc36d39fbd376e1eU, 0xbdd4bd4ebd019965U,
  0x3c14c43f3dada37dU, 0xbc896fe8be1e0c6eU, 0xbcaaf3173d5cb37cU, 0x3bd0c0b43bbc9d75U,
  0xbd586eeabcc1edd4U, 0xbc93f6e7bd0597b9U, 0xbdce3a5f3d3a2850U, 0x3b43f657bad4e3b2U,
  0xbce79d773dbf27a0U, 0xbe72fc8a3cfc407aU, 0xbe1371f9be8ba18eU, 0xbd3b154dbd31c660U,
  0xbe0dc014bdc3c7cbU, 0x3da1c75cbdb824c2U, 0xbe635c09ba8056e4U, 0x3d83ecfa3cd9d35fU,
  0x3bb482d7bd9fbc7fU, 0x3d88c9be3d8903ceU, 0x3de90c1ebd84c332U, 0x3e1874c1bd53f6c3U,
  0xbda5a9de3c01fa9aU, 0xbd4766bfbe318399U, 0xbccf2ff5be0cec64U, 0x3c30bb00be4ce1e4U,
  0xbdf70fee3de35734U, 0x3c87edbcbd6ced8aU, 0xbe1537a8bd7bb1e6U, 0xbc9098433c94fe5aU,
  0x3d9fb7013df1284fU, 0x3d40a556be6105f6U, 0xbbf52d503cf3602cU, 0xbdf2e209bdc5d024U,
  0x3c9c57d7bbf347e5U, 0xbd382d13bcb4a55aU, 0x3d7ebf9a3cbb8e3dU, 0x3cce4657bcf201deU,
  0x3c378dfb3bfd8e4aU, 0x3bee98abbc9aebfcU, 0x3cfa62023bae35d3U, 0x3db56d463d3ff379U,
  0xbd9c1ead3d8de8e1U, 0xbe234a393d90a543U, 0xbd04c4483dbd3dd9U, 0xbe9582ffbe280cb9U,
  0x3c4cd8f9be197f04U, 0x3b9ebe3ebe548754U, 0x3d628428bcd00ce6U, 0xbe0d76483d4fb5f6U,
  0x3d8d40503cb37963U, 0xbc8973a0bcac10b6U, 0xbd60f002bdd1551fU, 0x3d1881b9bd622f03U,
  0x3ccb1747bced3ac7U, 0x3d8ca5fb3c8fbe5aU, 0xbcd018ddbd92f865U, 0xbda7c9273d49c618U,
  0x3c569aa8bde1796eU, 0xbb9f4e533cd259e1U, 0x3c88a9553cc0f5e1U, 0xbd2b6ef1be2cfd9fU,
  0x3dd44ba8bd34f436U, 0xbcaa58a5bc807da5U, 0xbdea39e1bd0d0c73U, 0x3c9952debca449b0U,
  0xbdaf75f33d3dca6eU, 0xbe119c4b3cd477d2U, 0x3d1ec011bd8e6630U, 0xbb81716d3d0373a7U,
  0xbdba93b5bcff5b98U, 0xbc7d01333dc7bb7aU, 0xbd762ef3bd89d6d7U, 0x3ce511023c08c384U,
  0xbb523118bdf2d455U, 0xbcc13cfdbe04aedeU, 0x3d0552c23dcdc30aU, 0xbd1716c13ba0f75cU,
  0x3d81c0b8bab1f125U, 0xbd5280ffbe02a116U, 0x3d2da94ebd5e7664U, 0xbe00e542bcda261bU,
  0xbbe8cebcbdb0dddaU, 0xbc9bce09bd489671U, 0xbd26ff52be00ab69U, 0xbd26e449be1985a1U,
  0x3c30ecc4bd152d90U, 0x3d192f16bc7f1f44U, 0xbc6da765bccead59U, 0xbb9e93cd3c1c7b0bU,
  0xbc825bb7be1e45daU, 0xbd2bd66d392f73d6U, 0x3ca6c88dba26e51eU, 0xbde73866be5922fbU,
  0x3d5bb4733d1c067bU, 0x3c9ecf603cea762cU, 0xbda8760fbb3544b4U, 0x3d42c4acbdcd22bcU,
  0xbdb17d013d19531eU, 0xbe1603a63d3d41eeU, 0x3d21e12abdc6b7a7U, 0x3cbe78f43c0a94f1U,
  0xbdf180383cbc3140U, 0xbce4d8ac3d0d04f6U, 0xbe18cfac3d3b2d56U, 0x3c4e60443d2bc9dcU,
  0xbd93eb55bde0472dU, 0x3da12e91be4f6ef7U, 0x3d7a3c213dc6fb0bU, 0xbd3d789cbc800303U,
  0xbb11e9203ccc2efaU, 0xbdb41c8dbb4ae3abU, 0xbd5ffb46bdf69904U, 0xbe406509bd92a237U,
  0x3c760757bdc839bcU, 0xbd2223943cd56de6U, 0xbd10ebd03d7506b7U, 0xbdd2af51bdbcaa08U,
  0x3d3d28bc3bd5abe0U, 0x3cd835e7bd4230b5U, 0x3da4532dbbd3c2bfU, 0xbb4cc2583cbee850U,
  0xbd7979f7bdb048f4U, 0x3b2b0e9f3d36c1b4U, 0x3d6329b33cbf4d44U, 0xbd588dfabc856529U,
  0xbb95e1973c8cb906U, 0xbd8164733d4c2d0cU, 0xbd81ca063d2b946aU, 0x3ca1c9bfbdc38bfdU,
  0xbbb66d273cc2702dU, 0x3ae2cdcdbc5205ecU, 0xbbab3fdbbdca2520U, 0xbc8a82f03c8f8701U,
  0xbde42f783c85b657U, 0xbd6eb2493d5292feU, 0xbdebb81ebc32e2ecU, 0x3bc6fb14bbfc0b67U,
  0xbcb5cc40bdad48dfU, 0xbc070e62be0ae819U, 0x3cab08b83d09b970U, 0x3d97e9833df28f58U,
  0xbe253c92bd110f1dU, 0x3cafceb9becae232U, 0xbde68458bdb7c44eU, 0xbd3258f2bbbd7abaU,
  0x3da2867abe019fbfU, 0x3d1f859ebd826f07U, 0x3e2c9b17be4babb0U, 0x3cdc108e3e169b52U,
  0xbc660c93bd0ddff7U, 0xba2007d7bd9bfc4fU, 0xbdddc94e3cc2a3aaU, 0x3ce10778bce0987cU,
  0x3c4667fa3d89ffe0U, 0x3e78f6a3be105cc9U, 0xbda12749be7bb335U, 0x3dcf21f1bb2d018aU,
  0xbcd93d31bdb462dbU, 0xbdece9afbde13624U, 0x3dd2e2a9bd418195U, 0xbda89ecebdaf1e7fU,
  0x3e0be151be13487fU, 0xbe908c583db093feU, 0xbd82756dbccf5e1dU, 0x3e1a3812bd9e9bdbU,
  0xbe8793b0bdb2b2f3U, 0x3937ffe8be4f41c4U, 0xbe18f0923dc9228cU, 0x3e0c77fdbc5f831eU,
  0xbd840b163dd35fb1U, 0x3dc985e7bcda9c24U, 0xbd98ecf33e587c54U, 0xbe15c0223dc84c18U,
  0xbd063dc23dad9b9aU, 0xbdff1e92be8a0bf9U, 0xbc7d3fbabd13e747U, 0xbdd0acb0bdfd21f6U,
  0xbc9ae7f6bd166579U, 0xba8b20bebe0fb03fU, 0x3d1811a7bd77f3caU, 0xbd96a52d3c988f5fU,
  0xbc4ba679be4019aaU, 0x3dc464683d297a5fU, 0x3d5c7f923e63742dU, 0xbc16f4a63d31e027U,
  0xbc838359bd33f641U, 0x3d81da53bde2e05bU, 0x3de0987d3dce8874U, 0x3da108f8bcb5cd5eU,
  0xbb335f5cbd5d0e36U, 0xbea7cc0d3cb643a7U, 0x3d6fbe2abd70c21eU, 0xbcc9b986bda02832U,
  0xbcbc7d0f3d3c0bf2U, 0xbdcb413f3dd0448dU, 0xbea69c7ebd56bc1aU, 0x3da08e88bd9e10e2U,
  0xbe0963acbd9a4443U, 0xbd218c50bea3d048U, 0x3d1d6d24bd90ecceU, 0x3dec35513bfd8e19U,
  0xbc288f293dbbd8deU, 0x3dcfd9a03d7014a9U, 0xbd2cb5aebe1edeb1U, 0xbb0924f63daabe40U,
  0x3e30373f3e18c1ffU, 0xbe8fb66b3d162a5fU, 0x3e081e043c9c1239U, 0xbda9b371bdef05d8U,
  0xbde7a358bdc6121dU, 0xbba5250dbe134783U, 0xbd4b3c15bd49f8a6U, 0x3d0ae4e7bd5bd683U,
  0xbd056bb9bb98d7aeU, 0x3da74a8a3d4af0dbU, 0x3e1c37d23e0f6746U, 0xbe0b312cbca259eaU,
  0xbe1de633bde5eec4U, 0xbd9d31fdbce51957U, 0xbe0bb6e43c2fa52eU, 0xbc2530153c82203dU,
  0xbd06f9a13c95d56dU, 0xbd2fe608bba23c9bU, 0x3df3a76f3d9e243cU, 0xbe223a14bbc1499bU,
  0xbda4d2c5be80f48aU, 0x3dca4f573d4af3f3U, 0xbeb94dfc3c92d2c4U, 0x3c0ac953bc892dbfU,
  0x3ce0ffa3bdec38f3U, 0xbde5a4b5be11019cU, 0x3d4b73ccbd613bbcU, 0x3c76dcb93c0cf63aU,
  0xbca29eecbd98d7b8U, 0x3d5bdbb53d88d66fU, 0xbd1ba704be2c4f89U, 0x3d179b993dc6c222U,
  0xbcf3d84b3d12956aU, 0x3db222b73c64f5ffU, 0x3dbd4b703c9c7baaU, 0xbc9e87a33ce74800U,
  0x3cca977b3bc0b1fcU, 0xbd50d437bd915952U, 0xbc9b540ebe4d9969U, 0xbd86d0953d349283U,
  0x3d4eee8d3a30e6bfU, 0x3db5b19ebe733c3bU, 0xbdcb630dbd1b4ad0U, 0x3d78d1d4bc0c5dfbU,
  0xbb5ec7ef3dc65c68U, 0x3d0d2f1cbd506c90U, 0xbbb8a97abd117646U, 0xbc9eb7823d3a3a44U,
  0xbd8fa427bda57614U, 0xbc5eee6c3b5c22e8U, 0x3cbc51fbbc08ba76U, 0xbd66cf33bd85055cU,
  0x3da790d4bc88039bU, 0xba8ab266bc0cbdb9U, 0xbd0bf774bdbe38a2U, 0xbdb6a453bda3e6beU,
  0xbd3fcefabb9eee1bU, 0xbc4d63e1bdf7e3d1U, 0xbe59d1acbd1127f8U, 0x3cef8399bd5274c9U,
  0x3d4dfa783d6f1448U, 0xbd3fb6663c1124ddU, 0xbd87e2c73cf6494eU, 0x3d82c88dbe18a73eU,
  0x3d02e5213c6e29a3U, 0x3c02fc4c3d58c8c6U, 0x3d218e353d6a2935U, 0xbdc5b9d3bdf161c3U,
  0xbd183272be464956U, 0x3ac38f94bd7a7c0fU, 0x3c35d9dbbd8ab439U, 0xbe276fc0bcae87b8U,
  0x3ca4cc0fbddfa7efU, 0x3d738a2dbdd1c5cbU, 0xbde60d3b3c40ff20U, 0x3d049587b9ec3814U,
  0x3dadc0fb3d5270f0U, 0xbc0634acbe63f8ebU, 0x3c8ef0b93d01477dU, 0xbcce9059bd1773e9U,
  0xbd6418053c9eb8c8U, 0xbd66ffcc3cae4391U, 0x3c0d18313d0cd0d4U, 0xbd47a4f73c9a1ce4U,
  0x38ed27963c264354U, 0xbdd65017bd5eeb3bU, 0x3d920ffbbda85d34U, 0xbc3c1625be383ebdU,
  0xbd29c98a3cb54068U, 0xbdb49751be8a04a7U, 0xbd92d747bb58b45cU, 0x3d3c312dbd295666U,
  0xbcf3d0673d322705U, 0x3dcf6d0abd4c5b5eU, 0xbd3050653d8f01c3U, 0xbe1766a8be21ecd1U,
  0x3d24b7d5bcf944a0U, 0xbd19de5c3d4f3605U, 0x3c15a1373da623a0U, 0xbd9c4151bd52f68eU,
  0xbc4c14b2bea866d4U, 0xbc7b429cbd7f88dfU, 0x3d2ddd02bce15f96U, 0xbd898f1bbdb98c2fU,
  0x3cf123ea3db37e1fU, 0xbdf065dcbd526874U, 0xbcb8f7813bb8b09fU, 0xbb71fd3dbddc1d14U,
  0xbc23f93d3d840382U, 0x3c871811bddd242eU, 0x3c84c18fbd99d764U, 0xbda0a027bdf73db3U,
  0xbc3646bb3d3b7ea7U, 0x3d1c5478bd1f325fU, 0x3d939d783af6f702U, 0xbd17cc7bbde4308aU,
  0x3b7b839abe19aa41U, 0xbe2629d3bcf5487eU, 0x3d49b167bd452cc0U, 0xbcd18895bdb52b92U,
  0x3d49ab1a3ce4dcd9U, 0xbd44350abdb96d18U, 0xbdb53f20bd4c37c3U, 0x3cbd8a79bd9fcfb0U,
  0x3c7ab6fcbcc258b4U, 0x3d7f0dfabd3cb3edU, 0x3b8477a73db29962U, 0xbe4856113d0dbadeU,
  0xbd59fe36bb9b1472U, 0x3d4cd54dbe004e0bU, 0x3dc0f785bdec121fU, 0xbcab5143bdda0829U,
  0x3d2202e3bde5a72bU, 0x3da01312bddffaf8U, 0x3df9b06dbd8e2f65U, 0x3c947a86bdef7d88U,
  0x3dd1a880bd97c920U, 0x3d00156bbe2690c1U, 0x3d41d0cfbcac0f0fU, 0x3d2df994bc374a91U,
  0xbdfe6897bc752253U, 0x3d3625d13d4e38c6U, 0x3de686f43e0b62fcU, 0xbce5d61abe4dde08U,
  0x3d2030e93c358583U, 0x3cded00a3e24a5a5U, 0xbd2ed4ff3cb0e216U, 0xbcae437abd311d2dU,
  0xbd5c01aa3b35ce6bU, 0xbe5054b43e024855U, 0x3b92a420bd2c9d1dU, 0x3dca8d823ca4232cU,
  0xbd2a06a13d5166ceU, 0xbd120ce2bd7f8757U, 0xbd4045b1bcf19a66U, 0x3cec463dbc8d473bU,
  0xbd7d77843cf931ebU, 0xbd11d0febd0b3a9fU, 0x3d7bfe633e06abffU, 0xbe1f65573c8e1081U,
  0xbdadfbfe3cb31108U, 0xbc6a47863d8cb4f1U, 0xbccd0c81bdb1f651U, 0xbda5ca6dbda6cffdU,
  0xbcfbd41ebd443761U, 0xbd5a8e12bd03b364U, 0x3cf78d95bd4b0c06U, 0x3d7b591ebe0fe370U,
  0x3dbcaf043d848032U, 0xbd216d2ebde2f97bU, 0x3e0cd36abd49f8f4U, 0xbcded8313cde0bc5U,
  0xbda55e5ebdf331beU, 0xbd8d58073d388aa8U, 0x3d8a5a1c3d51e8f4U, 0xbd9a6accbdbd5ed6U,
  0x3c351e4e3ddefa85U, 0x3d85fc24bd2a9a5cU, 0x3cf2bbfe3de45231U, 0x3cec78c2bdb1ab10U,
  0xbe16890bbd5b251bU, 0xbcaba5783d942f0fU, 0x3d96e26fbdb6b623U, 0xbdd590f33bc0b9cfU,
  0xbd4e63ae3d747408U, 0x3c3c9fd33bfd2743U, 0xbccba90f3c069614U, 0x3c537915bc92f3b7U,
  0xbdaf9000be6c3b24U, 0x3d1f0c04bd5bdb34U, 0x3d3419663dff1176U, 0xbcefb3f9bd8bda5fU,
  0xbda1bea7bdb98e7eU, 0x3cfaf3a83d816d47U, 0xbdbc3100bdefe471U, 0xbe10bac0bdcd90ccU,
  0x3c8ef0703d695513U, 0xbd95aab03d916871U, 0xbe49080f3d93905bU, 0xbd882ce0bdcfbb2aU,
  0x3d2336da3d8d872eU, 0xbd374681be19b723U, 0x3dd75057bde65e1dU, 0xbd8cd3db3d85434aU,
  0x3c96b2bfbe33167cU, 0x3db99eb83dcb1f1fU, 0x3e17bdc43d14e1ccU, 0xbb2348ecbd2a3fb4U,
  0xbb0f4f47be575df1U, 0xbda3bcc8bd721375U, 0xbc477fea3dbb60d9U, 0x3ce27097bdfc60dfU,
  0xbd375dbbbc8b24b9U, 0x3dc686edbca2adfbU, 0x3cf6463abd9dce1fU, 0xbe0e176e3c38e6a9U,
  0xbd92a32f3d070f76U, 0xbb09515b3e03239bU, 0xbde4cafdbddae243U, 0x3d306c95bd866fbbU,
  0xbd045a67bdd5a0d4U, 0x3a13f235bc9207e6U, 0x3d18f95c3dfddcadU, 0x3d77b8c63c99dec0U,
  0x3c622e8cbe135f39U, 0x3d5989ffbcc6b136U, 0xbd566b51bdbe6478U, 0xbcef6a583d4e6600U,
  0x3cdf93603e042620U, 0x3d4861fbbcf8071fU, 0xbcfaae71bd4cd8f3U, 0x3d942058bdbfbbf2U,
  0xbcb4c65fbcd1ba24U, 0xbb4335153d518d0eU, 0xbd5b424dbdb08592U, 0x3dc6ced73d8ff276U,
  0x3c7a45803c7e3021U, 0x3c746a223d9d2112U, 0xbc12ea1cbe020247U, 0x3e2a32353cc63344U,
  0x3c276d8dbd098e73U, 0xbd9788993c32522eU, 0x3c944761bdfe736eU, 0xbdacdcffbd224bd5U,
  0xbc884ca7bd492871U, 0xbd6202fdbd0b7146U, 0xbc957e6abc8ccb13U, 0x3d7007563d921c4dU,
  0xbd22eb18be16f71aU, 0x3b2bddcb3b5a145bU, 0xbd84624fba29f7efU, 0x3cecf1f6bbdb93ccU,
  0xbcff344ebc865adeU, 0x3c556fba3dfa39ddU, 0xbd995a0fbaf27a5eU, 0x3c9beef4bdcbb044U,
  0x3d2fff33be29b5beU, 0x3d8f93c0bdd65df6U, 0x3c80f53cbdd8eb8fU, 0xbd325b06bc70c18dU,
  0x3b99f0b53d33c72aU, 0x3d9b927e3d375037U, 0x3d43b4ddbd948bc7U, 0x3bd08eba3c8cb8d4U,
  0x3c49c5a7bdd8da43U, 0xbc3300eb3d579e63U, 0xbdd3751bbc74ba33U, 0xbd5eb7563db0fa86U,
  0x3cfee5e9bc4fd21aU, 0x3db0f1c2bd72b42dU, 0x3cb158c9bddb7dabU, 0x3d6e1f14bc92d011U,
  0x3d0c291bbd08ec19U, 0xbe63c27cbc1c67bbU, 0xbd32fd08bad5515bU, 0xbd14a507bcbd28a6U,
  0xbdb1ecbebd7fdc79U, 0xbe9ad2d4bd02c782U, 0x3d0b3a9ebd8bce87U, 0x3dcecbce3d8ce86dU,
  0xbc0dd421be1119c4U, 0x3d75f218bde865c7U, 0xbdafd3a83d177dc2U, 0xbd512a9d3d07c9e0U,
  0x3bafc57ebc94b7f0U, 0xbbf86a1dbd2b5249U, 0xbd8d7aafbdcb6d11U, 0xba12241abc0c59c3U,
  0xbce2e962bd330ea0U, 0x3d090651be1480afU, 0x3cc7dad4be342fc2U, 0xbd06fc05bd31a11bU,
  0x3c5a255bbe08ab0aU, 0x3d39e642bd7f6cf5U, 0xbc4ede6abd5a5128U, 0xbd496d81bdf40385U,
  0x3c629bd2be2829d6U, 0x3cf7d64bbc8c233bU, 0xbb3e08cebd12f973U, 0xbdc542a4bd90539fU,
  0xbc6222133c540fa6U, 0x3d596c28bdf85b98U, 0xbd9409b93c464d7eU, 0xbd9b19d6bd3d71f0U,
  0x3c8455d43d87ce39U, 0xbde682093dd5fca6U, 0x3c058f1abc89203eU, 0xbcd8fc83bda8226bU,
  0xbcaf5fc5bb270a85U, 0xbe4e9552bb27f63cU, 0x3c8d28ccbd60f324U, 0x3ddca26c3bddb811U,
  0x3c63445abd987111U, 0xbd95203bbe49dd0eU, 0xbd9563f23d22f401U, 0xbd4fe28b3c9a2fe6U,
  0x3cb4c654bbb090d0U, 0xbd2863c4be14e890U, 0x3cc2145d3cbdf456U, 0xbd059c0c3d395620U,
  0x3c134e493d5f8851U, 0x3e1bec65bc559909U, 0xbdba27da3e1a7d32U, 0xbdf160efbda13478U,
  0xbe4bc491bd516cb7U, 0xbc81dbd33d74ef82U, 0x3e6de7333d393873U, 0x3da409e6bdfe2484U,
  0x3c59bc71bd26616eU, 0xbe7f46033d2ceae9U, 0xbe0a6ee9bdfc5618U, 0xbd0880b5be338133U,
  0xbe82d39f3d340c63U, 0x3ca90b86be4df052U, 0xbdb22faabd2a4faaU, 0xbbcee0103e1f67c6U,
  0xbd42313c3a9ce513U, 0x3d5e81f13e291296U, 0xbe00c3bb3d0c9c3fU, 0xbda8d891bcc411f9U,
  0xbdf712f33c843d27U, 0xbe226f9bbd909922U, 0xbcc702af3c9fe289U, 0x3db2458cbe8a664eU,
  0xbcdfecb3b9bd3746U, 0x3ba3b4a2be49c85eU, 0x3d8ea2a63e4da824U, 0xbd2bb961be6f2238U,
  0xbe6d6ba63da34077U, 0xbe3a8a0dbd1676d0U, 0xbc8f9e993d23dabcU, 0xbc56ae82bd9d682bU,
  0x3d698341bd02d414U, 0x3d9e68c0bd449fb5U, 0xbc708783bb34d6e1U, 0xbda71c88bcab5152U,
  0xbe1287393bfe88e3U, 0x3d833876bc135bf3U, 0x3e1d395ebd83d235U, 0xbac3dfefbd42558fU,
  0xbdb77d17ba1f790cU, 0xbe53cca73bf654d5U, 0x3dfeaaaabd8fe602U, 0xbccfad033e4f6152U,
  0x3e4c09553d2d0a56U, 0x3d5830853dd09c33U, 0x3c6b5ed2bbbc09d2U, 0xbc70fd79bd5871ffU,
  0xbdcaf239bc775b73U, 0x3e828f46bd1aa33bU, 0xbce30ababe1c67f5U, 0xbd1dce8abd42ee77U,
  0x3d0fd7293c9d301bU, 0xbd73f265be30ddbcU, 0xbd27b9c73d527155U, 0x3e3080dbbd5314bdU,
  0xbd557e4f3d6257c9U, 0xbd9477ff3d860c6bU, 0xbdac9d65bc331b7eU, 0x3ccecb56be92a2fcU,
  0xbde1a81bbc908970U, 0xbb8cfd913d1b3496U, 0xba33aea53e4511e0U, 0xbe039f833d7b5218U,
  0xbd8a654fbd2e972cU, 0xbce32c0bbe4a8dacU, 0xbdf4b112bd2d1490U, 0x3d24f24b3cd7f9c8U,
  0x3c9741793dd61761U, 0x3b25892bbdfccc0dU, 0xbe3c1d42be0914edU, 0xbc405089bcd3f734U,
  0xbdae87823d0e54e7U, 0xbdfdd2cdbe05283aU, 0xbdb2be763da5a6dfU, 0xbb5a5ae7bae91f5dU,
  0x3d08e9ba3d25bd13U, 0xbd5415503de396c9U, 0xbdad9962bd1c2c8cU, 0x3b325fb2bdd73fd6U,
  0x3caf7dc1be2c9d21U, 0xbbca6d29be0b548cU, 0xbd86e3aebe9a7fddU, 0xbdb47282bc81378fU,
  0xbccad172be040df9U, 0x3d365998bdeef03bU, 0xbe108b863e2dfbf6U, 0x3e18e8c43da0b535U,
  0x3962a58fbd050512U, 0xbd6ecef83e0cbff7U, 0xbe18c66fbe0ca8a3U, 0x3ddae0efbe6255d1U,
  0xbc5eb4ac3d1188c4U, 0x3d3f2fecbca50584U, 0xbcb328203df2b7d5U, 0xbdf7d217be195736U,
  0xbe0889433d342590U, 0xbe07aa9e3dd2215bU, 0xbd8bb4e9bd675180U, 0xbe4ae49a3d26ca59U,
  0x3da621cfbb825957U, 0xbdc244eabd2462efU, 0xbdcf23a23e4ed1f2U, 0xbdc4c6653d414f9bU,
  0xbcff52dfbde326e1U, 0x3db3f64a3d9396bfU, 0xbad45621bd95fe4eU, 0x3cf5b0213d0ca36aU,
  0xbc7fffb0bc92bc54U, 0xbe4caa82beb82c89U, 0x3d94f00b3d431c9fU, 0x3da544023df2c9e6U,
  0xbe21f6eebcc0ed56U, 0xbe33446f3d70cee0U, 0x3dd919193d4df52fU, 0xbd0c63e6bd4bfcdcU,
  0xbd5725a8bcff4d37U, 0x3d4afb623cf91a25U, 0x3d0af513bda2cf16U, 0xbd2fd9d3be069295U,
  0x3db892e3bd1f5104U, 0xbe3d7d62be46d249U, 0xbc27a1463d8b0404U, 0xbd07db60bdb797bbU,
  0x3dae5fa23d519a5aU, 0x3e3258fcbd52fab2U, 0xbe3293ebbdeed3aeU, 0x3d88e0bf3df4dae0U,
  0x3caac14ebda46b3bU, 0x3c4d33c43e247363U, 0xbca440853cf0b258U, 0xbe4d3cb83cbe3589U,
  0x3b87ac1a3c2eb985U, 0xbbadbb0dbe306993U, 0x3bc170fb3e05f621U, 0xbd4586433d5996e8U,
  0x3d58ea62be226e51U, 0x3de3b2843dfb4043U, 0x3d32bfe1bdb47be7U, 0x3c04a4c4bd14633bU,
  0x3b19af4f3cbdcd14U, 0xbdf3b711be097356U, 0x3d8a72b5bd42fe93U, 0x3d15755e3dad71f0U,
  0x3bc62f6e3debec41U, 0xbe0560fdbd27595dU, 0x3ccfe9723ddf1a7eU, 0x3d3bc732bdd9f5f5U,
  0xbc5c8836be1c4013U, 0x3ca245ca3e08d8d8U, 0x3d5dbcae3d885b3aU, 0x3d184b56bc1e4be3U,
  0x3de67128bdc13709U, 0xbde76162be4e3962U, 0x3d2477463cdacc96U, 0xbd5eac0e3bb920c1U,
  0x3cd3bcd9bc079b8eU, 0xbc5d386cbcc523bfU, 0xbd8f3ca3bdb4cda5U, 0x3d76c4923dff3b08U,
  0x3d9d1f86be2fb642U, 0x3cdb21c43d2b2525U, 0x3dd8fd98bc0d7bd5U, 0xbd540f393d673e1eU,
  0x3d2b7ecf3da7eb6bU, 0x3dc044ccbe30abf3U, 0xbc3d3ff03d97c141U, 0x3c3ab67ebbdf6b20U,
  0x3e2cfe1abe3849a4U, 0x3e5e1bc23cdd9ff2U, 0x3df18594bd2ff200U, 0x3d72c8f53e0c1769U,
  0x3e39bf833e14462aU, 0x3d0713bbbdd3a4abU, 0x3e1d0c0fbd34d960U, 0x3d0be9093db014f1U,
  0x3c65a1c03e3ec435U, 0xbca808f43caddab0U, 0x3cd9f7053d7fdc5fU, 0x3dd543afbd68515bU,
  0x3dfb2330bd0aff65U, 0x3bfba1b63df277ccU, 0x3cc679b53c10ce73U, 0x3d95b8a73d4655abU,
  0x3db5e2763ce91d81U, 0xbe1eb1c0be38de23U, 0xbdd0e242bdae29baU, 0x3bb31ea7bbc9dd6eU,
  0x3c162a9e3d648ab3U, 0xbd88b0de3d44d349U, 0xbd863f24be03a69eU, 0x3ca1a0c93d7ecba4U,
  0x3d5255b33c5641f1U, 0x3cc06a043dbc7803U, 0xbda67db13dc33142U, 0xbdb9ed20bd9127e4U,
  0xbc94d1bebd004773U, 0x3c271ae8bca043c6U, 0x3d8bc76a3d864cd4U, 0xbd4e658abd978e6cU,
  0x3c1a2bf23c819d6cU, 0x3cab63d6bd7d8043U, 0xbcee468f3d2e5a01U, 0x3d86d6843dfd7456U,
  0x3da78eef3d4be2d0U, 0xbb90e4503d83bf9eU, 0x3c3e2a3abd9c4f2eU, 0xbc8855a13d93a1aeU,
  0xbdc56d053da4ac0bU, 0x3dadc42dbd08d490U, 0xbd967fb9bd936eadU, 0xbcf28b473c52d744U,
  0xbc338d01bca974adU, 0x3cf87f56bd56b525U, 0x3e13210cbc679963U, 0x3cbd0ceebd52e5f3U,
  0x3d519e7a3aa94229U, 0x3c29e3893dfdeae4U, 0x3d31fc1d3d128784U, 0xbd51ca9bbca192abU,
  0xbb7c981bbcc53b82U, 0x3c84c80cbd4c4e69U, 0x3c8da0353d0a47f5U, 0x3d8bbb963cef4962U,
  0x3ca57c50bdcb6907U, 0x3d9bc5a13dc8eebdU, 0x3d9d69e2bb5f4148U, 0xbdb736bebd89bdcaU,
  0x3dd8745fbd54b6a2U, 0xbd2db4adbd0e1872U, 0x3dca6a38bd06c866U, 0x3d89b6363d05b03aU,
  0x3d61d7593ad8e894U, 0xbd58e37dbe350aa8U, 0xbe10f8fe3bde8c76U, 0x3d870e843cff55cfU,
  0x3b2d731a3cb635c5U, 0x3d07c628ba536ef9U, 0x3d9703d8be3f8329U, 0xbd99fababdb915ffU,
  0x3d31190d3dfe7513U, 0x3e0eb378bd1f9533U, 0xbc8828b6bc3a7fcfU, 0xbe09231abcf16e6dU,
  0xbc5c14e5bdb498cbU, 0xbb0930bebd0e930fU, 0x3e17f7ecbd763fd2U, 0xbcaa1604bdca9073U,
  0x3adda1d63d3e93f3U, 0x3cb1125b3b82b077U, 0x3d2a5f01bded1cfbU, 0xbd5ce325be03525fU,
  0xbc942075bda89759U, 0x3aff2793bd82335cU, 0x3cea27633dc289d4U, 0xbdfd484dbdcf23d1U,
  0xbda3f6f83dcd7664U, 0xbc59e884bd260903U, 0xbe46ca28bdcee764U, 0x3c0ee51dbe62cac4U,
  0x3dd54c6fbdd4d492U, 0x3cb30edfbe494b1dU, 0x3d69bcd5bdc7501dU, 0xbd68f9e03c935274U,
  0x3e26a5c6bdf2ddc3U, 0xbddcd9c7bcc74498U, 0xbe5c1ad0be1a9067U, 0x3dc38bac3cd0f12dU,
  0xbbf1da9ebb12201cU, 0x3de229de3d95ebd0U, 0x3d077735bdc7ec2dU, 0x3d45a0c0bdcbc710U,
  0xbd566f8fbd808dc6U, 0x3dcd50a23e9d849aU, 0x3debcd70bd229479U, 0xbd9d73fb3d58f19aU,
  0xbce513e6bcb409d2U, 0xbe020435bd37ddaaU, 0xbd0b9f9d3d9694afU, 0x3dae4096bd53e773U,
  0xbc639de33d2df751U, 0x3be4577abd5b9450U, 0x3dcaf3efbd72658bU, 0xbbf652f6be19da90U,
  0x3b9f9cfabccbe25dU, 0x3de5c45bbbc29f4bU, 0x3dd918323dbf9b9aU, 0xbe098fad3d34380eU,
  0xbc15c6ab3c68a82bU, 0xbcc3eed0bb0618faU, 0x3dbf1dacbd931b0bU, 0xbe2e6decbd8bf16cU,
  0xbd0772eebdfd8502U, 0xbc3fd2e8bc927b72U, 0xbdf76243bc2513deU, 0xbdf2357cbd86c10bU,
  0x3cd666f33d28c865U, 0x3d613b75bc654d93U, 0xba8278433d08a4e0U, 0xbe0365d63de6fafbU,
  0x3c954168be86c4c6U, 0xbb87b74cbd0c51e3U, 0xbb44bd163d514142U, 0xbdc1ac19bd48e8d8U,
  0xbcbc9259be2d9376U, 0xbe0068fd3bc02c80U, 0xbbe7d1713d884c01U, 0x3c6d76dabc2de9b5U,
  0xbd0f0120bd9099fdU, 0xbc9f1338bb8d0ce8U, 0xbb0793aebda14926U, 0xbd3fadfb3cd37190U,
  0x3d96cfbfbc13dc9bU, 0xbe380751bbf26fa0U, 0xbdd7262abd3fc388U, 0x3a23bd4b3cfe930aU,
  0xbcd1b09dbe5ec79bU, 0xbd79e2cebdd0fe6cU, 0x3c7f8163bd61859bU, 0x3d3dac37bd01a917U,
  0x3cf71dd03d1ea552U, 0xbd004d743dab7d42U, 0xbd4ed0d0bda8c0feU, 0xbdbd4434bd47ed2eU,
  0xbc3091acbe2c6eacU, 0x3c5abe6a3d090077U, 0xbe163fbdbcbb47a1U, 0xbe06924ebbfc066aU,
  0x3d2ccd223c2a81cfU, 0xbd659cd83d3b5e2cU, 0xbd0aadd33db1e9d0U, 0xbddc885c3cb0c605U,
  0xbde51414be4471f7U, 0x3cf31144bdc85e55U, 0x3c6cf152bcf4e160U, 0xbd97b0393cace5a2U,
  0x3d229e08be010b13U, 0xbeae2d873d8d8038U, 0x3cfa60ee3d575962U, 0xbc9f660e3c5fab8bU,
  0xbd4e56ffbd877524U, 0xbc5792babd65885fU, 0xbdedcfe5bd20ef3aU, 0xbde62424bbf35a65U,
  0x3cf134a9be12deeaU, 0xbd91424dbd909842U, 0xbe034b043d8c3087U, 0xbd34c9ba3cd60f96U,
  0xbb2cccffbbc73035U, 0x3decadecbe32da67U, 0xbc17cb9dbd184b96U, 0x3de726ef3c9fa74bU,
  0xbd366e493d1058c4U, 0xbcf6494f3d067cedU, 0xbd05e468bd1a0b13U, 0xbdd1e576bd03948fU,
  0xbd1283dabe554262U, 0x3b9e33043c88d78fU, 0x3c59c999bcb6ed88U, 0xbc79e0bf3cb35b7dU,
  0xbceca5e13b58cff9U, 0xbde6e7ce3d8008e4U, 0xb98dca1a3d47673fU, 0xbcb52033bda73e7aU,
  0xbd92d93b3d067794U, 0x3d9ea137bd9dbadcU, 0x3c1e4bb83c6fdfa6U, 0x3d7595d43cf023beU,
  0x3c8a7828bd07830fU, 0xbe2620a13d185f3aU, 0x3da91e8e3c658128U, 0xbcbde5aabc2e1f81U,
  0x3dad0776bcce2ed9U, 0xbc177419bd43f23aU, 0xbe5a6b49bd2e0d60U, 0x3d0bceaebd975b9bU,
  0xbcc48d3ebd6a6c07U, 0xbd25605bbd71a723U, 0x3c80943e3c0dc86eU, 0x3dd2311dbd0554cdU,
  0x3c9ce84d3dcad959U, 0x3c9110b2bc8ddaefU, 0xbc5ab3a3bcd6cb50U, 0x3d0853fd3dc7ff9bU,
  0x3dae26b43e991d38U, 0x3c0bc4153e0b19eaU, 0x3d34daa63d276ac2U, 0xbc239d41bd66ba03U,
  0x3d8b8c4dbdfc8c3cU, 0xbe313973bd82f6b0U, 0xbda05896be37c2e6U, 0xbea5563abd254f61U,
  0x3d659b0cbd908aabU, 0x3c7abe503d36d222U, 0x3a852ad53db70cb7U, 0x3d3908703e1d107bU,
  0x3dee916abd886f8aU, 0x3c8753573dc58267U, 0x3d9bb430bda6c2d5U, 0xbea0df0bbe1f849dU,
  0xbde4d2053e1dea12U, 0x3df13e7d3d88165aU, 0x3ae1b0653e10ddbfU, 0x3c9017db3e116fbcU,
  0x3c3a0654bcf82d54U, 0x3e069512bd6a8775U, 0x3c88fbacbd2dd7bbU, 0xbe2d97cdbe092b89U,
  0xbe0d0dbabc96705aU, 0x3d1b89dfbd9578edU, 0xbcecda2f3dfd8263U, 0xbd6b6fc4be86ded8U,
  0xbdbe781fbe39838aU, 0x3d9282fbbe0464fdU, 0x3cc4911f3cb30b4eU, 0x3dc766903dac4c95U,
  0x3d01e3dcbdd4cf0fU, 0x3d8282723e0486ffU, 0xbde6b34e3cf35ff2U, 0xbdbdb38dbd92ae11U,
  0x3e2aca77bd871fe4U, 0xbdca604ebcce982aU, 0xbde43a0bbdcecc1fU, 0xbe221db6bc5c3040U,
  0x3dfdbe57bce717b0U, 0xbe6acdc83e0f73d5U, 0xbe42c7ec3d70689cU, 0x3e1b97da3c3dc99cU,
  0xbba801ddbd0f20f6U, 0x3da8fd3c3e05288dU, 0x3e07d55cbda608ffU, 0x3ca3d56d3b8284feU,
  0xbdaeed76bd850db1U, 0x3b3a07453e0a3e69U, 0x3d891ae03e091499U, 0xbdc23ce13e0b06c1U,
  0xbd0ac73bbd93154bU, 0xbd913c6bbe60260fU, 0x3ce501a0bdc96370U, 0xbe8d8af63caf554cU,
  0xbd975962bc6d7d66U, 0xbd2ccab0bd2b535cU, 0xbaa1772abcc82193U, 0x3e20509ebe915aacU,
  0xbda559ebbd5d3bb0U, 0x3c114cadbd0e479aU, 0xbdd62e05bd702bf9U, 0xbd1f674cbdabfc13U,
  0xbc8b7adbbe186163U, 0xbda4b15bbe0de60aU, 0x3dc72dfd3dab4416U, 0xbe60e307bca8408aU,
  0x3d8bbd9ebe38e0e3U, 0x3da3586839f565d7U, 0x3d881e653d1db378U, 0xbe0d958dbdb1df26U,
  0xbd98b4ac3ce5b170U, 0xbe0bd64a3e34bc98U, 0x3db127bdbd9ae165U, 0x3bcea53ebe26346dU,
  0x3de8638c3d69c5cfU, 0x3dcad746bd07dbf0U, 0xbc3d7859bda2e28aU, 0xbd8e0ce2bd835b8aU,
  0x3d84a084be0913d5U, 0xbd88fb54be186a8fU, 0x3dfcce4fbe253f88U, 0xbcba6d853d16c1bdU,
  0x3d8a368ebd804036U, 0xbe5e823dbdfd543aU, 0x3d00d3cdbdd73635U, 0x3e5dc9703da1cc28U,
  0xbc20a7ab3d68ed55U, 0xbd05f5a13d92c29cU, 0xbd335e713db7bae6U, 0x3df53a36bc6bd347U,
  0x3e0d53af3e151ef3U, 0x3a93bd55be19839aU, 0x3c2e60823ce67c97U, 0xbe3a9ef1bd7bdc66U,
  0xbd760b4d3c8b6ba1U, 0xbd42758bbe0d7839U, 0xbce9092fbe425c00U, 0xbd250609bc99d407U,
  0x3d9fef89bdbf17b1U, 0x3d4011ccbca34579U, 0xbd525e0dbd05c967U, 0xbd74dfc2bce28400U,
  0x3d772ff8bcf81b80U, 0x3df53ee6bdccc427U, 0x3d242ae63d13fed6U, 0x3de206213d46ed28U,
  0x38fb9cec3dd02c5dU, 0x3c8692543e0df4d6U, 0x3da1faab3d307157U, 0xbd64c710bdf85cf2U,
  0x3ccf51573cf854d5U, 0x3b3d71db3d1f2b69U, 0xbc873cc03d88eaaaU, 0x3d259386be004174U,
  0x3d7d054b3df6f334U, 0x3d0b443a3d47e1cdU, 0xbd220aa9be0b4c0bU, 0x3ce7f15d3d8278a9U,
  0xbdef2afc3d97f2fbU, 0x3c60f8f53cff85c2U, 0xbda8b1003d8923eeU, 0x3d91a5853d43e53eU,
  0x3c0e810f3a6b1d58U, 0xbda318dd3c6db506U, 0x3c7393cf3d427c96U, 0x3ce031aa398ca6d5U,
  0xbcab896b3cf0b763U, 0x3aa70240bc3c45fbU, 0xbda514c0bd424ac0U, 0x3d70fe6bbca21f7cU,
  0x3daf3731baac3b8aU, 0xbc5ee988bca7f83dU, 0xbd02d1353db3f4beU, 0xbe086e85bd642407U,
  0x3cb658423c8e0be7U, 0x3db91cccbdaf1246U, 0x3d8b8ef13d949ffeU, 0x3d82f9de3d772f45U,
  0x3d4d93cd3d4ade8bU, 0xbc6083f03dd93f62U, 0x3c14b659bb5219d5U, 0xbc57b07fbd6f049dU,
  0xbd8a4f42bcb3bef7U, 0x3d81264a3d438994U, 0xbc3358463da549bbU, 0x3d563b69bd42e4c3U,
  0xbcfcc2ce3dd5171eU, 0x3dde2398bc7ad4f5U, 0xbcc6390dbd44718cU, 0x3ca8e954bd3557d4U,
  0xbdf7f6d03dd3767bU, 0xbcb612793dcb00e6U, 0x3b34dadf3d580bb9U, 0x3bac762338ff6f77U,
  0x3d3cb1fd3b48343aU, 0x3c88f827bcb0ffefU, 0x3c4d51e33d990ec5U, 0x3d18ad5cbd9ff659U,
  0x3d8d301fbd566a04U, 0x3dc872ae3d3e9669U, 0xbd9e56ec3d2ef48dU, 0x3d801f2dbd482d00U,
  0x3bb289febdccd744U, 0xbdbef1d1bd0b5671U, 0x3dcf6a49b9cf7320U, 0xbd4a1fb3bd83beddU,
  0xbc809a673d64fc6aU, 0x3d7676bc3d19923eU, 0x3db0dcefbc200251U, 0xbc8a4bc73d6b0dbcU,
  0xbd8f7bc93a2838f2U, 0x3ca73ad83dad757cU, 0x3bc947c93cb14cd6U, 0xbd6409df3c2f8079U,
  0xbd80b8723cca2e72U, 0x3d5a02a7bcab678cU, 0x3cce4eb93d3989f7U, 0x3d91306bbd487797U,
  0xbd2064323ce472d0U, 0x3e33d002bd529ec8U, 0x3e0386cdbd495b6cU, 0x3bde47c6bd7ea8cdU,
  0xbda31c9a3ddcbf18U, 0x3c4977713e0527dfU, 0x3d12c9b03dcf5954U, 0xbce06c6e3d118fa6U,
  0xbba9f385bc23f148U, 0x3d1e4b7fbc5a5705U, 0x3d864f323d95d5b4U, 0x3be5cafb3d3b7e75U,
  0x3c7e5bcbbdb6356eU, 0x3e0a374abedcb09cU, 0x3dad58b8bdd13627U, 0xbe2b591c3db36140U,
  0x3e0d6cf0bd93802bU, 0xbcfe14663c8cd6bbU, 0xbd4ae1f3bc1c451cU, 0xbd56cf4abd83182fU,
  0x3d96e1693e0c1386U, 0x3d58c8903d00ab31U, 0x3d4e45b2bde18325U, 0xbdae8dcfbda730b8U,
  0xbd531976bdaeb4f1U, 0x3d08cc6c3d096603U, 0xbd74087c3de09026U, 0xbdf89f51bdcd7cb7U,
  0x3ddb22b6bdbad4c9U, 0xbe5f6244bc8ae10cU, 0xbd1e8940bd85986dU, 0xbda29bbe3ce8cfbcU,
  0xbd4cc1223bca6a87U, 0xbdc570b93cf0d53cU, 0xbd02f412bd6f3e60U, 0xbd5a76cabb2503b2U,
  0xbd35ad1b3e0ab9b7U, 0x3b9b46523e1be127U, 0xbce7800e3c168a37U, 0x3d77fa933d549a5eU,
  0x3dccb80c3d97f347U, 0x3d020eedbcc4af96U, 0x3d72d3d03d3504e6U, 0x3d61b05d3e04e236U,
  0x3da173973da9907bU, 0xbd6625f2be40d2d0U, 0x3dd80e8cbd65a7faU, 0xbda12acc3cbbb733U,
  0xbcf2e9abbddb92faU, 0x3bf1f224be495712U, 0xbd86079cbddc61deU, 0xbe872a9bbd03657eU,
  0xbdc181b13d7a1283U, 0x3de7f87ebbd60e00U, 0x3cce91f63d78385bU, 0xbd7e6dd4bdbbf094U,
  0xbd265eb6bd808cdbU, 0xbe2177cd3c82db41U, 0xbd1749663c92cea7U, 0xbe6b70ddbc7f53c2U,
  0x3c926518bbded525U, 0xbd5a3f37bc0954d1U, 0xbe0f5969bdc4673eU, 0xb9ba75f3bd35f98cU,
  0x3d1354c73db5f6a6U, 0xbbd008353d2e1d21U, 0x3cae16dcbdada8cfU, 0x3d948497bba95664U,
  0xbdd4f7223d5cced0U, 0x3cb1d5183dcc97e1U, 0xbdc28e223df6f513U, 0xbe017c9a3de17c19U,
  0x3c1738ca3d2ac9f5U, 0xbc9d0733bd84a1eaU, 0x3d68180cbd100bacU, 0x3d9fae4f3d8d94cdU,
  0x3db5d6e73d384d02U, 0xbe2fd0d73ddad770U, 0xbdb4c27bbe0e40c9U, 0xbd8727a4bd958beeU,
  0xbe5715a7bccfde75U, 0xbe15377cbda3cb95U, 0xbd176e5cbdcddf00U, 0xbe38d2f5bcdd6c49U,
  0xbd12714c3c177b7cU, 0x3d92b1c8bd80fe27U, 0x3d84f42c3d617fd7U, 0xbc4fc031bc247a2fU,
  0xbdfd3399bdbfdc48U, 0xbe89680a3d305949U, 0xbbc9cc573dad1b6bU, 0xbe4ebf37bbd19064U,
  0xbdbf7e6f3dc1b2e5U, 0xbd95d65c3d780208U, 0xbdfa9f4d3da9685fU, 0xbc87c86fbda91849U,
  0xbd3a6a293d98de55U, 0x3e18525cbd46c692U, 0x3c089cefbe0a6484U, 0x3d0c51fe3c2da0d2U,
  0xbdc788e73d789af9U, 0xbc7c10f63d00be76U, 0x3d82501a3d553f8aU, 0xbe1b7a343c571d26U,
  0xbc6a42743c10d5d8U, 0xbc90dd9d3d298e9aU, 0x3ca2f227be87a803U, 0x3e1b90aebc830296U,
  0xbd2964263bdb7193U, 0xbe0d295fbc62380aU, 0x3d7f9019bd1c86adU, 0x3c7ca647bc951bcaU,
  0xbd48c05fbd27ce66U, 0xbe19cb813d5e9c8bU, 0x3dc376babddad0eaU, 0xbc967f513df6d123U,
  0xbba58bc9bb3ee1eeU, 0x3d62e896bd24ebe0U, 0xbd08dd9fbe04240cU, 0x3d7f95c3be31cfd2U,
  0xbdb68007bc0dc35dU, 0xbde095c03cd3825dU, 0xbdba2f2d3de785dfU, 0x3bce0ad73d80ed8fU,
  0x3c9b6f383d5d0604U, 0xbd91fd563e3b7216U, 0xbe06a09abdd47659U, 0xbda04476bdc7aba9U,
  0x3db6cdc43e0db849U, 0x3c9d08083d152136U, 0xbe0fb026be0f0a16U, 0xbcfdef93bceb58b0U,
  0xbdacce67bdbdd632U, 0xbd9c0472bda37c6fU, 0x3d288d7a3cd071ffU, 0xbcdd8db93cd05b43U,
  0xbd6ec0903dfb6d17U, 0xbb2293d7bd3f7a5dU, 0xbd5876e5be1bad7fU, 0x3db381f3bd193882U,
  0x3b28f0303ce8e9a7U, 0xbe2bfbfb3da978e1U, 0x3d80f5e73b6bcac4U, 0xbb418988ba9c7847U,
  0xbdfe038bbb5ecf80U, 0x3c8ab4493da31c86U, 0x3d4298493c2b5b7cU, 0x3db590b93d2efaaaU,
  0xbd64f307bc8d9a59U, 0x3bfba4fdbd02fea5U, 0x3c6cffbbbddbddfcU, 0x3cd928a9bc4999f4U,
  0xbd38ad283ceb4bffU, 0xbd4d115b3be0fd93U, 0xbd549f15bc8786e8U, 0xbd201ae93da1faf0U,
  0xbd38b6d13dd72be0U, 0x3cd9cc1d3b401daaU, 0xbdf17421bd591d4eU, 0x3c9f8059bc91024fU,
  0x3d4739003d0556c1U, 0x3d7aed82bc2c3b11U, 0xbd75ca96bdc27b41U, 0xbd0f5de43b9f11b3U,
  0xbd3589cebdeac540U, 0xbd7a3c68bd264543U, 0x3d858ae3bc405ce3U, 0xbd00626a3d3072ffU,
  0xbda125813da282b1U, 0xbd14297a3d2e1e01U, 0xbe67781abd4d858eU, 0x3d6c0238bd99988eU,
  0x3c81731f3d722d07U, 0xbe5988293dfc4a29U, 0x3b08513bbcbd1417U, 0xbd524354bd08d9eeU,
  0xbddefeee3d88692fU, 0x3d1cde143d7942fdU, 0x3b35b0883d02dd95U, 0x3dafdf4bbd94cca7U,
  0xbd24f6d4bda4a2e4U, 0xbbd562cd3d2bc7f3U, 0x3c15b987bde7ef60U, 0x3c9638b03e1ddc19U,
  0x3d6d0d5ebd70ff9bU, 0xbd80e18b3c5d2ba7U, 0x3d0af810bd920d49U, 0x3c6a7b8a3d8bb31eU,
  0xbd9edcbb3cf36388U, 0x3d62ccbdbd846315U, 0xbdd220e5bd94022aU, 0x3cf8e4943b5818fdU,
  0x3caa92c13c682a8eU, 0x3d9b58e7bd42be18U, 0x3d15f91abd9bda4fU, 0xbdc0ae413cac044dU,
  0x3b35123fbe2b0952U, 0xbd5b9ce9bdc20018U, 0x3e0ac470bcd8d3b8U, 0xbdce44573cd6047fU,
  0xbdfbf77bbd1ff920U, 0x3dd9dab33d83eb68U, 0xbe9726553cda23baU, 0x3daafe79bd55c341U,
  0xbd817de6bea11616U, 0xbc30a8efbd3e30dcU, 0x3cdff8c73d90dcdcU, 0x3bc5022a3db5025aU,
  0x3dea401ebcecf1dcU, 0xbcea7c1b3da9ffceU, 0xbdb2dcc6bc6a6a07U, 0xbd8d12ac3da446bdU,
  0x3d24cf053dbc4f5dU, 0xba3409593d0202c6U, 0x3d4d1064bddc4540U, 0xbcb85f2fbda5e212U,
  0x3d60c5cc3cfe22e6U, 0xbdd06f93bd2d3b10U, 0x3d2d22673cc130b3U, 0xbd8a8ad13b92883aU,
  0x3d85ee33bb28d043U, 0xbd81b553bccd1f08U, 0xbd8a8860bdd04095U, 0xbbd29349bd08c685U,
  0xbcc3c3b63c62be80U, 0xbd89d8f0bcc47f31U, 0x3c263498bce77fe0U, 0xbc100ffdbcc4fdecU,
  0xbda606413c3409bdU, 0xbc2810f73d0b6a97U, 0xbe26c9033c104b5dU, 0x3d38cea93ce9802fU,
  0xbb9a1b4bbacac2d5U, 0xbd1a38f3be2f2b19U, 0x3cf61573bc677a4dU, 0xbc6c3365bd8cee2aU,
  0x3bdbe16ebdc09e57U, 0xbd380ee1bce75aa3U, 0x3cc994343b4d7b87U, 0xbd41568d3d88f15aU,
  0x3cc884e0bccbb181U, 0x3caa9241ba14a4f9U, 0xbd2b66d8bdfbc92bU, 0xbe8128af3cb52805U,
  0xbdb0d0bfbdcce6c5U, 0x3d32ff76bd424174U, 0xbda62d11bda72fa5U, 0x3adb19d3bce7cc5dU,
  0x3c35af79bcba6cb1U, 0xbe2f085bbdd281f1U, 0x3c7970c33c850572U, 0x3ba5c4963d3a3993U,
  0x3c30bd5fbd53c7abU, 0xbe2c028dbc94fd0eU, 0xbd99fbd6bde4d039U, 0x3caecdd5bb4abf93U,
  0x3d1e44c53cc90d18U, 0xbd399baebb1bb93cU, 0xbccf95983d4e483dU, 0x3d1c07db3a619dfbU,
  0xbd86e2133c2cf584U, 0xbd88607f3c91235dU, 0xbe6aa8eb3cc81bccU, 0x3d0685423d6bd245U,
  0xbcb946a53d82dbe9U, 0xbdcf077abdd00e62U, 0x3c9a9057be2adf53U, 0x3d60deffbcfb2990U,
  0x3d2f70cebce80ff5U, 0x3ccea5153c99ae05U, 0xbd8c03cfbbff7f61U, 0xbca3c6d53cbe5293U,
  0x3b92f639be1b7ac3U, 0x3d55773e3cc7c58bU, 0x3d80a454bc36f95fU, 0xbdb382ef3e176edbU,
  0xbd767f68be4427bfU, 0x3ce733d8bcb3ade5U, 0xbe3953533c45d3b5U, 0xbd05880cbd065d17U,
  0xbd4fcfae3ca87978U, 0xbd586e44be71b47aU, 0x3c39744bbe1f3026U, 0xbd94ef0f3ddc2c7bU,
  0x3ab3293e3c7028ecU, 0xbcf16547bcf3d214U, 0xbd7b88513d0ed1c7U, 0x3ca23ecbbd7d1948U,
  0x3cd17c66bcf61a21U, 0xbd1e8e193c8942a4U, 0x3da1916e3c677ddfU, 0x3c78cfe8bc98395cU,
  0xbd7f98623d370756U, 0xbcc67d4fbd341e1fU, 0xbdb31d893d617424U, 0xbe2e077d3d429e3aU,
  0x3c2c15c9bcdb1e97U, 0xbe33c6e1bdb5544fU, 0x39dfbd17bdee8c81U, 0x3d9b50623d20aaebU,
  0x3d7061e93c8a6bf5U, 0xbdae90543d4fa703U, 0xbc3683d2bd363e9dU, 0x3c376bc0be26b815U,
  0xbe0d1221bde3aa2cU, 0xbd2ddbd9bdc47f8eU, 0x3da71641bd477313U, 0x3db022423db62f0bU,
  0xbd83554fbd9529c9U, 0x3da43e84bd06f039U, 0x3da88a523c5c47d6U, 0x3af6317dbd1f0503U,
  0x3c02dc443dc52c30U, 0xbddfa9483d050ad5U, 0x3db255f23dae3f63U, 0xbde5c252bda0873bU,
  0x3908ffeeba896380U, 0x3e1daec73d149bcaU, 0xbdb79c123dd5849aU, 0xbdb063f43d583892U,
  0x3d759db43de6f5bbU, 0x3da7928dbdd694f2U, 0x3db7bb35bd956deaU, 0xbb235f57bcc06afbU,
  0xbdfabd8b3c87db33U, 0x3d0c0f903bd9e991U, 0x3d529bebbd3eb59aU, 0x3d21552ebd7749b9U,
  0xbda8824b3e0c1abfU, 0xbd9307d23d82d946U, 0x3d09c8403dfb2dceU, 0xbe050dd3be0c7aabU,
  0xbd1383afbdd335d8U, 0xbe4bc6363b8c7e65U, 0xbea9698d3d42d5abU, 0xbcc2703bbd1bfc67U,
  0x3cca8729bbb60793U, 0xbe60f086bb1df1c5U, 0xbd37d0a9bde2dee9U, 0x3e14be0e3d1e6dfeU,
  0x3d44aa14bc9bce86U, 0xbe83fd103ccf5851U, 0xbcebc246bd9040a7U, 0x3d8dd8a93df758c5U,
  0xbdb535a9be247b7cU, 0xbe04ac7c3df11615U, 0x3b83825bbe0d2c8fU, 0xbd9a5369be66f5d8U,
  0xbcdb5eb2bd09d0bbU, 0x3d75561fbe2505cbU, 0xbe0854493d430e6bU, 0xbe0347c03de833adU,
  0xbd7bd167bd8f08e2U, 0x3dcf9012bdfa45dcU, 0x3d278ddcbda4efe4U, 0xbdf2f271bd38c456U,
  0xbdc0d0ad3c42fdf5U, 0xbcf7e7db3d84e212U, 0x3dd43029bd9de25cU, 0x3ced75b6bda90736U,
  0xbcb88505bda00c10U, 0x3d9761a03e0dbff7U, 0xbd7431e53d1de7d1U, 0xbe032e7a3b5b8b4bU,
  0xbc40492fbd7c04b9U, 0x3bfdf299bbcd454fU, 0x3ca9c81ebd5f8aa7U, 0xbdef0ddabcec30c9U,
  0xbd5d9aa4bcbdc7a8U, 0xbd7bb36d3dd6e546U, 0xbe710d99bcd809ddU, 0xbd03dea53d1e7525U,
  0xbd4ce33e3a513996U, 0xbd19ea9c3df15586U, 0x3d715f9ebe16c3b3U, 0xbdd9a203bd688ea9U,
  0xbdcadd26be1e6464U, 0x3ddab028bb2ca786U, 0x3d71a6623d89bd27U, 0x3db2dc9e3d58d494U,
  0x3db80956be0af342U, 0xbdacbea0be3002bdU, 0xbe50a8cbbb0c76c1U, 0xbcbe4a183d474492U,
  0xbd349e053d0911efU, 0x3d2c422ebe69c9fcU, 0xbccf41fbbd462907U, 0xbd4061f33d2635a5U,
  0xbdfbf44ebd80bb7bU, 0x3c92cbde3dbb8050U, 0x3d97bd953dc53c7eU, 0xbe0ca1ed3d8b7723U,
  0x3a8686a5bd86b884U, 0xbcffd2033c66207aU, 0xbd8c7b6fbe4ef94fU, 0x3dfb20693daa7b9dU,
  0xbd1d8c5a3d7462ffU, 0xbcaa34393d6d50d3U, 0x3da21baebd698dc1U, 0xbe0149cd3c946d54U,
  0x3c5d45373dbdbf56U, 0x3c1b6c213e37dd92U, 0x3cbbb1703e2fbf48U, 0x3d35fa02bd001b31U,
  0xbdb358bb3e5b807fU, 0xbd5921dd3e294fc6U, 0x3e49715c3dbaa7bbU, 0x3c2c19c63d2cd27fU,
  0x3d76b7a5bd87f857U, 0x3e1a65ac3de6856dU, 0x3e1bce623d14887fU, 0x3d67473c3d8f3fb6U,
  0xbbec20c4bdb97d17U, 0xbdf13972be539c0aU, 0xbdf6bfae3dd2a7f1U, 0xbe9fb8e3be0132b1U,
  0x3d00a51fbc7a92a5U, 0x3c948625be1f6d62U, 0xbbb168443c7a9a2cU, 0xbc8077d43a91fbf8U,
  0x3ddbe71fbe86c954U, 0xbdd294dbbda05b20U, 0xbda876d93d31a827U, 0x3caac7243c03ed28U,
  0xbe583f4a3cade33fU, 0x3dee1997bcbf0eaaU, 0xbe22a5cebd4576c9U, 0x3de28505bd1aa8b4U,
  0xbdff5b3bbddee858U, 0xbda92c69bd8fab90U, 0x3e0c67ecbc821f82U, 0xbcc76dd13d124208U,
  0x3d4d361bbd129b5fU, 0x3cbcabb33d3ae882U, 0xbd020eb4bbdf562fU, 0xbc2eeff2bd467fbcU,
  0xbde8b2b63e097a53U, 0x3cb14498bdb14a45U, 0x3d77b4583cdeeb4fU, 0xbc1696c2be28933cU,
  0xbd02b38abcad9eedU, 0xbd08559b3d3e5686U, 0xbcbd82853bb27ad4U, 0xbdb38ea73d827dd3U,
  0xbc9d25613d2057a1U, 0xbd6163f4bd9f94beU, 0xbdbab489bc938753U, 0xbe391dd1bdb30670U,
  0xbac53f57bceb7c54U, 0xbd5f832abcce70efU, 0xbdf18f7e3c7b2e99U, 0x3d05c82fbd851aa6U,
  0x3dad6d02be2ccf6aU, 0xbcddd371bd591551U, 0xbdc64a173b50a60dU, 0x3c18d00d3a8b5802U,
  0xbdf854c83d70cb3cU, 0xbde85665be1452b9U, 0xbd824bc7bce1ab50U, 0xbd126348bdfde875U,
  0xbde5f1adbec87737U, 0xbddbfdcfbd1eb6b7U, 0x3e2ac14f3c9bc6deU, 0xbd598eb33e1c9bddU,
  0x3dc735a9bd8144fdU, 0xbd3b3e9e3d0b6438U, 0x3c0fd93bbcce5c06U, 0xbe156c6cbc898474U,
  0xbe700b77bdcf7f3fU, 0x3e211091bd80aac1U, 0x3d8f0b733d1ff539U, 0xbb8149bb3e21e4e7U,
  0x3e25e01dbdb31014U, 0xbe41f1e63cb64ad4U, 0x3da7ab38bce1bd99U, 0xbdb28dc33b566ce6U,
  0xbe44df803b38fb41U, 0x3d5cf7a7be0fdb35U, 0xbe61a1dbbd1de5c8U, 0xbe08890fbc69c6f3U,
  0x3cdb82c13d1fcf33U, 0x3d010e863bd48289U, 0x3d958873bd3aaabcU, 0x3d6251a9bd5c75aeU,
  0x3cc157c13c628239U, 0xbdb330b93d4ce444U, 0xbe06ec4f3d93b3c8U, 0xbd2c474c3c8c81c2U,
  0x3cf0dd0abd7e8a32U, 0xbcc1ce3bbe080195U, 0xbe466600bdb896e4U, 0xbd8b62fdbc824216U,
  0xbcd7e8d2bd8ca413U, 0xbae37b11bd2c5597U, 0xbcf757afbd2c7bf4U, 0xbe32045d3d35e684U,
  0x3c86a13ebc7f2fd2U, 0xbebabe743dc7e326U, 0xbce5854e3dd51299U, 0x3d4541afbc567ecaU,
  0xbc432b633d57f29fU, 0x3c13d847bd3f28c1U, 0x3d2e74fdbc71f9fcU, 0x3d49c91fbc629604U,
  0x3b8351553d5b4716U, 0xbd5378d03c79622dU, 0x3cef0252bd29b7baU, 0xbe058083bd74a28eU,
  0xbc91295f3d5e1615U, 0xbc4c0523be2f5bf6U, 0x3b23c6953d30a197U, 0xbbe59031bda34bf7U,
  0xbc028e4c3dd89538U, 0x3e1a62c7bc349e57U, 0x3d5b13ddbe39f8b0U, 0xbea15088be66d91aU,
  0x3d51cfad3d9dcaccU, 0xbe2510a93cc918a7U, 0x3c4842b2bc48e0f8U, 0x3dc89815bdd10eb1U,
  0xbd5656813d11acc2U, 0x3c7d2044bac3d4baU, 0xbc8082f23ba517cfU, 0x3d0740c8bc9cf44eU,
  0x3d71627abd8aeb08U, 0x3d439504bceb14b9U, 0xbcb419cfbcfd36f7U, 0xbe1d94973d0cd9e5U,
  0x3ccbeb0bbbf5c94aU, 0xbe860ccfba228c5bU, 0xbe6b81f6bdb4d8dcU, 0xbd798b3dbd526e26U,
  0x3c671b4c3caac80bU, 0x3d7285193cab0da5U, 0xbcb1c0b13d814ea2U, 0x3bc691f03dbbf4adU,
  0x3d14570fbda31c96U, 0x3cb1e524bcd8d067U, 0x3cc5bd29bdfabc19U, 0xbcc8b569bdd0beb3U,
  0xbd820e8ebc5913ecU, 0xbbc05f73bd792e1fU, 0xbc9b89e1bcf6df4aU, 0xbc9d019cbd3f2bdbU,
  0xbce7de603d3eec41U, 0x3dae3883bd056254U, 0x3d06e54abdf8c68aU, 0xbe3b1971bec17607U,
  0x3e18cc833d4cbba7U, 0xbd87528e3b450bd1U, 0xbde688d2bb85cdb1U, 0x3b1daf6bbdfaac44U,
  0xbd44d9d33b636383U, 0x3c3c70ea3d0c3f5eU, 0xbc8a3c1d3d3e5ecaU, 0x3cb289563dae916dU,
  0x3daa3d64bddcefc5U, 0x3dbadbe3bd28402eU, 0xbd76f5f8bd7425feU, 0x3b5d3117bb825478U,
  0xbd25849abd127893U, 0xbe2fdfa0bdb2d0c0U, 0xbe223f6dbc5ae306U, 0xbe407d123cb1203cU,
  0xbd6584febc2a0532U, 0x3b8106d33b1a25d8U, 0xbd6a99a63dfdb0d0U, 0xbd062e093d14103fU,
  0xbceea5a1bd6e9e00U, 0x3cd5d86abdc5d8ceU, 0x3d5c932abcde595dU, 0x3b2e0df1bd397f26U,
  0x3bb76081bda44febU, 0x3c5366ee3ce5eb21U, 0xbd25c7c5bab1ad60U, 0x3d3f9733bcfe5b77U,
  0xbd45f573ba44e9e0U, 0xbd68cda4bdaa5277U, 0x3caa99d8bce2fc5aU, 0x3ca86988bec472deU,
  0x3dec26263d2d3a93U, 0x3b2fe0f23be1efe6U, 0xbd9e2465bb0780bfU, 0xbd84e235be1103e7U,
  0xbc41318fbd4635d1U, 0xbd3170013c03b9aaU, 0x3d1c1057bb2056a0U, 0xbc781b053d81a99fU,
  0xbd60f5bdbd63f54fU, 0xbcf9eb253c1f951eU, 0x3dc53cecbdcbbffcU, 0xbd8865c5bd8351caU,
  0xbbff13cebd8ad25dU, 0x3d1fa0863df92d9bU, 0xbe787d883ce1628cU, 0xbc8673ecbc974e6bU,
  0x3d4efd233d58ffa0U, 0x3bd426e93d94dd37U, 0x3c8dc39d3c02401dU, 0xbdc66008be05b368U,
  0xbda03888bb195632U, 0x3d381a973df40358U, 0x3d1047613c2c9968U, 0xbd8e951d3def3651U,
  0x3d9ad2fdbad2874bU, 0xbd72d351bbf59d1cU, 0xbbb6c6f1bc815d72U, 0x3d22d04bbcebbff6U,
  0x3d07a1a2bdce6438U, 0x3cc0d7a0bd4c1dd6U, 0xbe20c900bdb61102U, 0x3b0b8aa73dd1300fU,
  0xbc6fd03abdda2470U, 0xbdb305d83d5020e9U, 0x3e0756d5bd88fee2U, 0x3d35f69c3c77bc0aU,
  0xbd91ebc2bd2261daU, 0xbea30a00be0e68b4U, 0x3d66ced1bdaea847U, 0x3d8c09753c953621U,
  0xbdb9b022be6c5dbaU, 0xbcdae75ebe22adefU, 0x3d791532bd8756bbU, 0x3d3591713d014d65U,
  0x3d946f353c8cbaa7U, 0x3c7a5eafbe0e6b06U, 0xbe4f939c3d46291aU, 0xbc530bc03e527619U,
  0x3ca125943cf370daU, 0x3d945b12be601761U, 0xbdba36983d253360U, 0x3daa6fb4bd356e97U,
  0x3de9411c3dca54cbU, 0xbdb53d8d3d812663U, 0xbd1defbdbd25656bU, 0xbe0deb05bdf10567U,
  0xbdc0e0fe3c9ea2c3U, 0x3dc97e91bcad4a89U, 0x3c59a373be1a7e41U, 0x3dc73010bdd29fcfU,
  0x3e3a722fbd6702d3U, 0xbd56aa00bd6fc927U, 0xbdb0c930bda439fbU, 0x3dc5d3493d3bdf66U,
  0x3d643f2e39b13f61U, 0xbc9f849e3da26622U, 0xbd42847dbe015a27U, 0x3e20ec92bb055899U,
  0xbd0f6bf1bd10dbdbU, 0xbdd8669bbdd05b37U, 0x3d46ef853da6eb79U, 0xbe85c200bebdbc1bU,
  0x3d05a4efbcf96cf2U, 0xbddc6dc3bddefc5aU, 0xbbacf438bd2325ceU, 0xbce989f5bcf12f5dU,
  0x3dfc8cbb3dd590cfU, 0xbe050b49bd525842U, 0x3c0c72ca3d92a3ccU, 0xbe1eec9f3c364b41U,
  0xbd421800bdbad2feU, 0x3e0ed98bbd0c5b0fU, 0xbde72843bd68ce42U, 0x3e2d6f153defb4d2U,
  0x3dc5d6413dc7db85U, 0xbde431493d2eae12U, 0xbcb92f00bc948584U, 0xbcd63686bea2790dU,
  0xbe73ba94bb981ea6U, 0x3d6b0c9bbd3d244eU, 0x3cd62067bdc242b6U, 0x3e01e27ebd2a4e29U,
  0xbd67b999bd063226U, 0xbd881f64bdaef338U, 0x3d66d3bbbd9936ccU, 0x3c6793a1bba06ce1U,
  0xbdde551f3e01cdafU, 0xbd6ddcb03d7c9c4bU, 0xbd995548bdbfb63aU, 0x3e0248e1bcc4a37dU,
  0x3dcd5afdbcf0cc3cU, 0x3d94fbe8bb76ebabU, 0x3d57e0c33db3fd7eU, 0xbd98d1d03d99568dU,
  0x3e0685de3e1754b1U, 0xbe1459fa3df21d2dU, 0xbd0cc3c4bd844f09U, 0x3c47f108bdefec9dU,
  0xbe98c8ae3c4d31aaU, 0x3df00e0bbe51d4f4U, 0xbd7a8e1fbdbd12f1U, 0xbcb791f93c68e948U,
  0xbe3f012dbe6178a4U, 0x3c44e5e7bcacb18cU, 0xbd1c96d53e2bc553U, 0xbd75562d3d922ee6U,
  0x3c2086243da4cec7U, 0x3adf5c213de42277U, 0x3dbfa2b6bcc089b6U, 0x3ccfb9cfbc8b835aU,
  0xbe30df32bd1bccb6U, 0x3ce06a83b8fc4ebfU, 0x3c34fe8dbcbff711U, 0xbdcc69343c16bdd4U,
  0x3d696ddebd8737dfU, 0xbc2d7d9cbd83416fU, 0xbdbf8771bd9011beU, 0x3c21d8273df1d97cU,
  0x3cd59cd5be2f9facU, 0xbd151522bbd29f77U, 0x3da2d521bd54d94bU, 0xbe12168f3d8ff48bU,
  0x3e152338bd2c8399U, 0x3da08c1c3dc2a4adU, 0xbe40579ebe1e1603U, 0x3dab251b3bd0a064U,
  0xbe0312ecbd972a19U, 0xbe2a04f03be63c3fU, 0x3db369cfbe3774d4U, 0xbd800df8bc97b472U,
  0xbcd45997bd9a14d3U, 0xbc9d5733bd9b5113U, 0x3c8d8d27bc6c31dbU, 0xbd421db0be271bc1U,
  0xbea1e12ebd883481U, 0xba1861d8bd958a58U, 0x3ca4a5033d99984dU, 0xbd0e9b09bd1633d8U,
  0xbadf2a593df491f3U, 0xbe85ea093d7a72ccU, 0xbd92d83b3cc84f95U, 0xbde956ad3afca8b6U,
  0xbd1ed2d2bd9158a1U, 0x3b98abd9bd603faeU, 0x3c553e9d3d306fbbU, 0xbe1afbfcbdf3e137U,
  0x3bbbe2513adf3a8fU, 0x3d0e6adfbda4694bU, 0xbc9534f4bc8b3c1aU, 0xbda471f33d4921dbU,
  0xbe0c232c3cbed804U, 0x3d06076f3af15a58U, 0x3dc011bdbd8e3bfdU, 0x3aaed9d3baa5150dU,
  0x3df181b3bc64c286U, 0xbc866ea23d1ab7d8U, 0xbe40744bbe3fde81U, 0x3cffa7b4bd1bc544U,
  0xbda64216be35b703U, 0xbcef37fcbcf72067U, 0x3d9c90a8be071b8aU, 0x3d1d12dd3d13f428U,
  0x3d9463cbbaab179eU, 0xbccfc0c23d81389fU, 0x3cf36cadbdaef72cU, 0x3d5700a9bd8905c5U,
  0xbd0296753dbc3663U, 0xbd5f7ee8bda84cbdU, 0xbd233974bd7426bcU, 0x3d6205c5bd9bfb44U,
  0x3ab6b7ed3dd8b54eU, 0xbe5961cb3dbe680bU, 0xbd5ef392be0ecf32U, 0xbdb93222be0ab4c1U,
  0x3dce62aa3d63e4a7U, 0xbcec7f48be2af325U, 0x3d441931bd46e972U, 0xbe0b6350bd81d3ddU,
  0x3d0668a5bc03086aU, 0xbda32df93d3a707aU, 0x3cf2b5c83d76d16bU, 0x3c489386bb989a5cU,
  0xbd1b7c263d02b5fdU, 0x3d3d349fbd799cd1U, 0xbca745ccbc808fc9U, 0x3d92fe81bc4a1d95U,
  0x3de2d2723cc63a4fU, 0xbd08c7cabd79e574U, 0xbbd989563dfb7996U, 0xbdad9a4dbe800c01U,
  0x3cc863a13dd2e0b7U, 0x3bc098123d2369d3U, 0x3cbbee50bc56a37bU, 0xbd4d4b993ceb3075U,
  0x3c6eb8433b050ba3U, 0xbe3ca89a3d516997U, 0xbb81d98fbd7d1520U, 0x3caeb71dbdb0cb23U,
  0x3ddafeabbbacdbd6U, 0x3d0ad74fbd2ddb51U, 0xbd0398323bd3c8fdU, 0x3c917d44bc619033U,
  0xbda34e79bdf60320U, 0xbd42a92f3bbf0c80U, 0x3b75e295bd43ec54U, 0xbd5b5de33d79a4ccU,
  0x3ce054e8bc3ef0f0U, 0x3d1cd2e8bdbe61a9U, 0xbde398ed3ddda6e1U, 0x3cd652e4bd93c78aU,
  0xbe1fd7cb3daab97fU, 0x3dc0cc503dae55c3U, 0x3b832cb2bdfd7189U, 0xbe57022dbe41c845U,
  0xbd8c05163cc8a0fcU, 0xbd32e267bc2af6ddU, 0x3d3ffcb6bcbadf96U, 0xbc50eab2bdb31adfU,
  0xbe16f1f1be0a1142U, 0x3c00d9f53d1d1aacU, 0x3c912b3f3d1aa873U, 0xbd1517d7bc44601dU,
  0x3d1f12ab3c302818U, 0x3cbb4f013d1864b7U, 0x3c0aa4b2bd024acbU, 0xbd9a2b133cf7639fU,
  0x3d41cafe3c8162f2U, 0xbe78f320bb02ac2eU, 0xbd416f32bd9ab10bU, 0xbd0dfd0dbdbf5476U,
  0x3db99eb2bc01bcd7U, 0x3c90a894bcf0ff88U, 0xbd30c1c53ca72d5fU, 0xbd552c513de2430aU,
  0x3da173d9be6112aeU, 0x3c17e50c3ba79135U, 0x3d7a2b68bd720254U, 0x3bbf3436bbf40d67U,
  0xbd0260c7bc9eef86U, 0x3db50fb7bd000d28U, 0xbda80da2bce1cb3eU, 0x3a974e4137229aeaU,
  0xbd6e3adebc4d3482U, 0x3d37f9253c7fb0a3U, 0xb930a307bdbd75bdU, 0xbe187d5dbe75f12bU,
  0x3bfbe76b3cbf1bd2U, 0xbd9fa6ea3c6e88b7U, 0x3c655fcabd3b6d3fU, 0xbca6d2e8be76b32aU,
  0xbe090999be1cd1ccU, 0x3d162a4a3d2eed1aU, 0x3c0ac3bc3c110335U, 0xbc96ec8e3db2313fU,
  0xbc1e6723bd213aa6U, 0x3dd98c7f3c310ff0U, 0x3bc0cc00bc7b4b7aU, 0xbbe8ee593c939a20U,
  0x3d122cd83d59976dU, 0xbe6456dfbd5191ffU, 0xbe340b7bbddc444dU, 0xbcec6bd3bda77040U,
  0x3c64c4f03c31f01aU, 0xbb6f33b73a8f3f6cU, 0xbd03d2e2bcd6d9cbU, 0xbdbd87263d87be14U,
  0x3d4e4810be427139U, 0x3d42680fbca329caU, 0x3d027ce73c7613afU, 0x3d46eb4e3d0b4042U,
  0x3cefed3dbdd94d75U, 0x3d61b21c3d380a82U, 0xbd1f0b60bda68cc7U, 0x3d2a59c3bd487eeeU,
  0xbd905280bdc0ce2fU, 0xbd0acff33cf5056fU, 0xbca376dfbd55ecd5U, 0xbd1fc9dbbe321d5fU,
  0x3cb3ea36bcaf1bedU, 0xbd0b8c1a3d38ca1aU, 0x3d41b5053b31b20cU, 0xbc6ea26dbe8c15c9U,
  0xbd233740bb24b2e3U, 0x3cac1b9b3c9ea3bdU, 0x3c863f41bdc4d241U, 0x3cca8c333dd52401U,
  0xbd12a5be3d90e149U, 0x3c2648f1bd69d61eU, 0x3d8b4e63bc81d175U, 0xbdb124d93d298a00U,
  0x3d4e33a73ae1cf27U, 0xbdfc30a8baaf066eU, 0xbe2c5f08bd6808f1U, 0xbe1a2803bbb05f9bU,
  0x3cd67c52bcf44a82U, 0x3db86c89bda26a7bU, 0x3d4acc6ebe1c9eefU, 0xbd1e90023cd305b7U,
  0x3b5268eb3b8ae99fU, 0xbd6b2864bd51fee1U, 0xbd90ee173cd7a4beU, 0x3d6946683d9de052U,
  0xbc9daeb4bd2c7e2fU, 0xbe18214c3d1bfa34U, 0xbcef28febe13b9b2U, 0xbd9de685bd74d627U,
  0x3cfa55d9bd91542fU, 0x3da850f93d2e571dU, 0xbe7e6dcb3cbf6d42U, 0xbdfbccb2bdd3f94bU,
  0xbdcecf0f3d115e7aU, 0x3d77ec443ce6ac3fU, 0xbd86e2acbd2c4285U, 0x3d393fb9bdb5da36U,
  0x3db249b23dd37e55U, 0xbcb396393d13eaccU, 0xbe0add4bbeac5884U, 0x3d9415813da471f8U,
  0x3d158a81bd38d9c9U, 0x3a9566243ca6a59eU, 0xbd4625e23cc2c63dU, 0xbe3d60c3bc969655U,
  0xbd22a927ba83ca61U, 0x3d130267bd8e9082U, 0xbc93377fbd05707cU, 0xbde34a803cee3462U,
  0xbd237d1ebe40b942U, 0x3d9249d3bc5ad70bU, 0xbd971169be25594eU, 0xbd941d36bbcb210dU,
  0xbc487a763d08b8d8U, 0xbe196020bea428ebU, 0xbda2ab10bd7edfcfU, 0xbc4476f53d9473a3U,
  0x3d459152bd25c869U, 0xbe44fdb3bc5a7572U, 0xbe062506bbaa897fU, 0xbdd38e67bd65b936U,
  0xbb0f840ebd92f509U, 0x3dd0dc203d9487eeU, 0xbd589a3abd89098eU, 0x3d6c59a6bd985952U,
  0xbcc1d67a3d9da974U, 0xbc00c9d8bdc64644U, 0x3d3c366d3da3ed4aU, 0xbd8a36203d16ce88U,
  0x3cbcdf9c3d9d18e1U, 0xbd879b5cbc2a85f6U, 0xbdc61daebeb80dccU, 0x3d1d2b833b81eef3U,
  0x3d54eb54bca92ae0U, 0x3c5ffb163d60617fU, 0x3d03b03f3d851687U, 0xbe1ad9cc3cdea78bU,
  0xbd9d4849399b4a34U, 0x3d9f1df3bcc27ae5U, 0x3df1bb7c3d0a809eU, 0x3d9540ecbd9d09c4U,
  0xbda70570bdd037cfU, 0xbd23d4c73d7cc62cU, 0xbdc3ea77bdb07224U, 0xbde1b22bbe1784feU,
  0xbdb249003c3e14eaU, 0xbd349ab5be257b54U, 0xbde0e5debdf86657U, 0xbd9d78cfbb846467U,
  0x3c2e18c63e0e5923U, 0x3d8406923b4bda68U, 0xbe12033a3d4d9427U, 0x3af8628fbdc70bb2U,
  0xbde60310be032e2bU, 0x3d4277fa3b57a74aU, 0x3dbbf2cabd0d407bU, 0x3d5ad2ccbcdcc5acU,
  0x3cb92c9b3e0415d0U, 0xbddda13ebc539ba4U, 0x3d9719013d22ae4fU, 0xbdbccf7f3b5234fcU,
  0xbcc7ff2abd7a1929U, 0xbcdfd55dbca998d9U, 0x3d93283f3ce6c868U, 0xbb2a65f2bd1411e1U,
  0x3d031713bbedd9ddU, 0xbcdca2783d3ed9acU, 0x3e26c5a7bdbcae55U, 0xbe0a8686bd2a55daU,
  0xbd9e16423d4ba505U, 0xbdfc8fe93df193d0U, 0xbd042e243d90e0a0U, 0x3d7064c0bd3f81c7U,
  0xbd888c91bce6c3aaU, 0x3ccdc04c3b0565efU, 0x3db16034be01d224U, 0xbd1f38d33d77078dU,
  0x3db4b6cebdfaf8ecU, 0x3a9ab17a3c7759bbU, 0x3dbd4ca4bc5fb803U, 0x3d12ddc43d81b07eU,
  0xbdbcbc6bbc195e6cU, 0x3d31bfaabd48e978U, 0xbdaf73a33c73c0d9U, 0x3c8608fabc9437c9U,
  0x3de8f87b3d9c1e10U, 0x3d1e6547bdfcfb34U, 0xbe083d49bd5e2a75U, 0xbe47e4a7be5658c9U,
  0xbd841c4bbe09197fU, 0xbe6d468bbe0cd797U, 0x3cdf3013bcd3b649U, 0xbc803009be2647feU,
  0xbe3a7b833d192e07U, 0x3c97d074b9307d13U, 0xbdda0ab1bc7c795fU, 0x3d850be5be27bd84U,
  0xbdb3af8d3dec00b9U, 0xbd7819363da5ebeaU, 0xbba78fe8bd92068bU, 0xbd540362bd8e2512U,
  0xbcb864963c8fc01cU, 0xbd7e98493d399fa4U, 0xbe0f40243c8b5384U, 0x3d51f7d23d30dcb9U,
  0xbcdf4b0f3c98f50fU, 0xbd9bec2bbd912157U, 0x3d81b1073c36b242U, 0xba9d73903de39a30U,
  0x3d5896ffbd0b699fU, 0x3c432d28bd4a6c01U, 0x3d40d416be44b7adU, 0xbc5cb8e3bd012a74U,
  0xbdf308243c94139cU, 0x3d33affbbe33b0e3U, 0xbd1703bf3c1582f7U, 0x3d5eb30a3c2891f8U,
  0x3cf19ecfbcac80e6U, 0x3d86a037bd234800U, 0xbd70b463bdb97c10U, 0xbd56f67fbe86fd67U,
  0xbb98594cbd21831bU, 0xbccc9a6abccfddeaU, 0xbd3f3a40bb6fabf2U, 0xbd08725fbe0d8732U,
  0xbdf620fdbd1132c0U, 0x3d53b3593d7d7bc5U, 0xbe4c0bda3d779a5cU, 0xbd9abb8cbd67dd74U,
  0xbd392203bdbbe844U, 0xbbf19446bb1bd6b6U, 0x3d2f09423cb5c20aU, 0x3d055c403d15310fU,
  0x3ba443ba3cbd6d2cU, 0xbc9b6223bda16a57U, 0xbe9b27b23d8d75adU, 0xbd30258b3cd9a32cU,
  0xbdffac1bbcb6412bU, 0x3dd512f2bd65f9d2U, 0xbac5d2653dff9656U, 0xbd8ca3253e06754dU,
  0x3dde83023cd182f5U, 0x3d98fe06bc9f4945U, 0x3dc8bdd4be1a2f93U, 0x3d51e9d43d2a9175U,
  0xbe3ddbb7bd90c458U, 0x3c8ce6d4be52ce42U, 0xbc82f63abd1c4ef2U, 0x3dc2806cbdc3d6caU,
  0x3de4e41fbdd7a96aU, 0x3da8dac7bddf589bU, 0x3c60b700bcbf7f07U, 0x3d5f2f5bbe4ccfacU,
  0x397577e33d09a0d4U, 0x3d33678bbab19ccbU, 0xbc976571bab64f4bU, 0xbd73f971bdf68eccU,
  0x3d27e8f6bcfa5b3bU, 0x3dfde6d83d9a98f1U, 0xbd693d5cbd27af2dU, 0x3d8848623e37a1b8U,
  0x3da772adbbfd66bfU, 0xbdd35450bcd3cbb0U, 0xbd98a3163da88ae4U, 0xbd3219053c4c85ebU,
  0xbc1c7e90bdfe1c7dU, 0xbd9ef2ed3d6b1086U, 0x3b96ca9abde8e5cbU, 0xbde98013bcefc064U,
  0xbbacb1cd3dbfde17U, 0xbd6de4a53dbc72a1U, 0x3ced5769bd9fbd4aU, 0xbdcf1866bdff7982U,
  0xbaf41c78bd73f7eeU, 0x3c5feae93d1382cbU, 0xbc8f78cc3d7f8509U, 0xbe71a0e3be053947U,
  0x3d398dbbbd38e028U, 0xbb4e5dec3d4e41c5U, 0xbc82f5153cbf7ba9U, 0xbd98b7c83b5a8f0aU,
  0xbd643ae23d276a2cU, 0xbdc244acbe13053cU, 0xbce48e73bd5ed238U, 0x3d0e65cfbd2a287aU,
  0xbc75e385bd5ba675U, 0x3d2eac3f3d1c3070U, 0xbd8da2163cccf8d4U, 0x3d2883853cfc2deaU,
  0xbd13f95d3dad0f8fU, 0xbd8a1f25bdc8182fU, 0x3d0c002e3d0b1100U, 0xbd620107bd83bcb5U,
  0x3dc012cd3d4297a9U, 0xbdba2bed3987f39dU, 0x3d01b8383dac19e9U, 0xbd90532c3dacf059U,
  0xbd7074a5be0cf07aU, 0xbc0c1fdbbda6bd28U, 0xbca0bb24bd871751U, 0xbd84a6603da26973U,
  0xbe0a9a54bcc82938U, 0xbbde32eb3d4544b1U, 0x3cfc32d3bcc9f63dU, 0xbcefa54fbd4f9a55U,
  0x3cb2f5fd3d12cb5bU, 0x3cb0b9993de29053U, 0x3cc026023cd566e9U, 0xbe19dc75bccda4f6U,
  0xbe30ecf43d63d7a8U, 0x3db91f843d1cef60U, 0xbd4e6fd9bd3935f7U, 0xbdad01023a78a5bcU,
  0x3dd986733d866bf4U, 0xbcf963bdbe2a0875U, 0xbe455114bdc1edc4U, 0x3d35f2df3c5df210U,
  0xbda0c4743c8c041bU, 0x3c5562d73ce0ba45U, 0xbd849c80be2cfd2dU, 0x3cc7c89b3d2b435eU,
  0xbb98a2993cd7e1d6U, 0xbdddbaebbcb4e9ceU, 0x3c95970f3d45c9afU, 0xbca8cbb43d806d6eU,
  0xbe0ed2c93cba96e3U, 0xbe29cd2c3b9e1862U, 0xbe0ce3373dda514dU, 0xbcd476b6bd949b0eU,
  0xbd6eabbabdb80518U, 0x3c8ed509be5cd810U, 0xbd14d3243bf1645cU, 0xbd1b74bf3ddb14f5U,
  0xbe6100bebe259650U, 0x3dabcab4be4fd2daU, 0xbd2ee908bd7f3c50U, 0x3c49f5d0baa63bb9U,
  0x3d2037263deaec2dU, 0xbd85d2013ddc6cc6U, 0xbd1032263cca334dU, 0xbc8f82bfbbebe6f1U,
  0xbec731883df3cc6aU, 0x3d40bb90bd47e7ebU, 0xbd5b55f9bcb5838dU, 0xbdac4595bc72b227U,
  0x3d305cb03d9307dfU, 0x3daa62ecbdc719ccU, 0xbe245d683cc43f33U, 0x3da2b62a3d09a566U,
  0xbdbe32c23b9479e5U, 0x3cfd47aebd651f4eU, 0x3cc1774fbdc4e27fU, 0x3de796903dac4216U,
  0x3ca47b0e3d110ae9U, 0xbca86d253dd219b3U, 0xbdd3a902bd1c63e2U, 0xbccb6ce7bd08e3b5U,
  0x3d5c1e123ce6560bU, 0xbe0ab0c83cede4e8U, 0x3ce80f7e3bbcbf73U, 0xbc2b7220bdac42bcU,
  0xbc5081ba3cbd9c48U, 0x3d03e1ee3d499d2aU, 0x3ceca32b3b3f7dddU, 0x3c794bf0bda2d727U,
  0x3d4c89fdbc9c47adU, 0x3d827c803d14e399U, 0xbb2e382d3cd3031fU, 0xbd7277f93d26f8c2U,
  0xbd1b4267bdb2d337U, 0xbd137ba03d26f56aU, 0x3bb3362d3dad0e01U, 0xbd764cbebb5cf24cU,
  0x3d834fbcba7ee825U, 0x3b02575d3b791065U, 0xbdb835c9bb116d1aU, 0xbd70e64ebd7e754cU,
  0xbe2f5e063d276520U, 0xbd712e9a3da6ebb8U, 0xbac4fca23ccb519fU, 0xbc9b28453d6ffad8U,
  0xbd65bf3dbe158b8bU, 0x3d0a7745bd572136U, 0x3d0d9d02bdb2da01U, 0x3d01e20b3d1fd46aU,
  0xbd093262bda0b6eeU, 0xbc0ed6a8be1e8948U, 0x3c6b9fc03c59ec93U, 0xbd049179bd1187ccU,
  0x3d7453403c237bffU, 0xbd5c04673d62c819U, 0x3d1de8b6bd42e94eU, 0xbb93fe0fbd39fefbU,
  0xbb8a6279bd9a1c1aU, 0x3be6b67f3ce8848aU, 0xb9cd134abdbdcc98U, 0x3c8e4bb4bdf40e56U,
  0x3d43459b3b49f1f3U, 0xbc956d723d4919b4U, 0x3d1090b83c9c92faU, 0xbd17751d3d178f36U,
  0xbbad7788be1132ebU, 0xbb92c0c53c80b251U, 0x3c05ea3d3cb35f26U, 0xbe4e24cabdb1bfdbU,
  0x3da19d7e3bcff678U, 0x3d888accbcdcdda7U, 0xbdb75add3d20e499U, 0xbdcb6413bd027430U,
  0xbd0eecffbb707e37U, 0xbda53ba13d56cce5U, 0x3d0da5053bf74218U, 0xbd13ae0c3d5c4a3aU,
  0xbdbd6e74be343bfbU, 0x3c1a49ca3c24f422U, 0xbd7f2d4dbcf0ade7U, 0x3b9f3dcb3d217cc2U,
  0xbd9f4048be440408U, 0xbc8ec61fbe7ea684U, 0x3d0321303d0691d0U, 0xbd252a64bd57bdeeU,
  0xbc65ec1b3c81df3eU, 0xbd3c5578bbf27372U, 0xbcede4b1bd938f8fU, 0x3cb5dc5ebd892d7fU,
  0xbcbc659abd57e4a8U, 0x3c24f4e23d354e36U, 0xbd4949b83da20762U, 0xbd60357ebd79bbd7U,
  0x3d5979613cc4e664U, 0xbd9625613c2ad686U, 0x3d0df45d38abc505U, 0x3d633c9d3c07a565U,
  0xbd3245a1be1f1fa1U, 0x3ca1a2a83b3f2718U, 0x3d1f50aa3d9811c2U, 0xbde85ccdbe227c64U,
  0x3d19639dbdfdd527U, 0x3d0c7af23b0cba9aU, 0xbd9fa6c53cc80573U, 0xbddfc7fdbd581afeU,
  0x3c3f836a3db84778U, 0xba912cbabb262411U, 0xbd1c17223cac4342U, 0x3b9400c83cbb5167U,
  0xbda7f0c2bdc0c04dU, 0x3c52704a3a2279d3U, 0xbe18649dbd8d5807U, 0x3d71fb3e3c4a69ebU,
  0xbdd46a02bd4131cfU, 0x3b516927bdbd49caU, 0x3d1079023d2debf8U, 0xbd2bed22bcbf9ce4U,
  0x3c9f8d933d5fce86U, 0x3c76def43ce84663U, 0xbd88dff9bd3232dfU, 0xbd8e3aebbd365accU,
  0x3bf0ff373e2c187eU, 0x3ca2fd833d26affdU, 0xbd653553bd1b2c0bU, 0x3d73d387bde984d0U,
  0x3dc4184f3cea5339U, 0x3d01f779bccecd7aU, 0xbc6796bbbdb11893U, 0x3bbdbde63d85d850U,
  0xbd9ec101bde96261U, 0x3cb578203dabebfaU, 0x3c428c783cc45d02U, 0x3d679880bcc9d9b7U,
  0x3d34b6b1bdb42808U, 0x3d6bc5bbbd2b973bU, 0xbd37e001bcd77f76U, 0x3be5de9e3d6ea3efU,
  0xbcd39509bdd780c4U, 0xbccb77113dad71f3U, 0xbce97156bd5b8308U, 0xbe18cefb3d2c5381U,
  0xbdba7b7bbe12f5acU, 0xbd6f85d3bd999816U, 0x3c8e771ebdab1207U, 0x3ca9cc8c3c178e4bU,
  0xbe18aa3abe398b86U, 0xbe0ad99ebc3beb4dU, 0xbb5812193c999439U, 0x3dad13a2bdae90d3U,
  0x3d0ccd39bc597208U, 0x3d0d3eccbcf675c1U, 0x3d898329bdd742fdU, 0xbdaa43e5bd28445eU,
  0xbd0547673cdc9adbU, 0x3c2d95303d6367c8U, 0xbdfdece4bdde1cfcU, 0x3ce196e4bb68d900U,
  0x3d43a4cf3ae80fe4U, 0x3d3cfcc73cc6deeaU, 0x3cf3b9b9bd32674bU, 0xbd2cefbd3d3ad5a1U,
  0x3c89f087bd98452eU, 0x3d6d19083c994a00U, 0x3d2dece2bcb598d9U, 0xbd2800923bb14441U,
  0xbd23faadbd967f3eU, 0x3bc3e2d9bd4c18e4U, 0xbcb87587bc8cb225U, 0xbca65a893d3c8a9eU,
  0x3d87c6bfbd9b0976U, 0xbddc586bbce09ce0U, 0xbd9540e1bdf10ecaU, 0xbcfb3c603cf1109cU,
  0xbd95e937bcecd38fU, 0xbd1ec31dbb28adf7U, 0xbe09a438bb561611U, 0xbd246661bd783fe8U,
  0xbcb96702be48436dU, 0xbe9e6ef9bdca1714U, 0xbcad6549bd611cf7U, 0x3b8af38abd499e85U,
  0xbd2b75edbd4c2bfaU, 0xba1fa2bbbd493be9U, 0xbd142fc1bd27bcb4U, 0xbd5bdbe2bd31c3ceU,
  0xbd8771c6bd47caa2U, 0x3cfc891b3d0066ecU, 0xbdb142acbc5e73faU, 0x3b28f3153dde649dU,
  0xbd69fd51bbb52adeU, 0xbdc1b7babd00616aU, 0x3d8ca56ebc24d791U, 0xbd49937fbcc1afa0U,
  0xbbac01473b3767a1U, 0x3d00d3733c91de0dU, 0x3c75d6f23c9f0349U, 0xbd1d46ee390f7a37U,
  0xbd006db9be4e88f7U, 0xbb842094bd08d452U, 0xbb5623c2bc3717a6U, 0xbdb64fcabd680a79U,
  0x3c631c56ba4ff1d7U, 0xbdf9d027be383443U, 0xbd98e4f1bcc25d81U, 0x3c91f14b3c0cf6a8U,
  0x3d4854143c3d38a7U, 0x3d27712d3d29d7a4U, 0xbe199b0a3d38c0fbU, 0xbce16be0bd08c486U,
  0x3c0c0690bc7b8b6aU, 0xbe53e686bd18350aU, 0xbba4e785bce1bc1eU, 0xbd35c75abdf3eec8U,
  0x3cd3a7a3bda450a1U, 0x3c8f446d3d5b1b89U, 0xbb0f4c393dbb9dafU, 0x3ce92c68bd93123bU,
  0xbd94cc9a3de13b6eU, 0x3cb3cdda3d13f670U, 0x3c38898e3c90b0c2U, 0x3e0f3880bd37509bU,
  0x3d0fbb873d63c3e2U, 0xbd692fdb3d705159U, 0xbd1d2f44bdda5584U, 0x3d0c6a723cd5a884U,
  0x3de7b5db3da2ae06U, 0x3d91ff6fbd1419f2U, 0xbcbd7b2cbc2bb11eU, 0x3d1c1bc13d87a2c5U,
  0xbcda3e793d3da3ffU, 0x3dcb42eebd15c711U, 0x3b9a44d0bd6a141cU, 0x39d4b518bb80a09aU,
  0xbcc70ac4bda0a505U, 0xbb30e3b7bd04ab62U, 0x3c1cee673db7fc3cU, 0x3bb4b7473d81b7a6U,
  0x3d5a116abd19dd94U, 0x3c80890abd8249b7U, 0x3db9e2f33c13b0abU, 0x3d9c7143bd0c63c5U,
  0x3d4ef4243ca4cb90U, 0x3cc3aeed3d951638U, 0x3a88f0b6bac00773U, 0xbdc79ec7bdb0ee10U,
  0xbd00e8abbc3b34c8U, 0x3cd9e4af3d269ef0U, 0xbd5b1a333d78a55bU, 0x3d606846bcadcc88U,
  0xbcce77153d5f833dU, 0xbb020d273c84b6b0U, 0x3cced8d13d12e541U, 0x3dd8a708bc43dd61U,
  0x3d2cf2283d1cc546U, 0x3cbb6c513d06dd16U, 0xbd03cbdfbd255ea7U, 0xbba8413b3d6b68a7U,
  0x3df9e68c3c108a56U, 0x3d5ad8ffbdacb280U, 0xbdde3222bd0bea9cU, 0x3d9380313d881098U,
  0xbc3a9dec3d3a387aU, 0x3b6a056fbe05ee7eU, 0x3d1398e2bd016a3dU, 0x3c206658bcc92628U,
  0xbdb2a3f4bd8729a9U, 0x3b2036a03c815eb2U, 0x3d4a41553d5f403cU, 0x3ce25386bccb766fU,
  0x3d91df863cce61b6U, 0x3d983e54bc1053d5U, 0x3d6a691c3cd63bd7U, 0x3d086271baee4288U,
  0x3d143f93bd2ea692U, 0x3d146dd53d252deeU, 0x3b57124ebb0c12d8U, 0xbb243f9abca06b37U,
  0x3c9907cebd1aadd2U, 0x3d38018f3c52a290U, 0xbcda9e573d4c4a27U, 0x3e0286fe3c28c11cU,
  0xbceac8253ba94344U, 0xbcb60e923cd6d217U, 0xbdc47aff3d9a78beU, 0x3b01cac83ceb83e5U,
  0xbbfd3d953d26fd2bU, 0x3d2e88c73d2468b2U, 0xbb854e36bcdc7484U, 0xbd2593633de32827U,
  0x3daa5df7bcfed1b3U, 0x3d935bafbda3d998U, 0xbdd595debdd510c9U, 0x3b7461fc3d721b6aU,
  0xbcbcbad13ca8fa2fU, 0xbd05475dbdaf47d5U, 0xbcc0266abd5a5883U, 0x3bea0584bd6874b2U,
  0xbd725f11bd82ceadU, 0x3d60389f3cef9d17U, 0xbbaf50983d39926cU, 0x3d146748bdafad20U,
  0x3ce5f73d3cdaf4abU, 0x3d3b2eef3d4bed45U, 0x3cfc80893d06f408U, 0xbd91c6483be33ce1U,
  0x3d56385fbd46fc29U, 0x3d7c98de3bc5ea31U, 0x3c3a27fabcd33670U, 0x3cd941813d8b7f57U,
  0xbe2e49b83d9d4897U, 0xbd0f7d03bd89a892U, 0xbde8a3b93d7328cdU, 0xbd394455bc1732b5U,
  0x3e3a7706bd9f0b9cU, 0xbdd047d4bd54e94bU, 0xbd324287be654be8U, 0xbdd0bd7cbdf2f75bU,
  0x3d96885d3d399057U, 0x3b32a0d83d546b14U, 0xbd8be2a4bdc6e789U, 0x3db8edf3bdb03b29U,
  0xbd791f663d288f0cU, 0x3d7e7078be110030U, 0xbd2e445a3d9609a4U, 0x3cbe37a73927ebcbU,
  0xbe22f1cebe195a81U, 0xbe0fbaee3dd14d60U, 0x3de2f26bbc291aafU, 0xbdf2b9b43b87417dU,
  0x3cefa2fe3c988649U, 0x3e058bbfbcb2856aU, 0xbe698f37be41f78aU, 0x3dc7cbfbbd79bd34U,
  0xbe2c41773ddcc30cU, 0xbdd626d7bd163337U, 0x3d7d853ebe09db60U, 0x3dcffb6dbdbcedd7U,
  0x3df6d6623e4cb376U, 0x3dfef2dc3c15451fU, 0x3d230bbdbcdcc143U, 0xbc07538a3ccc8cecU,
  0xbbf7c1c53dd25a6cU, 0x3d66f9863cf1b620U, 0x3a0858a13df7b7d6U, 0xbd606d97bc714848U,
  0xbca5a4143c6c7461U, 0xbdd8744fbdc7d913U, 0x3d811f5a3e074e9dU, 0xbce2ad55bd06b8d8U,
  0xbd078f5cbd544faaU, 0x3d9b6c043dd22d79U, 0xbb7fa678bd7e82eaU, 0xbc0941dcbc961771U,
  0xbe31b956bd25fa54U, 0x3c6e521cbe2b91c5U, 0xbd4b2e183c6dfa0fU, 0x3d45dd143c9ef038U,
  0xbd277c81bd8118dbU, 0xbdc802d63a8888f2U, 0x3d6593603cbc0e5aU, 0xbb18d7ce3c82062dU,
  0xbd4d43ccbd789b59U, 0x3e1b23173d69a88dU, 0xbce1ff98be1b3e70U, 0x3d9f3322bcdc7346U,
  0xbd6427503dd60129U, 0xbcd14ac7bca039daU, 0x3dc371a4bc1604dfU, 0x3cfaf12c3c8f71ddU,
  0x3d1544093cf8d0cdU, 0xbbae17b73d15f04eU, 0xbd41ae42bdc00feeU, 0x3cd712ff3e258ed5U,
  0x3b9db903bd3b68cdU, 0x3df038333e1bc1fdU, 0xbd5503713da99522U, 0xbd7996b63c80440dU,
  0x3c898ff03d46c8f2U, 0xbca25cefbdbecad6U, 0xbbdf12a5bb7158a6U, 0x3d4806aabe12e8f8U,
  0x3d91f7ecbdc82878U, 0x3d27fa76bd6f9ef6U, 0xbdaea6803cdcd71eU, 0xbd923ee83d047b80U,
  0x3cec9f85bdbfbdb7U, 0x3d69eee4bd9007e0U, 0xbc11629abdff5277U, 0xbd3262893d0dbed6U,
  0xbdb2c2403d314858U, 0x3c8e6d143b5a33fcU, 0xbda2a3253deeded6U, 0xbc5b1d433d6d7a50U,
  0xbd95eadebe024ef2U, 0x3dd748703dc08870U, 0x3d8e5607bda3e789U, 0xbdae8e613b36e76aU,
  0xbdb76de73d0a6976U, 0xbca9c02bbd6c8e49U, 0xbcce1feebc23574dU, 0xbdfd008a3ac67a90U,
  0xbe17f22abdb7d12eU, 0xbdcfe8823d6f0726U, 0xbd99b46dbce1e6cbU, 0x3cc1dee4bca26f5eU,
  0xbd8d2e81bdbc5fa7U, 0xbe1128e4bd98269eU, 0x3dc7cb8cbdab8445U, 0xbc0c949b3bd66094U,
  0xbe7f44babd9272edU, 0xbcc865e73df20a97U, 0xbc9895233de7af32U, 0xbab5853cbd86cb05U,
  0xbe7afa28bc43ff62U, 0xbdb28a523d5f8975U, 0x3d9872583cb697dbU, 0xbe92d335be49f964U,
  0xbd4c2c8ebe50cfb1U, 0xbdc3fdf4bd3f1eceU, 0x3d33f681bcf0aa3dU, 0xbe8be1da3d80762aU,
  0xbb96d0aebdcdc1d7U, 0xbbe4fe8fbe08988aU, 0xbd18da6f3d2436d0U, 0xbc8851d2be436adaU,
  0xbbc06ed53dd310e1U, 0x3dbceb6bbdca9dbfU, 0x3dc55c8f3e3af01fU, 0x3ca3bd57bdd0ea30U,
  0xbe174c013db95db2U, 0xbd91f3593d23aac2U, 0x3d663412bcc76e3bU, 0xbe0314953b80d89fU,
  0xbdc270903b9e1642U, 0xbd74186ebe524148U, 0xbd9064b53dfd4051U, 0xbe08521dbdc34d42U,
  0xbc834372bd90cfbcU, 0xbe8cbc32bd180c60U, 0xbd86928bbd9e7242U, 0x3e3325b53d3158b0U,
  0xbd0ed48c3d071ce4U, 0x3cc382063d97bf3fU, 0xbd2a9851bce0bc7aU, 0xbc34c662bdc112e4U,
  0xbe7d9326bb9f988bU, 0xbde49ca23d9acab2U, 0x3ca83883bd9f5297U, 0xbd94ce37bc44ff68U,
  0x3d7326c1bddced28U, 0xbe15060b3d6b685eU, 0x3d5cca29bd4a87ceU, 0xbdad8e41bc3ac4ceU,
  0x3d2feb94bdc2fedbU, 0xbd3c3f1cbe8cec45U, 0x3d4ee49abd1c996bU, 0xbd7939aabe274dcfU,
  0x3c08fabb3defdb80U, 0x3dca13ddbd6e5236U, 0x3e02d2b23e2dfcceU, 0x3cbf692dbaf5720bU,
  0xbd9f51243c7b9218U, 0xbb85a8843dcf430eU, 0x3d9a67fabdd8dea5U, 0xbd67c8dd3d42408aU,
  0xbe07417a3d651d63U, 0x3dcbdc62be0676f0U, 0xbd0f770a3dc14f90U, 0xbd29850bbcf5219bU,
  0xbcd7de3bbdb3e8c5U, 0xbe3b654dbdd03613U, 0xbcea4b81bdc94441U, 0x3e5b38513dc760d6U,
  0x3dab9e1a3cbbe75dU, 0x3d4ea3d9bc4a701fU, 0xbd4f79b23deeb03fU, 0x3c88a5293d9f5a93U,
  0xbdc7cc85bced37f7U, 0xbd5580fb3bf4c128U, 0xbb891c99bd5ffe28U, 0x3cc85b5bbdf35adfU,
  0xbd8a52883c2d2086U, 0xbc9892d03d4ec47eU, 0x3c56c1afbda3ff60U, 0xbddb29debda56567U,
  0x3d71d6723de0b7abU, 0xbd57d19fbe5d12ecU, 0x3d9ddd8abd622324U, 0xbc9cfe88bdc6a207U,
  0x3bd73ad93d82beb7U, 0x3da4ca2f3d1f6462U, 0x3dceace43e0ab87aU, 0x3d11c8ad3dc5da8fU,
  0xbc567c043b8b88ffU, 0x3d3864453db9f131U, 0x3ceeadc3bd1f9202U, 0xbd2dc1db3d883eafU,
  0x3bfa03da3d220285U, 0x3d3c12d1bdf1a07bU, 0xbcb2b78dbba47255U, 0x3bc1492d3d3fd187U,
  0x3ca905113c0cb589U, 0x3d7d294cbd21897cU, 0x3e061a65bdbac172U, 0xbe0a8603bd36f90cU,
  0xbd168ba9bc054bbcU, 0xbcf4da273d487d85U, 0xbe92440d3d83a79cU, 0x3d80bd653e0337a2U,
  0x3d9a8fd33dbb3bb1U, 0x3ceea098bc3a4e24U, 0xbd254d3b3d9e694fU, 0xbe3ab9d2bb983895U,
  0xbd896564bd127cc8U, 0x3dcaef27b9890cb9U, 0xbc6d3177bd445042U, 0xbc00c7cb3d5a4f39U,
  0xbcf3a21ebe84f54cU, 0xbd73f195bb107730U, 0x3d7460343d1fc6faU, 0x3cd92a4f3cfb9df5U,
  0x3d0cafb3be08aad0U, 0xbdcdfbfcbdc7550cU, 0xbdfdd610bdecea97U, 0xbde8e2bcbe137d63U,
  0x3dceed4bbbf9ca4bU, 0xbd52af1c3ce3c0d7U, 0xbe204b22bc80769eU, 0xbd73242fbe9efb53U,
  0x3c4b775fbe11067dU, 0xbe0421dabc8a2ec0U, 0xb9d476233d02d0a1U, 0x3d36dbd8bbf12b9bU,
  0xbbcce1f03c9c5e5bU, 0xba8b70adbdb58aa9U, 0x3daba3c23d0d2050U, 0xbe01e6cebe34b54cU,
  0xbdbffc7dbe0aa2a0U, 0xbdb8a981bd89c0ddU, 0xbb8bb938bd924984U, 0xbdd322a33d89893cU,
  0xbd195c80bb0d04e1U, 0xbcf2a6933d3d3bc2U, 0x3b8da9b33e3b1c2bU, 0xbdf7e9823d478d59U,
  0x3e00fe9cbbc6fd22U, 0x3d194aefbdab5f7fU, 0xbc5ffe063cda166fU, 0xbde5b93abb7179b4U,
  0x3c51de77be0547ecU, 0xbd0b60023d74c051U, 0x3cd59042bcda810fU, 0x3d2f0fa7bb29849aU,
  0xbc7e1bac3d959f9dU, 0xbda53c9abeba9681U, 0xbdc3bce6bdc11d99U, 0x3d9cf9a6be30f8a9U,
  0x3bfae97c3c0e2e03U, 0xbb9f825abc87c8dfU, 0xbc44ae2a3d400d70U, 0xbc1377a1be82b87cU,
  0x3cfe12843b2b4eaaU, 0x3ce54e57bc30cd98U, 0x3d40a8593d802ecdU, 0xbd3fe57cbdcf4353U,
  0xbd0702b23d328482U, 0xbd0f7476bce045a3U, 0x3d5948ae3b5628cfU, 0xbe26b78f3c476b0eU,
  0xbc87ab86be5ec039U, 0xbe29060fbe08daf6U, 0x3afab25fbd7e621bU, 0x3c0ad14cbde497beU,
  0xbccc9a873dac9944U, 0xbeb6a23fbd776174U, 0x3d4a64f33e4931f1U, 0xbdbce8d2be7e2b27U,
  0xbdb9a25e3d6e03dfU, 0x3b1ca04f3daf927aU, 0xbdcfa382bd83aa4fU, 0xbdd1a26cbd8a8f8aU,
  0xbcc436333d9508d6U, 0x3de4f4a9bd115d03U, 0x3d810fa3bcffadb9U, 0xbc82f592bd958185U,
  0x3d0ae662be022fd3U, 0xbcf86425bca01b3cU, 0xbb9df2e7bd00e216U, 0x3d86319abd92b158U,
  0x3e0b281aba1e28a2U, 0xbdd6296d3d85fa12U, 0x3cde07ef3cd02488U, 0x3c5b621f3ca32785U,
  0x3c7d9e443cede138U, 0x3da2f4353c9fd57fU, 0x3c93e8083e30382eU, 0xbdd793853d47b916U,
  0xbdc8c2603ca2f825U, 0x3d15efb8be153ccbU, 0xbd6685533c9a7a0cU, 0x3be9c747bd7fb6a8U,
  0xbcbb4b76bdfe01e8U, 0x3a0eceb7bc113ed7U, 0x3d8fd844be075d6bU, 0xbdb1346fba07cd8bU,
  0xbd15fd49bd3dd0b7U, 0xbd9bae36bbd528a1U, 0xbd69dc583bf7dcf5U, 0xbc5977b2be40cf28U,
  0xbdac6ebbbbf4cb2aU, 0xbd15dd1fbde005b9U, 0xbdaa6a233d7fcae0U, 0xbd1321c5bd81d855U,
  0xbb803c95bdb1b996U, 0xbdd7d4193d60264fU, 0xbb5696c43d52f6d6U, 0xbd0cb477bd5a73bbU,
  0xbdf92d4b3d857a19U, 0xbd8db5bfbdadfc62U, 0x3dae2d0b3cd7fe6dU, 0x3bb944c63b4068a3U,
  0xbe3996f43d024f06U, 0xbabd6b453d5485d5U, 0x3a6efc70bcc56550U, 0xbd5236ef3cf93270U,
  0x3cb4cf31bc209254U, 0x3c6ed191be0e50baU, 0x3d42aeb6bd2d0968U, 0xbb43b97d3d007f83U,
  0xbe8174b2bd66b074U, 0xbdd70eb9be5cdfccU, 0x3d36b573bd466085U, 0x3d7af97a3c46b244U,
  0x3da71ed7bd2a8d3aU, 0xbd5d0fcd3da33106U, 0x3dc6b88abded3f4fU, 0x3db40dc5bcde22c4U,
  0x3cade6473da3f7f6U, 0xbdb03f35bd1c6ab9U, 0x3d51b4d5bc7d8852U, 0xbca42339be9c00c1U,
  0xbe333ec5bd9a0396U, 0xbd4bd464bcadafd3U, 0xbdecec693d34dc07U, 0x3cd38b9abd131b1dU,
  0x3d322eacbd4eaa38U, 0xbdfc3c65bb1309caU, 0xba87377a3d338978U, 0xbdcfa33abd7f8389U,
  0xbe71ba7f3d72faf1U, 0x3b04f1563c942affU, 0x3cbf6f133d78db05U, 0xbd78a3cbbbbcd0f0U,
  0xbd8fc58dbd825ac0U, 0x393655503c98a9daU, 0x3d442bcebcb83532U, 0x3d4d1f7ebd049203U,
  0xbc383593bbf84d64U, 0x3d78d009bdc92449U, 0x3b933f533b85a612U, 0xbd07d5eb3d2b554bU,
  0xbdef60613d755e38U, 0xbe02e044be41fe7bU, 0x3ce1e307bdcb07ffU, 0x3ccee4f23d57439dU,
  0x3cad13cd3d4f6010U, 0x3d18e60b3e384935U, 0x3d0f06573a93382aU, 0x3d2dba5e3cefd842U,
  0x3c0e4df33d994d68U, 0xbcace4acbc452f6bU, 0x3d9ddd173b8a557fU, 0xbd3bacb1bdb3e965U,
  0xbd8cb0a5be10fdbdU, 0x3d8dc39c3cf6bb9bU, 0xbc51ad413db927b8U, 0x3db1eff83c115a65U,
  0x3d878909be0c092fU, 0xbda416293c434a6fU, 0xbd7998bf3c93d077U, 0xbd949dd5bd68ffc4U,
  0xbd35b90e3d8877f0U, 0x3cb850ab3dcae6f2U, 0xbe1abddd3d11bc9fU, 0xbc2ebb7f3cc7a6fdU,
  0xbd700799bdf4b39aU, 0x3c400973bc316124U, 0x3bec34babc8a6fe6U, 0x3d6a0ff63cf946daU,
  0xbda1de783d3dc2d9U, 0x3d8a3b0fbc893589U, 0xbd808b933c6c15a0U, 0x3cc3c60a3d8f4c49U,
  0xbd9fcff13d8170dfU, 0xbcfb18a6bc9e8502U, 0x3cbc9dd63c524d07U, 0xbc3b45943dd33589U,
  0x3dc5d8ab3dcf1a38U, 0xbd9de3ca3da572a8U, 0xbe51d40cbd8fe321U, 0x3cc647d83d43f500U,
  0xbd414049bdeea466U, 0xbb1733ffbd89598fU, 0xbd942a283e03bd3aU, 0xbc01eff23cd7bbd3U,
  0xbda47025be0da102U, 0xbd7e3674bcb8e956U, 0xbe2cda5abe97478fU, 0x3d4b1cf33d18ac09U,
  0xbd925f17bda1b942U, 0xbd88cea73cb1c898U, 0xbdf28c03be8119acU, 0x3e0fd44dbe13cdb0U,
  0xbd675500be307398U, 0x3dd6f501bca13e96U, 0xbe034961bdb741dfU, 0xbd9368f6bd031369U,
  0xbdad3ca1bd8d93f1U, 0x3ca7dd5fbd198b2dU, 0xbb5ece253bf5160bU, 0xbdfb61f5bd890adeU,
  0x3cea07bbbe1aaa31U, 0xbc04b3173d1c8eb6U, 0xbd87c4533d6395e6U, 0x3d33c09a3d773cacU,
  0x3dd9fcb6bcb63bcaU, 0x3de303c6bd15cf62U, 0x3bf5b3ff3dbaf970U, 0xbd431c593cf81599U,
  0xbcdfa9213ded496aU, 0x3dbd63c23d15b41bU, 0xbe40d397bdc1f747U, 0xbd399ada3b941260U,
  0xbd6fd36dbeaad229U, 0x3d9805443dd37a7dU, 0xbe557cac3e1dac8cU, 0xbc7296473d9dce74U,
  0x3ceff9e3bce75d36U, 0x3c2e5ca6bdac5e6dU, 0x3e452db2bd4f98c6U, 0x3da5dddd3dead5a6U,
  0xbdb79052bd8841eeU, 0x3d106acc3e085e61U, 0xbdaccb46bddf44d9U, 0x3d91e9b3bc3d4b72U,
  0xbd5428573d8413e5U, 0xbc8980a4bdbed540U, 0xbd7329893d5eb909U, 0x3dd69dd63dd201ceU,
  0x3bc96e903c2174e1U, 0xbc4abb60bd782c03U, 0xbb400e25bcbb5341U, 0xbdac4401bd141b0aU,
  0x3ceda0d7bdb0cc35U, 0xbd3905033ce1b7ecU, 0xbdaddfabbd0c56a8U, 0x3de550db3d102ad4U,
  0x3ba6ce2cbe96732cU, 0x3db24538bdfb5868U, 0x3dd357c53d4a2291U, 0xbd0471c63d87f486U,
  0xbcfe717ebd728723U, 0x3d4311efbdeff13bU, 0x3d544fa5bd27e342U, 0x3e3547a3be28a77cU,
  0xbcc3eb2ebdad6fa0U, 0xbc5d4721bd28f9adU, 0xbe21587fbd53afd6U, 0xbd1dfa0fbe18fa74U,
  0x3d6f5dbe3da5c98aU, 0x3c4a3c42bdfafb02U, 0x3d4e7e6ebe503cc3U, 0xbd357ec2bd670b2aU,
  0xbd6497d83dcd464cU, 0x3e0f865b3d17151dU, 0xbc404bbabe165cf1U, 0x3d39f0febc5f203aU,
  0xbd91acfdbe1da392U, 0xbe6e13a8bd320255U, 0x3d4580003d752aabU, 0x3dafceac3d22daa0U,
  0x3d04ffcf3d90353bU, 0xbdb5b945bcea8ffdU, 0xbcb213edbd4ad4f2U, 0xbc194e26bde26107U,
  0x3cdf7c0abdf2d0f8U, 0x3d20877cbd432961U, 0x3d004cff3e10af9bU, 0xbed8ac733a259b89U,
  0xbb10e22ebbdc07acU, 0xbdaac4fb3d8973fcU, 0xbd559cf8ba3e6ae2U, 0xbdc5536abe698e92U,
  0xbd892374bd0be0aeU, 0x3d4598d8bd31a01cU, 0x3d890ff63ddfb2ffU, 0x3c9a86c0bb99c9b2U,
  0x3d9776a0bd06a49eU, 0xbd763dd73d9a4f47U, 0xbc1f2ed7bd882cbfU, 0xbcf33b9e3d57f458U,
  0x3d10f51abe3f31d2U, 0x3ca9370e3d11564dU, 0xbd50902ebdb0e073U, 0xbe383eb1bcf4aadaU,
  0x3c8bc7b2bc181dd6U, 0x3c8de825bdc62d85U, 0xbe340590be1852e7U, 0xbc3b45ba3ce1b03dU,
  0xbd8baf42bcc2e063U, 0xbe146d4c3d83855fU, 0xbceb576dbc6d06ebU, 0x3dcf99a2bd419fd0U,
  0x3d85b6ecbcfe988dU, 0xbd861d65bcc63d2bU, 0xbc4b066e3cbb2379U, 0x3bb942bc3d851b3bU,
  0xbe81261fbe16f6f1U, 0x3dc8e24bbdcf809bU, 0x3d9367943d8a482fU, 0xbe4c0ddd3e03d2b7U,
  0xbd1b69513d6d1851U, 0xbd83c7c13da5cb13U, 0xbd69050bbe06a120U, 0xbe1a4b68be3447d4U,
  0xbd0ebdf43c132c16U, 0x3be5cda3be135745U, 0xbd761a75bd03526aU, 0xbb10ed073bd24336U,
  0x3bcba6cfbd26cee5U, 0xbbab6323bb44f341U, 0x3c70947fbd33ac59U, 0xbc8681b13ddd87ffU,
  0x3d197741be4e8672U, 0x3c0c83e43a6d3e58U, 0xbba631d43b2a960bU, 0xbd467ba53bc4d3fbU,
  0xbdaafeddbd96c4d6U, 0x3d356c37bced6f32U, 0xbdea0a83be086c90U, 0xbe0fb48ebd97f2cfU,
  0x3c274b9ebe07ffecU, 0x3ccd0e2e3c2fd1edU, 0xbda948d7bd9cc40eU, 0x3cecf5793d5c1c33U,
  0xbccc2146bade0e7bU, 0xbe1bd3bb3d8e3265U, 0xbb3f701cbde5a8f1U, 0xbd8ab52ebaea6df6U,
  0xbde5dd96be8b84aaU, 0x3d3374de3ca915a9U, 0xbc6ac9a73c7adc9dU, 0x3d8abbbe3d11c7d9U,
  0xbe1d57b83d9d5e0aU, 0x3dac53df3ce9bb2fU, 0xbccf92c2be65d5dfU, 0x3ccc3f283b4bfda1U,
  0x3e0e747c3de97735U, 0x3cdfbc333ce4fc9cU, 0xbe6eed1e3d249e26U, 0x3d60b933bdbce9caU,
  0x3d3b0ec13d4eda25U, 0xbb137db6bd491393U, 0xbcb11bf93de8e3f0U, 0x3be932cebdc56b46U,
  0xbcceadf9bcf02bebU, 0x3d9626c33d1781e7U, 0xbe07712e3de74e8eU, 0x3e0a12633d86c63bU,
  0x3da26d68be55cdc1U, 0xbe09d77e3d8d8e5fU, 0xbd3a93c2bd84fa05U, 0xbe2b1fb0bcdf4384U,
  0xbcbefe59bd601367U, 0x3cfc41233bf36fc6U, 0xbe501d823b1ab50aU, 0xbe05a7e23df78f71U,
  0xbc3877b6bdb9b057U, 0xbdb534173c27efe9U, 0xbd9d239ebcc7e373U, 0x3c9cde6abc1bc578U,
  0x3d15f246bdb70fcaU, 0xbc0d5e2e3d597867U, 0xbd4705c5be70c086U, 0x3da37049be235b69U,
  0xbe0f9a22be91a4c6U, 0x3d856febbdfa3239U, 0x3e4d5eee3cf40fc4U, 0xbc2de1a93d503108U,
  0x3dea302fbd29cad6U, 0x3b50d51dbd1ebb64U, 0x3db48d62bdd019e3U, 0xbd57573bbe5c2fe2U,
  0xbc1c829dbda6d62cU, 0x3d9dad14be84cdc7U, 0x3d954589bdc6097dU, 0x3dd7a0c7bdcd122fU,
  0x3da816b03e36a381U, 0xbd2fe489bc1d1c86U, 0xbcc5f45e3dacc08dU, 0xbdcb034fbe009eb6U,
  0xbd22f77fbc9e08d6U, 0xbc8ab3b73c604968U, 0x3cb221fe3c6fb2f7U, 0xbe2d26a13cd86a48U,
  0xbdb6a4413c9bcca2U, 0xbe4e36a73c7e3423U, 0x3db6ed913d72a5bdU, 0xbd5e00ab3d3ad165U,
  0xbb4ffef33c90bb58U, 0xbceb405fbdc7028cU, 0xbca26b00be03fe8dU, 0x3da52dd6bd170f2aU,
  0x3d4586c53d35b823U, 0xbe2c496fbe03d2a3U, 0xbd59ca333d72063fU, 0xbe10a489bedeb550U,
  0xbe117df8bcd2376aU, 0xbde1b30abdb17c4aU, 0x3d5381f73dec7bf7U, 0x3a5823ea3d8b00a6U,
  0x3dbb7d84bd9f89e3U, 0xbdd1464cbcb06f3bU, 0x3c9eb16bbd996e77U, 0x3d44298dbda5da60U,
  0x3d7d351c3a8fc6b5U, 0xbd30509bbe496aa5U, 0xbd1ffbfebd0fb905U, 0x3de7d451bde39fc4U,
  0x3a020f01bcbf13c6U, 0xbdb7de53bb48784eU, 0xbcaf01f8bdd1de00U, 0xbdd25d3bbeddbf36U,
  0x3b95631abe126434U, 0xbd7964603bf2ca8fU, 0xbd15fd623c36ab04U, 0xbe353fbe3d49cdf5U,
  0xbe058da63dab5ec4U, 0xbe439a0e3d03ed50U, 0x3da9927dbda841eeU, 0x3cebf95fbd9c58c6U,
  0xbd2b748cbd906a1fU, 0xbd924091bd7a11f9U, 0xbd9a318abc25e908U, 0x3d9f9a37bb7644b2U,
  0xbdcbaa8c3bac252fU, 0x3ccfc217be266b62U, 0x3ce512ee3d9a17c1U, 0xbe9713d3be82c8dbU,
  0x3cb9894d3d9ab505U, 0xbd462ba73d570542U, 0xbd303ced3d44dc06U, 0x3cb589feb90342e4U,
  0x3dcd2542be5a9e24U, 0x3cf13f043d6ae1fbU, 0xbcd019963d827d4cU, 0xbd9c1d533e12a9a3U,
  0x3d848192be05450aU, 0xbd4c6d773deba8b7U, 0x3dba2d56bdbf0d74U, 0x3d2dd99f3d9bb993U,
  0xbd537a08bde3f70eU, 0x3c86f0dd3c1e0dddU, 0x3e27d0f5bdbd6bc1U, 0xbd9b0babbd0e49d0U,
  0xbdaf826dbdba277fU, 0xbd8a70f33e2621e7U, 0xbcbd5bf33d5654d9U, 0xbe39f0ac3dae82fdU,
  0x3c6a27c93d9bf86bU, 0xbe3886043c78ed50U, 0x3c4159edbdd92eb1U, 0xbd554635baa5088cU,
  0xbde1437abd36711aU, 0xbd092c7dbdb89267U, 0xbe66c0713d01975bU, 0xbdef7bdc3d858f0aU,
  0xbda5dd8fb7e8950fU, 0x3d9b9b5cbdfb9da5U, 0x3da7d0953d91bb97U, 0x3d1f8e2f3e0e6e21U,
  0x3dda1bb73d96e9eaU, 0x388b69553d249585U, 0xbce68f913d544368U, 0xbd0da5a4be337707U,
  0xbe411989bd0b6fb6U, 0x3d3c153fbd679c67U, 0xbd2ceaa23e24f759U, 0xba8ed0fcbcb67220U,
  0x3e093b083d3bae2fU, 0x3ca51a3a3d1588bcU, 0xbe71bf84bceee58cU, 0xbd252bb83ca6a5beU,
  0x3dc6c3303c4b364fU, 0x3da7666d3ccce766U, 0x39841a5abc9dfb61U, 0xbcb08118bca91102U,
  0xbd9cfa8cbcd6ce38U, 0x3ddbee113deb124aU, 0xbdb34fb1bd8ca207U, 0xbd98c1e9bd5f4967U,
  0xbd3d9ae6bea91ba6U, 0xbe4585553d359394U, 0x3cfb95d13df6990fU, 0x3dfd6c0fbb93ec4aU,
  0x3e0437dcbda9e02cU, 0xbde53f0abddd7993U, 0xbe2c1fb43d915ab1U, 0xbac14ea2bdd07030U,
  0xbcbdccecbe2bfb0fU, 0xbcba0f43be08f40eU, 0x3d1b61593e185516U, 0xbd9065023ded2df7U,
  0xbc424dec3cd9a725U, 0xbe10bf603d03de98U, 0xbd03dff23d071c4dU, 0xbdf74900bdc6dfacU,
  0xbe2fd4b63c8e49f9U, 0xbd2ac94dbc216699U, 0x3d96aee2bd079621U, 0x3d7cefb9be3d4c1dU,
  0xbc5dd706bd071252U, 0xbc76ebb1bc3e2ab0U, 0xbd1072c4bccb5864U, 0x3cf6ed5c3bf21d71U,
  0x3c892f0c3d2bc61aU, 0xbd83bf08bda1e46eU, 0x3dee4e353dfd0028U, 0x3d3e3e6ebd8d8ab8U,
  0xbd777ae7bd88840bU, 0x3cef47b83d4e32f8U, 0xbccff749bbdfcd7eU, 0xbc1346bd3c83cbfbU,
  0xbdd23a4bbe079e1bU, 0xbdf34786bde0eacdU, 0x3e03957f3cd9f6cbU, 0xbd8c76a93c886589U,
  0x3da38507bca19937U, 0xbdcfe1eabe267157U, 0xbb51b2f5bd36fac3U, 0x3de0c3d1be295da5U,
  0x3cc1ca513bf20f6aU, 0xbdeab5a8bdaccb3aU, 0xbd3ac639bd9d99faU, 0x3a90e3f4bddd6405U,
  0x3c4f2f4a3bf42a91U, 0xbe3437053d8891a4U, 0x3bb05d14bd0831ebU, 0xbd538fc73e0719eaU,
  0x3d54de44bcf21d93U, 0x3caeebbc3d225dabU, 0xbdfa2c863bcb6c33U, 0x3db23078bdbf7bdeU,
  0x3cb868403df46f97U, 0xbdb6789dbd92fe45U, 0x3d6b6c3b3aa7817dU, 0xbe0e8e0bbe73f23cU,
  0xbe34bd57bc8bf7f6U, 0xbc22ed5cbd55daf6U, 0xbd0578e33d0268f6U, 0x3cbd8730bcc0d3b1U,
  0x3d77123abe07aaa9U, 0xbe1c18c43d18d438U, 0xbd49be803dea1413U, 0x3c6f45d83d16fb33U,
  0xbe5306b5be146162U, 0xbcaeedc6bde7f130U, 0x3de63fb2bc61b218U, 0xbe1326b53d5653e6U,
  0x3e259ebebdc51255U, 0xbc8b464bbd523170U, 0xbbd0ccfc3dc51a75U, 0x3d506b7abd50f7fdU,
  0x3d07c2163d8b9431U, 0xbd115435be1eaffcU, 0xbd28cb2dbcde2f61U, 0x3d84b1dabe5421b7U,
  0x3b338664bcaf56a6U, 0xbdc3ee2f3d00f82dU, 0x3a004b213c751f46U, 0xbcaeb4e0bde1997bU,
  0xbccea1833d0803c9U, 0x3bdebdfc3c697d6bU, 0xbbe4dd693da16d5bU, 0x3de0f4723da69758U,
  0x3da16c96bd3ebc73U, 0xbc2d2b793d3da3bbU, 0x3cd0d891bcae0a31U, 0xbc17de953c817095U,
  0x3ccfd3fb3d4da377U, 0xbbc5bf783d4c145bU, 0x3a5967d33d3a7684U, 0xbcffded63dbd67baU,
  0x3d8b3ff73c029449U, 0x3c7447963d717136U, 0x3d885b2e3d1df978U, 0x3de806e9bd7eb583U,
  0xbd6fd288bccffb2aU, 0xbbc4bc6dbc51d617U, 0x3b0fc91a3ca3a496U, 0xbc64e3963d33b05aU,
  0x3cd4bd02bde4b6d3U, 0x3db1869ebced0758U, 0x3d8db9893d53d111U, 0x3d38bec6bd0bbc21U,
  0x3dbb7f94bd68a48aU, 0x3c1664ecbd384c0cU, 0x3d4e9b363cc4a51aU, 0x3b4ac239bdad2888U,
  0x3d3f40643d39b8b5U, 0xbceebd093d05e380U, 0x3ce9d1e8bc7a936bU, 0xbd074f58be076875U,
  0xbcaa92313d181acfU, 0xbbdbdc5a3d0208ebU, 0xbc4176083d2b9540U, 0x3da8014c3d062afbU,
  0x3d79d1fabd4b774cU, 0x3b9f37dd3c52b597U, 0x3cf157ea3c8bad13U, 0xbc2179573d3c3613U,
  0x3cb3ea59bc3ac7edU, 0x3da5c29f3d60b545U, 0x3c5a1a48bcb7005dU, 0x3c4642c33dd360a3U,
