/**
  ******************************************************************************
  * @file    combination_data_params.c
  * @author  AST Embedded Analytics Research Platform
  * @date    Sun Aug 20 14:54:54 2023
  * @brief   AI Tool Automatic Code Generator for Embedded NN computing
  ******************************************************************************
  * Copyright (c) 2023 STMicroelectronics.
  * All rights reserved.
  *
  * This software is licensed under terms that can be found in the LICENSE file
  * in the root directory of this software component.
  * If no LICENSE file comes with this software, it is provided AS-IS.
  ******************************************************************************
  */

#include "combination_data_params.h"


/**  Activations Section  ****************************************************/
ai_handle g_combination_activations_table[1 + 2] = {
  AI_HANDLE_PTR(AI_MAGIC_MARKER),
  AI_HANDLE_PTR(NULL),
  AI_HANDLE_PTR(AI_MAGIC_MARKER),
};




/**  Weights Section  ********************************************************/
AI_ALIGNED(32)
const ai_u64 s_combination_input_4_bias_array_u64[32] = {
  0x401e07c53fb67ee5U, 0x3f5c7925bf96983bU, 0x3e0bd58abe9cc7ceU, 0xbed23289bddeb116U,
  0xbf796aac40403d41U, 0x3f98bdd83f5a12adU, 0x3da6176cbe4b1c0cU, 0x3f877c83bf6356e6U,
  0x3fcfcedebf632dbaU, 0xbeb97f9b3f414c71U, 0x3f6fe2cd3f199b85U, 0xbf404e4abfc60e4dU,
  0x3f185b223eb12614U, 0xbfdef9f7401d2398U, 0x3ee18c84c004565eU, 0xbf702b363f3a9e28U,
  0x3d94890ebd573056U, 0xbfab95ec3ec0139cU, 0x3f19874e3ff5843fU, 0xbfaef5f6bedde8dbU,
  0x3f1e5da13f7ae16cU, 0xbf7725c9bfe9c0abU, 0xbec09c32bf400b08U, 0xbfbe975fc004fb82U,
  0xc03688af3fefe26eU, 0xbffa5ef73fe9e0ebU, 0xbf902e593f3c99ccU, 0xbf70270d3f896829U,
  0x3e1468e63f6bcf66U, 0x3e82953cbfcadb9fU, 0x3ec9ebedbf5f6191U, 0xc016cc2b400d74e7U,
};

AI_ALIGNED(32)
const ai_u64 s_combination_input_12_weights_array_u64[6144] = {
  0xbdfeaa28bc1a1151U, 0xbe039ca9be26bb38U, 0x3e00eb883dec5967U, 0x3d63c503bdf31e70U,
  0x3d77dd74bde9bac3U, 0xbd42b2c7bbad877fU, 0x3cd098df3d275013U, 0xbdb718873de8f88cU,
  0x3e38af803e0dd2c7U, 0x3d86b56dbc4869d3U, 0x3e0536493d8bc64dU, 0xbda521693e2e6e37U,
  0xbd1f59163def23b6U, 0x3e447cbdbd68a676U, 0xbda74f85bdcf20f2U, 0xbdd0371a3d18efa1U,
  0x3dec74a23e087f87U, 0x3e02ae33bc351a41U, 0xbd6b44063d6566b1U, 0x3e11473b3c82f9ddU,
  0x3e127c293dc2f5e8U, 0x3db7b4d2be3d58abU, 0x3c8c91773d28b870U, 0xbdfb9b313d23aac7U,
  0xbc1cc1adbe258001U, 0xbdd04cebbddd0077U, 0xbda829093d197bb9U, 0x3dcf65e63e01bab1U,
  0x3e547b3ebdd4798fU, 0x3e142f303db64cd1U, 0x3b04af563de9ea86U, 0xbdc6ed5ebdb19d1bU,
  0xbd5ee0643a1b1884U, 0x3e09741cbcd77756U, 0x3dfcbe6fbdae83a8U, 0xbdc14a80bd0c1a4bU,
  0xbc760df53dc4f310U, 0x3e2d68ea3db48873U, 0xbd09d4f73da8b679U, 0x3e00ebb83d9a980aU,
  0x3e031f65bd740165U, 0x3e0881b83daeb1deU, 0x3d60efe93e136fa2U, 0x3e00f754bd4cbec3U,
  0x3e356a20bdc0da20U, 0x3dc376643d01dc17U, 0x3dae8fa5bd96a70dU, 0xbdc7749f3dd68f1fU,
  0x3e0eb131bd8a8fb5U, 0x3afc3e93bc67b421U, 0xbe30dffb3e14c164U, 0x3e4d556bbd8baf4eU,
  0xbc84e00bbdf5a3d3U, 0x3d919348be5df238U, 0x3dd8a0cb3dc5df37U, 0x3e20dca3bd650bb8U,
  0x3deda41b3d55d389U, 0xbd9c3343be11c01dU, 0xbd0900d93dda955dU, 0x3da57acebdab86c6U,
  0x3dfaf6bebd7410c8U, 0xba1771eabcc04068U, 0xbd1876123dd24f6eU, 0x3de8d2563d7e64bdU,
  0xbbbdd51b3da7c24eU, 0x3ddc3be73d57bd23U, 0xbdb03186bdc06b90U, 0xbd9ba0853dab4937U,
  0xbd8583c4bdb4d577U, 0x3b3dc760bd6d26d1U, 0xbda2aa8fbe17d7bbU, 0xbbecdc0ebd2ace6dU,
  0xbdc36cb8bdc49524U, 0xbd2cde403e02e97dU, 0x3cdf4471be0c00e4U, 0xbe1ffe90bd3006f0U,
  0xbd86672c3d8461dbU, 0xbdc9ffe3bd61a3ccU, 0xbd97fa9d3d523bd6U, 0x3c0e530dbe0d0505U,
  0x3dd060b1bd34cc7cU, 0x3d31194f3c61ba14U, 0xbcffb834be0cc0a3U, 0x3e2b1b23bd9ddff9U,
  0xbe0a3c843da54041U, 0xbdb378b6bd46f6eaU, 0x3c1418b5bd925f37U, 0x3dd836713e04a4acU,
  0xbdbc91403ccb0ec7U, 0x3e18d1953ccac8f3U, 0xbb7b330d3e3f3a8fU, 0xbe033351bc5b4343U,
  0x3ddb83973ca411f2U, 0x3c26ae6cbd07e93dU, 0xbdefc5fb3ce3ac3cU, 0xbd4d42f13d98d084U,
  0xbd3a94d0bd156a0bU, 0xbdd90f6a3df02cdfU, 0x3e298dd0be159fa2U, 0xbdb7f8693c229979U,
  0xbd767c613d59092aU, 0x3cbc503cbd09b124U, 0xbdad20ebbdbaad2fU, 0xbde7d85a3b729638U,
  0x3d41acfebb2b3a3aU, 0x3d02be9f3e02ce8aU, 0xbd88c3553d47da47U, 0x3db0ac493d7ff5e6U,
  0xbd31c9f93d0570ffU, 0x3d815bfdbd2e3512U, 0xbdd803583d5c1c22U, 0x3d5f39d8bc6e4bc5U,
  0xbdb21e903d116c3bU, 0x3cb9214e3c8f307bU, 0x3e1358f3bc19f904U, 0x3ddc36393d29852dU,
  0x3d09caf63e31c590U, 0x3dd17a8b3db4a503U, 0xbd896826bd0ec764U, 0x3a42b0c9bd96b144U,
  0x3c88dbb7bdb6f637U, 0x3d800c16bd475268U, 0x3e31bad1bc878885U, 0x3d5f96a53df35f63U,
  0xbd88d6593dec8b9dU, 0xbdb7c4813d3ff490U, 0x3d20f4b1bdf78d7dU, 0xbe067195be1a1057U,
  0x3cef70e03d4de3ffU, 0x3e0b65183a9c23afU, 0x3d485347bdfaf94aU, 0x3e1386133bbf2d63U,
  0xbd858e113dbf7c48U, 0x3e08159a3cf9966dU, 0x3db234e5bdc7322eU, 0xbe2b7d753cd40899U,
  0x3d0d4f5fbcb56c2eU, 0x3d1e94b0bd5d172bU, 0x3d0b8d7bbe1db472U, 0x3e21de6abdb47525U,
  0xbe2b5b03bca807bbU, 0x3a4b9ab43e4a103fU, 0xbe2c80fdbe03f0e3U, 0x3d3dd1f83dd0370fU,
  0x3df2ad10bdbb797bU, 0xbe2074f3bda1d833U, 0xbd1c2b2f3cae32adU, 0xbd2ec2bd3bda2fb7U,
  0x3d449a483db1d21fU, 0xbc012c373d4d836aU, 0xbde1aee8bc30d1ccU, 0xbd120fe6bce72e6dU,
  0x3dccbc02bdfab057U, 0xbad85f56be47e8e4U, 0x3e2c39813d56b47bU, 0xbdf2d7903dad579eU,
  0xbe19027e3ca71155U, 0x3dce72373d283db6U, 0xbb27e281bd9c4ffaU, 0x3de2e492bd16494cU,
  0xbc77d950be0823d6U, 0x3dd66607be1b4b7eU, 0x3c01aadcbdc2cc6fU, 0x3de7a4903d85cfa4U,
  0xbe199741bd8dd0ecU, 0xbdb618c73cbc084aU, 0x3db5c5803e046680U, 0xbd4d3fa03e0f5175U,
  0x3bdd95f53b0b9d77U, 0xbd9546823d6a1d6fU, 0xbdfb382ebe0559cbU, 0x3d30cebe3c0163a4U,
  0x3d94e2bf3c8781bdU, 0x3d2f48053cf2d264U, 0xbe06a0c83d97b49bU, 0xbe08fdfbbe158b00U,
  0xbe0fa5d43b0a427fU, 0xbdc129a03cfafb25U, 0xbd8e4ad8bdb076ebU, 0x3ce70ae13d9a6ce2U,
  0x3d80b8d83e4ee686U, 0x3ceb99fc3d808f36U, 0x3c5aca683d154da1U, 0x3d703b79bdd285e2U,
  0x3d4153f1bcad8679U, 0xbdaa6220bdd9ec95U, 0x3d816f92bd512c26U, 0x3d7b9ea63d873454U,
  0xbcc25004bb4a3156U, 0xbd71322b3dddfad8U, 0x3d253c75be2641faU, 0xbddd9d4e3d5b7940U,
  0x3c0dc391be112e31U, 0x3d9104173be62b08U, 0xbd5bf51cbcfe2c25U, 0xbdce49f9bc242888U,
  0xbde0b1db3d8a4f7cU, 0x3d025d61bde97615U, 0x3d8f011e3dd11063U, 0x3e16567e39962d81U,
  0x3c93cc7e3c2e0f1aU, 0xbd8469ac3e0b30a4U, 0xbdadb3f3bccda2aeU, 0x3a88f903bd3336d3U,
  0x3d76b9dcbd652121U, 0xba62db8dbe0760c3U, 0x3e035673bd700ac8U, 0xbdb08d113dd86f45U,
  0x3e03aab1bc7ab148U, 0xbdb8dd133ccdb0c6U, 0xbc08e1dd3d89992bU, 0x3d95f3f6bbdf631fU,
  0x3d868693be664b4cU, 0x3bcc93c03d9daa3fU, 0x3d7ccfdbbb2fe808U, 0x3e2ff3cabe01117aU,
  0x3c560cfbbd9450afU, 0x3d8f30113da545f6U, 0x3e0ff4f73d6b3ba1U, 0xbcf3c5f13db4cfb8U,
  0x3ca67ec8bd893107U, 0xbd848ed13d66415bU, 0x3d740e093d16ed14U, 0xbde781d5bd52f200U,
  0x3c0441003d81c3f5U, 0x3dbf07bdbd8ddedaU, 0x3e04c86b3cd7a9feU, 0xbcb08ee0be28a0c0U,
  0x3dabd774bdb407e5U, 0xbd4b6e063d1df742U, 0xbd713e393dc47e8eU, 0x3ce98f07bc92592aU,
  0x3dc86508bbf63b3aU, 0xbd99fd6a3dcfc4ffU, 0xbc6719273e1e93d5U, 0xbd3d9e163e063f27U,
  0xbdb7b0eb3d05a472U, 0x3d6e390dbe291dc8U, 0x3d9ad8cfbdecb516U, 0x3d1282823d00613bU,
  0xbe1167a9bd06a62dU, 0x3e072483bde40c22U, 0xbdd0ec92bdb45298U, 0xbdd8afc8bc621306U,
  0x3da46b56be4a9eb6U, 0xbda494463c8f5d89U, 0xbc3d66b0bd9b2edaU, 0x3ddaa0b5bdb5bbacU,
  0xbe15c174be4c27baU, 0x3e08b7d0bd506ecbU, 0x3d722a7b3d094ad1U, 0x3dd8799b3e22ea85U,
  0x3d6959563d3a38f1U, 0xbd8f443f3dccd32bU, 0x3d19eaf03cd9aad1U, 0x3c2cfa06bdab475bU,
  0xbd948bc23e141371U, 0xbdc6e166be1fba59U, 0xbd359f3f3e0f3201U, 0xbc58d1babe08b77eU,
  0xbdb297aa3dcabba4U, 0x3af87dfabe081926U, 0xbd8ccbf4bd4fcbcaU, 0x3d53b8e63db15890U,
  0xbcbfa55b3dfd2d1fU, 0x3dc0b9bc3e1fab35U, 0xbdbc391b3c376dcfU, 0x3da1f6f83d70d063U,
  0xbd8ab28e3d493897U, 0x3c75512cbe272dd3U, 0x3da61ee3bdc9b7e5U, 0x3d6be505bd9c4bbfU,
  0xbdd57ba4be11e961U, 0xbde29aecbd012e69U, 0xbcda2a0a3dbcc2fbU, 0xbcdaba4cbc3e91eaU,
  0x3e33f76cbe36ee37U, 0x3d4a7875bd7a8263U, 0x3ce6483abd6417a6U, 0xbe1dd1a3be45957bU,
  0xbdac6708bc113230U, 0x3e15309ebe24d041U, 0xbddb01b43dbd3c43U, 0x3ce79d2cbd305d24U,
  0x3d9c99793d8f561bU, 0xbc1fd2f5bd7e6d59U, 0x3e0c7b70bbd8c9c7U, 0x3c7b9dc33dacd326U,
  0xbc0a511ebcb93bfaU, 0xbbe3e40fbe0df182U, 0x3d032f23bb350da0U, 0xbab1f5e8bd09118fU,
  0xbde661dd3d78b720U, 0x3dac29623d47a8eeU, 0xbd7b94713d16acc8U, 0x3c85d99bbd652b53U,
  0x3dba07af3d626f02U, 0x3b19c0493dd3b89eU, 0xbd342796be090efeU, 0xbd93485a3bd9fc9aU,
  0x3d8439783d8718fcU, 0xbd9644b03becdcbcU, 0xbda2cf203cf501c7U, 0x3d90ee5dbda3aec0U,
  0xbdf26895bd3f0fe8U, 0xbc715a303d7e6088U, 0x3bb6d667bd70edb9U, 0xbb981e7c3d0b0294U,
  0x3dccb9613d150765U, 0x3d444b3cbbc99beaU, 0x3c3c854abdc55243U, 0x3defc30bbda5598bU,
  0xbd3637e9bcf9f02dU, 0x3c17b3783db26087U, 0xbc7f6e383d3f375cU, 0xbdb96e003c8855eaU,
  0x3d7d1bc8bd426b05U, 0xbdb7e20c3d4b45a8U, 0x3d2d31abbda61cfbU, 0xbd18388c3d53eff4U,
  0xbdbf2535b98ec1b8U, 0xbd4030adbd959d61U, 0x3bcef589bd37f655U, 0xbc909e003d3d84e6U,
  0xbd992f463d85663dU, 0xbdd957403e26e2a6U, 0x3d7618cabda82cf1U, 0xbced6a77bd0949e7U,
  0x3e010886bde18960U, 0xbccde8943d103fefU, 0x3dd83282bc18188aU, 0xbc1a1db7bc9369b1U,
  0x3e08429d3d587544U, 0x3d97784a3dcc1f6aU, 0xbe0622213daa016cU, 0x3d22d0013d2063d8U,
  0xbe3dbf4fbde315feU, 0xbd800021bcdebf9dU, 0x3d62cb1f3d761f4aU, 0xbb97cc46bc0c6c35U,
  0x3c9c52903dc4679cU, 0xbdfb97b03daa4931U, 0x3df58067bda97db9U, 0x3dcd80e9bc15e6adU,
  0xbd910df33d8fdfa8U, 0xbdf54251bccf8cf9U, 0x3c9b40aabd506617U, 0xbda1a8ee3e116db4U,
  0xbd87e8913ce5f37eU, 0x3c17b6be3cdab1c6U, 0xbcef5882bbb7ee2cU, 0x3da80c843da5dd5fU,
  0xbdb443d63e0eb4dfU, 0x3d02e26a3cc9dd7aU, 0x3b0bab8abdb07ba2U, 0x3db1f5bfbd18f22eU,
  0xbdf2e52f3c85641bU, 0x3db4c90fbbd9fee2U, 0x3de37690be11a5c1U, 0x3c4604fb3cee0854U,
  0x3a93a5c7bd804c9eU, 0x3deaa3e43d7f4018U, 0xbd63fca6bd83cfd7U, 0xbd6efbed3dc86310U,
  0xbda91e0dbbc7ff2eU, 0x3d85768bbcd1d32aU, 0x3c625de13ba3921bU, 0xbc6c5a4fbd26934bU,
  0xbe2403f2bdf89e60U, 0xbcb3870e3d3f3025U, 0x3d77a9073e0301baU, 0x3e04d1dcbd06466dU,
  0x3cddd4b43da207a9U, 0xbd059ecb3dd66150U, 0x3da615fbbdc6bce5U, 0xbd5079983db48c2dU,
  0x3d3a4d533d503344U, 0xbd66f6b33c83db1cU, 0xbcaec5213df30d7cU, 0x3b5cc573bdb8bf0aU,
  0x3c5aaee9bd1f7b4dU, 0xbdfb5eb6bd53d1e8U, 0x3d87bc22bdcc7457U, 0xbca845febdb264faU,
  0xbd3926093dc7b144U, 0xbde7de08bdf87033U, 0x3dee38bbbce291a2U, 0x3d9518f3bd4f5f40U,
  0x3e0e9e5fbdbf1898U, 0x3e1aebe13d8fb39cU, 0x3dd07d083d88ef34U, 0x3cb95e8a3d7cdee6U,
  0x3d6b1b153c0b2a4dU, 0x3cdf1c183da81941U, 0xbc2fe3943e1ce5f3U, 0xbd6018b0bd409fe2U,
  0xbd5389febd43c20eU, 0x3d11111dbcf6197fU, 0x3d548c5e3d810745U, 0x3dc236f03e0dcca8U,
  0x3e2937fc3d8b2307U, 0xbde33af8be28b8c8U, 0xbb9d69a7bdbe3331U, 0xbc4d971e3dd03cb0U,
  0x3db1743abc331267U, 0x3d66f0fc3c908138U, 0xbd4b92bcbcfc6ad0U, 0xbd475e18bd8658e3U,
  0x3dd1b5bebcf048ebU, 0xbd98cf41bcfeb559U, 0x3e1005b13db58a17U, 0xbd8f522f3e325fefU,
  0xbd3c80b23c6556d1U, 0xbdd96a903d74dd1fU, 0xbcfde14b3e1d9469U, 0x3de392103d6a5154U,
  0x3d39733f3dc26e5bU, 0x3db0f029bd953c53U, 0x3dbbae37bdac0882U, 0x3d244976bd9e0dc3U,
  0x3d0a6d51bb870830U, 0x3da42b85bd6e8147U, 0xbc9bb60c3d6d4128U, 0xbd7dce853dbd64b8U,
  0xbc969b203c2677beU, 0x3e0ea529bc60ecd5U, 0x3c98e7e13d2c972cU, 0xbdcd3be8bd65d2daU,
  0x3df081593e38e08aU, 0xbd26b2a03db4ad17U, 0x3d324608bd8cecfbU, 0xbd8e46c6bd8fc164U,
  0x3ce58268bdb412e9U, 0x3d98326bbd0dc948U, 0x3d9d4b893dd108b8U, 0xbdcd4748bccb4244U,
  0xbd1513c6bab5db95U, 0x3cf7374b3dbf6739U, 0xbb2b0dffbd4adff3U, 0x3beb4e12be5be086U,
  0xbe0bf884bd386e73U, 0xbc791e76bde66d66U, 0x3da5c2ebbcdb7a41U, 0xbd1565483d931d56U,
  0x3dc51683bd0d2dd6U, 0x3dcf69963cc22d7dU, 0xbd423dbe3d030f71U, 0xbddf798d3d97347cU,
  0x3d9272623990296cU, 0x3dbff371be1b2408U, 0xbd2843babd89567eU, 0xbd965cb83d2c6009U,
  0x3dcae05d3d82b884U, 0x3e386935bdb37118U, 0x3af89d8bbdb43cf0U, 0xbbd3e03c3d383536U,
  0xbdd65749bba51ddcU, 0x3e0d97c13dcecbf4U, 0xbda582203de7c2c6U, 0x3df34604bdb7a452U,
  0x3d8bc8be3d8938c9U, 0x3b347f86be08aefeU, 0x3d7f50c5bd2253b0U, 0xbb6bb461bd1e54c6U,
  0xbdc7b5673c2ac560U, 0xbd8f84d1bd4404f4U, 0xbcf334c43dd2830cU, 0xbd51c3eebcaf991fU,
  0xbcb894d9bd17e224U, 0x3df1713b3dea8853U, 0xbdb6eaa7bd43de92U, 0xbdcbef85bd8e6083U,
  0x3d61a2afbd9be6eeU, 0x3db8749ebe28162dU, 0x3e03fae53e1f20a3U, 0xbdb72b9a3dee2192U,
  0x3e42ae463e133df3U, 0xbdd0b5643e0d73ceU, 0x3da39e5abdd73de4U, 0x3d9b858c3d8877bbU,
  0x3d0e0b3fbc3e7026U, 0xbb8b6a88bda4bdcaU, 0x3dac76693d4b8f99U, 0xbde067a3bdd994b8U,
  0x3cd20625bdc4bb30U, 0x3cdc9b72bd8ec357U, 0x3e32189f3d652892U, 0x3c4637593d563598U,
  0x3c7b6cb23cf36856U, 0x3dc8a0323d537d63U, 0xbcfacf00bb9e16c6U, 0x3d8f28923d76a27bU,
  0xbd5bd3503e124802U, 0x3cf625c1b8851cb0U, 0xbdfc2420be112ac3U, 0x3b9fb0403e3dd276U,
  0x3c8ea6e63de2d2cdU, 0xbdd199653d21b2a2U, 0x3cdba998bde80149U, 0xbd8aac5bbd7fd71eU,
  0x3df016ecbd8aed36U, 0x3e019b373cb7f495U, 0xbe21516ebe08813cU, 0xbbe38a70bd8c026fU,
  0xbe135a853dce2d24U, 0xbdbd5ecfbdf0042dU, 0xbcb5b976bda3974cU, 0xbd8dd14d3c7fb0adU,
  0xbbec41a3bd14fef7U, 0x3dae78f4bdb5befeU, 0x3e06afd13b2bc544U, 0x3d4b982ebd94efabU,
  0x3de39aaa3d35d95dU, 0xbdab28c7bd7f6328U, 0x3e0c0c60bcd56bfbU, 0x3d9ff9cabe1011f2U,
  0xbd3ea3683ccb41f8U, 0x3c23b7d3bd188355U, 0x3e10cfdebda202aaU, 0x3c9aead0bdad64cbU,
  0xbdc7e86a3d8b2e05U, 0x3d57bea53dde7469U, 0xbd3838fa3e02c9f3U, 0x3d893ab93c18da30U,
  0xbc1395063da89cc5U, 0xbda152fabda23089U, 0x3d34c349bd01fe6eU, 0x3bbbd74ebdc49398U,
  0xbd94032bbd62e52bU, 0xbe41a7c23d99a35fU, 0xbe1284243d6e5ab2U, 0xbe08edf5bc02b642U,
  0x3cec69333a9867a5U, 0x3ca1c5c3be1efe06U, 0xbd47c4f2be141608U, 0xbd6808e8bd3b9094U,
  0xbe794be5bdaada89U, 0xbdee7e653d997c12U, 0x3dfedef93d89cf65U, 0xbd0b2d5bbd29b5ebU,
  0x3b8531133d16e6aeU, 0xbd2d12c5ba8ef82dU, 0xbc53caf7bd0931ecU, 0xbd8ee696bdad58ddU,
  0xbd6256d73b8d7ee9U, 0x3d74663e3de7b4fbU, 0x3c4626493e33fcb1U, 0xbd24fff9bcb7432cU,
  0xbdc197fe3d3dd0edU, 0xbcaa86c1be310084U, 0x3d0991ea3d50577eU, 0xbdfb3128bd976b4dU,
  0xbad00095bd8efb3dU, 0xbdd607763dbc60c2U, 0x3e15172c3cc63cd0U, 0x3dabf3203d0208bfU,
  0xbcd2c0b13d8d6d7cU, 0xbe0b7fd5be004766U, 0x3df66714bda57e41U, 0x3d12428abd67ce1dU,
  0xbc87dbd23d6de345U, 0xbe251621bd0b93f3U, 0x3d04444b3aa83a95U, 0xbe0a28b33d9f1ec6U,
  0xbaa00879bd4e347fU, 0x3d2b40683d56d5baU, 0x3df546b03e050116U, 0x3ca45e9bbcd11e87U,
  0xbd80d3213d923b81U, 0xbce109583c38b01dU, 0xbda0246b3c7c53f9U, 0xbd4e90613d388ceeU,
  0xbd50f4c4bdb89ec5U, 0xbdbb31843d91e9ebU, 0xbd9150773c7daf6bU, 0xbd3a269a3e32217cU,
  0x3d3878e3bcce31d7U, 0x3d43c8a838a13a1dU, 0x3d8628babdfd1fe7U, 0x3e00c0a73de6079eU,
  0x3db5f25a3a99aadfU, 0x3e0c771c3e0f6f3aU, 0xbc19d813bd446957U, 0xbe23f3b8bd9a5fa6U,
  0x3e268f61bc8b8b0aU, 0xbdda4849bdb02161U, 0x3d9a4462bddd74d0U, 0x3bd346d5bdf284ddU,
  0x3d219fc3bdce4072U, 0xbde0c1283d2c6161U, 0xbdd3803b3d6999e3U, 0xbdb47b61bdf0d351U,
  0xbd936f57bdfc4d00U, 0xbc888e2f3d896c8cU, 0x3dd954d1be1aad9eU, 0xbd297dbb3d7724f1U,
  0xbe483a763deee891U, 0xbc93fa933daf284dU, 0x3e202c893cbc97d8U, 0xbe0cadc8bc953629U,
  0xbc974cfc3df945d8U, 0x3e18df02bcf18c98U, 0x3e00de723ce3e56fU, 0x3d3f503d3da3fbd7U,
  0x3ce99e4cbdb94cf4U, 0xbd70bdb43d9b37d8U, 0x3d0576b63ac6b312U, 0x3ce3021fbe244d0dU,
  0xbd0c8492bd104618U, 0x3dc0c02bbddb248eU, 0x3c8253b2bd61a03dU, 0xbdf92c173db0d66cU,
  0x3c1879e5bd35015dU, 0x3e08b8e53e4c7e46U, 0xbe178d1abdc19855U, 0xbd981b09bc94951fU,
  0x3e3f52423dd01eeeU, 0x3e009e8abb5cbf86U, 0xbd8a22b33bf9d79dU, 0xbd50aae23c8fab97U,
  0xbd0991a73d5accd3U, 0x3d6799c03e11da54U, 0x3d8ce1b0bc19cec1U, 0x3dbb2b89be1bb41dU,
  0x3d76202b3d3e4588U, 0x3d42a2a83e1e44ccU, 0x3d2ae7573db465ecU, 0x3dc3ec903cf076feU,
  0x3c690cf2bcf8747aU, 0xbd795070bd8c8a2aU, 0xbd0d1640bcc35103U, 0xbc92f3703dc49eacU,
  0x3c99b538bcd9f426U, 0xbc4ffcc93dc5a55fU, 0xbd13a1aabd1132cbU, 0x3da2c03d3e1e7072U,
  0x3c9afa13bd9db347U, 0xbce48dc0bdd43899U, 0xbca513f03bc0e8e3U, 0xbe2f9b183d66c432U,
  0xbd083f24bde23d00U, 0x3de2c5d6bc844845U, 0x3e187cf53e05673bU, 0xbe195995bd932b94U,
  0xbd87d37dbe01b0b9U, 0x3db5c46d3d499da0U, 0xbe47cdeb3d00c0a9U, 0xbdc81f08be04901fU,
  0x3d58133a3daf0c80U, 0x3db5539d3d97b613U, 0x3e2d651f3c987ebcU, 0xbdc28340bcef122aU,
  0x3e0d49913d58b22bU, 0xbddc85c13e5c057cU, 0x3d0da3f23dca8010U, 0x3c6dc57d3cd82480U,
  0x3db637a4bda1b6d2U, 0x3e08563c3d72967eU, 0xbe085d583d89201eU, 0xbc06721d3d50e4e9U,
  0x3cb958ba3e274dedU, 0x3c72679dbd0350ccU, 0x3da11d743dad1c34U, 0x3e1af411be076459U,
  0x3c582c77bdc07804U, 0xbd86399b3d223c78U, 0x3e4283a63d1cac94U, 0x3d0c175d3df30c77U,
  0xbcf4fbbb3dbefeffU, 0xbd831f7abd2f2f5cU, 0x3c54c97abd557dfdU, 0xbd492bfdbe049adcU,
  0xbd9244963c389d6aU, 0x3c57edf1bcc5d0c3U, 0xbe1511b83da636bbU, 0xbddda4c4bd2f9092U,
  0xbdc3bfbb3d2bac6dU, 0xbd900b443d1be1d7U, 0xbc4073283db1d7c8U, 0x3daa0e10bdb9300eU,
  0x3daaf13abd84c3beU, 0x3d40ef05bd4cb2d1U, 0xbdc9137dbcabde36U, 0xbcc3cc36bab7321bU,
  0xbdb3eeb73d85b36bU, 0xbdba339dbbfbef3dU, 0xbdbad87abd477eceU, 0x3d30ef493dc232ceU,
  0x3d5c423a3d736428U, 0xbda381acbde6e449U, 0x3d5fb459bd8908e6U, 0x3d295c143db2f1d0U,
  0xbd393016bcd1194bU, 0xbe1406083c851c2fU, 0xbd1d4d6fbe2a1117U, 0x3d5276ba3d6f4ec6U,
  0xbca50fce3cdf1aaeU, 0xbbdba42cbda34999U, 0xbd83b232bbf94ffcU, 0xbdd123dabda702a3U,
  0xbd76c27cbd2b803bU, 0xbd5faea1bdab8e8cU, 0x3c4cdfebbdf2dfe4U, 0x3cb77c9d3deeeb54U,
  0x3d717e1fbd8cdc3bU, 0xbdf7bbed3cba7c3cU, 0xbde9c57e3d6af2c8U, 0xbd4367f63d914225U,
  0x3c871ffa3df19330U, 0xbdb80f253d965f0dU, 0x3dc09da0bcd55c40U, 0xbd7ff4aabcb3eedbU,
  0xbd7e8e6bbcbd794eU, 0x3de336f6bda2afa2U, 0xbd5822693d92da30U, 0xbceee733be275224U,
  0x3b344674bdd7e97fU, 0x3ca82828bc2336ecU, 0xbb9f38f43db4cc8aU, 0x3cf862d1bdd1aedcU,
  0x3d836c4b3d25dc83U, 0xbd58da833d2f9821U, 0x3da17e6abc419329U, 0xbd91eff03b16dae1U,
  0x3dcbec653dab6f77U, 0xbe184deb3d6ccf88U, 0x3c7a161cbc012da6U, 0x3ba1d0043df1a101U,
  0xbd10ebd83d475c4fU, 0xbc37520fbc9acfd5U, 0xbd5b3b093b65e31eU, 0xbd7ee0d43da04422U,
  0xbc7b99173bc2a18dU, 0xbd0a85183d86303bU, 0x3dc81aa8bdab564fU, 0x3d78d547bc7f525cU,
  0x3da5cb1b3c85b24fU, 0x3d8d588dbdae5bfcU, 0xbcf46f973dc45de4U, 0xbdbbb5183d82cf51U,
  0xbd4e5b033df492b4U, 0xbcfeaab2bd8a9afdU, 0xbddae80ebc3ec605U, 0xbc8a4e34bdce7a3aU,
  0xbc9e230bbde1ace9U, 0x3c08a203bdc2e090U, 0x3daa636b3dc08467U, 0x3c5a60ffbd329b69U,
  0x3def7a123d121f7cU, 0xbde37fd3bbf55a62U, 0xbd8bce223d801ee7U, 0xbcb2c9cebe0d7143U,
  0xbd0e2e12bda993a4U, 0x3b8ee8dc3d7666c1U, 0x3da386613e0a6937U, 0x3d9480e83c4981b4U,
  0xbcfbd473bda4985aU, 0xbdd66c6bbbca7549U, 0x3d00fa1ebd07af46U, 0xbcbcb71d3cdfafe8U,
  0x3d97f4b53d7469ecU, 0x3d9c5f25be088351U, 0xbe20b09d3dbde909U, 0x3c4fe6073dbbf5a5U,
  0x3dc6228dbcd10997U, 0x3d84cfdcbdba8c4aU, 0x3e299454be16ee8eU, 0x3d8a6b43bce4e3a4U,
  0xbd412f283e2799b4U, 0xbc6f7acfbdff3b43U, 0xbdbf20243ca2de4aU, 0xbd82f1c83de40a1cU,
  0xbd0204713d6e56f4U, 0x3e043dfcbd40e398U, 0xbd1402ff3ddaa66eU, 0x3cf4534fbd74294dU,
  0xbd69f2f3bda775d3U, 0xbd61f1043c243a8dU, 0x3d82cbaf3dcd1d3bU, 0x3d0bf5f63d77ea21U,
  0x3dc8c7023e5396e5U, 0x3ddcac7ebc7df3d4U, 0xbb9436babdcc2693U, 0xbb12c7be3d9cc566U,
  0x3d1f2c673d7e3fd6U, 0xbd99fc353d5ba13cU, 0xbc3da095bd91a35bU, 0xbda7ca0fbbd141e4U,
  0x3da173c4bd8b314fU, 0xbde49a93be057b2dU, 0x3b9a8eafbdf81940U, 0x3cbda9a63b9c373aU,
  0xbda561773cdf60eeU, 0xbe0185553ccbd42dU, 0x3db690ac3dc9fd11U, 0xbda2025fbd8b5501U,
  0x3b8b0174bc29ee54U, 0x3cdde737bb5b3486U, 0x3e020c37bcd30279U, 0xbc8a0cd1bd42571bU,
  0x3db80a4c3d8d68b4U, 0x3c6ac30bbdd0eb9fU, 0xbd8aafc13c6ca89cU, 0xbe061355bd1db24aU,
  0x3ac14f96bd2e01baU, 0x3da0c7c3bd17df06U, 0xbdbc35c53d8895f1U, 0x3d0a98b63d4b330eU,
  0xbddd5721bb9df649U, 0xbd533f2bbccc265eU, 0xbc9dc7b53ccc8741U, 0xbe0272023d0f7e10U,
  0xbd48e8ef3cc37975U, 0xbd9104793df21ac8U, 0x3cfd4bcfbc45862fU, 0x3db005e5bd85ccb8U,
  0x3dfeb7703d827094U, 0x3d9315a93cef12a8U, 0xbd0fee3fbd89815aU, 0xbdb7c2173db4aba6U,
  0x3d9b4eab3d1ce14cU, 0x3d4c9442bd35e77cU, 0xbcb2da8abcf074baU, 0x3d9fa1103cda0c33U,
  0xbe0b85813d7cafc8U, 0x3d3543f4bcbe39a5U, 0xbda7a59f3de43d72U, 0xbddaaabd3daf6420U,
  0xbd1a4d5d3cea6635U, 0xbda7783fbe0432d2U, 0x3d3c1ad43db3028eU, 0x3de89bf6bd41fa08U,
  0xbd1c0bd1bd541d43U, 0x3ca3010ebd7b8316U, 0xbd1ae7e3bc72bf6aU, 0xbdd0cfa7bc6dccd7U,
  0xbd4659993ce9cdb6U, 0xbb3af70b3befcd30U, 0xbdf319483de1ae34U, 0xbdf3e1dd3d192a6aU,
  0x3ce11375be0088e9U, 0xbc9609fd3d61e617U, 0x3e2a72fcbdc649cfU, 0x3d8563ab3d4dd645U,
  0xbc8684953e1f984bU, 0xbd6664cc3d6c8c0dU, 0xbd0918febd1c169fU, 0x3d11ff15bcb6c3e0U,
  0xbd8576933d8265a9U, 0xbdd507253db178caU, 0xbce2a9f6bd6bc483U, 0xbe07913ebd643a59U,
  0x3d3a4ad5bdf60942U, 0xbd3ec4d63d71d83aU, 0x3b79efc3bcaa4a08U, 0x3dcb29d8bdeac01cU,
  0xbe1c5e9b3c5a299fU, 0x3d3ada213dca5e03U, 0xbd84d545bda6d494U, 0xbd0df54cbd9b95c1U,
  0xbda4321ebc5ce386U, 0xbd857e05bd804c06U, 0xbbe1bd423dfd81dfU, 0xbd832013bbeffbe5U,
  0xbdaad333bc04eb7cU, 0x3dfdbf8ebe100238U, 0xbe07b5263cd11d4cU, 0x3e11cc323d742197U,
  0x3dfcbd45be0074caU, 0xbe106e87bbb2a19eU, 0x3d9ff816bdd31c3fU, 0xbae7cf0bbca34884U,
  0x3e182924bdfe3a38U, 0xbcaf92853decc35cU, 0x3d7a1b2a3d9094a9U, 0xbdf9dc9dbe28ccb9U,
  0xbc3fed3ebd683542U, 0xbdb7c0263e190214U, 0xbe10e7f43c9a64b3U, 0xbd0e2cc03dd3e80fU,
  0x3d790979bde38842U, 0x3c78c8b5bdc33183U, 0xbd8cc539bd78460fU, 0xbdd8e6babe3889d9U,
  0xbcf5eb1b391c0e14U, 0xbe2345073e030fc4U, 0x3df06af2bde0a51aU, 0x3cec00f13db5a91fU,
  0xbe0e1e653d1858b3U, 0x3d65de89bdf6b9acU, 0xbe01c91e3d19ab9bU, 0xbdd340debda00a92U,
  0xbda38d103d1135daU, 0x3e0aa5f9be2518caU, 0xbd48168c3e0e672eU, 0xbd12a5583c544ff0U,
  0x3c9f40c13dfbbe43U, 0x3dffa1a73d3ca371U, 0xbcebec18bcf35e6eU, 0x3bd26eb43df3362bU,
  0xbdaa12503df2d116U, 0xbe18b7c63d3509ceU, 0xbc4c43c73dbfb906U, 0xbcfc852ebd65b748U,
  0x3dee0124bd83e95eU, 0x3e1083efbc91b3e7U, 0xbdaefad8bd1224f4U, 0x3d4fd5dfbe00a5c6U,
  0x3d19d690be151d25U, 0x3d4b2839bd56f90aU, 0x3df75f673d560aefU, 0x3d2d0202bdfe1a1aU,
  0x3cdc9bfb3dfefb0bU, 0x3c0889dfbb4170adU, 0xbde4ead33cfe70dbU, 0xbe148dabbe1ddb2fU,
  0x3e2cb2b83e01aad9U, 0xbcdfd7203deb7d7fU, 0xbd2139fc3dc7202cU, 0x3dc927783d4d08f5U,
  0x3da3887b3d972fa0U, 0xbe18b30fbdc7d3d7U, 0xbdf59e053ccfc006U, 0x3de34a8b3dcedc82U,
  0xbd86f9d6bd73fa82U, 0x3e0b3817bc790778U, 0x3dc1ed5f3d0780a2U, 0x3d5b27b3bd45005aU,
  0xbda4bf63bde1c787U, 0x3c5475cebdcf5d7bU, 0x3e1b3c033da7009cU, 0xbe0eda723de76041U,
  0x3df725903e2198a0U, 0x3d18aaf03dbd3b7cU, 0xbdc8d9f73da96d87U, 0x3dd2858ebe0d0a5eU,
  0x3e3852c1be15e213U, 0x3d21f50b3e45e6ffU, 0x3df1e7223dc8c7b9U, 0x3da74e183da94715U,
  0x3e24fd7cbe15329aU, 0x3de05ca5bcf7c365U, 0xbbbdc0fdbc21c81dU, 0xbd226209bd474495U,
  0x3db2590d3e122771U, 0x3dbba9d9bc9709caU, 0xbdbbd6a0bd6c266aU, 0x3d6a8b65bcc90b3fU,
  0xbd3795103cbe3f9fU, 0xbcb6a0d53d8ff558U, 0xbd12dd80bc70d730U, 0xbdb7672e3dca29b7U,
  0xbe25a6b9bdf6f990U, 0x3c8e29c53d7be348U, 0xbdd0ac82be2b081aU, 0x3d36feb1bd317b05U,
  0x3ddc4594bd67118bU, 0x3e35a7b43c2c9baeU, 0xbca32f9dbceef117U, 0x3dc7f0423d109862U,
  0xbccc25733cf41a66U, 0x3dacf2513c9c625cU, 0xbded1a303befde36U, 0xbd2a64143df97c8dU,
  0x3d404f94bc68c71cU, 0x3d47d879bc046e61U, 0xbdce8e89bdacb86eU, 0x3dab8cff3da66f7eU,
  0xbd8b58ffbd962bd0U, 0xbcad30bdbc438746U, 0x3cbe51af3d25cb08U, 0x3d172c773cf594d3U,
  0xbd65a982bd10f83bU, 0x3d41ab33bcd2530cU, 0x3d331b823d6b81d9U, 0xbcb68ac2bcb64acaU,
  0xbdeed292bdb79055U, 0x3d93dc433d510181U, 0xbda28039bcb9eef2U, 0xbc4764363bbe71deU,
  0xbc6d812bbc0eeac2U, 0xbd5e60eabd7b9ba1U, 0xbd87152fbe381a1fU, 0x3cb1352a3d8ebe8dU,
  0xbcdfc3e3bd2d7e18U, 0x3cd7dd96bd56b6adU, 0xbd8491993d47e9e1U, 0xbb806ed13db34638U,
  0xbdc36680bda3fc4fU, 0x3db7ae6fbe39aa14U, 0xbd921e143b8c073eU, 0xbb857e1bbce9b236U,
  0x3d8e55183cb9ef12U, 0x3c9e3ec1badb1a2aU, 0x3c76b8fbbd8fbd27U, 0xbd9e5cfbbcc4c19eU,
  0x3ca65c36bccf8f65U, 0x3dbcfffe3c7206aaU, 0x3db603c4bb1f8478U, 0xbd807cb33d3e09ebU,
  0x3dccc606bdb6288bU, 0x3d28efa33d9e4991U, 0xbda70ae23db75867U, 0xbd802741bdbba492U,
  0x3dba6e583dacc275U, 0xbd757c4dbca2b8e3U, 0xbdc6070b3d387820U, 0xbe0b07ab3dd1816fU,
  0xbe090afc3db9b1ddU, 0x3d1e7fcebddbd31cU, 0xbdbe1f9bbc6da25fU, 0x3d1371a73c4211b9U,
  0x3c49897abd8128a2U, 0x3d04d665bd1bd772U, 0x3d9626d8bcdbb0beU, 0xbd0563b1bc9c0cffU,
  0xbdab5924bdcc34fcU, 0x3d2f2bc8bd09669dU, 0x3c744a073d487ce5U, 0xba970e103dbf24fdU,
  0x3daf53523d2e8935U, 0x3ce6563cbc19fdcbU, 0x3d2f1e90bd268a2fU, 0x3c80d402bde199fbU,
  0x3d793b473d5fa5e0U, 0xbdbd4c023c88a54bU, 0xb9ae03f33d18b0a2U, 0xbdc5a2273d16f20eU,
  0x3dc296373cb62cb4U, 0x3cbe27d9bddf6a13U, 0x3d8c136fbdefb320U, 0xbdea9c9abd35e114U,
  0xbd199da23d311b3fU, 0xbc966cafbdc3f1aeU, 0x3d3589af3d1b97a1U, 0x3d38d0c5bc3001abU,
  0xbbea17773d22781dU, 0x3cf37855bdff24e7U, 0xbc6364f33c9bf47eU, 0xbe16d3833d25b0d2U,
  0x3d4b2f3e3d83fd43U, 0xbc790163bda4a7e0U, 0x3cbf3feebd977484U, 0x3d8a779dbde3b671U,
  0x3d82d7273dc90254U, 0x3dac1dc0bcfb38c7U, 0x3d83d459bd066cfbU, 0xbd95ade13d2da4fdU,
  0x3a1e87603d8f74fcU, 0xbd493270bdceee3bU, 0xbd4c25f1bde43a46U, 0x3d3c8149bd76f825U,
  0x3ca955bdbd9daaccU, 0xbc5ac03fbdf3ab44U, 0xbd9a583f3c4ae2a4U, 0xbdd74ae3bde0b053U,
  0xbcfefd563c7a6aa5U, 0xbda167a4babc06ceU, 0x3d4e4c1dbda93deeU, 0x3d56cbe6bdf8cd52U,
  0x3d65602fbc262a13U, 0xbd99e5b9bd42fa43U, 0x3d52a5693c3abe47U, 0xbdf7626dbde599c0U,
  0x3d2f83153c71a4f0U, 0xbcc3fcaebd7cdbb0U, 0x3ce03ba5bd9f7e64U, 0x3d3163523c97c9e7U,
  0x3db68e45bce10f11U, 0x3df1afebbd727c31U, 0xbd8fb61f3dcf029bU, 0x3ce93395bdb9b5dcU,
  0x3d21707e3dc40913U, 0xbd908fc8bd8555bcU, 0xbe221f963d81bc79U, 0x3dce13d9be26d964U,
  0x3d1742b63e198335U, 0x3e1e1320bd5d40d0U, 0x3d920d0ebd9b7d92U, 0xbc4fdd183d8a9028U,
  0xbc82004dbd85e41dU, 0x3e2759683d2cb304U, 0xbdeb89afbdc641d3U, 0xbdf4860e3e2028e4U,
  0x3e084fee3d2cf2c4U, 0x3d0cb6573dc0fc21U, 0x3d8371e03c979b52U, 0x3ad085db3e1bf3bbU,
  0xbdc9ea283d2db6c9U, 0x3d9351f83da50c76U, 0xbac7f5a13d2f6c8fU, 0x3d12a46b3d802dc6U,
  0x3dc604edbdb549a0U, 0xbe187436bca64073U, 0x3d24d9df3de22799U, 0xbce0d606be06072fU,
  0x3da10dc7bdd0eb49U, 0xbb32ab5abe4775d7U, 0x3dd2af7d3d3106ecU, 0x3d8745643b2f3215U,
  0x3dc220c73e34af02U, 0x3d92262d3bc47b34U, 0xbe273684bb3b2369U, 0xbdbfd1a83c8db454U,
  0x3db49627bcf06847U, 0x3d710dd2bdeb55ecU, 0x3e01329a3da523caU, 0x3e206a153ca7f662U,
  0xbdf559383c638906U, 0x3e0dc0033df06c0fU, 0xbda3b418bd883314U, 0xbdfc10a03e2ac2a4U,
  0x3da2c23d3da24df0U, 0xbdcb95ccbe1096a3U, 0xbdd23a5ebc0b6e27U, 0xbc7d2714bca6c552U,
  0x3c904d6a3d649061U, 0xbd51a78c3d9ef621U, 0x3e085e9dbd95c75bU, 0x3da5b47c3d5a0038U,
  0xbdf81cbcbce15147U, 0xbda985a93b71023eU, 0x3d879bfbbe01cd8aU, 0xbe2d42583ccd5606U,
  0x3dac93c0bce6582fU, 0xbd96e285bb7bc9c5U, 0xbe3140f53d560ddaU, 0xbdb3081abd63008bU,
  0x3d0eda41bd8c0611U, 0x3cd17fac3bc4e8caU, 0x3d51ce3abe02b49fU, 0xbe09db03bdfea2c0U,
  0x3d2894dc3e176844U, 0x3df770e3bdfa8450U, 0x3de37c62bb85aadfU, 0xbc955d4bbd8817b5U,
  0xbdf4584a3dd1d085U, 0x3de074f6be0e8c6fU, 0x3d49cfc03cefb808U, 0x3e0894723dfe7b0aU,
  0x3d020c6e3d37bfc6U, 0x3e0816183d1456bfU, 0x3dd6b4bebd9e7ef7U, 0xbe1ae25ebd909444U,
  0x3d5c1e12bdaf1884U, 0x3cbb9a253d2af858U, 0x3d22f91e3d4f9535U, 0x3e20da0b3e18405cU,
  0x3d48a2edbdb53e32U, 0x3e0a290a3db3de60U, 0xbdb96fadbd504c3fU, 0xbb6c86fd3d05ea79U,
  0xbd560d32bd2b21fcU, 0xbba767293d8e707dU, 0x3e0f1e8abda2d7b2U, 0xbd8151b63de4e287U,
  0xbdd2c653bd5c75f3U, 0x3d238835bd2ada6fU, 0x3dbc5f6ebda166adU, 0xbc3938993d92ed1cU,
  0x3d243e2bbd28ebd1U, 0x3dfc0f233d9b30c2U, 0x3db877bb3d979c9fU, 0x3d2c71d13e040b51U,
  0xbdcbfd6ebcb7046fU, 0xbd2c93a9bc7e1cdfU, 0xbd8a41953b2c33a2U, 0x3d14d7573dc1c292U,
  0xbd38e1f03df50055U, 0x3d05f509bd578089U, 0x3d4ae6ebbe0c5b57U, 0x3d7fd7da3e03f55fU,
  0xbdde97513db7c6c1U, 0xbba7dbf73cc930cdU, 0xbb017e1abda22336U, 0x3bbd25873d57ecd9U,
  0x3c8fd590bd2e3095U, 0x3cbe4c3a3dbe43f3U, 0x3e341ee23bcdbd20U, 0x3d409accbc30f05eU,
  0xbd913cadbd9bca1cU, 0xbd8c7c263cd2c7c6U, 0xbd116ec5bda6c7d1U, 0x3d60aaa0bdcbe9e1U,
  0x3d4272213c9d2049U, 0xbd22ccb43d86a121U, 0x3d251a163cf6f64aU, 0x3d69ee9bbdb616b5U,
  0x3e07ba743ac97659U, 0x3d2bab933dc7bc3bU, 0xbdb3562a3d12764cU, 0x3d3b30b0b993230aU,
  0x3d8732ea3d469d2bU, 0x3db2539cbd9d9ee0U, 0xbc7ade2b3dd61fa0U, 0x3ca4d64f3d5d78d7U,
  0x3c7572f93dcc1a3bU, 0x3cf74c243d87e73bU, 0xbe1e2c3a3db87f29U, 0xbe040a07bda1f0e0U,
  0xbd252df0ba915d63U, 0xbd061136bdabd65cU, 0xbb6663bcbdbf292dU, 0x3d70331ebc8aae8fU,
  0xbd71a4dabd73422aU, 0x3e19be473d280c6cU, 0xbd959e3cbd833aa9U, 0xbd199d983d28bf9dU,
  0xbe0ad949bdbcb6acU, 0x3d37dbedbd672c71U, 0x3d479f5b3c747029U, 0xbceb38f9bd536455U,
  0xbe010186bdeb501dU, 0xbd30b4cd3b418597U, 0xbd4ca6413d9a42d7U, 0xbdf293b6be064011U,
  0x3de83afd3d9b98abU, 0x3dd5cd2f3c63c3eaU, 0xbb829fd73b51abe8U, 0x3d8ec9edbcff27daU,
  0x3d933e20bd0be635U, 0xbd5b16dc3d28eda1U, 0x3c4c51c0bc505b06U, 0xbd8be4b7bda4625eU,
  0x3e1369703d964104U, 0x3d1718333ddde3cbU, 0x3d4917d33cb756c8U, 0xbd8417423e020236U,
  0xba0bc9613d95d825U, 0x3db271c43dced78aU, 0xbdcc1a193e192b6dU, 0x3dbf28bc3e118ebcU,
  0x3d2127633d080f88U, 0xbc6bee49bcb07bd8U, 0xbdf16261bccb37e1U, 0xbce3779abd73df19U,
  0xbd20daed3c522871U, 0x3dad47d3bc705312U, 0x3df6d4733db03976U, 0x3d5e6388bd29c9beU,
  0x3cf1fedabd1de956U, 0x3cc878d23da4efd5U, 0x3da3117fbe2723b0U, 0x3dc8f07dbd66011cU,
  0xbdfdf99cbdb81eddU, 0x3d33df35bd395e64U, 0x3aa9be453d1849ddU, 0xbc4707e2bdbafa19U,
  0xbc15b35b3dc5c299U, 0x3d8847a63dd53e6dU, 0x3dbb2863bc988759U, 0x3e11d2ebbe056848U,
  0x3dc5ba4e3dd552cdU, 0x3beaaca83d530c4fU, 0x3b7799b43da19913U, 0x3c6ccae6bcefcd85U,
  0x3ddc56823de3552eU, 0x3d8b52fbbd26ae44U, 0x3d5044c93d718774U, 0xbdb156dcbdf2f144U,
  0xbdd03872bd818808U, 0x3e179bb03d102ab9U, 0x3dab321abdfea52dU, 0xbdeb32ddbdc2f002U,
  0x3dc9ae323d27830eU, 0xbd3dcaba3dedcb02U, 0x3caad128bd895d5dU, 0xbdb324d039ef13b9U,
  0x3d4fe4233e00eebdU, 0xbc8fbdd0bd8bf6c2U, 0xbba0f8d6bda37f27U, 0x3d0557e4bdd28ec8U,
  0xbddc11a73d9d5affU, 0x3e09f6f43d5c4d30U, 0xbe106c773cdeea76U, 0xbd35729abab02cd6U,
  0x3e1b41f03e001799U, 0x3dbde832bdd2f874U, 0x3dd186f7bdf9da2aU, 0x3d89101b3d9c7aabU,
  0x3d983c533db951b3U, 0x3d85353a3dd0f1afU, 0x3e1f05eebd89900aU, 0x3d392e913b6b0644U,
  0x3d7147923dbfe346U, 0xbd93a00bbdb8e0b0U, 0x3d8dc982bdc74930U, 0xbe1f06163d0cba66U,
  0x3d9151ebbd3d530dU, 0x3d1fd30fbe034377U, 0xbc7870eebcf28a36U, 0x3d98f2ec3d0ad4afU,
  0x3e0f6d80be01ba55U, 0xbd81c10dbd9ee92aU, 0x3c81337cbe000104U, 0xbc874f7f3c32fd0fU,
  0xbd422ef5bd1e1e4bU, 0x3defd124bdbe79b5U, 0xbe12aba53db4621aU, 0x3dc2eda83de09fecU,
  0x3e11e0c0bd0e21a2U, 0x3dc1da8e3d0dfd21U, 0x3d108efd3db64dd2U, 0x3cbec0583c5e0333U,
  0xbe09e9663d6f9693U, 0x3e263a803c22af64U, 0x3d59a0b23babbeb8U, 0x3d157fdabddc32cfU,
  0x3b6138f43e076045U, 0x3e1ff54c3d9b82a3U, 0xbca7e63a3b40bd41U, 0x3df0cb2cbd294820U,
  0x3d46be403d88a23bU, 0x3d5fed523dae39deU, 0x3dfbb8ea3dc7ea59U, 0xbda7bc38bdb1f2f0U,
  0x3d03b318bc9a259dU, 0x3d8a88dcbe09f0e4U, 0x3ce123203d458374U, 0x3b7a5a08bdd1733aU,
  0x3bbabe5f3ade5954U, 0x3e34fd85bc6d5a28U, 0xbc684c8cbc778092U, 0x3dda3ab83da4278fU,
  0xbcf19cab3e0f1ff0U, 0xbc4418f33da406bbU, 0x3e181ff6bd4abc0fU, 0xbc5521ff3d532f25U,
  0x3d886df6bbcfa795U, 0xbd88c671bc725716U, 0xbe8331b43cb7828dU, 0xbde00a1d3e1399faU,
  0x3df90309bdea2d05U, 0x3e5c49573cf8dc91U, 0xbdc32d47be123b01U, 0xbdf6ca70bd4f7621U,
  0x3c0264263d7d82edU, 0x3cfee292bd9c213bU, 0x3e052048be181948U, 0x3e11b55e3c571e31U,
  0x3c1486fd3d899093U, 0x3e1da4f13dac7919U, 0xbdfd0ffbbdddf617U, 0x3e069effbc35c1dfU,
  0xbdf5f6733cb5c8e3U, 0x3e32c38a3d48f265U, 0x3dc53917bd83bafbU, 0x3c6de742be0fc7fbU,
  0xbde23244bd23cbb4U, 0xbd57ca03bc68695fU, 0xbe16210fbc1d4590U, 0x3d23423abc5fed1dU,
  0x3c0bbf60bd59add6U, 0xbacd1cc53d7f3ddcU, 0xbc28c1713befde6aU, 0xbc8f40023ce0fa5eU,
  0x3b959d203c785330U, 0x3e04aab7bc3a69a8U, 0x3e2c61d43d309bbcU, 0xbd914585bdf487eeU,
  0xbdad98b0bdb9fd27U, 0x3ddc59573da08ea1U, 0xbd98d8c93df0c294U, 0x3d91a0f13de60d9eU,
  0xbcf0c1553d3bbf7fU, 0xbd9a0d2e3dab73a1U, 0xbd9736013cc7a974U, 0xba5f3c083d9f2e2cU,
  0x3d3adaac3e0c0a92U, 0xbd68ecbcbc06c701U, 0x3d98d397bd65c673U, 0x3c8b8f7bbcecadefU,
  0xbcbe4be6bd80192fU, 0xbc3a6f3dbc4dc98eU, 0xbd4528533da3a812U, 0x3bc6104d3db3895aU,
  0xbd8364cb3d5baf73U, 0xbd2527b1bdcc879fU, 0x3db1734bb9a37432U, 0xbba6e95abdbd4658U,
  0xbda1435ebdcef81fU, 0x3c792f823b927440U, 0xbd41a1653cb5471aU, 0x3c565479be3844eaU,
  0x3d4d12c23d5dc941U, 0x3d6793463cbf6eb6U, 0xbdbb554c3bb03c27U, 0x3ce99ab33da31486U,
  0xbe32fd1dbdd5d1c4U, 0x3d655f823ccfc6e0U, 0x3cd649473d57db3dU, 0xbdedea06bd6d133eU,
  0x3d05cc493e0aba3fU, 0x3e415facbc8215feU, 0xbe0b9dc83da79652U, 0xbd8f1f253d893ab2U,
  0x3c2ada7e3dbab1c2U, 0x3cf90bdfbc5d1557U, 0xbd4ce9f0bd24c0aeU, 0x3e15ae073d12cfd5U,
  0xbcc33e413cceb1ffU, 0xbe0780fa3dd5ba0cU, 0x3d10eca7bc5439cfU, 0x3b1ecb60bd55dd13U,
  0x3d2d64083ba689edU, 0x3d30bb41bd3967c1U, 0xbddddd603d7b137dU, 0x3dd3dfc23ca0c49dU,
  0x3d89aa173d0a65f8U, 0xbca200fa3c9fdfa6U, 0xbb23fd2abcae8493U, 0xbdb00129bd73144eU,
  0xbe09e96e3d1b60b2U, 0xbd06e0bdbd51fae6U, 0xbc3c7235bc9ecb0bU, 0xbc503d0abbd5fdb8U,
  0x3d8ff7b13d746584U, 0xbd95dec83d8746f8U, 0x3c86799ebe1a4e85U, 0x3ce3eb24bdad5080U,
  0xbd8c2a7b3d9fee43U, 0x3be8f8f3bbb017cdU, 0x3db43294bdc5d0dbU, 0xbdf38587bd49a48cU,
  0xbd4b72763d9a0161U, 0xbd6c1386bd4e7f72U, 0x3c5d147abd074795U, 0xbdb8bc72bc8970ebU,
  0xbdf28753bc03f0daU, 0x3b5402603ce11d3dU, 0xbdc8365d3d389a33U, 0x3d24c018bd8683a2U,
  0xbdd15b2bbd3438e9U, 0x3d92a25b3d79503cU, 0x3d321a453df9c09eU, 0x3d5427fcbdfaf809U,
  0x3d8e7089bb9dc52aU, 0xbc2321303dc9c7c4U, 0xbe06016fbd92bf99U, 0xbc467311bd5f1d71U,
  0x3d428fb6bda1411fU, 0xbcba4a89bddab145U, 0xbdda5ec6be007ff2U, 0xbe46fb31bd4cb9ddU,
  0xbd81b090bd85d42cU, 0x3d4f84ddbd95a1e5U, 0xbc98c44a3cab9696U, 0x3d02c2b6be20397cU,
  0xbdcfab2cbe2c8741U, 0xbcf2611f3e0d0475U, 0xbd1b00d83d2367f0U, 0xbd3dc823bd2f0063U,
  0x3d01a6993cfe8338U, 0xbde34db03c479bdaU, 0xbd3550c33de83885U, 0xbcd3b2e7bcbe6b41U,
  0xbce52bdcbd1aa747U, 0xbdfa71bfbd9af10dU, 0xbd2ae1043d8ff74bU, 0x3df17377be1fa7b3U,
  0xbc7de414bbd26de8U, 0xbd8d338e3c83c0f5U, 0x3d653043bd909f6fU, 0xbdd4d5ab3c82c536U,
  0x3d978be4bdfe7cd5U, 0x3d64fc103dafe032U, 0xbdf6fbdc3c852567U, 0xbe2db1003d0398aaU,
  0xbdec5d77be105460U, 0x3da83f9abdbb8703U, 0x3dc3623dbe41a9e3U, 0x3d9bec7a3cb62ea6U,
  0xbcf560aebda67cabU, 0x3e0342923ccbf4d2U, 0x3cb641c5bda776ecU, 0x3be214703d7ad7baU,
  0xbda5895d3dc37357U, 0x3e27f33d3dcaaad0U, 0xbcab7ee0bde5b173U, 0x3d112fe73dea925fU,
  0xbc6219fa3d751796U, 0xbd3f8c08bcdbc9e0U, 0xbe2020bebd60d8a4U, 0x3aba5e1dbe1db583U,
  0x3dd8875abda45a99U, 0x3cb405ae3c3a245dU, 0xbd1c3b923de2d39eU, 0x3db193fe3d85a36aU,
  0x3e20e4a83c0ed881U, 0xbda3ccc83dc57cf1U, 0xbca8246ebce78b5aU, 0xbdb49f6a3d10efbeU,
  0xbab803183db63c4fU, 0xbcc47d483d8cf89fU, 0x3d3caf7a3dc895feU, 0xbddefe153e5956ebU,
  0x3e0a67ac3d8a7cc4U, 0x3dc288883d085d9cU, 0x3c00c0a8be0be001U, 0xbc07bd963e446255U,
  0xbdda44c5bdbc8c19U, 0x3e019e3a3d368212U, 0x3e26da74bc95dff8U, 0xbd7663a43dd94eaeU,
  0x3d6a047abd794162U, 0x3db199833df9326bU, 0xbe327abf3d98a139U, 0xbe027e4d3dbcc289U,
  0xbe1216eebd72fcf3U, 0xbca5e6903e1cb967U, 0xbdce4e253de32eb8U, 0x3d7f9ff63df4bbb0U,
  0xbe12995abc3337edU, 0x3e05562cbde5cd28U, 0xbce9b35fbbd27257U, 0xbd5e93e33d0e17f0U,
  0x3e16e5993cfbeba2U, 0xbd34e9943bd48721U, 0x3dbbe980bc68b6bcU, 0x3e1654fabda0fb22U,
  0x3ca04a39bd287eb0U, 0xbd89fdb03db86a3cU, 0x3d6f94d9bd514d14U, 0x3e1e406ebe03fbedU,
  0x3decb3253bb1efaeU, 0xbe0d37c2bd2962f4U, 0x3b2796363d2bf13bU, 0x3d36bd2c3e298738U,
  0x3dd7135c3dfffbaeU, 0xbdaea2323e0a5393U, 0xbb8436e1bd5616cfU, 0xbcd7091ebdb5c53bU,
  0x3dace55b3df40d77U, 0xbd9b7084bd36d9b0U, 0x3e29dba1be2799e0U, 0xbda4731abdbb7533U,
  0x3e30ff303de2d03eU, 0x3e04fd543d7d9715U, 0xbd340d8c3d4d0ac0U, 0xbdc753b43e280ed3U,
  0x3d338680bd980268U, 0xbdbbcaaebe20a8ddU, 0xbde19678bdbb6530U, 0x3dfaabab3e2ac541U,
  0xbd44676ebc1ea760U, 0x3c2b81693dfb122cU, 0xbdb08dd93d7b78eaU, 0x3c57d1553e0a539cU,
  0x3e107daa3d676949U, 0xbdcf4e84bd285c64U, 0x3df682aa3d04f85aU, 0x3ba50cc63dc70d2aU,
  0x3e1f1b6dbdb1e43eU, 0xbd64e0dc3e225567U, 0x3ddd899abdfb1634U, 0x3e07b2cf3d42f10cU,
  0xbdf1c5663dc54da4U, 0x3c2c36f1be2d8807U, 0x3d0f10c7be035801U, 0xbd8e9a383d9f289cU,
  0x3d4d6a45bd15a599U, 0xbd45cd8e3e0899c3U, 0xbdc837533d119020U, 0x3d4cc5e63ca267b1U,
  0x3e2d0ddfbb88d80cU, 0x3d170f6a3d0d7aefU, 0xbdc0bb613e2840b3U, 0x3e193011bd91aedaU,
  0x3d1b9c0b3deac5adU, 0x3cfbc908bdb167eaU, 0x3dbd1897bd292d75U, 0x3ddc051e3df1bf1cU,
  0xbdf61382bd070b46U, 0x3d5d19f3bdb1c329U, 0x3bad6530bd0d01dfU, 0xbc10432b3d2adc33U,
  0x3d8c2a0b3e05a2b6U, 0xbdf7bcf0bdc129dbU, 0xbe35171bbde5dc44U, 0xbd3490563df67fd5U,
  0xbc82a8db3da48795U, 0x3adea6db3d244bfcU, 0xbd6edabfbdb50189U, 0x3d713368bc133024U,
  0xbd95fbaebd9bc933U, 0x3e1b6a17bca3177fU, 0xbdcdc2edbde28fa7U, 0xbd87e6613dd64a91U,
  0x3d00e5e23ddedf0cU, 0xbdb7a593bbb8c758U, 0x3df3b9af3d67779cU, 0x3c002c8a3ddcb489U,
  0xbdf8325f3df4e918U, 0xba191e43bac87038U, 0x3d5447aebe05ebc3U, 0x3d4c1f463ddd1043U,
  0xbbdc70763df5d356U, 0xbe0b2bdf3d4cbf14U, 0xbd989e11bd8abfc2U, 0x3d739fd83d6a96adU,
  0x3dd27ce33d7811b8U, 0x3e194f1bbd96a651U, 0x3e335d5a3de655f6U, 0x3d6725fbbc3b4f96U,
  0x3cf112eebdbbb1b9U, 0x3dbaff793dbd944bU, 0xbdbbb00abda07d65U, 0xbcec43cb3cb5e47cU,
  0xbd7e9fef3dde963cU, 0x3daa79e4be08c8cdU, 0xbe01982e3ca3a936U, 0x3d515e9abd5b2d58U,
  0x3dda1644bd0a4523U, 0x3d3704333e111461U, 0xbd9a730bbe149eb8U, 0xbdac2f25bdc26c7cU,
  0x3dcd30973e004ad2U, 0xbd88a0a93cf90171U, 0xbda2ec3dbddd45c5U, 0xbe34f27dbd4c0098U,
  0xbda65877bda43686U, 0xbd71b3203bcfd52eU, 0xbcb5b512be41af85U, 0xbdfd3aabbbdd1c40U,
  0xbdb7103f3de8369fU, 0x3cd5bfcdbdd1bebaU, 0xbd9d5fcf3d32d979U, 0x3d31fdad3de3c81bU,
  0x3dafba033de50167U, 0xbe334987bd94b95eU, 0xbd4ccd563e09a7d3U, 0x3e04f894bda455f1U,
  0xbd89517abdfbcbf3U, 0xbe01d498bd8e5892U, 0x3dac17823e3df3a7U, 0xbdb8d0dd3d85ec0fU,
  0x3deaf53d3d4ed40cU, 0xbe2958863dad6be5U, 0x3de9a9dc3df07f7dU, 0xbe1ac2cbbd6f1b05U,
  0xbda6da333d49a83bU, 0xbe1a49b6be3ede28U, 0x3d17bbaa3e2a066fU, 0x3dda1136bd8122a8U,
  0x3d1d339fbdad62daU, 0x3b3c92d23d63b6deU, 0x3d832ac13d03cafdU, 0xbddb0cafbdcde2b3U,
  0xbd276d42bd3990e4U, 0x3d4439c63c8ed2e6U, 0x3de40737bd99c8c2U, 0xbd82dcac3da795abU,
  0x3e1f06753e1213ceU, 0x3e00d270bd85f8f1U, 0x3d15ff5d3d778163U, 0xbd236ff03dbd09f1U,
  0xbd50abec3d96669bU, 0x3d9c4e7f3dbb5089U, 0xbda01efabcfd0725U, 0x3d750ffabd3773eaU,
  0xbca59dc3bdd8124aU, 0x3c9f07dfbdacb57bU, 0x3d0f44973e09ab8fU, 0x3d4b16cdbe0c2eceU,
  0xbe1787fabdb38d5eU, 0xbd1fe17c3e231a38U, 0x3d2002ed3dd81d95U, 0x3d83789e3e2b4bfcU,
  0x3dd177afbd6ab950U, 0x3d59f42abe2a3f36U, 0xbdce157d3d9a5c4fU, 0x3d5765753cd69465U,
  0x3d6572c83dc1f390U, 0xbd96deebbd9e387eU, 0x3d9a6b033c48e6b1U, 0xbe0d6c8a3d88abc0U,
  0x3d9d80fabd524e4cU, 0xbd95994fbd970924U, 0xbd0c13d93c0506ffU, 0xbd09e8e83d805111U,
  0x3d6266983da2fd1fU, 0xbdfb9591bdab871dU, 0xbdd97f53be2a2152U, 0x3bf4f4dfbd86b229U,
  0x3dec90b2bdd94a8dU, 0xbcf979993dbfb86fU, 0x3d024065bdcf9531U, 0xbe26e685bdd5929eU,
  0xbcc0c7ca3db41d6bU, 0x3b785c4b3dfb169cU, 0x3ceadc4bbe182447U, 0xbe23c1de3dd2c810U,
  0xbd027870bc45d2c0U, 0x3d00462fbdaafcf5U, 0xbde1a44d3d05d3ebU, 0x3d6a56473c84971aU,
  0xbe05ce103ba94babU, 0x3e094bde3dbd9d66U, 0xbd3a15613c3ffb09U, 0xbd309f983e124176U,
  0x3d7643bdbd3a509aU, 0x3d86f6453d575dfbU, 0x3dda92fe3dcd187eU, 0xbe0a1eadbe15c977U,
  0x3e26b0243d8f1475U, 0xbd25ef76be2f7314U, 0x3dd2f358bc29b7a6U, 0x3dab88213bdf5dbaU,
  0x3d8824adbcf2bab1U, 0x3d0b3e2abdfa6ad3U, 0x3cec3c05bdaba4cfU, 0xbdac9b913cb975dcU,
  0xbcbbc86abcbdf215U, 0xbe1d74283da95a24U, 0xbe21901cbd0edd5cU, 0x3d6cface3cf6310bU,
  0xbd75f936bcac49c3U, 0x3e17b1edbbbc4252U, 0xbdeee8f0bdba7608U, 0x3d5c16c63c56218fU,
  0x3d11bec6bda1aeb2U, 0x3c298c33bd00b103U, 0xbd33b4023d24438fU, 0x3cf258263da9e199U,
  0xbd22d5a93e204146U, 0xbd1a3e89bdbbc0deU, 0x3d59c9003df14b86U, 0x3d6af7243dc53724U,
  0x3dbe1ac5bc9ce4a2U, 0x3e1179a6bc9a64faU, 0x3d3d0522ba48a10aU, 0xbd1bf579bdf49a79U,
  0xbe2582b93d7beafbU, 0xbdd8c742be166abbU, 0x3e033e16bda6030fU, 0x3e1bea94bdb55b48U,
  0x3dfd4230bd1d45ccU, 0x3d4bc147bdb90c4fU, 0x3c4a5b53bcfd4445U, 0xbe03cfc8bdacaad1U,
  0xbd67fe483d82468cU, 0x3da8f871bcd7436fU, 0x3df692633d5f3f68U, 0x3d8b1134bd92dbc5U,
  0xbcefa782bd88507eU, 0xbdcefba73e100692U, 0xbd9b658a3d254d1cU, 0xbb3942fe3c543d97U,
  0xbe2569f03d960c34U, 0x3d3230883de4dc82U, 0x3ddec7153c290518U, 0x3e1d1a43bd99a932U,
  0x3e039803bd2d7c6fU, 0x3cebe6dc3dd82534U, 0x3e015a5dbd89dedfU, 0x3d20dcf43daa50e7U,
  0xbd341907bb4c3887U, 0x3e01ba763cef69b5U, 0xbd957dc23cf64af1U, 0xbc1ae4943c4444c0U,
  0x3d9915d6bbea8ccaU, 0xbcf9a771bd990039U, 0x3dd91f9bbd608c50U, 0xbd9941773d2003f8U,
  0xbe18c9fcbd69d9e5U, 0x3c0f21063cb5ed34U, 0x3d689c27bcaf3bf6U, 0xbc78c620bd447d9dU,
  0x3d625fe03d7d8ebcU, 0x3d79bf14bba72d94U, 0xbd0054883c0928faU, 0x3da77aa73d5d46baU,
  0xbd8751bfbd99b528U, 0x3d689f7dbc106536U, 0x3dd30893bb246974U, 0xbdca932abc8704bfU,
  0x3d9530ab3ce7907dU, 0x3d8b760bbc3597f1U, 0xbd5310f93cb09d43U, 0xbccfb7fa3b146dc5U,
  0xbdbf288fbd91fec8U, 0x3c7dea153e1335f9U, 0xbca920c13ce806caU, 0xbdb066823dcf93ccU,
  0x3db5e0acbd86897eU, 0x3db07e6f3c8ab746U, 0x3e22cf7cbdd3d656U, 0xbe118f5abe084468U,
  0xbd923a6dbd3d722eU, 0xbdeb7aa7bd99eb40U, 0xbccecd353c8dc0bbU, 0x3c8ee2263c8ac146U,
  0x3d95b1f53b1a138bU, 0x3d53aad8bda77bdbU, 0xbd8372963b692656U, 0x3db275e1bd7e9e24U,
  0x3d1f40dc3d969b24U, 0x3d1d6795bdad23c4U, 0x3d32ebab3cd1c11aU, 0x3dd0b8523d692e02U,
  0xbbeb3a1abd9acb08U, 0x3d09ad89bd8bb3f0U, 0x3bd5ae46be0e9fa1U, 0x3dd7143dbe0fd967U,
  0xbc36f2733ded3e82U, 0xbdf9b7823d2b513fU, 0xbda1f0b73d813c49U, 0xbc50f1cbbe057646U,
  0x3d09c4bebe15da1cU, 0x3deb861b3b465082U, 0x3d509432bdbf0d03U, 0xbd584c15bcccde63U,
  0xbd6af6583de692c1U, 0xbcc3f7573dc943d7U, 0xbd332ea4bd1ef931U, 0xbc0cd2023dfd6320U,
  0xbdb4bfdfbe1c0896U, 0x3d80fe983e04987fU, 0x3e4a525fbd938132U, 0xbd23a997bda43a45U,
  0xbb1dd8e83d033c57U, 0xbd4636753e124fe4U, 0x3d05a9efbcc98dc9U, 0x3dd865713d2c6510U,
  0x3e16e8513def9fb8U, 0x3e1addf83df50c8cU, 0xbda7295dbd742a90U, 0xbdaefd5d3dcae6d0U,
  0xbc6863f23deb68fdU, 0x3e2cbba7bd3a4eb9U, 0x3d0c09cebcf23c1fU, 0x3cefee30bdd02011U,
  0x3688b71fbcf53fc9U, 0xbcf74278be413e1eU, 0x3e219744bda4fca2U, 0xbcb79dce3d51640dU,
  0xbe46ef28bcaec4f9U, 0x3d8ae1aebd81d803U, 0x3dc373ce3d48ec5fU, 0x3d6ce6113d280d6dU,
  0xbdf079d1bd6cbb15U, 0xbc4eb2b1bce2222bU, 0x3c74c78b3d8b53c1U, 0x3d0d9f503d80494bU,
  0x3dee68d7be23cae3U, 0x3e216fc53dfa34d3U, 0xbd78baddbc0d2e63U, 0x3e4726253d718beaU,
  0xbe1739fb3bcfb9b8U, 0x3d9425433cf71e8bU, 0x3d7a8f023d97a66bU, 0xbd5d4b59bdf2b06cU,
  0xbd3c8fb93a77bdabU, 0xbc9a32243c466f1aU, 0xbe27354dbccf50deU, 0xbd896488bd620b1dU,
  0xbd16b3853ca2dc16U, 0x3ddfa106bd97e8eeU, 0x3cc630253b74e223U, 0xbddb5fb3bd8959c9U,
  0x3db2b3a63d9e79dfU, 0x3db2cc3dbd8a9b40U, 0x3d1f26b0bdf2cb7bU, 0xbd157a3ebe3d08e9U,
  0xbdc955c6bdf97330U, 0xbdcacd79be050194U, 0x3e1e1cd13d2ef4daU, 0x3d7330f3bd1bb708U,
  0xbdde68febd5a15b9U, 0xbc8c72473b3f1e9aU, 0x3e3118863a9b4779U, 0x3ce9a575be50cb0dU,
  0xbdbe5abc3df356e7U, 0x3d817c8d3da146cdU, 0x3de182dc3dd0461fU, 0x3cb49bec3d0afd20U,
  0x3bc29c54bdf2a957U, 0x3bea67b63d9c3af4U, 0x3d1083c9bd27f25eU, 0x3dda60d3bdc91d07U,
  0x3dd919273e2cdd74U, 0xbe2f03193e3aa170U, 0x3dd71af3bd4c35aeU, 0xbcadcf913d289aaaU,
  0xbd735385be0873b0U, 0x3d8204f73d17fce7U, 0xbbeea7af3bcfcae0U, 0x3d855e1e3d19b3a5U,
  0x3d5b6201bdd21b38U, 0x3dea5784bcae7030U, 0x3e2ae6f9bdef88a4U, 0xbc4770c83d706c90U,
  0x3d6c47f8be0adf7eU, 0x3c142b6c3db4e562U, 0x3d6fddca3dbdbfa7U, 0x3d6842a63d10566fU,
  0x3da5c59cbe1e62b8U, 0xbd1371aebe0162c8U, 0x3da2a98bbe22a4e2U, 0x3d790843bd733737U,
  0xbdf84aec3d361db4U, 0x3cedd7b83e04f16eU, 0x3dadfde73cde59d0U, 0x3d0eba43bd972bd9U,
  0x3cd1ace43c2a2ac6U, 0xbdedc945bca37bdaU, 0xbda6f51c3d1e901fU, 0x3d07ee32bdac7a3cU,
  0x3ce053ea3d7dd339U, 0x3d024a2dbd456d56U, 0x3dcff75b3c5ed9e4U, 0xbe3298563d720025U,
  0x3dd71c6abbc2866aU, 0xbd66c6cbbd9b441dU, 0xbd8187b3bdc36d71U, 0x3d9e83353dcd4cd7U,
  0x3d6583bbbd4c5135U, 0x3d8bb46c3d7f4f1dU, 0x3da4f583bd868965U, 0xbe05cb16bc10c429U,
  0xbdb667c03e04abe6U, 0xbc9f40a8bd709e39U, 0xbda818f2be352cb1U, 0xbe24c3793ce253a0U,
  0xbe16e523bde2c797U, 0x3d390e0abe2ca64dU, 0xbd8025a4bdb0bbcdU, 0xbde67ef03ddc46f4U,
  0x3dd8e4bbbcee0740U, 0x3dd16babbdbb5bc7U, 0x3e10698b3c87f70fU, 0xbd2bba99bd124c77U,
  0xbe1acdb6bd99fb79U, 0x3cf3750c3dd31040U, 0x3df27691bde6df95U, 0xbde6f2353cbfffa2U,
  0xbd33dec43dc10c9aU, 0xbd79d399bd85f95dU, 0xbc3c8f683db6af16U, 0xbd77a464bd6ce75fU,
  0xbe067f393e2d74c9U, 0xbd9e2f2bbd008290U, 0xbddff1323e2bc551U, 0xbd1fc99dbd91d142U,
  0xbc81e6fdbd6e2135U, 0xbdc7d72b3dc784adU, 0x3bdd84363be53fa4U, 0x3c2f07253e082110U,
  0x3d879e44be39411fU, 0x3cb43180bcfec1cdU, 0x3ceacd9b3e1573b2U, 0x3de46c50bd409317U,
  0xbdf2de23be1c9be1U, 0xbd55d5303c9a61b9U, 0xbd9feeccbcf50656U, 0x3d4b7e13bd0876a9U,
  0xbd88a1dcbd7a07c2U, 0x3dafe1f7bd3f4ba7U, 0x3c55f12bbe056789U, 0x3d22fbaf3da27d10U,
  0xbdde21e4be142b21U, 0xbcc3aae0bd304d64U, 0x3deddf67bd534f5cU, 0x3db1659d3cbd8dc8U,
  0xbd091cc73c9fb1e0U, 0x3dac48e4bdd14200U, 0x3dd39200be10e8d0U, 0xbe15b80e3d118e8cU,
  0xbd78be18bd74d2beU, 0xbde9481cbcfade52U, 0x3d5069fc3d65d588U, 0xbdbd2d3c3dabce07U,
  0xbd94de8f3e082bf7U, 0x3de2205bbcef031cU, 0x3dbe646b3d8c6ba9U, 0xbe0ace6b3da9e688U,
  0xbc7da069bbf52241U, 0x3daf6b51bd0ae099U, 0xbe0627d4be27d2e1U, 0xbcdf75ebbcd08e51U,
  0xbbc1e1cfbdd5f22bU, 0xbdbb70ac3dc6ad9fU, 0xbd551b8cbdbdd722U, 0x3bb563c0bdfd0687U,
  0x3dbcdabcbdbe01bcU, 0x3d97380fbdc969f6U, 0x3bf4e0683e036780U, 0x3db79066be27fd60U,
  0x3c113b6bbe1514fdU, 0xbd4736a8bcd55c11U, 0x3ca41df7bde88613U, 0x3d65b82bbc991b01U,
  0x3d255635be1a28f2U, 0xbe2e562abdad253fU, 0xbd0c9a3ebe225591U, 0x3dc737c5bd274321U,
  0xbdf36cffbdd7eaefU, 0xbdbf0019be10f759U, 0x3e417061bdd0572fU, 0xbe249d7cbe03641aU,
  0x3cfd68933d933241U, 0x3d9ccc623cc5fb42U, 0xbdf6a9773dad582cU, 0xbd3d5c803ca3bbf6U,
  0xbd851db4bd3ed2b4U, 0x3df90f833e1c0256U, 0xbe0501cf3c84bf82U, 0xbe484bfdbbb33fd6U,
  0xbdb2640fbd99bd53U, 0x3e20818a3de7bf5eU, 0x3e12900f3da53522U, 0x3dec8856be335034U,
  0xbddae7063dc4e544U, 0x3b589a5f3e0dbc78U, 0xbe0377433becfd66U, 0x3de425d2bbca13f0U,
  0xbdaea5e4bcb279a5U, 0xbc843ce0bbf59a8bU, 0x3ca5c264bd37ecc7U, 0xbdd4b01dbcad132fU,
  0x3d9ef536be14b03dU, 0xbd9103d63d804f45U, 0x3b3b86553db422f4U, 0xbc979d5fbd027c03U,
  0xbe2530603dd53c18U, 0xbb88c58ebd7d7822U, 0x3b5221f3bc94b8ddU, 0x3c3bad873dec2edaU,
  0x3cd71accbd691e75U, 0x3ce5830d3d97bedaU, 0x3b6f2074bd8f3a2aU, 0x3d5285e0bc7e9bf6U,
  0x3d81ba1dbdc9440fU, 0xbda756023d057807U, 0xbdea5fa4bdd3ffefU, 0x3d57bb35be073fe5U,
  0xbdb16b68bdbf3044U, 0x3dbeaa50bdeef561U, 0xbd0120693d4ed733U, 0x3dad65b0bc58010dU,
  0xbce8dce6baa68e7bU, 0x3def6930bdfe63f5U, 0x3c47e6563d838fbbU, 0x3e1d219d3c5d1a8eU,
  0x3cabaf6dbd9146cbU, 0x3db271473d92f564U, 0x3df059fdbe0a7517U, 0xbde98825bd155e9eU,
  0x3db1f7533e564f2bU, 0x3d3e491f3ddaa953U, 0x3d4d98bc3c273f0eU, 0xbe2cc5d3bd601f63U,
  0x3dbe56d3be01a04cU, 0x3e4eedf03e223934U, 0x3d746aee3d01428bU, 0x3df988cdbd8e3589U,
  0xbd1de0103db54956U, 0x3d57a1dabcc6c750U, 0x3bef5d47be214866U, 0xbd6a818ebd86a1b6U,
  0x3daa89873dfa6f36U, 0x3da1030c3e19cbd3U, 0x3dd8506c3d882470U, 0xbd2ac7f3bdeacdacU,
  0xbb79498ebd904a57U, 0x3e18f6eb3d99ca64U, 0xbe353f2d3dac0da5U, 0xbc81244abe02c147U,
  0xbd6996453db9632aU, 0x3e057acdbdabde16U, 0x3d82db4fbd30361eU, 0x3e1755053ca370bbU,
  0x3d84b7583d7e3755U, 0x3e0ad7b13dcd798dU, 0xbcac107f3e3673acU, 0x3dbebe80bde2f274U,
  0x3cb1d8793cb18bd3U, 0xbdbef067bd4b761aU, 0xbdb4b896bc158041U, 0xbd55fade3d91e500U,
  0xbd5009dd3d2a5725U, 0x3e0cd970bc05c97bU, 0x3db838fbbcd25d25U, 0xbda5be723d589153U,
  0x38fbeb7d3d115854U, 0x3dd204653e17e4ddU, 0xbcd2af8fbdcb0fb0U, 0xbdc50e9a3d9efa11U,
  0xbdac249c3b83ceaeU, 0xbc305976bd035835U, 0xbdc67278be88f655U, 0xbdebe78e3dd3fa04U,
  0x3d6707ef3dd54629U, 0x3b0744583d8b6108U, 0x3e0120e03d4c37bdU, 0xbd7689c1bd202641U,
  0xbd31af163e077bc6U, 0x3d2dd77d3c363ff6U, 0xbceb5bdbbd0b63b0U, 0x3d8312523ccec3e1U,
  0xbe026a16be271739U, 0xbd0d26a2be341f75U, 0x3cdce2573e241b64U, 0x3e0f08163d17c7e5U,
  0x3e303f53bda9cf29U, 0xbc9a37f03e1ecd67U, 0x3dbd5384bd799bfdU, 0x3e69d9eb3d03e8e6U,
  0x3b3e9a703c58688eU, 0xbd41612e3df9a70dU, 0x3a928967bdb1ec67U, 0xbd8aa821bd4bc6c8U,
  0x3d8032ff3cef4b46U, 0xbc9149e83d6b6b71U, 0xbd5f91823d8ac211U, 0xbd1f74d9bd1edfefU,
  0xbd675fdd3da8e41eU, 0xbddeb3ccbca118e2U, 0x3cd9b078bd43f110U, 0x3db4999fbd499312U,
  0xbd18cdda3d37f00bU, 0xbd4cc9343d7fd93fU, 0xbcdfe6aa3c741dc6U, 0x3d1b73efbd8eadc0U,
  0xbdd21fb3bdfc389aU, 0xbd105a1cbd22576cU, 0x3de44bd63d2a4bdaU, 0x3d7d7610bd7abe23U,
  0xbcd9e658bdabec7cU, 0x3d848a543cb7ea18U, 0x3d700f5b3d44db1dU, 0x3d00e10fbd9da27aU,
  0xbd31b5063d8b7ef5U, 0xbdafba203db6ebeaU, 0x3d110dc33d1ab3c0U, 0xbd935a2d3c531ef1U,
  0xbdac89843d23ae2dU, 0x3d95346536df4faeU, 0x3d224527bc76a9ddU, 0x3cfc92593d478dfdU,
  0xbcdfc6b73c9c416eU, 0xbdccb6b2bcb2e12bU, 0xbd1b9126bdb0b563U, 0xbdb3e0cf3dc6f915U,
  0xbd3cb08d3d794ef7U, 0xbd166818bbe5839cU, 0x3c8bda223d80a8e8U, 0x3da19af2bd9bf1caU,
  0x3cb810883d5d7780U, 0xbd13ceffbd90e101U, 0x3dbd1254bceb56abU, 0xbd4d7da13d1af5e0U,
  0xbda52a7a3d398847U, 0x3ce5343abc91e590U, 0xbcd716c33db2e6e6U, 0x3c083c14bd8591cbU,
  0xbd6b41a8bbb2c3c0U, 0x3d9a58483c5e3eaeU, 0x3dc8f5d0bd72b3e2U, 0x3d9a922bbd5ddeccU,
  0xbdb0550e3d40384dU, 0x3d25561dbd805718U, 0xbd5ebf57bc10b355U, 0xbdb128c03d163d5fU,
  0xbd48c4e03d6027c6U, 0x3c89ba1bbbf3c975U, 0xbdc92535bca24be2U, 0xbda84bc0bd7b2c2eU,
  0xbca72463bcb8168dU, 0x3d63629c3d88207bU, 0xbd4e428d3d166c75U, 0xbc98af1dbd1c328bU,
  0x3dfb0d513dacd7afU, 0xbd5ab75dbd067fb7U, 0x3c5d63943d153a4bU, 0xbd9c5f373c8422edU,
  0x3c4a1f583d271d85U, 0x3d0bbce0be0c72e4U, 0x3d3fd3f13d8e57a1U, 0x3dba718a3bf91d00U,
  0xbc1190d33ab10b3aU, 0x3c45689b3d88e141U, 0x3ceef6cfbdcc471eU, 0x3adc94683d7feccbU,
  0x3cf75ea93ddd7893U, 0xbddebdf13d7403b6U, 0x3d7fde12bc9e1799U, 0xbc1d3a30bd81a7d1U,
  0xbe208f00bdc713daU, 0xbc9f14d93d6b7488U, 0xbceb849e3b2e0217U, 0xbc3790a2be04dc6eU,
  0x3d1852a2bd769cb3U, 0x3db427573d9d378bU, 0x3d4add5ebc793ddbU, 0x3c691602bd5e27a1U,
  0x3d333e883c45d127U, 0x3b90a8373cab2d1cU, 0xbe117bf1bce78cc2U, 0xbd3376773b3c3f31U,
  0x3cc79592bd89aa6bU, 0x3d14ac143c941b8fU, 0x3da131e53e06a61cU, 0xbd53bcdb3c8072c2U,
  0x3dfcd3dc3c8141aaU, 0xbe02872dbc8687b3U, 0x3d4fdf553a4cb8cbU, 0xbd48b9593cc2a101U,
  0x3d86a38f3cecc584U, 0xbce20ca13dcdc71eU, 0x3d3754f2bd833653U, 0x3e244a24bd44c765U,
  0x3cb5a39dbded4233U, 0xbbb9bf9abcec16e6U, 0x3d3d62b3bce0c4d2U, 0xbd8dee06bd814f28U,
  0x3c757f203e1555f1U, 0x3d74bf063d8480f4U, 0xbd2df2a7bcae5f5cU, 0x3d456cf13cbfb859U,
  0x3dea416e3d7f7b6cU, 0xbd5223cc3d30e0f3U, 0xbdd2dd63be4bc306U, 0xbd54b6833dee3a36U,
  0x3d603982bd6eb8ceU, 0xbdba2c2ebd4c8977U, 0x3e406dd43e26f3b1U, 0x3daa07f53bbc9cffU,
  0x3d1d6d053e149330U, 0xbdf2b27a3d76a280U, 0x3e12643f3df4e3e8U, 0xbd0c15fabd120990U,
  0xbe0450dfbddbcf80U, 0xbca6515c3da3e63bU, 0xbd4669b0bdcfdbe1U, 0x3dc78320bdd61a00U,
  0x3cbcab433e3436c0U, 0x3da32585bd47b7f3U, 0x3deb6506bd84d25dU, 0xbd09e2033e57204cU,
  0xbcf392ec3c6a9accU, 0x3dd1a1a5bc97adf7U, 0xbdf52cf73d749ed4U, 0x3df64f48bd03f991U,
  0x3bbd47d5bd410c2aU, 0x3dc1613a3e00e8ddU, 0x3d5f63f03dd36918U, 0x3dbbcc7e3e072881U,
  0xbdbf68efbba23e8dU, 0x3dc064393d13353eU, 0x3c4fe54d3d57d612U, 0x3c968cefbc86adb5U,
  0x3e1889f23dec4948U, 0x3e3262dbbdbf28ecU, 0xbda4580ebe4e729fU, 0xbdffd6a5bd0c155aU,
  0xbd6f96e0bd820142U, 0x3b8ec975bd1de96aU, 0x3e408ebe3cf8f527U, 0x3d3fe8eebd853fa8U,
  0x3cde1d6f3d670be9U, 0x3d4986143e049e66U, 0x3c7cd6b83d47ddb7U, 0x3dd1d14f3da2456cU,
  0x3c61a2aebd19b096U, 0x3de2425a3d05055fU, 0xbca72b09bd85e7f8U, 0x3d604571be10c4ddU,
  0x3dbc959fbd88d43bU, 0x3c529c9fbdb22a57U, 0x3cf2bbcb3da2de85U, 0x3d2f0fc63c5e9fa1U,
  0xbde558a03840d116U, 0x3d6400e1bca4203dU, 0xbd9e8bf3bb6e475aU, 0x3c793487be21e573U,
  0xbd63a2963e080039U, 0xbdafdf1f3da295caU, 0x3b6df089bd3354e2U, 0xbda09c25bd33002fU,
  0x3e04b49ebd46eb97U, 0x3e0ce6a0be32cec8U, 0x3df33fd23dd3bac8U, 0x3d0b57653d9ec1e9U,
  0x3dd1078ebd150c0dU, 0x3d644d06bd8a66e6U, 0xbe105253be4af690U, 0xbd8a7a3d3e130ecfU,
  0xbb13f631bdf0983dU, 0x3e2c3197bcb8e73aU, 0x3d0fc8963d7838fbU, 0xbd9b0918be3a6a36U,
  0x3d3e72a93e045b4bU, 0x3e245e4a3d9fef8fU, 0xbd4bd60fbd277694U, 0xbd3a1e85bde12b61U,
  0x3cf97efb3bbc74cfU, 0x3dd25ddf3d5d4a39U, 0x3d18ca453df8583aU, 0x3dfa978fbbdb60f1U,
  0x3cb02e7ebd0ed065U, 0x3e28ebfd3bb3bb39U, 0x3e38c754bdb67633U, 0xbc3a4c173c59f500U,
  0x3dc4840bbcd95518U, 0xbd946dddbdd615f1U, 0xbd01c186bdba2fe2U, 0x3e12d77cbdcdf839U,
  0x3d0ba052bd4ee01aU, 0xba924236bd4b87a3U, 0xbccc396ebe0d2c01U, 0xbe01374bbd0856edU,
  0x3d6876b4bd85e8a3U, 0xbd79605e3ce6685cU, 0x3dc504dfbdc494f2U, 0xbcae482d3d738346U,
  0xbcd6da62bdd70511U, 0x3d9eea8d3d8fcbf1U, 0xbd29ffe6bd89a3f6U, 0x3e04ade5bdbbbccaU,
  0x3da347f53ca4f032U, 0xbd8b2d393ddfa548U, 0xbbfaf76cbe2c896eU, 0xbb35432b3d8b19c9U,
  0x3d9a50513e05a02cU, 0xbd277c9bbdb3db43U, 0x3d76c326be12b3a4U, 0xbe1d6e813ba3a8d1U,
  0x3dd2dedabd9583cbU, 0x3d183376bd8cede9U, 0xbd33ff4f3d476954U, 0xbb6d99e63d3004c2U,
  0xbe047aa03c656959U, 0xbdaf10903da30df7U, 0x3cfa0d263dd997f6U, 0xbdf744a53d63e9daU,
  0x3be32e1ebd4c6be4U, 0xbdc50799bdc90523U, 0x3b6d448fbbfa0468U, 0xbd5abc2e3de046fcU,
  0x3d9a0729bc4fe255U, 0xbce7a5293dacc1f8U, 0xbcb49612bdbb81beU, 0xbd3557dabddfdc0dU,
  0x3dc0ec313d93741dU, 0x3ce856ef3d62797dU, 0xbe06b7fabcfac1a3U, 0xbdef3d033d2a3f75U,
  0x3df2ee68be1e98eaU, 0x3d065654bd1ea38eU, 0xbcfb1108bc2f59b0U, 0x3b42573ebd5fde60U,
  0x3d29bb2139c2a26dU, 0x392ff326bdc55449U, 0x3deb133bbe10e209U, 0x3e0028ec3d844e71U,
  0xbd5b39dbbd0741ecU, 0x3d99051ebc8d3021U, 0xbd7d582dbbfe249eU, 0x3dd41c483d472495U,
  0x3de476a43d463ac2U, 0xbbd18667be2b5791U, 0x3b10c381be1dc4abU, 0xbccdf2803d976831U,
  0xbe075a7b3ca1497eU, 0x3d35a32d3de8b041U, 0x3da2cdf5be04961fU, 0x3de19d6a3c911fc2U,
  0x3c9834073dd600afU, 0x3de65b12bd6be073U, 0x3d7bc1ec3d358cedU, 0x3dcbfe873dcbc99cU,
  0xbcb785333d89c37cU, 0xbd0daed0be222bdeU, 0xbe1a0f1dbdb2534dU, 0xbd5049473d930edaU,
  0xbd9614ba3dcd21a7U, 0xbdd9dd5fbda762ebU, 0xbddf76edbdc4ad3cU, 0xbda83ab43df51865U,
  0x3dd3a0e3bded9e88U, 0x3da73bd1bdabd968U, 0xbc49fc8b3da2add1U, 0x3cdaeefdbd971883U,
  0xbd86bd93bdc1b458U, 0x3df7193abd93dd30U, 0xbd64cb83bde27a5eU, 0x3dcf3ef63e1d5511U,
  0xbde57ed0bd122375U, 0x3d4712303dac5c2aU, 0xbdb938bd3dfb4999U, 0x3e0c051cbd362eddU,
  0x3d2b4a833d980115U, 0x3d89f769bd402d63U, 0x3caefa09bd4e9fa8U, 0xbd97e2a43dfd7641U,
  0xbda9c8e33d99144eU, 0xbd6886e93bb05cbcU, 0xbda632fe3c1bdb2dU, 0xbcbdd23f3c5c6b39U,
  0x3e0ca7e6bdd9daf7U, 0x3c135fe93e09e40eU, 0x3d93b8e53cdcae40U, 0xbe095afebd5dfd12U,
  0x3d8f7bc43d874a21U, 0x3c6513efbe1b2dbfU, 0x3e4ccdbc3da02008U, 0xbdd9d6e43e157706U,
  0x3d2eb8b5bdeda7cfU, 0xbe0d8d47bce0c875U, 0xbdaf7c393b14a383U, 0x3dc25d563deab8f0U,
  0xbdcc4d0bbcaa143cU, 0x3b83f3f7bd565792U, 0xbdd6e613bd84f631U, 0xbdd6fd3a3d89f2ffU,
  0x3da373a63cac3dd0U, 0x3c893d493d6c1f8eU, 0x3d85119cbd405680U, 0xbd7c67adbdfa647eU,
  0xbdb0543b3e19f866U, 0xbe0204c8bdf79688U, 0xbd97bc37bd89acb8U, 0xbdb3724c3dcf868eU,
  0xbdc61e3cbd8b7241U, 0x3d54a4ec3c6bf1bdU, 0x3da91b19bdd94864U, 0xbc845c403d05c6f5U,
  0x3b673d45bc22d526U, 0x3d271fa8be3ddb4eU, 0x3dd8211cbe1a126cU, 0xbdbd69643cc3f323U,
  0x3e02ed78bcdaa0adU, 0xbd4629743c98171cU, 0x3d5230bfbc28a133U, 0xbdfe2b64bdd7125dU,
  0xbd90ca4e3dd98808U, 0x3e0d3766bcd456c7U, 0xbd6b6c233d09a554U, 0xbe0151d43d394f32U,
  0xbe1ab9d33d05a0b5U, 0xbd88d14bbbfe6fbdU, 0xbe1f5933bcd792a4U, 0x3e292e303c07a9b6U,
  0xbdc51212be05289dU, 0xbd9dd5fbbe0d0ea4U, 0xbdcdca523cd44754U, 0xbd34d6cf3dc227e6U,
  0xbdbb7fb93dc90c07U, 0xbdae5401bd77d145U, 0xbd40c4e13d660f0eU, 0x3cb74c5e3d2c84d0U,
  0x3e1e25503dc587dbU, 0xbcc640803e23f27aU, 0xbda0032fbd247eecU, 0x3d515190bddee64eU,
  0xbd153705bda234fbU, 0x3e2cbddabdd33809U, 0xbd8314da3dd0aa2cU, 0x3dea6c7d3e5b6e51U,
  0xbdf53859bce06050U, 0xbcf3998f3d1b75fcU, 0x3e154ff5be3d6892U, 0xbddf74fc3cc89ba1U,
  0x3d028aaabc932ba2U, 0xbe4872533c49f85bU, 0xbbae4ce93dcb7933U, 0xbd52e9873dbd7dbbU,
  0x3e0893f2be1365dcU, 0x3e11226ebb8d072cU, 0x3e27e99c3da42b1aU, 0xbd4442ae3d98664aU,
  0xbde007073cad4188U, 0x3d30c08bbde42d96U, 0x3dc34d153d2b8ae5U, 0x3a572ed93da1ee15U,
  0x3d976464bc92cae3U, 0xbc1edb153da9b929U, 0xbd400f3a3debe0feU, 0xbe1a46fabe14ff79U,
  0xbdf30e9e3e2902a0U, 0x3cec344abcd75a48U, 0x3d6f3d073e3f69f9U, 0x3d6db5323da72190U,
  0x3dda5e24be08c713U, 0xbd64840f3c03a8d4U, 0x3d3f0001bd766fa2U, 0x3bab065d3d10525fU,
  0xbded80eabe278fefU, 0x3dc5032cbd569a92U, 0x3dc7f216bcc700caU, 0x3d66fd213e2399a6U,
  0x3dc68fa4bd11f95fU, 0xbd7ea5a0bd6b470bU, 0xbdc2bb8bbe30f27dU, 0xbd69db5cbd43599eU,
  0x3d4c861fbda3592eU, 0x3d86fd4cbc0d9c84U, 0xbe227663bd010d95U, 0x3e066fc43bd605bdU,
  0xbd8d24943dbb9becU, 0xbda651763db09111U, 0xbdf84c98bdc7d0d3U, 0xbe18f8df3e0126e5U,
  0xbdc8526f3da551baU, 0xbdd18e02be1affd9U, 0x3d9a984ebda3b608U, 0x3dedd007be36fb79U,
  0x3d13523e3d87b9b8U, 0xbd15d7113dfedf03U, 0x3d1175d63e03c33aU, 0xbd40e22abc9a05f5U,
  0x3d12ef713d7b1fccU, 0xbdc507a8bcf18639U, 0x3c51d6b0bd9102ffU, 0xbdedd561bdc164efU,
  0x3d1dff5d3e1420d9U, 0x3dbf40663d0e4cc9U, 0xbd8a3883bd1b1c8aU, 0xbddebc63bce3cb3cU,
  0x3dbcc0693d939f23U, 0x3c3b0c28bdf31015U, 0xbd63d4783d3b139aU, 0x3df057c2bde73410U,
  0xbda190843c872e5eU, 0xbde35c293e13230eU, 0x3db6b875baa89f10U, 0x3d4e2c033d03e812U,
  0x3e07d499bdf4b6b9U, 0x3d3808703dfb798cU, 0x3dd7aec93e122b91U, 0xbd724a9abc95022dU,
  0x3de013dabdc52532U, 0x3da5ce5dbbd97a8cU, 0xbd5ec7dcbd5cdc8cU, 0x3cd4d0d3bcf30b8fU,
  0xbd4af671bddd7cd8U, 0x3d3703d2bd6a4a9fU, 0x3e06962f3c8b3a95U, 0x3de5ac9bbdda878dU,
  0x3ddfb55a3d9ad3a3U, 0x3d9b83d03e2b505bU, 0xbdd06ec0bdb3ae50U, 0xbdd12d413ca3253eU,
  0xbc0bf61d3c3be263U, 0xbc6f6cd4be1806f9U, 0xbda9b121bdfda361U, 0x3c1651593d0b64e5U,
  0xbdbea9753d881c4bU, 0x3d4b81a5bcd796bbU, 0xbdabda89bbe9e968U, 0xbdd04c7abd3397e5U,
  0xbddd1ce1bd9b93caU, 0x3db9bbfcbdc588deU, 0xbe100632bcae5e0fU, 0x3de7afb03d591b41U,
  0xbd87dff73db9f493U, 0xbdc0c709bd04711aU, 0x3dc24afbbc99644bU, 0x3d7955173aa62a80U,
  0x3dfda5f8bd73cf01U, 0xbca3586cbcdb2ab9U, 0x3cd258ed3bac14b0U, 0x3d7bc5f03e3f5331U,
  0x3dcf5d273c985d84U, 0x3daf77ae3dcd64a7U, 0x3d42342a3cb85861U, 0xbcffd395bd68c1cdU,
  0x3de9b6bfbbd00b3aU, 0xbd66c5903dc76410U, 0xbd86561ebd4638b7U, 0xbd6eed18bdb54137U,
  0xbd124e50bd8fcec4U, 0x3d88cd563dc6fc47U, 0x3d2ae6393da931f3U, 0x3e0eb3773e423bc5U,
  0x3cc28dd33cdf5004U, 0x3d50557dbe12a793U, 0xbd5dbc94bdf0554dU, 0xbcdeb665bd39541fU,
  0x3da90bd53d82c2dbU, 0x3dcb2d4c3ca1768dU, 0x3bfb6dc53d2d4c61U, 0xbe02ca8f3d7dba96U,
  0xbc5d15dbbdac7f97U, 0x3e18a736bc68ff38U, 0xbdec309abdf33e2eU, 0x3db9b53d3dbb5f22U,
  0x3ded8b373d64ebf5U, 0xbd42371fbdad9191U, 0x3e2620923d50a885U, 0xbc7fee373d7d5890U,
  0xbd2c5deebdc03a72U, 0xbdae7cfe3d8a0d74U, 0xbe0b97a23dd7a177U, 0xbd77b9e7bdd08de6U,
  0xbdc8ce053e090123U, 0x3e14f67abd2272eaU, 0xbe06e6b6bc391392U, 0xbdc16112bc710de6U,
  0xbd3cb1c7bd5b57fcU, 0xbd74acffbdd3084aU, 0x3df827483cbf561aU, 0xbd7d7d083da9f566U,
  0x3e171b6c3d9a243cU, 0xbb7764d2bdb29a7bU, 0x3dc422493d3f24b3U, 0xbddb6d17bdc1054dU,
  0xbdca69c73d24d7aaU, 0x3d9c87c0be0dfb66U, 0x3d7d0d52be01a4b3U, 0x3cf99a05bcaa4f27U,
  0x3d3ce859bd987569U, 0xbd842fbbbded0532U, 0x3d67e6febd32c2b6U, 0xbce5ad203dc45243U,
  0x3d6158dcbde3b205U, 0xbd35b1bcbd6a4393U, 0x3e07cd4bbd2173c5U, 0x3cd028c8bd849dafU,
  0x3d2d1b2bbd3fd7adU, 0x3c4f26dc3dbf9f22U, 0x3dd3eb10bd84e534U, 0x3d982f933dc9abbcU,
  0xbd48d7c73cadc942U, 0x3d3c72923dd41241U, 0xbe2185e5be0bbd4eU, 0x3da205813d9b4aa1U,
  0x3d1d88643d9eed99U, 0x3c57f228bdc14680U, 0xbde952c2be0040c0U, 0x3d0210683e261d5aU,
  0xbccd784dbe0f26e6U, 0xbe02fdaf3c933bdbU, 0xbc0e362dbca9b3d9U, 0x3dcb0a893c4d942dU,
  0xbd177ecbbd103ed6U, 0xbd6b3a2f3d33217fU, 0xbe2bccd2bc364c09U, 0x3a5e3763bcef41b7U,
  0xbd96f1b03d67a3d1U, 0x3d68e9cdbe03e961U, 0x3e6871c03db21d35U, 0xbd9a2d28bd732a6aU,
  0xbdbd471dbe19a8f8U, 0xbe300d73bd4df1a6U, 0xbc5c1918bd655f1cU, 0x3c4d807bbd7f3f03U,
  0xbdf914523cd7e3c6U, 0xbdc93479bdda40d1U, 0xbcd4a6f53dccb6caU, 0xbd78a7623dc04401U,
  0xbd4ebb78be03e045U, 0xbc4b2ba7bd05da80U, 0x3cc7180ebdb7e39aU, 0x3cea9c703d8357b7U,
  0x3cb8ff4d3e0d3b85U, 0xbb30bc35be297680U, 0xbdbc16333c71acdaU, 0xbe08278e3e22def7U,
  0x3d2938d73d48ad53U, 0x3d752f683d1c6f35U, 0xbd256d2bbce94761U, 0x3d8fca7a3c851e51U,
  0x3deac6ae3cc2de70U, 0x3e1dbeefbd47da66U, 0x3d5270c3be32a442U, 0x3d84965b3d79afecU,
  0x3d046a9f3db2fe5cU, 0x3da546b6bd964e2fU, 0xbe637d7b3e241dc7U, 0xbd8d3eb93d7ace8fU,
  0x3d3633cabd8c211fU, 0xbd2a6a253dc01eb9U, 0x3e3b15823e118b94U, 0x3e39dc43bd97922eU,
  0x3bca1833bdf06536U, 0x3ba562c9bdc46de6U, 0x3c9f1c503d60e9eaU, 0xbc28fcb83d97c9c5U,
  0x3d9cacfabdea52e3U, 0xbd4e4788bdb61b2bU, 0xbdeccf9cbba191c8U, 0x3dc67a5cbd6c36cbU,
  0x3df57461bddfeacbU, 0xbddb2c5f3ddd762bU, 0xbcd46880bc31dc81U, 0x3d4669cabcf7c1c8U,
  0x3dbdfc403ca5a059U, 0x3ccb04783e02d79bU, 0x3dc4464e3dcd019aU, 0x3d1a24883e0d9f25U,
  0x3d70a4083d1f3f7aU, 0x3cb0d8943dd5ac95U, 0xbdd7e2ffbe15f0f6U, 0x3db94249bc04e1a4U,
  0xbe13a1003de3a783U, 0x3d7631a43cd77b7dU, 0x3d01c541bd002442U, 0xbd8893fc3e15252fU,
  0x3d0d3483be249470U, 0xbcf4f0203df283edU, 0x3abe6388bd5d078dU, 0x3da0df7bbcb6f358U,
  0x3d5b2466be3cbf77U, 0x3d6918a33db255eaU, 0xbd34255b3d153857U, 0x3d701da3bc00cffbU,
  0xbe1b7c19bdd187c9U, 0xbd2f8cf8be0663f3U, 0xbdeba0483de48b1bU, 0xbd8b279a3cab1b16U,
  0x3e2c0ea1bd8969b4U, 0xbe0081fcbc27186dU, 0x3b91e8a0bc875b16U, 0x3cc4aa0c3e08b0bcU,
  0x3dbc0a7cbb246453U, 0xbc320c0abe195a61U, 0x3d987fa7bd839cddU, 0x3c8ceb1cbd55c6b1U,
  0x3d19889abd14f171U, 0x3df5488c3d7e12b5U, 0x3daa74ebbdbf4762U, 0xbdeabc93bddace04U,
  0xbcb2eb7dbd0d76e2U, 0x3cf49813bdf60c72U, 0xbcf0e632be16b69cU, 0xbdee7f99bdc21828U,
  0xbe2b29453d54c6f5U, 0x3d9cbdf6bde060e3U, 0xbda9f46b3ce31e4eU, 0x3d288e583d69ba87U,
  0xbd84f1023db2026dU, 0xbd4eb1bf3bc3e9a4U, 0xbc973c21bd5e76d0U, 0xbd8f2a7a3d88041aU,
  0x3d230748bdb40086U, 0x3d262c26bda6e8f4U, 0xbddfe8a23da823a9U, 0x3d896d3c3e5b85b6U,
  0x3c168e3bbddfcb88U, 0x3de65d73be26ece7U, 0x3ddd1db53dedaeffU, 0x3d8199c53db60a89U,
  0xbd8f6a593debcb9dU, 0x3da692d3bb73bcc2U, 0xbcaa0450be1a3dcdU, 0x3e1a9f473b9fff67U,
  0xbd84426d3d003004U, 0x3d8458afbdffcf01U, 0xbd550dfebcefedd6U, 0x3a9edbac3da5c4fbU,
  0x3e03685fbdc0b172U, 0xbd27015bbdf8cd9dU, 0x3decd6b7be26dda2U, 0x3c983dfe3d028348U,
  0xbe30087a3dbb9678U, 0xbdf9ddbe3cf35eebU, 0x3e0c5acbbdd09930U, 0x3e0c795f3ccf838fU,
  0x3d21bcd03dca370dU, 0x3d96d449be2d318bU, 0xbdb308203d0e494fU, 0x3d9c4c4abdd651f6U,
  0xbe42b99abda444f5U, 0x3e17804dbcee1accU, 0x3dad7af9be029a51U, 0x3dc935da3d86c42dU,
  0x3e065c72bd050e67U, 0x3dc5195d3d7ad4a6U, 0x3da1b7a23c82e1eeU, 0xbd5192313ce102faU,
  0x3d11c199bbec9b08U, 0x3dc4b3cd3da4e92bU, 0xbdb1d8073d352ee3U, 0xbc8175d9ba8a639fU,
  0x3da72f32bd851c0bU, 0xbd98fd503dd5f25dU, 0xbd792a99bdf9440eU, 0xbe08da85bdbd60e8U,
  0x3cb1cc923e12852bU, 0xbd877deb3d34a9beU, 0x3cdbb56a3c860de5U, 0x3e6643f7bdc37e30U,
  0xbd8ed7b3bd4ac98aU, 0xbd787c3a3dc6cf64U, 0x3dee25f93e4be766U, 0xbcccf615bd9ab68dU,
  0xbddf70493c41d750U, 0xbbe8a6193de4e7dbU, 0xbcfea610bbf6d3f1U, 0x3ddef558bc9fccf1U,
  0xbd0be6773deb158fU, 0xbc50b9103d6776e9U, 0x3d4647d53de74396U, 0xbcf6c455be404c60U,
  0xbdae38b83dc288e7U, 0xbda8e096be12af6dU, 0xbdfac5d33e16c1a3U, 0x3d74272f3c67d5f6U,
  0xbda36d30be250a72U, 0x3ddded5ebd59f890U, 0xbd03a2233e2e67bcU, 0x3dbf897ebde2b8b4U,
  0xbda50bb93d6d7bcaU, 0xbd3916b13d67d2b7U, 0x3dd6bc3b3c5e0477U, 0xbdff1f673d55568bU,
  0x3dcd99fe3dd5c01eU, 0xbd7767023d006192U, 0x3d3327dd3dc32c43U, 0x3bbd033d3d84d945U,
  0x3dd84998bd8c239aU, 0x3df69fa5bc8a1621U, 0x3d5890ab3d67083aU, 0xbd2af4443e22678dU,
  0xbb34cdab3e299833U, 0x3d4c5a563dfca9d2U, 0xbd2f07823de61961U, 0x3d853da23e494e59U,
  0x3e1256f13db96c54U, 0xbe26de73bcbed509U, 0xbc68d6ac3d4004baU, 0x3dbf5eb3bc7c287dU,
  0x3dcb1fdebc4c861fU, 0x3de444febdd5ae65U, 0xbe10c83fbcf976b2U, 0xbcbed6f9be0bdf0eU,
  0xbde746bf3de65077U, 0xbe290e54bd920463U, 0xbe2bae483de3537fU, 0x3db8b7a13d458060U,
  0xbd3fa744bdfca1ecU, 0x3dd1d0163dae02a3U, 0xbd18cad8bcee1e9dU, 0x3d47e0e9bdfc405aU,
  0x3d6821aa3e0e9882U, 0xbdaa2cdd3b550907U, 0x3d296fd1bd019e9eU, 0xbde350cb3cda8f0eU,
  0x3e167dc4bd8f7fe1U, 0x3d9b9c6a3ccb1d50U, 0xbe0b4b7dbd9bb696U, 0xbdd87e4ebb2d7af6U,
  0xbdb0ddccbd0838b5U, 0xbdd46ba1bd3b3df0U, 0x3dafd6f2bdb96354U, 0x3d3a9c9d3dbd5b2cU,
  0x3e12ce043dd0c375U, 0xbc9e3b3abd2210bfU, 0x3dde657b3e09a52eU, 0x3d97bc883d7a12f1U,
  0x3d9d39b2bd046b5cU, 0xbe23b9223e1f683cU, 0xbe1bbc3fbd7f29d4U, 0x3d21c58c3d426422U,
  0x3e0f65e13c98f187U, 0x3ca39bc03d73eb04U, 0x3cb9a7da3dd7178aU, 0xbcc3b03f3de2d1a4U,
  0xbdb1e9babda0fcfeU, 0xbc4c82833d31cfc3U, 0xbe26c4653d92096bU, 0xbc2404debc018b52U,
  0x3de1b4ca3dcf0eceU, 0xbdceb149bd83b6b2U, 0x3d570e893dea2dd4U, 0x3e056cb13dd2ac45U,
  0xbde679d83cf2c055U, 0xbde5ed81bcfb84d9U, 0xbc529729bd98c333U, 0x3c8dd7933e08b59fU,
  0xbcc473d3bd88f68cU, 0xbcae50883a7a3a62U, 0x3d400c753d1bdaa0U, 0x3df9fa8abdc3b1a7U,
  0x3dc3cd073cd87a47U, 0xbd85519bbd88f6d9U, 0x3db66eec3d3bc23fU, 0xbdb143ef3e23f51bU,
  0xbdd16d18be065dacU, 0x3d9d6a693d11bb96U, 0xbdba6b5d3df7898bU, 0x3dd655233d9796efU,
  0x3d97f8dd3d84b11bU, 0x3d51d84f3d7f878fU, 0x3c6c5e59bda26f2bU, 0xbd556eb33d516511U,
  0x3d164c58bd25dca5U, 0x3cb8f4b7bcf89a8eU, 0x3d15f9583d39cb6bU, 0x3caa35033d2fd47bU,
  0x3d9158b2bd01cca2U, 0xbdd8c0f9be0a2b42U, 0xbdc31e7a3d9967e8U, 0x3b764bf6bd60a9fdU,
  0xbde7c8153d42d188U, 0xbcce1c43bc7795fbU, 0x3de93751bd0d56cbU, 0x3df43e56bd7ceb96U,
  0x3e2a2699bdb6539cU, 0x3d8a54c4bdca6c0dU, 0x3d9130b6bd820629U, 0x3d93d2953d8e42eeU,
  0xbd0f36cabdd877c9U, 0xbd08c3c5bdc781cbU, 0xbe00ecd73dbecbfdU, 0xbccd596a3de3fa83U,
  0x3dae8d33bdc5f8a5U, 0xbd69f44dbdc9e347U, 0x3e2417f33d88da4dU, 0xbd78bfc43d700908U,
  0xbd3af50d3d12c3b4U, 0xbe0d79bf3da970f3U, 0xbe0e8fef3cf718b3U, 0x3d94fd79bce50489U,
  0xbdfd2c6e3a585a37U, 0xbd90e278bd5cb3baU, 0xbd8bb3fd3d307f94U, 0xbc258f84bd821ed1U,
  0xbd9bb290bdb9374fU, 0x3de417903d93b3dbU, 0x3d415348bd91c373U, 0x3d8c505bbc75e20eU,
  0xbdd0a2583d97d33fU, 0x3d2593a03c012c5eU, 0xbb5093483c72ba1aU, 0xbd8eb867bd267da2U,
  0xbc30837ebde36921U, 0xbcce82e63ca7278dU, 0xbcf6f1b2bd1b025fU, 0xbcb8094bbda21216U,
  0xbd72fe5ebd9376dbU, 0x3cb6cc44bc8723f2U, 0xbd5b9e42bdffd903U, 0x3d2ce0dbbd91ab69U,
  0x3de20e43be12a758U, 0xbdd3e47d3d6a8a75U, 0xbddbb47d3dab53aaU, 0xbb0c56b0be0a122cU,
  0xbd647e78bcd0b709U, 0xbdd01730bdc5b261U, 0x3e1836bcbe2dae70U, 0xbd57387fbc4c9081U,
  0xbdd39a23bd213594U, 0xbe5520dfbd3ff7beU, 0xbe27fbcfbdc99f3eU, 0xbe09d36a3db96fd9U,
  0xbd6751e3bd44a45bU, 0x3c04ae423e03ed01U, 0x3d1bee89bd4ad893U, 0xbccb217ebdbd732aU,
  0xbc5020cfbda45e14U, 0x3d16fe0dbd533350U, 0x3c4dfc35bd9cc7f4U, 0x3cf50de3bdd90b17U,
  0x3d130f6ebcbae756U, 0x3caa56e6be172860U, 0xbe50b2e33ca6551cU, 0x3cafe06f3ddb5399U,
  0x3dfcc027be1e43f8U, 0x3e348701bd2addf9U, 0x3e025adcbda7debaU, 0x3dc8924d3d23e7cbU,
  0xbd2ffaaf3db49b12U, 0xbe0cff4ebe01e782U, 0x3e4350e3bc14b8fbU, 0xbdfaf4183c433f0cU,
  0x3d4c38a33d49c8d3U, 0xbd6f7f59bd87c0eaU, 0xbe1d3b81bd12dad6U, 0xbd317d3b3d161dd0U,
  0xbdbd642ebd95dc08U, 0xbd41aeb8bac2128cU, 0x3dd7e376bb716ebeU, 0x3df2198bbdc7a237U,
  0xbd8032e03cad873fU, 0x3df7795d3caab304U, 0x3d056aa83e020d10U, 0xbd52f727bc6236f0U,
  0x3d9306d1bda1e9e2U, 0x3dd0258e3daf1a0aU, 0x3dd2a10b3dc0e102U, 0x3d8b51cb3dc1a28bU,
  0x3c60169abc36c005U, 0x3e0c8cd73d2e5673U, 0xbe00b40ebd089beeU, 0xbe0b490a3dc1ef55U,
  0xbd0f2df53d9f4778U, 0xbe4d8f643adeb909U, 0x3d78b35d3d4ea598U, 0xbd96282bbd8150dbU,
  0xbdda8c44bd9a6728U, 0xbdee956cbe008f09U, 0xbd05e39abdd20aa4U, 0xbe54aeb93dec1c3bU,
  0x3dc365eb3d4ca0daU, 0xbde18eb13cdb5bd9U, 0xbdff24973ca51b62U, 0x3deeda09bdbe1daeU,
  0xbd1b1946be1ec9ebU, 0x3d884d7bbdbe7780U, 0xbe0ee62cbd91b5b3U, 0xbde154f03e1bca6eU,
  0xbac3a7d63da3dd1cU, 0xbbac48b4bd101cedU, 0xbbdf07233e45268bU, 0x3bb3e2d0bd7ec9e7U,
  0x3b40e091be40d4faU, 0x3d69be67bc073117U, 0x3e1aa8513db3f0c4U, 0xbe24810cbda64ff0U,
  0xbdc358d3bdeb2c1dU, 0xbc94cc5bbe177f21U, 0xbe0d28e2bdb1dc2aU, 0xbcf1ac2aba0c47a5U,
  0xbcfded3a3cc9be6aU, 0x3d51c0dabd9b42d8U, 0x3d8b1f853e582c04U, 0xbd76e71fbd8dd1fbU,
  0x3db89b74bd2da34eU, 0x3d08b6f6bd9bfdbeU, 0x3e1a8dcebcb5b3c7U, 0xbe25f7323ce29f74U,
  0x3b61ea8cbde12eddU, 0x3d1c3094bcb2196fU, 0x3d46230dbe0d3f64U, 0xbe43f5aa3e12921aU,
  0xbd28da2b3e338c55U, 0x3da9d42abab7e14fU, 0x3d9ff4483df16ce2U, 0xbe129670bd7db82dU,
  0xbe2a60733df7113dU, 0xbdd05d30be448985U, 0xbce4c39c3d1e799aU, 0x3d57591a3dff1481U,
  0x3e2f1450bc2ab080U, 0x3e08da42be55ed0aU, 0xbcf5bc483d807888U, 0xbe16b39cbdd9fd4cU,
  0xbd3fff03be183231U, 0xbc72edc83cdf9563U, 0xbcacdeb23d937571U, 0x3e323a91bdac05a0U,
  0xbd1e8dbabd073cccU, 0xbd9402ff3da40295U, 0xbc857c41bb49ea73U, 0xbe5ca485bdc59682U,
  0x3e3adf393e249e75U, 0x3db2b8573d7ae787U, 0xbdb768a63e045c36U, 0xbd747a1b3d97e90dU,
  0x3dcadabc3d1e804cU, 0x3e4f5b6bbc631741U, 0x3dc0e318bdd82a34U, 0xbd109f143c1949cfU,
  0x3c6812533e15c722U, 0x3d5f5c773dbd22e3U, 0xbdf8cc053d0b7339U, 0x3c91604fbcc978bfU,
  0xbdcebadfbd01114fU, 0xbd38efaf3dd986a9U, 0xbe09a6bb3b15e1beU, 0x3e10d659bd3b60b4U,
  0xbc546979be0a6f59U, 0x3e1075e83da1a593U, 0xbe2552cfbd4a3e85U, 0x3d970294bba89730U,
  0x3ba891e03d4b7496U, 0x3d789b3cbcea896dU, 0x3d4648b53d447a93U, 0x3d6f50363dae2d8bU,
  0xbdb20c4fbdb0734bU, 0xbd904a703b4da468U, 0x3d7ddc053cc01fd8U, 0xbd9b702f3b922c82U,
  0x3cabe4f6bd7f3826U, 0x3c96d7c7bdc39ff3U, 0x3e0948533e1f7076U, 0xbd628febbb942936U,
  0x3d563f8f3db7af7bU, 0x3e03f22a3d592b24U, 0x3e27f1c73c2c6b5cU, 0x3d8c3f79bd22ee10U,
  0x3b77ed22bd9b4b1dU, 0x3c21967c3d4c1e2eU, 0xbde7212d3df20b32U, 0x3c97712d3dba3a32U,
  0xbdd32f94bd91a240U, 0xbe021028be008dc9U, 0xbd704e0a3c18eda9U, 0x3b7461ca3bd27596U,
  0x3c62ffa43dbf1c90U, 0x3bcf195bbda6dc3bU, 0xbd871dec3b2659c8U, 0xbdd8e8eeb9f17da8U,
  0xbd38bf8cbb728908U, 0xbce670a7bd540aefU, 0x3cd1b3ffbcd968edU, 0xbd9aa08dbe0d6db1U,
  0x3d503d08bcdd66b0U, 0x3d9446153c90ab99U, 0x3da801f9bdb9b7f6U, 0xbc88c904bd802ff6U,
  0x3de56d5f3a8bff90U, 0xbe070f71bd16b64cU, 0x3c265d98bdba652bU, 0xbdd55195bdf76f73U,
  0x3aaf613bbdbfaf90U, 0x3da9d0ffbd5438b5U, 0x3cbb1bcf3d757507U, 0xbd89803f3dad671fU,
  0x3d17d31abcbbd942U, 0xbdce9d24bdb6535cU, 0x3c7ea7fb3c2f1620U, 0xbc0ac1f7bdb7404eU,
  0x3d6bd186bd94218dU, 0xbdc0b0783d9ca47eU, 0xbb930eccbe039274U, 0xbdc55bc2bdb15196U,
  0xbd355d123dabd195U, 0x3d64cca53d89d027U, 0x3d719a91bd10ecd7U, 0xbde94180bd4c6889U,
  0x3df0d2dcbca4dad0U, 0xbdc058073d32eda9U, 0x3caa01ddbde9646cU, 0xbdbb331abdf38e83U,
  0xbd6041c1bd8fdc6fU, 0x3d335e98bc2ce1d4U, 0xbdedd632bd77de31U, 0x3e153c9cbd50e227U,
  0x3bc0b6543dfe339eU, 0x3de1a8cdbd0a1f8cU, 0x3dbd0516bcdb64b8U, 0xbdd488e43dab6179U,
  0x3a56ccd33d3923bcU, 0xbe16b0983dbc62aaU, 0x3d85215ebb9e9350U, 0xbdcd011dbd880115U,
  0x3dbb1e243d916978U, 0x3d19e635bda0b431U, 0x3cb2cb4ebc7a71e9U, 0xbd9d3cabbe015840U,
  0x3d26a4ab3c39760cU, 0x3d90faa53d512783U, 0x3d293ce63d62877fU, 0x3c7028b1bb70732dU,
  0x3d96c053bd5532e8U, 0xbd875567be02ee76U, 0xbe0fd561bdc59455U, 0xbd428abf3bdfb4afU,
  0x3ceded9ebd70b1afU, 0x3c32b3633ce9909fU, 0x3da8e62bbd7afb01U, 0x3d05e59a3db10b9eU,
  0x3e361618bcd16883U, 0x3dc2b48e3d02411aU, 0xbe318755bd998b36U, 0xbd9a1e293d50aac6U,
  0x3d89576fbe06c01cU, 0xbce9c79cbe0f600dU, 0xbd1386eabdcde18dU, 0x3d9d9f31bdd8d45aU,
  0x3da2739f3da087f2U, 0x3e10e7e2bd8754dfU, 0x3da243df3d2fb6e4U, 0x3dcce98b3d19dbbdU,
  0x3d8437e2bc564fbeU, 0xbe31c2ffbdfd8662U, 0x3b5e66173e0154abU, 0xbda728a33d1d5e14U,
  0x3da66468bc819e37U, 0xbdb6e3ed3ba841fdU, 0x3d453f873aca4093U, 0x3d1b02acbe039090U,
  0xbd7eebdebb96515aU, 0xbd970c61bbfa87d0U, 0xbd37c031bc9cdac9U, 0x3da27a5ebd985109U,
  0x3d366a133dd1dc06U, 0x3d6d7670bdcb9617U, 0xbd4432d0bdbf5e46U, 0xbde34f1dbd2e98bbU,
  0xbddd9dba3d9de173U, 0xbd54406bba9335aeU, 0x3dd1b40a3d96187bU, 0x3cbea53ebdbf534eU,
  0xbbefcce23bf6e340U, 0xbd92ae333d745b12U, 0x3d26197a3c7fd196U, 0x3e0798273d91e719U,
  0xbda85f073be32be2U, 0xbd95358c3ce557adU, 0x3d290d0dbc7c3293U, 0x3d0391a9bd3ab69dU,
  0xbda837d73d7f1012U, 0xbdb66ad83cfde2c9U, 0x3d429cc93c7227e6U, 0x3e3393f4bbff9d8cU,
  0xbe07d6eebdf196d3U, 0xbddc4e383cb6ed0aU, 0xbda69e7d3daaa472U, 0xbb899d533de8c42aU,
  0x3dce1a7b3c4cd0aaU, 0xbd0436473dd94c6bU, 0x3db52a4f3d0e80aeU, 0x3d36ee02b9b2e087U,
  0x3de98ef1bd7e43aeU, 0x3d8c71d2bd121446U, 0xbdf887aa3ddca3ebU, 0x3c076b27bc712d3bU,
  0xbcd2bcbf3ca1035fU, 0xbc0ec74bbd9c25bcU, 0xbc98fe613d9e3b87U, 0xbd34a1bb3e08a1d6U,
  0x3d73aa38bdcc5154U, 0x3be4c484bdcdee4fU, 0x3d3498b53bd0daaaU, 0xbe0efb18bd6a882dU,
  0xbc4b6c583dd23c95U, 0xbc851fd13ddd46bfU, 0xbdbb64c3bdafc7cdU, 0x3e06d7d83d9002b0U,
  0x3dab226e3d7f3bfcU, 0x3d8b73e2bd0b9d2dU, 0x3b0d85593d77cb06U, 0x3d3f32ae3d9dcadbU,
  0xbdcdb42c3e08b753U, 0x3c901f8b3dbbba99U, 0x3d8ccb9c3c198445U, 0x3e31369f3d641664U,
  0xbd8a99923d91122eU, 0xbcf7f3a93cf0eedaU, 0x3d417a363e20acf7U, 0xbdbe83a43e6886e0U,
  0x3d7de7c53d26bf20U, 0xbda4815cbce952d9U, 0xbd1f5bc5bcaf9849U, 0xbd6890523ca17676U,
  0xbe1358abbd29e9bbU, 0x3cd3fe83bd690b82U, 0x3d5b9010bdaa6823U, 0x3dd7444ebe043f30U,
  0x3b1a7f913d70dca2U, 0x3ccb6e9a3d852a85U, 0x3ca3d0903d5e781aU, 0x3cda14423d1e9392U,
  0xbd22ef8fbb98702dU, 0xbd66dbf63cf39967U, 0x3d8736843b368111U, 0xbd734150bdbea144U,
  0x3c95e1c9bd1e371aU, 0xbd9784103c98b480U, 0x3cdf21333d9ed90fU, 0xbda844413e4b4c53U,
  0xbd0f924e3d08b86cU, 0xbcffb57b3bb8eaabU, 0xbde3e72f3ddbe511U, 0xbd1a85e2bddf06c2U,
  0xbbc02891bc579d40U, 0xbdb29c153d3df004U, 0x3dadf7fabdad532bU, 0x3ab4e1a7bdd29b9dU,
  0x3c3094043dc4f276U, 0xbdb9710bbd4396f8U, 0xbc7b4c0d3c748b41U, 0x3cec6ec0bc260ebcU,
  0x3cc6a4163d9c92c9U, 0xbd62fb0bbb388860U, 0xbda2efe53d08076fU, 0x3c71b6a9bdced288U,
  0x3e857425be031d51U, 0x3dde26623dd3ae50U, 0xbcf3fe48bd3b10a6U, 0xbe029c44bb59714aU,
  0xbde5d89ebd7e249cU, 0xbdc683473e466dcdU, 0xbd676211bdbd25c1U, 0x3d7b3b2dbe2e95bdU,
  0xbca40d0dbd423590U, 0x3dd58fdfbca95d7bU, 0x3db44ff6bd767d82U, 0x3d9227df3db3328fU,
  0x3ce8b77dbd0fca3cU, 0x3da2f69e3ded1889U, 0x3d527921bdf495bbU, 0x3db9c49bbdf53d99U,
  0xbdff1a6dbd85e3e7U, 0x3e3326f93db07b3aU, 0xbde8960d3c9993c5U, 0x3e20a9f43d9d20e9U,
  0x3d8dea2ebe285d4aU, 0x3e291b33bdcb0a0aU, 0xbcf4f7953c6575f6U, 0xbd943ebfbe0c0d24U,
  0xbd979d023d84bceeU, 0xbdf84dffbcefcdc1U, 0x3c390ae63d849e7bU, 0x3ddde22a3d698397U,
  0x3d9a22f9bd96106aU, 0x3d8cbdb13e0f244dU, 0x3b7d1d0dbcc4ed21U, 0x3d1d168aba77ca23U,
  0x3e2a78db3e0a68baU, 0x3cce27ef3dfcc275U, 0xbe068ff73b805d0aU, 0x3cb82901bbf92593U,
  0x3ddd7525bda56c00U, 0xbd89bc21bbadddcdU, 0x3da4975cbc48b167U, 0x3e07bda4be3e71fdU,
  0xbe1156683db5696aU, 0xbb91873d3ddf4007U, 0xbdaf3aeabdc2f31eU, 0xbdb922523dad9aabU,
  0xbd5f855d3d3b97a7U, 0x3e037b1f3e1cb817U, 0x3ce6f017bddfbfa1U, 0x3e14c9763bad5c65U,
  0x3c87628bbe0dbcc9U, 0xbddac51d3deebb64U, 0xbdc25d7b3dd19b00U, 0x3e4115fa3dd7d0cfU,
  0x3e2ad6183d1c230dU, 0xbc9fc19cbdeb4a1cU, 0x3d0454e2bbcb6259U, 0xbdbb5b0dbdcddc78U,
  0x3d931b82bdc0924bU, 0x3e2b3be53db014c1U, 0x3dc7843c3c93be3aU, 0x3c6fb483be1bf2eeU,
  0xbda02b86bdb71953U, 0x3ca8d1b13db158deU, 0x3bd6a79d3db1be2cU, 0x3c269d46be15bc0dU,
  0x3e38e8d13adb72b4U, 0x3cfe6e34bc319b14U, 0x3d98e3cd3d4807a3U, 0xbd6761cb3adbfd83U,
  0xbe08bfb9bd06dcc7U, 0xbd9b6ffdbcf77734U, 0xbc89af863c94b760U, 0x3dc7ef2ebe4a399aU,
  0xbc510df6bc827eceU, 0xbd9f4463bca70170U, 0xbd9fbf3d3db247e5U, 0x3d52e6ee3e02acbeU,
  0xbe0d10483e3b605aU, 0xbd17edd63da4258cU, 0x3daf4bab3d90ceaaU, 0x3cc0fe8b3e098a9dU,
  0x3d18a1d4bcf15bd4U, 0xbdbcf201bbec6ee9U, 0x3d2dd0adbe05b6bfU, 0xbd9fb75a3dd4a3beU,
  0x3d323b79bdcb79cdU, 0x3d84aa1dbe0cd5b0U, 0xbb0a4e1d3e05a6caU, 0xbdfbdc233e0b5d3eU,
  0x3db9784c3cc0017eU, 0xbceea6aebd14f515U, 0x3de7f31bbd8db409U, 0xbdae065ebe254900U,
  0x3e050002baecbeccU, 0x3d766636bd885496U, 0x3d8cc4593ccccb62U, 0x3b9ea3543da4d92aU,
  0x3e34b09abd41c7caU, 0xbddf8c5a3c5b78beU, 0xbd8cb71fbd26bbb9U, 0x3c42692abd85d9e8U,
  0xbde2a03d3e25bb81U, 0x3dd06873bd0b66f8U, 0xbdfc4bfbbe093b7dU, 0xbdbd00c23e0d23efU,
  0x3db8b229bce8e98dU, 0x3d889a843e1f2573U, 0x3af61e56bd17fb8cU, 0xbd5e5889bcd5ae11U,
  0xbe0d3734bdcbba83U, 0x3e20f8643db24a34U, 0xbc27ee0d3e05c5f7U, 0x3d8ad969bb33f90aU,
  0xbce5dcf7bc61c629U, 0x3c6326ddbda1f6dfU, 0x3e52a762bd8b0314U, 0x3e3310163d5aadc9U,
  0x3d38d325bc8aa5d5U, 0xbcf009a6bdbaf427U, 0x3dd03b1a3e66ede9U, 0xbdb253acbc2bea2cU,
  0x3e09924fbd6eb2a2U, 0xbdbe5b20bdcbe7feU, 0x3dc3f1463dd1eb39U, 0x3dea6703bba50e7dU,
  0x3dc0c51c3caa2feeU, 0xbd037c4ebcc27ca5U, 0x3df03781bd847c4dU, 0xbd61c61e3bcc319bU,
  0x3d603b6e3dc0b7b7U, 0xbc58bb2a3c90ba7fU, 0xbdc788073d4f320fU, 0x3c5a375c3d81761eU,
  0xbd7ce8be3db583e1U, 0x3ca4ce7cbcb5df9eU, 0x3c8247413c1aeaadU, 0x3e1e2075bd65130cU,
  0x3dbd4019bdc9f5b9U, 0xbdab42f1bd1f8210U, 0xbdcfaf56bdd72ffbU, 0xbc1ac712bd787765U,
  0x3c3ce0bdbe088ec5U, 0x3daf19253cf26b63U, 0xbe13deacbb076bebU, 0xbd25287f3da55650U,
  0x3de6ce633d22382dU, 0xbd00b6f9bcc297d7U, 0x3d9052263d5195b3U, 0x3d0e523bbcd342feU,
  0x3d63f1ea3e0ae4efU, 0xbdc3b1803dfcd3d0U, 0x3d910e2a3e5af175U, 0xba8aaf583d9c6607U,
  0x3e0187eebb3bf90bU, 0x3d0c0a9b3d7beee5U, 0x3e27197a3d80b3f2U, 0x3b5567d43d987f5cU,
  0x3d5b0e6bbd57804dU, 0x3c61ccd03caa5591U, 0x3db546ef3e23427fU, 0xbe08bc2abd336f34U,
  0x3d5ff9013db5d67fU, 0x3ba405973d960984U, 0x3da5ca65be1d4c05U, 0x3dbe0f6a3c6c4232U,
  0xbe00bd573dcb553dU, 0xbd792a8ebbe00ec0U, 0x3c9ba008bbf40109U, 0xbda67f2d3e127919U,
  0x3df1e82fbd3c4f10U, 0xbd8b9dc4bdf4aa0dU, 0xbe23185e3c8c8c94U, 0x3d94dc6dbcca6ecdU,
  0xbda52ee5be64c06cU, 0x3e5405193d117540U, 0xbcf935213dd01312U, 0x3d954c4d3d5d404cU,
  0xbdc91b643de61e58U, 0x3e2fdbf43e0ba97bU, 0x3c9e35953d95517aU, 0xbd27dae63db5a02eU,
  0x3da0a189bdc95ebfU, 0x3cae15733cd8cf28U, 0x3ba660d53d3f4997U, 0x3c701ec63e156792U,
  0xbb89d35bbd1432afU, 0xbe33270ebd3d1e45U, 0xbe2e367b3d34d143U, 0x3ca282063ddc3a05U,
  0xbdb9a1bf3d9ea8fcU, 0xbd39b3003ddf1b85U, 0xbd8800b73c8535b7U, 0x3d2a56f43dfabd93U,
  0xbdcb95663c4ab3b0U, 0x3c4e80e83dac606aU, 0xbbc361b4bdc897b5U, 0x3e0541f93da1c281U,
  0x3dabd296bd8d5b75U, 0x3c06c284be013c23U, 0xbcef4511bd8ec9d0U, 0xbe0d7ff43df57f53U,
  0xbe20432abcf2a849U, 0xbd3b36203c7b0eb7U, 0x3dcb4b8f3caafce0U, 0xbd546608bd77b949U,
  0x3d921dcabd53b9a1U, 0xbe06dd3fbc26aa51U, 0x3d54bb88bd801535U, 0xbcd413813afac368U,
  0x3dfb19b23e0d374fU, 0xbc0c72ecbe0d1078U, 0xbcb636c43dcdd5a0U, 0x3d8ae9fcbdac7edbU,
  0xbca74bd43d421b01U, 0xbd0680ccbdbb868bU, 0x3ce0aeec3d0bcdaeU, 0xbd832d7dbd76ebf9U,
  0xbd83ea443e18f0c6U, 0xbe235196bd8cb530U, 0xbd37f506bddc9545U, 0xbd7fa8b4bd3670c4U,
  0xbd2075483d920a3cU, 0xbceb63a73e001fe9U, 0x3d092ff5bde7a23bU, 0xbd63e68b3d92ac53U,
  0x3e20c6793d94ce94U, 0x3d08f95ebdc02811U, 0x3c8f89b3bd61242fU, 0x3d0da8e0bd3c8737U,
  0xbe29bbb0bdbaa528U, 0x3c2acd2b3cf29a2cU, 0xbe0be0033d730aedU, 0xbe1129cabdbd3d25U,
  0xbc913eb2bda06796U, 0x3d9190a13db9b085U, 0xbbe0e2bfbdcde61dU, 0xbdcbe67abe3498f0U,
  0x3dcc8e8f3bc2324bU, 0xbdcec91d3e01cd8eU, 0xbc36dd373d8335cfU, 0x3d004052be0a2a59U,
  0xbdcaca6abdda7677U, 0xbda2370bbd294852U, 0x3d832c70bd512366U, 0xbcd0865ebe18c55dU,
  0x3df1a47a3d872821U, 0x3c35c72e3d901dd7U, 0x3d70f2403d7fceb0U, 0xbd97afe83e202941U,
  0x3e1d78283dbbc195U, 0x3dfa0678bdd29474U, 0xbdc067973ddb1e9eU, 0xbd6896cf3c958b21U,
  0x3ddd45edbd32abb4U, 0xbcc6f27abc0d8d4eU, 0x3cfc61673d7b958bU, 0x3e28cecfbca2a118U,
  0x3cb3f439bcbaa7d4U, 0xbe1ba6f23df3b24eU, 0x3d5ca728be0a6fb4U, 0x3d52af7cbdd6c98eU,
  0x3d5c28d6bd2978eaU, 0x3d8209df3daf137cU, 0xbdfbe2a13e19c493U, 0x3dc2a05e3defbe5dU,
  0xbd80e53c3dfe0013U, 0x3d3caf963dd73ee6U, 0x3e0240883e19a877U, 0xbd822994bd07664fU,
  0x3dc1e47a3c8f9028U, 0xbd5cafcebc5f89ebU, 0xbd0444ee3d62bacbU, 0x3d472e1e3d46b185U,
  0x3d17c024bd29ff34U, 0x3dc85a563c4d685aU, 0xbd9ad30ebdfba02dU, 0x3ddb960cbe041967U,
  0x3c3e3c6cbde85794U, 0xbcd53f6f3b2a6dfdU, 0x3d9909c03e1effe3U, 0xbba46cc83e0b1bcaU,
  0x3d730dec3de04f8fU, 0xbe679b12be0ef725U, 0x3dc56944be1e1a96U, 0x3da241853bf9e5edU,
  0x3d3158b63da5a0c9U, 0x3d0b3977bd6bebd8U, 0x3e0b15453e00f4e0U, 0xbde0a19c380b9d40U,
  0xbcef923a3c8d247bU, 0x3d5167843dd70636U, 0xbad55e983c34202dU, 0x3e7c80183e667379U,
  0xbe3593b5bce0ec53U, 0xbbe771c53e0c025bU, 0x3dfbff52bde2e552U, 0xbe2058fa3daedca9U,
  0xbe1ac20d3da2ba3aU, 0x3dc86a7d3e062125U, 0x3e0a973ebe0998cfU, 0x3dbf2cd13dd586faU,
  0xbdf9143dbd251416U, 0x3e14ed653dce9ba4U, 0xbd3bbac5bd77d231U, 0x3e62d05b3dd0dd9cU,
  0xbe0615e2bd6446efU, 0x3e05fffdbdc901bfU, 0xbe00d2873dd7f754U, 0xbcf71f91be5dad27U,
  0xbe3b3f53be1334deU, 0xbdd31704bd7e0d61U, 0xbd3e411e3d9f3f98U, 0xbcb133aebdbd1979U,
  0x3dc778ff3cadb9c9U, 0x3dc4a6583d19986cU, 0x3c833f1fbd9d6053U, 0xbd0321dbbd35c671U,
  0xbc3fa2323d86dd95U, 0xbd0fb174be0e84daU, 0x3c48bfb63d10ff06U, 0x3d2176433d9e24e0U,
  0x3e615cdc3e1780e1U, 0xbb96c7ba3d372bb9U, 0xbdad5874bd2a6123U, 0x3df6050a3d76ee5cU,
  0x3d9bd570be3a2962U, 0xbdcfad59bd97c89fU, 0xbde4c1bdbcf9ca2aU, 0x3e0050b73da31b89U,
  0x3ccb4726bdc0632cU, 0x3e126cda3daa5a8dU, 0x3c841e49bd479c63U, 0xbd99953dbdb82e6dU,
  0xbda2f363bdae5c6eU, 0x3db5bd323dec3a9cU, 0xbd797933bc9a7b25U, 0x3d4307ec3e02fd63U,
  0x3d9758babddd8bd7U, 0xbd836af6bd689787U, 0xbde7d057bb074c52U, 0x3df64c67be6bad35U,
  0x3da68ef2be050048U, 0x3d675cc43d562d44U, 0x3e37803fbdec4e3eU, 0xbd90f9d03cbbf969U,
  0x3e35fef0bd0a6cc7U, 0x3ce15299bbeb2bf5U, 0xbd81053c3e1b5e86U, 0xbdcdb3cdbdbb50a6U,
  0x3e01b4de3d464180U, 0x3d61b2673e5f54a4U, 0x3e11d33ebda97f84U, 0xbcc3ec42bbdfc10aU,
  0x3d65f1afbe59dde6U, 0x3e2c7d96bdaeece4U, 0xbc813f1abdeb7f9bU, 0xbd078f60bdb39409U,
  0xbd9c8ef73e2aa61aU, 0xbd8b5e8cbd837744U, 0xbd99ebecbcb55e59U, 0xbd862b36bdeb626aU,
  0x3db79a84bd576ff0U, 0xbdb03028bdaac8f5U, 0x3d21cee03e141b9dU, 0xbc1b3652bda6f44bU,
  0xbc193ffbbe572824U, 0xbbb6c5483db31eacU, 0xbcca50273df7c9b3U, 0x3e1f8bd2bda36938U,
  0x3b860b623e0a15a5U, 0x3e1d21b23e0865cbU, 0xbb7202e93d9853bcU, 0xbda750813d82b66bU,
  0xbe37a9edbbfded8fU, 0xbdcc7c48bcb5be4fU, 0x3d96081cbdb15c59U, 0x3c14f448be24dbc1U,
  0x3ca92a11bdf91acdU, 0x3d857fd0be0ad5e4U, 0x3d88e9a9bdcc99c0U, 0x3de7375cbe1c4450U,
  0xbe3e4098bd30dc2dU, 0xbddedae43d81f8e3U, 0xbe06d4e83dd89c48U, 0x3dca82cf3e120511U,
  0xbd1fa3723d66f5e3U, 0xbdbfc438bc716040U, 0xbd6f7c6d3d115964U, 0x3c8fa88c3de04465U,
  0xbcc33b74bd902b66U, 0x3ce69fc13d88da59U, 0x3dcdc2be3d2a454bU, 0x3d12d886bcbd9be3U,
  0x3dfc49ed3db691a3U, 0x3db4bafabe14e2a3U, 0xbca592f6bd884e7bU, 0x3d9496803da48399U,
  0x3c4c73ecbc805fb7U, 0xbe15f66abcb3f861U, 0xbc13dd7e3e34b451U, 0x3e053c103d291a57U,
  0xbd862d803de53bf8U, 0xbdff9fcdbdf3f8f7U, 0x3d812df8bc8efcbeU, 0xbd976785bdf11cd1U,
  0x3e0ff83abd791194U, 0x3c8815c73e309285U, 0xba111b473d149bc0U, 0x3de5696b3e13d991U,
  0x3dab5edd3d2620a9U, 0x3e13bb5abdfff8fbU, 0x3dcd54b7bc80c655U, 0xbd6e62b7bd143a9dU,
  0xbd02cd413d8e20d9U, 0x3d9f8e3c3dd15b3cU, 0x3c45a9b8be1b82efU, 0x3e3268f23c52b462U,
  0xbe2743303d1d9a9cU, 0x3d402d30bd77c1a2U, 0xbd549384bd6c2b06U, 0x3b153579bdae03c8U,
  0x3c24949cbc401457U, 0xbdeeb45ebd1701a8U, 0x3d7da6353db5537eU, 0xbd19c7b9bc82788dU,
  0x3a8b1ed73b3f2c5dU, 0xbdb9dff5bca1ef63U, 0xbe102c613da1f57dU, 0x3e1087b0bb66f60aU,
  0xbdb679543d860053U, 0xbc165c5dbda3cd27U, 0xbc276b6dbd68d386U, 0xbcd5c7cdbce97350U,
  0xbb8eef143e0e0c66U, 0x3d91ce85bded24a1U, 0x3d1b2553bd8830fdU, 0x3b8d9b093dd7cdfbU,
  0xbde68523bc99b498U, 0x3da8d425bcac3aceU, 0x3e08a641be0ac459U, 0x3dba944d3dc4adf1U,
  0x3d9b0a51bd5ff778U, 0x3de7f35bbe2610b1U, 0xbd3d5b383d1ed9b5U, 0xbe0abdf13ca4cfc3U,
  0x3da738d23dae693aU, 0x3d0cb25a3dba5aa8U, 0xbce15709bd80736cU, 0xbd4797683e134735U,
  0x3ddf1eed3dc4bb9cU, 0x3e2ea7363c9f2d42U, 0xbdcf91d1be0fba71U, 0xbe2e52223d5f2838U,
  0x3e0b5054be3673bcU, 0xbdf4e4fd3dec8f55U, 0xbdf93c5a3dfbd080U, 0x3d0b3a3cbc79b059U,
  0x3d2cb3473dadecfaU, 0x3dc30c06bde219b6U, 0xbe1da47a3dab8993U, 0x3da092a5bd753d30U,
  0xbd92e123be1b604eU, 0xbda94039bdaefb15U, 0x3e1179803e000dc2U, 0x3d8ff23a3dc57f9dU,
  0x3c1414c7bd584f97U, 0x3dcec1ac3cdccf3fU, 0xbdd30006bd495d83U, 0x3e41f2d5bdb01192U,
  0xbe0745713d90a08dU, 0xbdcb69433c9b317dU, 0x3de10020be089304U, 0xbd8effe3be4b400bU,
  0xbde22934be278005U, 0x3e02a48abdc4cddfU, 0xbe05159d3d578727U, 0x3d8a0a54bdb68f36U,
  0x3d333291be08bc30U, 0xbc1604453d03f3d3U, 0x3cc47f85bdfe7b43U, 0xbd8071ec3e49ed28U,
  0x3d55f604bb9fc3e5U, 0xbda5d05bbcec686fU, 0x3e10562f3cb9bf5cU, 0xbd5ec6cebdddf89dU,
  0x3e1261de3dade3e4U, 0x3e34a8babd323a71U, 0xbdac67afbd3bb568U, 0x3dfb395fbdde5fbcU,
  0x3e0380ab3d90ee45U, 0xbd5149793decbb88U, 0x3d8d73973d3914d0U, 0x3d13be033db2a1acU,
  0x3dff4f53bcd8d436U, 0xbdf15a163a674882U, 0x3e3b871e3e072c9eU, 0xbdaaea033b882439U,
  0xbdb878b23dc04c36U, 0x3d424b56be205425U, 0xbdf0fe1dbdcc66ddU, 0x3d9925503d63f1a6U,
  0x3e5ea2c8bdc07c93U, 0x3d9daccbbd2798d8U, 0x3d2fbc7fbceb06e1U, 0xbdf350ba3d458bf7U,
  0xbdbd6f86bda36ccdU, 0x3d2f5571bd1aeb30U, 0x3d139ed1bd09a666U, 0xbd424496bdaae434U,
  0x3d7b0870bd20940dU, 0xbdc5584bbd57c707U, 0x3dcfc8a1bd8d6b4aU, 0x3cb5eddc3d482eabU,
  0x3dcc26e43d83f108U, 0xbb9314433e0a373fU, 0xbd1fa82f3dd38665U, 0xbc8664013d86bf53U,
  0x3c32ca4cbe10049aU, 0x3dedd228bdc182f2U, 0xbcda38703da52fbdU, 0x3e07c056bd277051U,
  0x3d79264fbd63e25dU, 0xbc80db6e3de75688U, 0xbe267d763b05d17cU, 0xbe0f2772bdc441e4U,
  0xbb7b486f3d0b0a8aU, 0x3be524583de02353U, 0x3db51c0abcca2794U, 0x3e0bfb15bdb52201U,
  0x3cbf720abdd91ebaU, 0xbcf61e7f3b9dd2e6U, 0xbd80a98f3db89a1cU, 0x3e00c214bba0553aU,
  0xbda2a04bbe316c7dU, 0xbca34c0bbdef1584U, 0xbdb1dd3abde4e6abU, 0x3e00e6a4bd2c2720U,
  0xbdc837183db263a0U, 0xbda000ff3cc904c2U, 0x3a9df2eabbafbe8cU, 0xbda81bf93da1c97fU,
  0x3d9707613bce27d2U, 0x3af5a4563dbe4956U, 0xbd67adedbd58bf04U, 0x3d7e68a6bd822ec2U,
  0x3d2fc7f23e1fd89cU, 0x3e167d0b3e688c1bU, 0xbcb59ba43db2795fU, 0xbe3873cf3e09b192U,
  0xbd406b93bcf69633U, 0x3d7ff89cbde1f71dU, 0x3dde0e8a3d12f4c7U, 0x3cf92514be1eb154U,
  0x3d4acb49bd37284eU, 0x3d443d813dbf0794U, 0xbdc8bc3a3e4caf35U, 0x3b27ea40be08b3beU,
  0x3e2cddf9be1dddf7U, 0x3d2b5b003dde69f7U, 0xbdb100c53ddcb809U, 0x3dab30b2bde05c1fU,
  0x3baab33bbe198db9U, 0x3e04b2b0bde6a447U, 0x3ad54396bda91702U, 0xbd2f97f73c80c35aU,
  0xbbf506263c1d9aebU, 0xbd77d6c3be1a8defU, 0x3d2926ae3dd630c6U, 0x3dfa3c263d39682cU,
  0x3be997a6bd68181dU, 0xbe3940f6bdcb07d5U, 0x3e2aff08bddcc6ccU, 0x3d39c4acbd9e6e89U,
  0x3cc0e06bbd050d20U, 0x3e15d98e3da71bf4U, 0xbd8191613b82d3ddU, 0xbdaf5da9bdbbf9b4U,
  0x3bec60e3bd896d23U, 0x3d6b62863bcc9ff6U, 0xbde140353d88d7c4U, 0x3d7773483cfbef4eU,
  0x3dbdd1153d1945c1U, 0xbdefdde0bd3c069bU, 0xbc9269603c7dbff9U, 0xbdfe9384bd6f9fc7U,
  0xba0cb7be3daff574U, 0x3d673e2e3c87f9afU, 0xbd085607bcbac8abU, 0x3d8f959d3d2c5f44U,
  0x3dd2a56d3d0a0a5bU, 0xbdc83e7d3d459419U, 0xbdd38adabdc513fcU, 0x3d0daf29bdad5626U,
  0x3d236fab3ccd123fU, 0xbd33e34d3c6d3130U, 0xbda54a93be093abaU, 0x3e09179bbd846483U,
  0xbe1f8a143da5fc97U, 0x3d9b2af6bd90bf9eU, 0xbba71b113d8a597eU, 0xbd31bc1bbdb16591U,
  0x3dff0a563d1006f0U, 0x3cf2752c3d3531c6U, 0x3cdc855b3d358640U, 0xbdb19c33bd6b3aa2U,
  0x3dee4889bdcef45aU, 0xbd2198eabb215341U, 0xbd9713e0bddd339eU, 0xbcf830ab3dcaad44U,
  0x3db0aec3bda21075U, 0x3df2c8d63d13ee3cU, 0x3dffc80fbd1bc9aaU, 0x3c903cabbd4c720bU,
  0x3da500963ddb6870U, 0xbddc9cc93dcfa3d6U, 0xbe010fa13d808a99U, 0xbd62bd92bd641795U,
  0xbd9d8d9d3dae1ed6U, 0xbd4079323e216af1U, 0x3d94d71c3dbc18c0U, 0xbd30f5ee3b70c892U,
  0x3b93ddfc3dd5d9b8U, 0x3e0254cebdacb4d5U, 0xbce52b773d8c1b9fU, 0x3c7066cfbd3c2a12U,
  0xbc54ab90bd6134c4U, 0x3c509ff5bcbfd8b2U, 0x3c8456c13d253dc8U, 0x3b83e4fb3c140c79U,
  0xbde01068bd11722dU, 0x3e12e0cebc551acaU, 0xbd59973abd328973U, 0xbd7fa2f93d7229caU,
  0x3d23b7303d3304ecU, 0x3d90760c3cc5fe05U, 0x3d0a3e61bd6b6578U, 0x3d6d66153daf2209U,
  0xbba758de3d2c66f1U, 0x3e337e6d3befcbafU, 0x3dd30d6dbdf26a95U, 0x3e0f53a43db5738eU,
  0xbcba6c01bd1a0db6U, 0xbcd4849d3a8d7224U, 0x3d9a402cbc6eba25U, 0xbdd247413ccc939bU,
  0xbdeec9123c3da92cU, 0x3e052232bd6838c3U, 0x3dc3f6b4bdf0cbd8U, 0xbcd264b1bd7c878aU,
  0xbe00fe92bd6806dbU, 0xbaccc9ee3dc0d976U, 0x3d284bd1bc1e01dbU, 0x3cc712f13d893a94U,
  0x3d26d918bdc9e150U, 0x3dcc1460bdc294f8U, 0x3cc6b5863e14f492U, 0x3e28d7b23d51235fU,
  0x3db44f4fbd9a28eeU, 0x3c9546a03def7b0cU, 0xbdc02a23bd60b75eU, 0x3dc8bde13d6bdcc4U,
  0xb9da35aebc9ff3c9U, 0xbd0d93513c13ef11U, 0x3d3091563de41fd9U, 0xbd9ec8e33c276916U,
  0xbb9c8a73badf98e7U, 0x3c9d12c03e037a53U, 0x3d8200c53cb72cbeU, 0xbc7ee95cbcb6b669U,
  0x3db7c4bc3e0b6741U, 0x3e043dd6bc1d8cc4U, 0x3ce12639bde54ac7U, 0xbd9ed79abdd1592bU,
  0x3dc201dd3e8f2a1fU, 0x3b593bc1bd36c0f1U, 0x3e01906e3da5fdabU, 0xbc850edfbce669d2U,
  0x3be773afbd665753U, 0x3d7c0e323e06dc84U, 0x3e17ed273da8badcU, 0x3de1301e3e0c6ea7U,
  0x3cdf00f7bd8002a7U, 0x3d14a61c3dfb2c8cU, 0x3da32cbc3e17c152U, 0x3e05c6353e136c61U,
  0x3d45dbfb3d86ed9aU, 0xbe3406073debe554U, 0xbdf0ca10bdab4e4fU, 0x3da307c83aa3e604U,
  0x3cb6cf533e2564acU, 0xbd6a3bf1bc533c0eU, 0xbdd4d28c3e016670U, 0xbda2ed4a3da39fd4U,
  0x3da32e683e26f68bU, 0xbe678bb33c9e6be6U, 0x3ddb94bbbc668475U, 0xbbee1dc83e218a9aU,
  0x3c484cba3db54be6U, 0xbdbd78493cbbdc8fU, 0xbcf4babf3df86081U, 0x3e03451b3d38012aU,
  0x3d661b213e2d55a9U, 0x3e1bc5c63e13314fU, 0x3e0d9da8bcff0fbeU, 0x3e042c5d3d851d0bU,
  0x3cd9ee633e5e1d7eU, 0x3c19c5753e45b23eU, 0x3e458f753c9c4a2fU, 0xbd9f07f43df31ad3U,
  0xbd30a793bd9fcf87U, 0xbe05917d3e0b1a2eU, 0xbccb93443d060c42U, 0x3e079ac3bdd398bdU,
  0x3d78a8ec3e3ba21dU, 0xbcb6d20f3d9c4c68U, 0xbdcacbac3e1c1447U, 0x3e501c093dd09f4eU,
  0x3da3a9ed3d9fc31dU, 0xbd7e86ccbdccb7f9U, 0xbcf42905bd223a60U, 0x3d7a21eb3d1050a6U,
  0x3d2c26d03dd201b9U, 0xbc896ad53cc8b95bU, 0xbe0907a33db7880eU, 0x3db6046dbdec5ebbU,
  0x3e4f3f933e1f14f0U, 0xbd651697bdffc5f9U, 0xbc21dac5bd812f61U, 0xbde2cd203df047f6U,
  0x3d37308b3d2d9c0bU, 0x3d8c8ab1bdb99ea0U, 0xbd797b2dbcc00733U, 0x3df94eb7bd5d63b1U,
  0xbd3ce63b3e04ed3cU, 0x3df68f283d812ab0U, 0x3dbadad43df2fee8U, 0xbe3b5aab3cdf29cbU,
  0xbd3d03f03dc76af5U, 0x3e025f333d23e22eU, 0x3e2bcad4bc8bc25fU, 0xbe0344b13e492f61U,
  0x3e344b31bd884f13U, 0xbd82fc203dc58d0cU, 0xbe0cfebb3dd5c1a3U, 0xbd1d0ec83c36f8c1U,
  0x3dd654373daed073U, 0x3e23cd943d352d8cU, 0xbe23872bbdc20273U, 0x3d56995abddfdc8bU,
  0xbcc53ee33db76f64U, 0x3db7b6f83d920272U, 0xbe14da4cbd88a523U, 0xbd1488f6bcb24527U,
  0x3d39e04d3dc1629cU, 0xbd61a68c3e0dea4fU, 0x3d4347073d807183U, 0x3d80c05e3cf799d4U,
  0xbc9594493d8e268aU, 0x3ca29dbfbe132298U, 0x3be702b8bd456d21U, 0xbd5e2ae63d83c74eU,
  0xbdccdf233c44b174U, 0xbdac38183e26a8c0U, 0xbb503fd2bd81d1d5U, 0x3e0794a8bc4ca09cU,
  0x3c53483ebdb761c6U, 0x3cd1896dbde410a0U, 0xbdcb6f323dbca620U, 0x3c48e597bcd63353U,
  0xbdcb95173e695fa5U, 0xbae7fa44be0ed93fU, 0xbdafdd8a3ab9436eU, 0xbd1c7cc03e146b91U,
  0xbd812eeebcd1f1cbU, 0xbc369212bdd7c865U, 0xbc46c9ddbc83eda7U, 0xbd462afbbd237ad9U,
  0xbe2cab133ba43b12U, 0xbd8da7043c8c06f4U, 0xbd570dbdbddaffc2U, 0xbe1a5eb23e1b46b3U,
  0x3de11e09be17dc3cU, 0x3c1645f2bdaf84e7U, 0xbe588444bdabc91aU, 0x3d624233bdcfc914U,
  0x3df937e0be290109U, 0x3ded81aebdb5e6f6U, 0x3e02b63fbd54b88fU, 0xbd74a612ba2395b5U,
  0xbdf868ae3de8459cU, 0xbdbea7af3b9c7a82U, 0x3c99d6793da29072U, 0xbde8b29e3db4fd25U,
  0x3dc3410abd0ba207U, 0xbc9c7ddbbd77dcb5U, 0xbc116b7c3bbe33ecU, 0x3b24adee3ca5ff07U,
  0x3c721fefbd0d9e3bU, 0xbc781289bc456d40U, 0x3d96c7ccbe0acfadU, 0xbaa94c7ebd22db6eU,
  0x3dcf7b3f3dfdb34dU, 0x3dd61de1bdd117abU, 0x3dab0dbdbd0b506bU, 0x3d950e8f3d3f4b05U,
  0x3db3840abb55b780U, 0xbddc49683d6a8c55U, 0x3e25600fbe0d978dU, 0xbc6a02ff3d10fe07U,
  0xbc3a28173db7b804U, 0xbe1ff8283c1d2669U, 0xbd545a9abc89e4f1U, 0xbdbd23183da0f353U,
  0x3dd5e8363d9ea7b0U, 0xbcdbe4ecbdb77133U, 0xbd31bc77be0e4a96U, 0x3d0c1fe03d3a2a60U,
  0xbd2f2e2d3d58a508U, 0x3e093878bdb3d526U, 0x3c467e4d3cdc60fcU, 0x3e2345843e2669e8U,
  0xbdda233d3de17c36U, 0x3df6358cbc82eb18U, 0x3ce3a6cdbd646be5U, 0xbe29e20ebdc018baU,
  0xbd6388dfbcfd3962U, 0xbd11bed03dbe1fd5U, 0xbd5eb2a3bd5b8f2fU, 0x3de279cebce418faU,
  0x3d894e98bd10c12eU, 0xbd257604be1d3796U, 0x3deb221f3d0fb0deU, 0xbcf9009abcde89acU,
  0xbbcb25863cfa4c1eU, 0x3de4f7383ce80651U, 0xbd1527893dae8ecbU, 0xbca83f3cbdf8ff85U,
  0xbd01ea3cbe047045U, 0x3d3049f03d5f0722U, 0x3d4ba29dbe1e0950U, 0x3db8fd38bddf048fU,
  0xbd055496bd8fd0b2U, 0xbe0cd69e3d8ae718U, 0xbce0ec3fbd91c5d8U, 0xbdd2e6ab3d922ba7U,
  0xbd7a74353dce68e5U, 0x3d1dbd45bde18364U, 0x3d8a1bad3d9a146bU, 0xbdbfd15abd9ae0d6U,
  0x3d9b8b22bbd5f75cU, 0x3d896760bce13f57U, 0xbc4992063dafff7bU, 0xbc78c42d3dcd7df0U,
  0xbc9dfa1c3d2d4013U, 0xbc102af03c2d7e52U, 0xbdf110ecbabf89edU, 0x3cddb985be1b47f3U,
  0xbd9b9fe53d622528U, 0x3db2302cbe2d4b07U, 0xbd61daedbd221f1cU, 0xbda44cb1bcd318edU,
  0xbdf223dfbc7a76a8U, 0xbc048540bd540a50U, 0xbd092d0c3d2275a5U, 0xbd9904243e091b38U,
  0xbd7da40b3e07551bU, 0x3c5b89eebdfd55d3U, 0x3d95ba6abd8b403eU, 0xbe10d472bd3e9eb9U,
  0xbe08e57c3da36d5fU, 0xbd18330aba1b1991U, 0xbe0e3d543c2b408cU, 0xbdb912453b8e0c4aU,
  0x3db4fb35bd91b984U, 0xbd582c9cbd46deb0U, 0xbd5a7a37bc21b080U, 0x3e35f91d3e38c0c3U,
  0x3d4db46ebe4b8be1U, 0x3d4c3f7bbd04ce91U, 0xbcc0b3fdbd367bf4U, 0x3e119470be292dc6U,
  0xbdc1360c3dae9140U, 0xbcfdba52be05e7e1U, 0x3cbaf073bd9931ddU, 0xbcea4c8bbdcaa888U,
  0x3daf695ebda3a06fU, 0xbe22f2dbbcc463b2U, 0x3b33fefb3c0cd168U, 0x3c372de5bdb7c848U,
  0x3d04ac013d71556aU, 0x3dcc4803bc742d6cU, 0x3e16290d3d479556U, 0x3cd92364bb73830eU,
  0xbc971e433dc04a09U, 0x3dfc38d5bdda4d2dU, 0xbe40b9913cbf204aU, 0x3dc83be63df923dbU,
  0xbd9e71ec3dcd3f38U, 0xbe0a650ebdce3d20U, 0xbc32aa7b3bf2d369U, 0x3dd05e803cfb964aU,
  0x3d59d9253dc0411bU, 0xbc237253be38991aU, 0x3e14b7debde72fe8U, 0xbc8a8f073e0b8ca6U,
  0xbd84ee82bd2c0671U, 0xbd5066e73e1917dcU, 0xbdb04b3c3dc28975U, 0x3e17c231bd306fbcU,
  0xbdee5bec3d730f0fU, 0xbdb19293bbceb353U, 0x3d434aa13e143b3cU, 0x3da12f0c3d91734eU,
  0xbdd863c73e62d284U, 0xbdaf567dbd0ea5edU, 0x3c44e818bb33f8f5U, 0xbe3657243d4ac781U,
  0xbdd5028f3d9c56e4U, 0x3c3893a8be340317U, 0x3b0e3478bd4ab3f4U, 0xbd0ab1803b89d57dU,
  0x3d7a1b833b943ca3U, 0x3c83584c3d88e6b6U, 0xbbb6fe603df2cce9U, 0x3c11cd1e3d30a1f1U,
  0x3c80823a3ace11a2U, 0x3d8d646abd9dd49eU, 0xbd21884f3d95e3b3U, 0x3c311c2bbd6ca685U,
  0xbc3cfc503d3ac069U, 0xbd3e7a5fbe073919U, 0x3e1c03123be00c36U, 0x3e16ee973c8808c4U,
  0xbd8d5a7e3de25f4cU, 0xbda9d4803ad21588U, 0x3e3ea190be06f4d6U, 0x3d6b86973d273e91U,
  0x3ba67242bd32eac4U, 0x3d180dc63d909d9cU, 0x3d41e3ccbbcdd6aaU, 0xbe0cb1fe3c4191e5U,
  0x3d955088bdc1da9bU, 0xbd9e12b7bc463fb3U, 0x3dcae3783d3a3c82U, 0xbd1e12c93cd09300U,
  0x3d2844c7bcaddcb9U, 0xbd1658133d7214f7U, 0x3d97468dbe1ecc47U, 0xbdd077fcbd3f3b54U,
  0x3e0d55eebdccc7b0U, 0x3da521f13cfb9a5cU, 0x3ddab30a3de4219eU, 0xbcb4a7db3e45b8f4U,
  0x3dc8ff5e3de03c0aU, 0x3dd56700bd9f57a7U, 0xbe0088d63e0217c8U, 0x3d94c53b3d8c6322U,
  0x3c825fc4bd5f187cU, 0x3d0b53e1bb6fe73aU, 0xbcda6eb53cfff7bdU, 0xbd7362ca3ceed65dU,
  0xbd9435bd3db226b4U, 0xbd06aa7cbd80bc3fU, 0xbdf59a9f3da284d8U, 0x3c7ce3bf3d4ff176U,
  0xbdbf11a0bcb824aaU, 0xbdac73973d3c0c89U, 0x3db170df3dadec83U, 0x3d9e7f5fbcba57e6U,
  0x3da8f7d53d18247fU, 0xbe0ee1f6bd252d04U, 0x3d4c20f23b5afb21U, 0xbd558856bddbf3ecU,
  0x3d1b4726bdff93edU, 0x3d1ba35bbdc7fa2bU, 0xbbabc73fbe0e694fU, 0xbdd50a1c3d07377fU,
  0xbdd014903d063637U, 0xbd96f56c3d7731f9U, 0xbd913282bd7b6898U, 0xbd6a270f3e0e7241U,
  0xbda472fd3e174c19U, 0xbda250f3bcd61490U, 0x3d81f4063d4c177dU, 0xbdf1750b3cc6db66U,
  0x3d332826bd47e4e2U, 0x3dc2eb793cfd2175U, 0x3d03dd803df33363U, 0x3d403b5a3ddba361U,
  0x3d3976f3bb0cd06aU, 0x3dbfeea93dfc79d4U, 0xbda64e533dc0a7a1U, 0x3e072e843d8dc557U,
  0x3d947ee2bc472b65U, 0x3d7e7242bd4dff43U, 0xbde9bd883d9d34f7U, 0xbd8eecfa3d162e93U,
  0xbca7f7dabdc1e3f3U, 0xbdec4e7b3d08b393U, 0xbd935c33bdcfcd59U, 0xbd788fdcbde545c2U,
  0x3db4d8523cc21adfU, 0x3dd27bd4bdabcb94U, 0x3dbde2053c7da170U, 0x3ced71b8be010b59U,
  0xbd80cdb63ce4e173U, 0x3dc436303de9eb0dU, 0x3d6b00bcbe1af368U, 0x3d829a993d55d270U,
  0xbde408f4bdb6c9e3U, 0xbd039f4f3e1e94bbU, 0xbe0c985bbcb7332aU, 0x3def03f33d12bf07U,
  0x3d3dccc13de235d1U, 0xbe096aea3d953bc8U, 0x3c5665ae3ad617aeU, 0x3da0512c3e1df87eU,
  0xbd9472c7bcfd8b52U, 0x3e19278d3d036177U, 0xbc38d1f13e07f7aeU, 0x3bb51ed6bdb9dd14U,
  0xbcc1ec843cf87b17U, 0x3d088f7ebdcc0665U, 0x3dbca60fbe1a09faU, 0xba90abe93db93aa5U,
  0x3d9f9690bd4351a0U, 0x3d971220bc175e3cU, 0xbcf479d03e0d887aU, 0xbdaa9109bdbe9564U,
  0x3d65df473daa99adU, 0x3de9b2443b4a5213U, 0xbd547d483cc0950dU, 0xbd2dde00be186e69U,
  0xbd919f1c3ddab909U, 0x3d8a1c853d3572d9U, 0xbdb753bf3e1dec01U, 0xbdc3eb37bd4f0443U,
  0xbda021be3d5d6a7aU, 0xbd4b3db5bd32f243U, 0xbd9923abbd72de31U, 0xbd32afc43de7bdd3U,
  0xbe1c8c6dbd40da9fU, 0xbd5419a83e09de3cU, 0xbd4526d13da841f4U, 0x3b8b1d803de5d6a8U,
  0x3d9ae8f73da3f304U, 0xbc9826efbd4142c9U, 0x3d938e45bdb68212U, 0xbdb2c8ef3e1c882aU,
  0x3c8bdb26be048a72U, 0x3d7dee443ddbb614U, 0x3d76bb0abdc25ca1U, 0xbd692c2b3df4d1eeU,
  0x3d229a73bca79fa9U, 0xbdc2f2073c130b73U, 0xbd3ccf3dbe1997bcU, 0x3dc9a8843de1c11fU,
  0xbd1173103d969a19U, 0x3d8cd4e9bcdf92e1U, 0xbddcccef3e04e62aU, 0x3d4f31a73caad66bU,
  0x3db62625be0d2a5dU, 0xbc47061f3ba9ad09U, 0x3d6c43babc8c6d63U, 0xbd32b58ebd724cdfU,
  0x3dde78d0bdb6962dU, 0xbd33a166bdd56e08U, 0x3ca447ecbe1c9d8bU, 0xbbefb54f3db8bf5cU,
  0xbd64c543bd038f27U, 0xbd323ee8bdc98397U, 0x3dd9d0cf3df1a853U, 0x3b1fb8983e04c189U,
  0xbd210554bbcf0db2U, 0xbd80292cbd87b181U, 0xbc0d7f43bcf7e4b8U, 0x3daaf16cbcbee395U,
  0xbd2e47c1bd48a148U, 0x3d279441bd895822U, 0xbd2210ae3c39c99cU, 0x3c849a18bd0be788U,
  0x3e11377a3dcafffaU, 0xbd323cca3d91dfedU, 0xbc1629e83dc293e8U, 0x3d3c07193d8e6bf7U,
  0x3d707b0dbc660fb3U, 0xbc8c5c8cbda06227U, 0x3d988aa13c2080a9U, 0xbcb1df4bbb45fcd4U,
  0xbc205aeb3cf5ccc0U, 0xbd33ff393d27c06bU, 0xbd0ecf823cbe3803U, 0x3dafbff13cd9b3e9U,
  0xbdd683d6bd1601d3U, 0xbe054db6bcd83671U, 0x3ce8c2a93d703fddU, 0x3d5191b23de2ef63U,
  0x3c6061aebdc7697bU, 0xbd979a8e3d930fbcU, 0xbdd634efbcf3f195U, 0x3c9bcae83d48a814U,
  0xbd7fff433d81cf96U, 0xbd44eb88bcdf15a3U, 0xbd4f0f23bdbbd68bU, 0xbdd7f8863cf6d112U,
  0xbd1e1700bd89ac00U, 0x3d8a15e4bd7537dbU, 0xbd3e10c4bdee0a75U, 0x3e02233f3d027080U,
  0xbdc76c65be06b2bdU, 0x3b6f6ca33cbc2110U, 0x3e115e0e3dbf0d46U, 0x3dac2e6b3d850b4fU,
  0xbc9187d9bdd1fc6eU, 0xbd3456603d1fc0d1U, 0xbd0a4d21bd0070d0U, 0xbdbb7d8c3d13adaaU,
  0x3daafb11bdd9d094U, 0xbdd31545bdc04c7dU, 0xbd1875fdbdb89276U, 0x3e137799bc9faa0bU,
  0xbd57f892bd8adb08U, 0xbd57a582bde04076U, 0xbe0936493d593ac1U, 0x3d9fd47b3b7a0c04U,
  0xbc5e70c03d69aad1U, 0xbd0670db3d466951U, 0x3da124e0bceddd93U, 0xbd1de4df3e108d21U,
  0x3cbf3018bca11b67U, 0x3da2e8123d318e31U, 0xbc9948aabe4855b7U, 0xbd353ddcbe030f9eU,
  0x3cfc8ca9bddc93deU, 0x3d92f547bdc6308eU, 0xbd92ea513d1980f1U, 0x3d4c07fc3ddb2d92U,
  0xbc8900ae3b664d98U, 0x3df134233c02eda4U, 0xbe0597c6bde88ee7U, 0xbb03acd63bafb341U,
  0xbd91b8513e04c8fdU, 0xbd8f132d3dd26e6fU, 0x3e0260cabdba7da4U, 0x3dd35169bcf13f32U,
  0xbd3ee908bd33b799U, 0x3b1c8d44bdf43f5aU, 0xba82832b3d434d8aU, 0xbd3ba9153dc5018aU,
  0x3d4e81353d6a22b0U, 0x3d0424ad3b9f300aU, 0xbe0080aebdc9d599U, 0xbd58e00bbe09574dU,
  0x3ddf4db6bd8ae32aU, 0xbcee397e3e146ca9U, 0xbd833772bd0215acU, 0x3dad7684bd8f8badU,
  0x3e001fb2bce2e336U, 0xbd48f9bcbd961f60U, 0x3d33ed93bdf6b422U, 0xbe21b1babb03b67aU,
  0xbd1c2fa83df01aceU, 0x3ddbb040bc9cc385U, 0x3ce4d0bbbd19f1c2U, 0xbdb9c4bdbd63f275U,
  0x3d50be963d959056U, 0x3e0051f0bd0e0463U, 0x3c0d3197be062e73U, 0xbc81138cbcd9b47eU,
  0xbe2b2292be0b7126U, 0xbcc5eeeb3d805d8dU, 0xbdc5a41f3e148508U, 0x3dae96633d29c8b4U,
  0x3d0ae09a3dc71068U, 0xbdc97ad1bdd0d95bU, 0x3dc637ac3d59b0d0U, 0x3d638e563d207e91U,
  0xbcc69dc43dd52947U, 0xbdd273093d761244U, 0x3d3e43bfbddaa30dU, 0xbdd5ca7e3d9b1975U,
  0x3bd760dc3dbcde86U, 0xbd5d8b61bb22c420U, 0xbde8f1423d2c9635U, 0x3bc9c831bdb19658U,
  0x3db4a099bdbbe3e5U, 0xbe14e1e1bb2cb532U, 0xbdb471483e0cd6c9U, 0x3d7d1ba8bdc0edf7U,
  0xbdac8b33bd1f7168U, 0xbd5d9884bdd35640U, 0xbe07cd44bde01f51U, 0x3ca75b3cbd4e0935U,
  0xbdd1a1bf3cfa91ffU, 0x3d2657cf3d2e539eU, 0xbd7c785b3dfa7b06U, 0xbd790a253c8fe6f6U,
  0x3c1eac483dbcd502U, 0x3dd11780be0f2265U, 0xbd465c3e3dcf1669U, 0x3cc5f8debbec9373U,
  0x3cb1fba13cab1cf5U, 0x3c82d3933d59961aU, 0x3d10da133e2d5e0dU, 0xbd89f7813e083209U,
  0x3c3c78aa3e0084aaU, 0xbdb6a28ebe30b6a9U, 0xbdcba79f3d5ca5e4U, 0x3da5ec8abd6006e8U,
  0x3d8a6f0c3d553f04U, 0x3db9dd983d81176cU, 0x3e0971b6be05addbU, 0x3d2dae7abcf9dea3U,
  0xbd91f6b53c1b9808U, 0xbd9b95933d65930aU, 0xbc0582bf3da2f62fU, 0x3dd2723dbe1a67c4U,
  0xbdb2677bbb1915c8U, 0xbd4db859bc854212U, 0x3d2fe65c3d256f15U, 0x3cc132cfbd16f94cU,
  0x3deb6c133a004303U, 0x3c97ef3cbe0bb3b4U, 0x3c8059e13ceebe1bU, 0xbdbf04263d1dcf57U,
  0x3e0c90093df2fe40U, 0xbde66e633d9ed794U, 0xbe1ce0933dc0a436U, 0x3dcd22153d61166fU,
  0xbdaddde73da2f2a2U, 0x3ce80c073ca9d66bU, 0xbdcf7d813d17ba55U, 0x3d4f64d23dc1f710U,
  0xbdc67ae5bd89a1edU, 0x3dacbb19bc70152dU, 0xbcc8748f3d166c6aU, 0xbdde8338bb85b41dU,
  0x3d714c03bccfc979U, 0xbd79d7bd3c052582U, 0x3d9aa80bbdb56ef8U, 0xbe0381a63dc55f36U,
  0xbb947b30bde5849aU, 0xbd53baae3e12f4baU, 0xbcf805953cc1e5d4U, 0x3da6f523bd68af43U,
  0x3d0b5e85be0810caU, 0xbda5f6143d39dc99U, 0x3e01395bbcedd039U, 0xbda6b3093d43289bU,
  0x3d4845f43e2865ecU, 0xbc8d5c1cbd473336U, 0x3ac5b5d63d9dc86fU, 0x3dd5ad533ab621faU,
  0x3d23efa5bd05debcU, 0x3d93d39fbe1565f7U, 0x3e073e7bbd627afaU, 0x3e14abc33bb5f655U,
  0x3d37535d3db0d0f5U, 0x3d8cb92a3dea3159U, 0xbd90bd0fbd2c3f5fU, 0x3ddf39333dfecdd9U,
  0x3d8a2a69bdb2c23eU, 0xbd8ca8bf3de780e4U, 0xbcc57d853e10adfbU, 0x3d79c487bd652b4dU,
  0xbdbe16e93e421b14U, 0xbd7ccc9cbd69f44eU, 0x3cd0ddc03df11af6U, 0x3d6a3884bd913168U,
  0xbe163feb3ca50d76U, 0xbddfbe583d9e8fbbU, 0xbdbc0db93d09de77U, 0xbce90267bdc68a72U,
  0xbd8eb55bbe18940bU, 0x3ca997f33e0312c7U, 0x3db19eaf3e176069U, 0x3e0c425bbdd00b48U,
  0x3cfcc93c3c80b4a1U, 0xbdd86efa3d843be8U, 0x3dfb0d983e038faaU, 0x3dbed23e3d5d18a0U,
  0xbc961d1dbd10cb74U, 0x3decf42e3de901f4U, 0xbdcafd7b3c80cd68U, 0x3e04e8cdbd6e67b6U,
  0x3de312d03cfd2099U, 0x3d194ef9bcdb4e3eU, 0x3d9f2b30bde144b4U, 0xbcf7e8eabdfa94eaU,
